
/**
  ******************************************************************************
  * @file    n4ced_v02_data.c
  * @author  AST Embedded Analytics Research Platform
  * @date    Fri Feb 25 16:37:58 2022
  * @brief   AI Tool Automatic Code Generator for Embedded NN computing
  ******************************************************************************
  * @attention
  *
  * Copyright (c) 2021 STMicroelectronics.
  * All rights reserved.
  *
  * This software is licensed under terms that can be found in the LICENSE file
  * in the root directory of this software component.
  * If no LICENSE file comes with this software, it is provided AS-IS.
  ******************************************************************************
  */
#include "n4ced_v02_data.h"
#include "ai_platform_interface.h"

AI_API_DECLARE_BEGIN

AI_ALIGNED(32)
const ai_u64 s_n4ced_v02_n4ced_v02_weights_array_u64[ 92780 ] = {
  0xbe7362a5be4c66c4U, 0x3d6f7661be2820c0U, 0x3d3ae5a73e966eafU, 0xbb0bba9b3e10b622U,
  0xbd7c3e133e0893c3U, 0x3e50018c3d050394U, 0x3e7e86cd3e733ff1U, 0xbdd026a43e55df4cU,
  0xbe05f9fcbd7e26f8U, 0x3d4c8cf73d716fddU, 0xbbc3c4303ebfeb1aU, 0x3e26fbad3dbcc03cU,
  0x3a2fcae4bd47526dU, 0x3da695e53e8f6740U, 0xbe2788453e965197U, 0xbdee38363e20f41dU,
  0xbcf53f733dcda56cU, 0x3d9fef173cf67da7U, 0x3d6e8570bdda7349U, 0x3dbaf8d7be0ac8a4U,
  0x3e24e581be95b103U, 0x3e911ddf3b9a96b9U, 0x3d7f03e2bd1af582U, 0x3d0666593ea8316aU,
  0x3c436cb03e09fd87U, 0xbd6abebbbc9e5e4aU, 0xbc79b9a8be4b9d1eU, 0x3d97e9d63e58c1b0U,
  0xbeba1c62be57c4c5U, 0x3e84ec3d3d454626U, 0xbd96535a3e3ece0bU, 0x3e4a5a95be001f2fU,
  0x3ead1b2a3eaffdc8U, 0xbe806b4f3c91797aU, 0xbe36c725bdd9058dU, 0xbe522948bd3c7300U,
  0x3bc8d0fcbe821a0dU, 0xbda9a138bd921bc4U, 0xbddc9ce2be0169d1U, 0x3db8e8ab3eedbe32U,
  0x3de99f6d3e3070ceU, 0x3d98b3febd14e095U, 0xbe61aede3e77dae4U, 0x3e9737ffbe26b8b6U,
  0xbe39d843bdc03147U, 0xbd7086d43e02f6d4U, 0xbebad394bdb98d6bU, 0x3e45b42bbd0cf1d7U,
  0x3e42b06b3e54dd6dU, 0x3dab14e8be1a5c58U, 0x3e3f9a9bbdaa24d3U, 0xbd3e466e3bce2171U,
  0xbd7206a43e3fe3e3U, 0x3cf9ebc7bcdef233U, 0x3e3f55f43d9cdb9aU, 0x3dd1666a3c4e0798U,
  0x3c06ad493e33f66dU, 0xbdfd548dbe6175c8U, 0x3d19b23ebeabd11cU, 0x3e1f32eebe800abdU,
  0xbe5913e73c0f96e8U, 0x3ddc76433cdec913U, 0x3e90825abe1bdbb0U, 0x3eb384c53d931cd1U,
  0x3d9787b43edc1be2U, 0x3eab31923e8de3c1U, 0x3e07503d3cf6a661U, 0xbd8992f63dc44e33U,
  0xbda2b45ebdbd32b6U, 0x3e11369f3d973211U, 0x3db1db613dd130f0U, 0x3d9352f33e28732fU,
  0x3d6a9c14be5ea94aU, 0xbe55ab1abc7a5c53U, 0xbdcdb96ebdb2e488U, 0xbdf9525abe9934ceU,
  0x3e1c8f18be0cf48eU, 0x3d3dadf1bdbd0857U, 0x3e12137f3e04329dU, 0x3e59678e3e54b3aaU,
  0x3bd9b381bd375aebU, 0x3e82d4bdbe9797cbU, 0x3e8264d73df89c8aU, 0xbd7105e4be4d38a9U,
  0x3dbb6c1ebe17ffedU, 0xbd8623943d882813U, 0xbd193284bdba330dU, 0x3e9434de3e1747a8U,
  0xbe02462e3f3240bbU, 0xbecaded9be1d3083U, 0xbdbb88babe6598e0U, 0xbe3d56333e9478ceU,
  0x3ed1b232bc35890fU, 0xbdaea765be00adf7U, 0xbe01509c3e682be5U, 0xbd3cee6fbe4d6254U,
  0x3dca996dbb8033f1U, 0xbc34b8d2be578993U, 0xbd31bb7dbe017808U, 0xbdce919dbd0891b7U,
  0x3ea78929bd314327U, 0x3db956713b797ca6U, 0x3e0b2b1d3eee58ceU, 0xbdb000193e4cb0ecU,
  0x3d184eecbe3a6057U, 0xbd965b923e0a3096U, 0xbd67a13b3ea11b32U, 0x3d301038be5bdffdU,
  0x3c864bb7bccc2ba1U, 0x3d510c973d871de3U, 0x3cd101be3d123493U, 0xbd7ff28dbca7354aU,
  0x3e20a5103b9f59c7U, 0xbc4b154fbc92132eU, 0xbdbdcdfdbd0ae2fbU, 0x3c8f4526be4ba9f7U,
  0x3da9303f3e6f165aU, 0xbe01c97a3d97674cU, 0x3e25b0e9bdbdc45fU, 0xbd89c3b9be72f007U,
  0xbd17843b3da55cbeU, 0xbc95488abd21570cU, 0x3c8d5053bd0939bfU, 0xbdaaeb53bcf68fd1U,
  0x3cbeda883c332028U, 0x3d2f6a013d6445d6U, 0x3ae4e0103dcd8a35U, 0x3d8b1c4cbdcb1352U,
  0x3d0875883ce51516U, 0x3da58bdebc140f5aU, 0x3cbe57b7bd299a3eU, 0x3d3e2b98bd4f6ba4U,
  0x3d91cf163d09e28aU, 0xbd60c898bdd199b1U, 0x3a4621c33ba40efcU, 0xbdc6a4413d7d13a4U,
  0x3d76056f3d8972ceU, 0x3cae0adcbc39be6dU, 0xbdad2a673d9b9d10U, 0xbceafc5abdeffa07U,
  0xbc6dd2753db9be58U, 0xbd86084bbdac6ad4U, 0x3dba53d93d95fbf1U, 0xbd8b4919bd113c67U,
  0x3c9c5f293d76b82fU, 0xbdb72c643d591ddeU, 0x3d6463ecbccf286dU, 0xbd9858dd3d5396d0U,
  0xbdab8bddbda3243eU, 0xbd092fccbdc13fbfU, 0x3d48bfcbbdac6a60U, 0xbdb9e4e9bd2842bfU,
  0xbd8aa94c3da68af4U, 0x3d4824533d8bebd0U, 0x3d8195303cea0145U, 0x3af0c530bc577101U,
  0x3bc518f5bcb1aa34U, 0xbdd20e72bd8e8632U, 0xbd9ca8c6bca6b74eU, 0xbd98143cbc124f40U,
  0x3cdb67f93d3f6034U, 0x3ba3c7f9bc3118b4U, 0xbdbc7b473d8ef3baU, 0x3d47e487bdc34eb0U,
  0x3bce123a3d906bf8U, 0xbdb475e4bda108acU, 0xbb378defbd3ac088U, 0xbd76b626bc6b849dU,
  0xbdcdd4bcbdc33840U, 0xbbf94d773d810be6U, 0xbcda041bbd279d97U, 0x3d63c784bc53c5e0U,
  0x3d184d343d77ee92U, 0xbd8defda3d78a5d7U, 0x3d822cdfbd37cbfbU, 0xbd24f984bdbb8330U,
  0xbd4183023d111478U, 0xbb16c7bb3d3ee150U, 0xbd6af70e3a4a49c4U, 0x3dac8d253d6639f7U,
  0x3dae871dbd92cfa1U, 0x3d93dca3bd13b8c7U, 0x3da98c323ccc2911U, 0xbd961ab63d94ca7dU,
  0xbcb3d91abb7aa65eU, 0x3cfbfee23bb9b1c2U, 0x3da942933cb23590U, 0x3d89ebd6bd546d4eU,
  0xbd7576ae3c241b94U, 0xbb6a41a2bd4c338eU, 0xbdb34579bd0d7801U, 0x3d1a1b2d3c04d845U,
  0x3ca502b8bdc363d6U, 0xbca56a9bbddbc27fU, 0xbcdefa9abd361f84U, 0xbb992ed5bd2c0123U,
  0x3dde6aadbc1b89feU, 0xbc8d30ca3d071013U, 0xbd5490d63d6132f3U, 0xbd481c4cbcd08bfeU,
  0x3c8bf7e63dabb310U, 0xbcf20481bd1adb0dU, 0x3e0bd7c03cd7fc5aU, 0x3ccca017bd76fd8dU,
  0xbdd5f01bbd8ece93U, 0xbc8bbc8ebdb7b1f3U, 0x3da0238ebac63d5fU, 0x3d824b61bd842a58U,
  0x3d4b1ba2bd241d96U, 0x3cee92ecbdd6f737U, 0xbdd19cc7bd2e26e5U, 0xbdbf1f2ebd2d727aU,
  0xbdcd43ae3de9a4feU, 0xbdc43e203cbb96e3U, 0x3dc42a9bbc30c789U, 0x3dc2d6b0bdcd2499U,
  0xbd3443f73d000020U, 0xbd5fcf5dbd453e24U, 0x3cdfc582bda9927aU, 0x3db6c8a9bd8968bdU,
  0xbd0ab578bda7f278U, 0xbcf76d413d17f831U, 0x3d0cfb38bb3bb5fbU, 0x3d57d8e4bd0559f9U,
  0xbd45540aba164cffU, 0xbd873493bd080e88U, 0x3cd127b5bd9296e9U, 0x3d56055e3d77069bU,
  0x3db3b907bd8dc28aU, 0xbdbc4f4a3daf408bU, 0x3daced943d6dd249U, 0xbd3a9b283c01897aU,
  0x3d8ac7ad3da59204U, 0xbda229b5bdf0f328U, 0x3d2f80703da9052fU, 0xbce329dcbd964b7bU,
  0xbdacd189bcd07209U, 0x3d11d6573cda39fcU, 0x3d9e5fa33d0dda91U, 0x3da83832bdabcbdbU,
  0xbc92c397bd92e4c0U, 0x3b99e8b4bc43a881U, 0xbc907feabc949e85U, 0xbd0bb658bda0ab8fU,
  0xbd81c260bcb13c92U, 0xbd57e0a3bd955542U, 0xbb403f393e00330aU, 0xbdafa68cbd3631eaU,
  0x3db4504c3cc7b1f5U, 0x3db2153bbd42e994U, 0xbd34c3c73caf2161U, 0x3cfb54623d54b401U,
  0x3dd77b6ebd4cc7b9U, 0xbe01ede93d2b38b1U, 0x3d9012423d0b8466U, 0xbd8e8a32bdceba90U,
  0x3d9bf220bcbdffbeU, 0xbd234caabdf7f167U, 0xbd8dee9fbcdbe980U, 0x3d4bea153b9815c8U,
  0x3d19141fbd946f18U, 0x3e0d40793bfbbf9cU, 0x3b0dd261bc932031U, 0x3df47a70bc9b7923U,
  0x3d0ad7523a4307c0U, 0xbcfda525bd9779ceU, 0x3d89d5fd3d07c37bU, 0xbdd6531fbdaa510cU,
  0x3db06a6d3d0a6bfeU, 0xbd1fb8a1bccfad80U, 0xbceea2d5bd110bebU, 0x3ce20068bd77525cU,
  0x3d79d104bcff1ca5U, 0xbd9375733d12f703U, 0x3d70de92bdc50319U, 0xbd972cf53d37fc97U,
  0x3ca49ef4bd2e4b13U, 0x3c7543c03cc82ecbU, 0xbc476ee23cf63ca0U, 0xbdb42747bddfadc7U,
  0x3dafcb7b3dc73543U, 0x3d5785cebde1aba9U, 0xbcd5f4583d1b1a0eU, 0xbd546e4a3d8a17f4U,
  0xbc6fd74cbc83f293U, 0xbd88354fbcd989a9U, 0x3d82bf8dbd6d70e8U, 0x3dbcdba6bcc0f107U,
  0x3d5d19d6bc1e82dcU, 0xbde72749bdadaeabU, 0xbc0ea15f3b4fdb7fU, 0x3b8f048ebd7c92bdU,
  0x3d45c5d2bd97ae11U, 0xbd5ae3a5be070b3dU, 0x3d905d543d6232a4U, 0xbdce63133d842fcbU,
  0xbded2188bd02ca2bU, 0xbd8040d1bda3a28bU, 0x3dbcacb2bcc6d8c7U, 0xbd65f6a83a541409U,
  0x3d3d65573d98e62eU, 0x3d2db0223d3448dfU, 0x3dda85b2bce908aaU, 0xbd7c2706bdc7a72cU,
  0x3da4badfbdd2575aU, 0x3dcb7f2bbd446f0dU, 0x3c8265563dd72ea2U, 0x3c2a92583d9b1552U,
  0x3ca581f23db849adU, 0x3dbb18b53d8c1b16U, 0xbd9feb79bab0b3bfU, 0x3db171053bbc53c6U,
  0x3c77ccb0bd00a1e8U, 0xbc66589ebcdcf5c1U, 0xbd9eabd3bd98d113U, 0x3cefceebbdf12e4dU,
  0x3de444703dac2627U, 0xbd1294f1bdd04c64U, 0xbda20a583d850b00U, 0xbdd7eda43cfeeb29U,
  0x3db6515f3d4470deU, 0x3b756ab5bda523e3U, 0xbdb83b09b91c42baU, 0xbbcc7f37bcd49da9U,
  0x3d79bfd33d67f8a8U, 0xbdc7d11cbcfdd583U, 0x3d915ca1bdbf303bU, 0x3d9e6a0bbcc6febdU,
  0xbdade6a43d6c2d25U, 0x3ce26a5fbdf4f98bU, 0xbd172d3fbd8f4b71U, 0x3d9433353d0bc631U,
  0xbdb02bdd3d942307U, 0x3e092b16bd70c81bU, 0xbdbf25cdbdce4fb3U, 0x3da9972f3c06cda9U,
  0x3d5b6b19bd9114d6U, 0x3d86df833dc389ffU, 0x3d8d2864bc0cac29U, 0x3c1eb598bd8db04fU,
  0x3db0da1bbdaaa4b5U, 0xbb844065bda0aa38U, 0x3d095edc3d6b5a8cU, 0x3d72ae023d31e1d0U,
  0x3db69eff3d15287eU, 0xbd8394603d9e9a49U, 0xbd865d0c3b86cf0bU, 0xbcf570573dd47c58U,
  0xbc8540733d83bda7U, 0x3cdbab0dbd85b0afU, 0x3c42e0323c0a0517U, 0x3d59ecec3c86fbd2U,
  0x3d9640313b8d809eU, 0xbdcc0bb13dbc329aU, 0x3d82d5dd3d713965U, 0x3d8454b0bd0a42c4U,
  0xbc91711f3d8cbca0U, 0xbd0d1eacbbc5b141U, 0x3d4c9f883d783e88U, 0xbdb0c669bd85f6f6U,
  0xbc38627d3d2a80d2U, 0x3d9d12ee3d0222aaU, 0x3d818e773bbe021cU, 0xbdcc38ea3d9f609eU,
  0x3c89409cbd912970U, 0xbd5a454cbd9beca8U, 0xbda543cfbd720c35U, 0x3dc9c742bd0b4d01U,
  0xbcfade7fbcc18b47U, 0x3ca8d662bdb40dc5U, 0x3d42a00cbc782202U, 0x3c81e24f3da73723U,
  0xbd8ba7ec3d71be60U, 0xbae25f563d1c4664U, 0x3d02754a3d2d86efU, 0x3d7f4dc2bc14b8c6U,
  0xbd9c9d43bd8ad0a0U, 0x3afec59dbb8faf39U, 0xbda181793c9fbe50U, 0xbd2d6fdb3c12d3bfU,
  0x3ce55b693c2a4887U, 0xbd4883283d4a3e46U, 0xbdc83e11bd9b4b62U, 0xbd151779bc62a4d6U,
  0xbd8fc50f3d463ca0U, 0xbd37e964bdae55bfU, 0xbc52c1b0bc77325aU, 0x3d2f5b23bd53edf6U,
  0x3d37d49b3ae5213fU, 0x3d95df13bda01421U, 0xbdb1dd96bdb00bf5U, 0xbd604090bd8b2affU,
  0xbca4b7ff3ce1811bU, 0xbc8b953cbd5bada1U, 0x3d5a1ab63d01695eU, 0xbdca50d7bda9f7d1U,
  0x3d576aa5bd86a2c7U, 0xbda445a53bc55f80U, 0x3dc9e6f13c4782a4U, 0xbc71908f3d5d8a83U,
  0x3c9d90503d1df757U, 0x3d26a2f8bd4b896eU, 0xbcf648d9bd0003dfU, 0x3d122ee13c08b8eaU,
  0x3d6a3170bcd17312U, 0x3c8a9f52bd138b09U, 0x3c484472bc8801aeU, 0xbc22ff57bdbbcb71U,
  0xbd871da5bd462fd2U, 0x3dbc38453d85fd35U, 0x3db257673d988709U, 0xbd07bef7bd04178bU,
  0x3daf6389bb923ab5U, 0x3d31b8a8bd6cc66fU, 0xbc7e5c07bc8a67ccU, 0x3d8b03cabcabb3f8U,
  0xbdc0e2b9bd5e7f06U, 0xbccd5f7fbdc9004bU, 0xbc697e8fbd9c5007U, 0xbdcd264ebd8e2ed9U,
  0x3db5793639d58678U, 0xbd81d7d7bdb6c34bU, 0x3cd3275abd71758cU, 0xbc82e8ff3d0eaceeU,
  0xbdac27b0bcdddb70U, 0xbd84e1d23da23740U, 0x3cfb17793d8825caU, 0xbdc48136bbb8c931U,
  0x3c8e23e63b998912U, 0x3d7026edbd734bb7U, 0xbda17076bd5960a6U, 0xbd9a3920bd0d7a40U,
  0xbd02cbb5bda005cbU, 0xbc90181d3d9c92e6U, 0xbd06e414bcd6f94bU, 0x3ce8ab7cbd88faf3U,
  0xbd657cafbd82265bU, 0x3c43847a3aa8f507U, 0xbd346c2b3da1bb50U, 0x3da357a33d4dc1eaU,
  0x3c34e407bd3eb35bU, 0x3d1bcaf3bc2d326fU, 0xbd16de9c3d86b811U, 0xbda9cb263d6cb628U,
  0xbcc5d3c43ae60bcdU, 0x3b02ab25bd6df18cU, 0x3d8a13d7bc3733dcU, 0xbd7606c5bd21ff94U,
  0x3ce76ffb3be5dea3U, 0x3d9554e0bdaf8618U, 0xbdc0d7b7bdc8255aU, 0xbd2271ae3e0018a6U,
  0x3da22180bd87e6e9U, 0xbd9cc6eebd824b02U, 0xbdc0cd413d16735fU, 0x3d3570a43db30036U,
  0xbd3a82febdba7655U, 0x3d2ee8f1bc9c9d0eU, 0xbc7ad609bc722027U, 0xbd90ed1abd973af6U,
  0xbd3bb4a8bdb8935fU, 0xbda91ceabc0ca5d8U, 0xbdbcfd1fbddfbd11U, 0x3d16dc06bd7cb93fU,
  0xbdaf02dfbd530545U, 0x3c7c7d973c7c9fb2U, 0xbdac547e3d42be12U, 0xbd11d837bbbd8161U,
  0xbc01c6613ca3a7abU, 0xbb5afa703d3c899cU, 0xbda437063d498b6eU, 0xbd4ccfadbd6862b4U,
  0x3b1851b2bd95f567U, 0x3b65d9a4bd2c4556U, 0x3d001ad63cd03717U, 0x3d2bd360bcc6ae16U,
  0x3d8f91233d8bdb1dU, 0xbd95b628bdca4f2bU, 0xbd775b38bcd9c653U, 0xbddab75f3cdfab6eU,
  0x3d6edfa6bd408d97U, 0x3d8c80a13d544192U, 0x3d5534bf3ce38154U, 0x3c5922053ca5f7f9U,
  0x3c7d27d83cc0d1fbU, 0xbd9c769d3da17ec4U, 0x3d5ae0f9bd75ee60U, 0xbd16fb6b3cbe3832U,
  0x3b952449bcdfe4a5U, 0xbd5ca9a1bd512bbfU, 0x3d5247923dbd0e99U, 0x3d5910033d141d11U,
  0x3a9f0490bd30d976U, 0xbd0829ae3db579f8U, 0xbd249da7bca65629U, 0x3d1724a83bdb00b0U,
  0x3ba83101bd87de8cU, 0xbdae8b9d3da6fbf7U, 0x3da17bf8bdc65236U, 0xbce1dcc9bca9723bU,
  0x3d9c460ebd8a07e7U, 0x3c25f8aabd6e5b60U, 0x3d6cedcdbd376b5bU, 0xbdbfe4853d67a233U,
  0xbd65eee63b84e17aU, 0x3cd636633da1d551U, 0xbd040bf23d83a5c3U, 0x3c0b90b13d864a5fU,
  0xbcd60409bdbfa519U, 0x3d34d829bd71893bU, 0xbd97244b3c6d4deeU, 0xba92040e3deb92b9U,
  0xbce4155fbca420f8U, 0xbcdd3f5a3da1ef16U, 0xbcdde5d63da2713eU, 0x3cabe4153d9808b0U,
  0x3d0ba9bebcb7c8e3U, 0x3bbfce033dbd8ddfU, 0xbdb2ead5bd3922c1U, 0xbd1588783da9d2a8U,
  0x3d795b55bb411d89U, 0x3d40e1e9bb890604U, 0xbd975de53d29aed2U, 0x3d247ab63dac27bfU,
  0xbc82f7ebbdca2f39U, 0xbce0f04dbd036718U, 0x3d8d10ce3d3272ddU, 0xbdd10d683dabbd7bU,
  0xbc2ec2f6bcbed4f6U, 0x3d1006b6bd781654U, 0xb9ce2f6e3d3a2e7dU, 0x3d07cca5bd519bb8U,
  0x3ca5350f3a99d627U, 0x3c61127e3db49637U, 0x3c1b58a23ca72ca5U, 0xbd403a0f3d0aa2c3U,
  0x3d9c4ab1bde5bab1U, 0xbd4aa0fdbb99f74bU, 0xbdd662f7bbbe7e82U, 0xbced8b3d3da0bc82U,
  0xbd036f39bc9314b9U, 0x3b2e5d34bc8f4d73U, 0x3ca945d03cef3e7eU, 0xbd31ddb13dad3d4fU,
  0x3d40a9af3caa8bf0U, 0x3d073e66bdc201bcU, 0xbd91acdbbda50b5fU, 0x3d96673f3d4a9ab3U,
  0xbdc2366cbdd690f8U, 0x3dd3d82abd26bdfaU, 0x3d5549c53da7cee0U, 0xbd7a1fb33c7005bcU,
  0xbc4a02b03d51f02dU, 0x3d38adc3bdffee6dU, 0xbc880b9b3db7b852U, 0xbdf68df6bda7333eU,
  0xbccd59533c7685e9U, 0xbd4b78653bd55c66U, 0x3dc70f54bd29f35eU, 0xbd3c25d3be0c041bU,
  0xbd8cc5273d8a100bU, 0xbd8294a1bd82ebf6U, 0x3dd74ce13d1fa963U, 0x3d8b14c5bd155e9aU,
  0x3cb128733dce1fc2U, 0xbd741f993ce3272fU, 0xbd26ca0f3d59c743U, 0xbcae6305bdc07747U,
  0x3b0e15fe3dcc1f2bU, 0x3be03cfebda60756U, 0xbd6058f1bd13ba59U, 0xbd8419d8bde42f8fU,
  0x3d8f679fbc46f802U, 0xbc881a483ce00ea4U, 0xb9ec3659bd90287fU, 0x3d96947ebdc69df4U,
  0xbca309ffbd0a249bU, 0xba2c417b3d5b7289U, 0xbd119843bd8c1331U, 0x3d6e9160bd70da06U,
  0xbd4613f23dcc1930U, 0x3cdb8e54bd8d9c13U, 0x3d70b953bdae90a1U, 0xbc276a5abe0a3b00U,
  0x3d70c3a33c07bce3U, 0xbd3cacbabdc4fc07U, 0x3d14073f3d6f95b9U, 0x3daff470bc32141dU,
  0xbd83539cbdc56ae7U, 0x3d3f82a63daae313U, 0xbba80eaa3d91e859U, 0x3be8a7e6bda9c835U,
  0xbd6db4c93cd7cce4U, 0xbd22019abd329d70U, 0x3cea9a3bbd7de47dU, 0x3d7b8c3e3cd0301cU,
  0x3d8110e7bd4ddc52U, 0xbd3e76803d3b641eU, 0xbcf5f5423d3b1e8fU, 0x3d95f6713c2a2bbbU,
  0x3d2d97583d4961feU, 0xbda86fd03d424339U, 0xbd99dea8bdaa3387U, 0xbd5e09183cd2576bU,
  0x3db1e0cebcf55d89U, 0xbd61bbdd3d144d67U, 0xbd8dc8d23d5a8965U, 0xbdbba9d33c64f8d8U,
  0xbc8a5afebcc0bf25U, 0x3cc9adc5bd9bed48U, 0xbd352b09bd686a2eU, 0xbad17eddbd000c4dU,
  0xbca3dfc2bd07d8fbU, 0xbd54a19a3d08852aU, 0x3d0125683cd68135U, 0xbcfde8073d659117U,
  0x3c10fd5abd494d01U, 0xbd17d9a5bd93a3f8U, 0xbd5f90aabc3a1e37U, 0xbcbb08a4bcfd1ed2U,
  0x3dac03eebd2baba1U, 0xbda5da24bd052200U, 0xbd9bad743c2e5803U, 0x3d946fe03d7d2398U,
  0xbdcfe495bc0d1b4aU, 0x3db49fe93da7835bU, 0x3d9cfc763cfd2979U, 0xbdad3612bd87a44fU,
  0x3d51121d3d4e33e8U, 0xbd2d91adbce60165U, 0x3c338f693bf9cccfU, 0x3c22a672bce5325eU,
  0xbdc85f44bc8e3993U, 0xbc8cf7fdbcec15d3U, 0xbdc4171a3c7ed01aU, 0xbca6acc23dc199ecU,
  0x3d10d4c9bdb9f5eaU, 0x3dbd4e403d27faffU, 0x3d65011f3dcebcdaU, 0xbd2fc4b73d0a6853U,
  0xbd1763fd3d90ce3cU, 0x3d57d1cf3dc345dfU, 0xbd1422f43d2e05a9U, 0x3d57ab63bceff654U,
  0x3db00042bd9b23f8U, 0xbda0e212bd18504eU, 0xbbf3a6c0bd13e87eU, 0x3d855bec3db1f51dU,
  0x3c7697f2bd381b78U, 0xbd6905a23d962712U, 0x3d9bca143d82d150U, 0xbde4b0643d05cabeU,
  0xbd3f28e13da55e72U, 0x3d4aa1fabd753744U, 0xbbb9c02bbda2f711U, 0x3deaa9c53ddbee08U,
  0xbd98ad71bda8cf85U, 0xbdbfc1b23dbcdd13U, 0x3cab0656bd5cefcbU, 0xbda2ca653e253d2aU,
  0xbe00e61fbd6a322eU, 0xbda689e2be077141U, 0xbd91128a3d98bba0U, 0xbc5c05863b95f611U,
  0x3dbf56ec3d6fcb0dU, 0xbc81a31dbca14678U, 0x3d88f908bde05712U, 0x3d4206e4be093e57U,
  0xbd3b5f0e3ca7e0caU, 0xbd6a4e11bdd19cd1U, 0x3dcf7adfbdc391f0U, 0xbd6367403d971590U,
  0x3d2d83f6bc2b026fU, 0xbd28bbdfbdaa463cU, 0xbd733e093d5b393dU, 0x3d5e07a63d62d0a1U,
  0xba8dc4913daf19bdU, 0x3d9df963bc0f52f1U, 0xbc7b59d4bdd4ff68U, 0x3c9dcb13bc496e03U,
  0xbc866e59bd8308cdU, 0xbd49932abd9d7d71U, 0xbb7b48493dcf0258U, 0xbd9e3adc3d636214U,
  0x3d7e47a23cd8ec76U, 0x3df47de03c29508aU, 0x3cbd027fbda785c4U, 0x3d62f07ebcda3befU,
  0x3dbc0856bdd7a516U, 0xbd6e7e49bd84b309U, 0xbd0a6ce4bd8f2d7bU, 0xbd3665823d103ae0U,
  0x3d93b9933c608516U, 0x3d919caabd4115ceU, 0x3d37bb3e3e0ca47fU, 0xbd52de64bd78f476U,
  0x3dc0b52d3deec532U, 0xba042562bcacc30cU, 0xbd01d7f1bd441feeU, 0xbd25a7e8bcfebdb4U,
  0xbd96b6dd3db65d4eU, 0xbce8f180bd71c113U, 0x3da60cd8bc696164U, 0xbc05af8e3dda786aU,
  0xbcfb1b94be049d8fU, 0x3e22322dbd429246U, 0x3d895cb63e1ed084U, 0x3cc810733db1f042U,
  0x3d714b00bd0a869dU, 0xbba47b35bce16015U, 0xbd541d47bd7a4669U, 0xbdd0e210bcff11b0U,
  0x3dac19f4bc9f6371U, 0xbd820be93db6c6f6U, 0xbddf2300bdeeaaffU, 0xbcd23af0bd8dfda4U,
  0xbc58b068bdd1b1d9U, 0xbd9aadac3d427030U, 0xbc6a6ebdbcdce324U, 0xbc36a07c3df35a9fU,
  0xbcb2df13be10e52fU, 0x3dd0ef1abdb35bd5U, 0xba4f0d68bda8cfbcU, 0x3cbfa00d3d0c52c9U,
  0x3c37f224bdda4393U, 0xbdb635cb3d15129eU, 0x3b86822c3d262fffU, 0xbd8b1378bde3dea7U,
  0xbd42d7593de9df72U, 0xba2637fd3c3fb7ccU, 0xbcd5d071bcefea26U, 0xbda79952be107d2dU,
  0x3dc58a3c3c969074U, 0x3c44af633da6d3acU, 0x3dc78ca9bde65c8cU, 0x3e2608d13c52ba32U,
  0x3d9403a3bc872a58U, 0xbc25254ebc201037U, 0xbd4a37cb3e16b769U, 0xbd249f323dada23eU,
  0xbdf7dda63cefb56bU, 0x3de367fd3d800f60U, 0xbc80cea5bc5bb358U, 0x3cd26f8e3cae0f5eU,
  0xbd8510543c55fe99U, 0x3ded4e30bdbab23fU, 0x3d102af7bd365634U, 0x3e1711033dcb201dU,
  0xbd794f2abda6e2a7U, 0x3da243173d3bbefeU, 0xbdb6c9ed39989060U, 0xbbbd39793c38e297U,
  0xb99c37233d298671U, 0x3caf6ff0bda5cb8aU, 0xbc93c2aebc90a533U, 0xbd85f910bd9247d7U,
  0x3cc4d4573dd52d21U, 0xbd938443bcecd645U, 0xbd80fbd63de679cfU, 0xbdb124a63c456ae1U,
  0xbc7cdb9c3e0f5e2bU, 0xbd64c5513ca5b844U, 0xbcbaef69bd161e3aU, 0xbd43d1bdbaefa19cU,
  0x3d84242b3dadf362U, 0xbdbf2aa0bdb5113fU, 0x3d8d55b9bc7f820cU, 0xbdcb142e3df580ecU,
  0xbcccf9583c691cfaU, 0x3dd1f8fc3cf4b03cU, 0xbd7efc0b3dd5396aU, 0xbd59175c3da8216dU,
  0x3d87b7253c8c1eebU, 0x3d24f18cbd642ddcU, 0x3d5bb8933d1ca7fbU, 0xbd98ba1bbc623bfbU,
  0x3d1755c9bd93f5deU, 0xbd3a67a93dab4037U, 0xbd3ea4f03dc03175U, 0xbda1afc23b3e2979U,
  0xbd3d1e523dc7d683U, 0xbd10bd30bd3d223cU, 0x3d8084bf3d8ecbe8U, 0xbbe7fee3bcc290deU,
  0x3d2def1ebd9557c8U, 0xbd89eba53c30abbaU, 0x3d93cdd3bc7d6a26U, 0xba8a1efdbd3d3f4aU,
  0x3d99989c3a7e063aU, 0xbb9a322a3cb57067U, 0xbc7ce5d3bcfd3cc1U, 0xbd2c8c52bcd334e2U,
  0xbd0a8999bd324533U, 0xbd3a43493d913284U, 0xbd2bfa5bbd7b2cc2U, 0xbd870a563cf30aa3U,
  0xbd96dce1bd93635aU, 0x3d8d8a96bd61e58cU, 0xbd85ace2bdc0665fU, 0x3d71d2c8bdae9967U,
  0xbccf2a353d7408adU, 0xbd04d8cfbca24d0eU, 0xbd65e86b3d8b6a82U, 0xbc23c635baba28b0U,
  0x3dc4e7cb3dc7b5f9U, 0xbd0f313abdb88a27U, 0xbd425f853d3ceb65U, 0x3dc0b2053d1494c2U,
  0xb89e5e403c5fa210U, 0x3d0e7afc3c3a7fb8U, 0x3bc888f3bc4d5852U, 0xbcc4a9193cb28a4bU,
  0xbc0663d33c5ae6c9U, 0x3d51bca63db6abc0U, 0x3d457e5abc11c442U, 0xbd72abf1bd0d5f05U,
  0x3bd83b4a3c64a210U, 0x3c69a58139078f0eU, 0x3d77ebc83d71a722U, 0xbdab78ae3a48a5b0U,
  0x3b965eac3d5489c1U, 0xbc5e22393d0c208fU, 0x3d4051acbd5a4a72U, 0x3c5fcc183ccd3d20U,
  0xbd9518f7bc69a600U, 0xbd2f3fdbbc1301eeU, 0xbcc19e733d248311U, 0xbcc304cebc7c1f70U,
  0x3d37be81bd982e1eU, 0x3d82db283d8e7401U, 0xbcf0b2be3c748bd6U, 0xbc0dc1363ceea240U,
  0x3de7a5463c25ea9cU, 0xbcc5d8693d9c3e0fU, 0xbd9fc1f63d66bd8bU, 0xbd051117bda8bcd5U,
  0x3d44aaa1bd91b4d6U, 0x3c9b26d6bd9617f2U, 0x3ce429fabd510c9fU, 0x3c83424d3b5a61e7U,
  0xbcce1d86bd10976cU, 0x3dbc83613c965cbaU, 0xbd7003083d397303U, 0xbcf8f9363dc26cb8U,
  0xbd6745d3bd83c8b6U, 0xbd212d253dead4c6U, 0xbd29ab73bd095dd4U, 0xbd24409abdd07b9eU,
  0xbd9587193b135713U, 0xbd0b5fecbb45983aU, 0x3cc3c748bd693984U, 0x3d3dddefbd419880U,
  0xbc520bfebdd77035U, 0x3d819a0cbd96ca90U, 0x3da6ae023d05726bU, 0x3d48454e3dd94721U,
  0x3da4fbe3bcd9091cU, 0x3db9638e3dea5813U, 0x3c14ad013d12ce61U, 0x3da6683c3d3cae15U,
  0x3d9f83c6bda8cf01U, 0x3daa3e98bd858d80U, 0x3d7913943da13ebdU, 0x3d074fe63b4a1fa2U,
  0xbdda07c63d425975U, 0x3d1f37c5bdbc639aU, 0xbda4be913db0eba2U, 0xbdbc1e633d845719U,
  0xbcf9dea6bd138c17U, 0x3da802aebc9ea9b1U, 0xbd1decdbbdc33aa0U, 0xbd67b4cabd8ed70fU,
  0x3d5dd784bd708affU, 0xbc57d85f3da831dbU, 0xbdbf16e9bcce551fU, 0x3d463c6e3d86b5aaU,
  0xbd5f7129bdae0e3dU, 0xbd93fada3dc0bd49U, 0xbc96d97cbd3d1571U, 0x3dc5e659bd7e714cU,
  0x3ceb7da4bc920675U, 0x3dd0c3b93d29a361U, 0x3ce86e86bd7eb0f7U, 0xbc988fbfbd8e2f17U,
  0xbb698ecdbd11d7c2U, 0xbcf5da833cc2247cU, 0xbda3830c3dc1d68eU, 0x3d7582873d006d95U,
  0xbba3ff42bce9aa37U, 0xbaffcc903cb17c5fU, 0x3d88577fbd3ca949U, 0x3d74a048bda61ed9U,
  0x3e094f473cb36ee5U, 0x3ca106083d48b66aU, 0x3ddde820bd564c1bU, 0xbc076dc43d92a8fdU,
  0xbd4cc7693cffac41U, 0x3cdf2cebbdd323d6U, 0x3cfcdcf33c931a23U, 0xbd80a64a3d82f8a7U,
  0x3d417d2d3d79d1d0U, 0xbdbd51ec3df8eb39U, 0x3d88d6b8bc375c3fU, 0x3dd15dd0bd1c83e3U,
  0xbb519324bd47fa8dU, 0x3e032223bc2f5dc2U, 0x3c4dfec23da1cd28U, 0x3d36b8723dc94df7U,
  0x3da0e8d93cb2e032U, 0x3d6ab7cf3cb606adU, 0x3c3e47de3e1d28e6U, 0xbbe5580bbc8e3c1aU,
  0xbd48a8f13ca34eccU, 0xbd7a9c94bd2bfe27U, 0x3d95721cbd822ab6U, 0xbddb6adebd29c4c3U,
  0xbdd014d93ddbef01U, 0xbd880667bd963ea3U, 0x3b086e5c3d602bdfU, 0x3ce984443c6fc914U,
  0xbcef653bbd0ea958U, 0x3d7bf52e3d45d3c3U, 0xbda5bef13d78232aU, 0x3d0b5bb03db161bfU,
  0xbd87310d3c0c1e04U, 0xbdc60247ba6906c2U, 0xbd8c0825bda9a8c7U, 0xbca45ee2bd69ccfbU,
  0xbca0ce45bd9a97cbU, 0x3dad5d98bc442c0eU, 0x3de0797b3de4b59fU, 0xbd48afcf3dad885aU,
  0x3a9d6490bd91ca6aU, 0x3d64e8323d34a4ebU, 0x3c184b203d1070c1U, 0xbbe33101bbf63274U,
  0xbc60b2213cdbba0aU, 0xbdf73da2bd7cc4c8U, 0x3b1fe7ba3d7d9c0fU, 0xbd06f5383d2e6638U,
  0xbd0f1b183c735d09U, 0x3da13ced3d707186U, 0x3d45529fbd486dffU, 0x3c4694d23d7d6defU,
  0x3d724536bdaaaf4dU, 0x3dd6f05bbdf88727U, 0xbd342f49bc7929d8U, 0x3d1ffabf3e102d5fU,
  0x3cc51d5ebceeead4U, 0x3c3b4c25bd7dbc7eU, 0x3b849b393d835e35U, 0xbdad05303d0d7ec6U,
  0x3c20fe573d5c5bd4U, 0x3dbc79f4bd761eb3U, 0x3cde21b8ba8731a5U, 0x3d228096bd6d766eU,
  0x3d871871bcafb7eeU, 0xbd396fb9bdd13bc6U, 0xbdd735a03da76e7bU, 0x3d9d98c13e0cd76cU,
  0xbc8917113c79bb14U, 0xbd018156bc9c72adU, 0xbdd1d772bd885b8aU, 0xbd15b34ebd94d6eeU,
  0xbdbb6c4f3ca69fbeU, 0xbd0316c4bcf2d462U, 0x3d8f46c03d6141faU, 0xbdbda2363d8c2461U,
  0xbd130c48bd04f80dU, 0xbd59012bbdb3941dU, 0xbdd1d8f4bd2cf496U, 0x3c4508acbd7b0746U,
  0x3d4d8df1bdb9132dU, 0xbdeccbe7bd84b68dU, 0xbca44d98bd076a61U, 0xbdc0b3f8bdd3b190U,
  0xbd9a7324bde01743U, 0x3d850c483d0c6677U, 0xbd85786bbd28d6ebU, 0xbdab5355bd76aa62U,
  0xbd071f0dbdd5db02U, 0xbd7870aabdd1c330U, 0x3d0cd2943d80b274U, 0x3d42a48abbda21e0U,
  0xbcc2e701bd829e34U, 0xbd856397bd188202U, 0xbd05510d3dc4e3e3U, 0xbc5117f93da9f8b5U,
  0x3cc2d0d63d971ae4U, 0x3de9873fbc399395U, 0x3cb551e63c8bb22bU, 0x3da6130a3dcb3737U,
  0xbb9566a63d21942bU, 0x3d8ad114bce99a27U, 0xbdb47af33e03e992U, 0x3dfdfd2ebd532d28U,
  0x3dcf5441bd9e72d8U, 0x3d7bc48c3da0718cU, 0x3d0ae6643dc5a958U, 0x3d8a013e3db75ee1U,
  0x3b0151bbbb0f1293U, 0xbd8bf9e93d02eb35U, 0xbd0b59553c04d877U, 0x3c14c8f1bd51fb3cU,
  0x3b5f5d1abd8bd773U, 0x3c8498873da28855U, 0x3cc2a84e3b77080fU, 0x3d049d243cc35af5U,
  0x3d31c7503d89ef6eU, 0xbcc1757ebd7a3343U, 0xbd9423533d7c0384U, 0xbb9931d13d951069U,
  0xbd6eef3f3d05797eU, 0xbd869591bda3f0a4U, 0x3da6cc24bcc07cedU, 0xbd04fac0bddeb5c7U,
  0x3d5d50febb9fc846U, 0x3d9719343d187ca8U, 0xbd98315a3c1a9bf4U, 0xbcce88be3d808198U,
  0x3d568185bcfec381U, 0x3cfd91893de5ba1bU, 0xbdc70b083c475969U, 0x3d5cc0593bc7e9eeU,
  0xbd419632bc0f470bU, 0x3d8969cd3d7d866dU, 0x3dd3c0e5bdb7453aU, 0xbb39c8903dac7f7dU,
  0x3daab230bd585d7cU, 0x3d6a237abbe2c662U, 0xbcce54fd3debbc37U, 0x3cb8ae19bd8c0d28U,
  0x3d5d5bff3d6610d9U, 0xbd5d3a9dbd1f4225U, 0xbd4ae11b3cd82fe5U, 0xbd7983ccbcf8cfe8U,
  0x3d90c582bd9ca2b2U, 0xbd80fba13d6e1dbcU, 0x3d3b2d7b3d30e38eU, 0xbd3843f13dbd1d83U,
  0x3e03907a3beffebbU, 0xbd8e85d43ca10febU, 0xbd77f9c53ca045cbU, 0x3ca63e8dbd194d16U,
  0x3bdce987bd898ecfU, 0xbda70330bd05b946U, 0x3d6362dfbd7b80d5U, 0xbdd4ad97bd9dfba2U,
  0x3c937394bdb0ffeeU, 0xbd1b13cc3b1a9041U, 0x3c0117b73d9d02abU, 0xbda9c1283ab3f864U,
  0x3d11d2fd3c90a4e4U, 0xbd78f076bdde3fd5U, 0x3daeea18bdd12529U, 0x3dc096d6bd475565U,
  0xbd45f5ea3c800691U, 0xbdc4583e3dddb992U, 0xbd4748b13ca48554U, 0xbd375036bd9c202bU,
  0xbc25d34f3ba86592U, 0xbda7bbb9bce782e3U, 0x3e001537bc91e5dfU, 0xbdb9814cbdb9e8f0U,
  0xbd0593483d31537bU, 0x3be16c403d86b88fU, 0xbd9457ef3dd4761dU, 0x3da85443bda6a9b7U,
  0xbbd81d69bd9b840cU, 0x3d94577bbb9f1e12U, 0xbd4f6d50bd3256acU, 0x3c0a6e87bcc81029U,
  0x3de005633d34331dU, 0xbd1844713c43c5e9U, 0xbcfc209cbc2d30b8U, 0x3db6259e3d8bcdadU,
  0x3dc94a9fbd7382c0U, 0xbcb8ddef3d8c2084U, 0x3d88c634baed6afeU, 0xbd2e84de3db662fcU,
  0xbc22527fbda17462U, 0x3d0125a3bce13706U, 0x3d9335afbd4a6526U, 0xbd6857373d458519U,
  0xbb1121b8bd094765U, 0xbcb56c123c9d40ebU, 0x3b05e3433d5719c8U, 0x3daabbfabdbf4255U,
  0xbbb632a8bd1c3605U, 0xbd4407bfbd6433a9U, 0xbd2a88a53c64e3e5U, 0xbd7ee7903dbdee23U,
  0xbd9e45b2bd12f169U, 0xbc7e857f3c2239b2U, 0x3ca4f6553deaa888U, 0x3d66ef2bbc312d16U,
  0x3ca0fcf43e0696dbU, 0x3c52f4cc3e0744caU, 0xbd014ffcbd03049dU, 0x3d6f0300be00ff09U,
  0xbd06af18bdc7876aU, 0xbd329d043ddc6a46U, 0xbc5bcca43d85cb24U, 0xbdddd076bd111534U,
  0xbd001be3bcff6cf3U, 0x3de1a653bcc7234dU, 0x3dd44dbc3dbcda07U, 0x3dd55cb53dacdaecU,
  0x3a4af18f3cfe91b9U, 0x3d6ceee23ced1db7U, 0xbdd25257bbbf6932U, 0xbc22adf13cc9a5f2U,
  0xbdb15d67bdd9f198U, 0x3d999cd53cdcb452U, 0x3d7d59aebd8c2670U, 0x3d335f3dbde07a5bU,
  0xbd150d463df7452eU, 0xbc14c96abd56b73eU, 0x3ddd25da3d7f68c6U, 0x3e060ef9babdcdb7U,
  0xbd8b03133cd82448U, 0x3c834866bcc5cb2fU, 0x3d61ec643d438d88U, 0xbd468878bdb9e697U,
  0xba887aa3be0fe364U, 0x3d7952a33d66a48eU, 0x3d77866d3bb859cbU, 0xbca6d5b2bd81d1d0U,
  0xbd93f6343ddf20e7U, 0x3d8688173d3ab4b9U, 0xbd2d379b3d82d21aU, 0x3d1047343de4638eU,
  0x3d5f7987bcddcda6U, 0x3d8b64ff3cb7a6ceU, 0xbd804f93bd1ddda9U, 0xbd69f6153bff490aU,
  0x3d4137d33d3631b6U, 0xbd85d3c53dc175e9U, 0x3da07deebd1ece29U, 0xbc8cbdf33c0b8946U,
  0xbda9af7d3da0557fU, 0x3d9144f33d201772U, 0x3c34d0393d689e9cU, 0x3da6520b3dccef20U,
  0x3d8414aabca23b80U, 0xbcefe253bd050a7fU, 0xbccd9255bdce1434U, 0x3d16c0f0be16a1a6U,
  0xbde64da9bd8af769U, 0xbd30caabbc26d6a2U, 0xbd20f5113cc352ceU, 0x3da2f77ebd884259U,
  0xbbd8d816bd0b9ac1U, 0x3d541bfdbc9a29b1U, 0x3da51a553da5a1b3U, 0x3a429fe43e0e7727U,
  0xbcfcdb9cbc79f635U, 0x3d9aabaf3dd523f8U, 0xbd36917dbdf3d549U, 0xbc86f5dcbdbed229U,
  0x3af19883bdbcb28bU, 0x3cacc154bca7ee76U, 0xbd59bd303db282cfU, 0xbc8da61abd682643U,
  0x3c2a50a6bd1efcd0U, 0xbd0148333c012d92U, 0xbce5777b3d8f4cdcU, 0xbda2e02c3c8c632cU,
  0xbda2e3b23d825695U, 0x3c879e81bba7e64dU, 0x3db95e103d62573bU, 0x3d4acb43bddae220U,
  0xbd21db88bdbbadb2U, 0x3d8521183de25b40U, 0xbd9ddc9abcb61279U, 0x3c8ac550bdafc5bbU,
  0xbdb7def1bda39b93U, 0xbd1ebf2abda298b7U, 0x3d8e21f23dc6558bU, 0x3d74f58cbcfbe583U,
  0xbcc5e9c53d9542f7U, 0x3db49de23da15e33U, 0x3d61de37bd68da33U, 0x3d098e293c96245dU,
  0xbd85fec3bdb25c5aU, 0x3c9c3fa23db1815eU, 0xbccf425cbd023b3eU, 0x3c15996ebdd778d0U,
  0x3de52c56bd85339cU, 0x3e0a5a8dbddce8c5U, 0x3dc92fdabd696a1dU, 0x3db71f9f3d58684cU,
  0xbc61ca16bcb75ed5U, 0x3d8073cabc8a24b3U, 0xbc59da9b3c4a5ed4U, 0xbc27a659bd90ecdbU,
  0xbae2c576bd98da94U, 0x3dc1982b3da98f25U, 0x3db03c15bdb5a5a6U, 0xbcedd5b33aeccddbU,
  0xbdc08cfb3ca5f4b9U, 0xbd9686d83b0edbadU, 0x3d13c80b3dca2cefU, 0x3cb7c0bf3d202aefU,
  0x3d16c9093dbb9766U, 0x3d5ad6a9bd9af274U, 0xbda117eabdb04ee8U, 0xbd256c2a3d59f408U,
  0xbd2bfb89bd9ceda3U, 0xbd361140bd567783U, 0x3d8d9b903d711438U, 0xbd3942373d955874U,
  0xbcd2962e3dccba60U, 0xbd05393d3dc0b660U, 0xbdabd8dbbd9f9d2cU, 0xbda847703dbe1031U,
  0xbdb0ae833ce9be9bU, 0xbd4d87ef3a9660daU, 0xbc84beb13d0d2accU, 0x3c3c17bcbda786c5U,
  0xbd8e6b9eba1d684dU, 0x3cd36163bd35fa55U, 0xbd43a88a3d94c113U, 0xbd8bc527bc2548a7U,
  0xbdbdf17e3d2e16cfU, 0x3da5c6f4bd3eaf7dU, 0xbd652179bd86bf66U, 0xbca58757bcbce44eU,
  0xbd4d20c3bd4c5802U, 0xbbaf7e08bcf4f64aU, 0x3d7bb4a6bcc7c592U, 0x3dbeaa82bcde7d93U,
  0x3d9e916c3d2f8cb5U, 0x3d3516e13da10ff1U, 0xbb5a2deebd3f9a55U, 0xbd69205d3cad6f13U,
  0xbd39398c3cabb74bU, 0xbcde468bbd93fdffU, 0xbd84aaa03d41d39bU, 0x3da8573ebce49bc3U,
  0x3d992f35bca0f8e1U, 0xbd7c9c38bcde39bcU, 0xbd81f3643cc7e1d1U, 0x3da5cb403dd61229U,
  0xbdb150e7bdd6b1dbU, 0xbdbb8b18bc842092U, 0xbcc02db23dba8090U, 0xbd4567fd3cdcdd58U,
  0xbcc486a93d7a79d0U, 0xbd9335d43da4baf9U, 0x3d916ffd3d93f3a3U, 0xbb7ad94a3da0dbd1U,
  0xbcfd8c8abdad06f7U, 0x3d9b8dea3d9409c0U, 0xbc6f6285bd265035U, 0x3acad9b5bd5bcc6cU,
  0x3cbcf90d3d4342c1U, 0xbd4ad40d3d1ad60fU, 0x3c5c09bfbd7cbc21U, 0x3d61ae98bd96f0edU,
  0xbda14eb43d8efe17U, 0x3db03a04bd87a91dU, 0x3dcd295c3d85668bU, 0x3cae26a4ba183e76U,
  0xbd9a3f4dbdb7d4a7U, 0xbc0f0c15bdcb9823U, 0xbcf60e0cbd6bcc54U, 0xbd2240743dbb077cU,
  0x3d05834fbd8f3a1fU, 0x3d9fca40bdaf0089U, 0xbd6e6a273ca935fcU, 0xbdc0084e3cd02de3U,
  0xbb234991bd98d961U, 0x3da3be0d3d2542c8U, 0x3d635ed7bd1d5b79U, 0x3d9defcebd949accU,
  0x3d8175e43c3963c5U, 0xbdbe04b03c55a455U, 0x3d231b463cea62cfU, 0xbd9a348b3d2a0ef1U,
  0x3d35491c3cec8b25U, 0xbcca89e53d99562cU, 0xbc6d8264bdc330a3U, 0x3d2983203c2c5652U,
  0xbd4660023d6bd949U, 0xbd234283bced5f15U, 0x3dc7cce63d905605U, 0x3d685aec3b3e084eU,
  0xbdabe666bbd70d46U, 0xbda7800f3bd83d46U, 0xbd30ef27bd769d56U, 0xbd98f751bd5964afU,
  0xbdae65dd3dcc9fbdU, 0xbd694f4abda0f1a6U, 0x3d5f11a63dddb22aU, 0xbca9b8453c0fb59aU,
  0x3a990e383ad3df2aU, 0x3d25eea2bd2077ebU, 0x3d946d4fb8a7cb3cU, 0x3c1268abbdb8faa8U,
  0xbb36f2d63d94ef02U, 0xbd02bb3c3c8d4896U, 0xbdb297cd3c887566U, 0xbd10cba6bd21f57bU,
  0x3dba4becbc20c76bU, 0xbcccddf6bda738b1U, 0x3caa7f6a3d2e4d3eU, 0xbd126379bd391ca7U,
  0xbdcdd4e1bdf758fcU, 0xbdb5f5483bf014b9U, 0xbd13a349bd9b33abU, 0xbdabb8b8bc9bdcb0U,
  0xbde4855e3d98619eU, 0x3dab80f2bd994d47U, 0x3c998674bd2b148bU, 0xbd443a3dbdde7b68U,
  0x3c50f1f43c8d2910U, 0x3d6408adbde50be7U, 0xbc5aae743c14bc09U, 0xbd82e8a9bda6410aU,
  0x3dcd5c593d076444U, 0x3ca3ce663d590573U, 0x3d03fb8abd299bd4U, 0x3d2fb929bc8c18acU,
  0xbd9ac535bd85ed69U, 0xbd390368bd4d1156U, 0x3d63f1a93d50fe22U, 0xbd82dc49bbd5326fU,
  0xbd8194543b0db300U, 0x3d6946e5bc069224U, 0x3ccda21abc9be3b2U, 0xbdc1422b3c68323eU,
  0x3e38ab3bbc48e07bU, 0x3da886d13e03c97fU, 0xbc934ef03d7c78c0U, 0x3db94bbc3ce0eb9eU,
  0x3d9ab8be3d8fb791U, 0x3dda35c5bd0c1ceaU, 0x3b81f5f03e04b4acU, 0xbc5e31213e44d7caU,
  0x3df9d035bbfbcbeeU, 0x3e2028a83bdc5d98U, 0x3be7a2d93db86d62U, 0x3c43c1bf3a76f052U,
  0xbc02d5a6bda5127dU, 0x3d4566a2bc14447aU, 0xbd2289603d2bbb06U, 0xbc9cbc4a3d8e0feeU,
  0xbb797a843dd78ad8U, 0xbc7f27823db1d76aU, 0xbd28049e3c4e8c01U, 0x3d3cdfe1bdd0e937U,
  0xbc68dafebd92992cU, 0x3db65e32bd5cb630U, 0xb82ad8963d12ea29U, 0xbd5d025f3d7d7601U,
  0xbda7afd33d56441cU, 0xbb72bdfd3bda08faU, 0x3d4a266dbd035935U, 0x3da5ed33bc5fecfbU,
  0x3d2e40abbd2f257dU, 0x3cdcfdbbbc4f45c9U, 0xbba18d423dd8be8cU, 0xbd1ed8123d7ad589U,
  0xbdbd12773d15bff2U, 0x3d853431bdb16f63U, 0xbdbec0da3cfbe099U, 0xbc82b0ec3dd751a1U,
  0xbd4dbc74bcb46782U, 0xbd33b21bbdac0ec8U, 0x3e061ea8bcb98736U, 0x3d5ba3b93d65ca97U,
  0xbd468efebd70a49fU, 0xbca93fe6bbb1b99eU, 0xbd5de93d3db367b4U, 0xbd5a6d883da2080aU,
  0xbda80e843c982c94U, 0x3cce1119bd855fceU, 0xbd381060bc014824U, 0xbd9a6abc3d0b27e8U,
  0x3dc2c2f03d9e7096U, 0xbd733e4abc7c99c7U, 0xbda5cf913d7693f0U, 0x3d4eebb9bd3063b4U,
  0x3c91ea21bce8c4b7U, 0xbd617d4f3dce448fU, 0xbc902851bd136da6U, 0x3de809a43ce0c548U,
  0x3d3ad779bd93b806U, 0x3d895bd9bd5e65baU, 0x3d1f4ba43d20192dU, 0xbd22871c3e17de9bU,
  0x3d8e508cbd36774eU, 0x3c8732023d690775U, 0x3b40a448bcc22723U, 0xbd8f8cb63d4e7082U,
  0x3d40f36bbd181946U, 0xbdb02fff3d61c64bU, 0x3c205ae2bbc6a269U, 0xbdb47a163d529176U,
  0x3d3a0c16bd8e0c93U, 0xbd436a69bdb56737U, 0x3dc4e72dbdc1d676U, 0x3d7181923dac5d06U,
  0x3d012201bdcd4646U, 0xbd94a472be029e15U, 0xbda9c3c1bd83424cU, 0xbd73e08cbdb245cfU,
  0xbd15d721bdc75cdcU, 0xbddb9592bdaa8d35U, 0xbda0dc82be04ecddU, 0x3c4c46e3bdb87eceU,
  0xbde8ccc8bd217d8eU, 0xbdfc1f5cbdda7a1cU, 0xbd385582bda6400bU, 0x3d9a532ebe018bd2U,
  0xbd2f28aa3cf7e515U, 0xbd246134bbf7e4a0U, 0xbcb1634ebd245a3bU, 0x3b248bb8bd8c2c25U,
  0xbd7930a63c966910U, 0x3d6281843c01d0caU, 0x3d285f703d39eed7U, 0x3d857a003d25ea62U,
  0x3d18104bbbe11a19U, 0xbd806e43bd7efae9U, 0x3d1096773dac96efU, 0x3d9a80303d472af0U,
  0x3d885b26bd3675ccU, 0xbd9eb0ed3db018e5U, 0xbd902703bdae7a1aU, 0xbde702e9bdae8d16U,
  0x3d792b913dc5c7cdU, 0xbd9ccd75bd979608U, 0x3d9362fd3d5d2226U, 0x3da95e8abd9205c3U,
  0xbd101e5bbd218281U, 0xbd34b9e9bb6ecc5aU, 0xbda42a163d168ba1U, 0x3d7775a63d31efb8U,
  0xbc7ad6413caff5beU, 0xbd8be3b9bd74fa0fU, 0x3d3ee8593d7066c1U, 0xbca7ddf7bc62b5caU,
  0x3d015b6fbd9a5025U, 0xbdc0a387bd247af9U, 0xba9ca7e6bdae677eU, 0xbdb6baf5bba4bb60U,
  0xbdcbc176bd2539cfU, 0xbdbdefa3bdc8059aU, 0xbcc29b583cb88906U, 0xbd0778483db47f98U,
  0x3d73bf523d7069fbU, 0x3d98561a3ca2b3ffU, 0x3a51f4ed3cf07288U, 0x3cd3c81b3d335167U,
  0x3debbac7bc990523U, 0x3cbea0b13c8f96f5U, 0x3dc0ea7ebd809bb1U, 0xbc4771773d65f7fdU,
  0xbd1a6dedbc80dadeU, 0xbcf7d6babd06eab6U, 0x3d7660923dde4674U, 0x3da36cc73d0fbd5eU,
  0xbca10ea2bd42304dU, 0xbb828e803d694e60U, 0xbd42ca263c5fd869U, 0x3d6cc2903cbde6cdU,
  0xbcb871393db3ca97U, 0xbd1dc47cbd8f6797U, 0xbd8a96e0bc7270ecU, 0x3c52784b3d9ae8fdU,
  0x3dd6904e3aab66c6U, 0xbdbadd6ebc8fa96bU, 0x3d843abcbcb231bbU, 0xbc55ee7e3df2e229U,
  0xbe0dce3a3d68f8dfU, 0xbd97719dbdce1c71U, 0xbdd30cd1bdc37434U, 0x3b70043e3d29e18dU,
  0x3d6b530a3c31f68aU, 0x3d8f566ebd43947dU, 0xbd000dedbd42eb7fU, 0xbdb71fa73d0d8865U,
  0xbd72a2fb3d1c4771U, 0xbe149864bc492d9cU, 0xbb85a278bd93e05cU, 0xbc8bd0acbd32551aU,
  0xbc8edb76bda09bc0U, 0x3da2a05abcead292U, 0x3e055de2bda57d86U, 0xbd2c318bbc66ab99U,
  0x3caa4fa7bd9bb851U, 0xbd30b6f9bc789afdU, 0x3d294ed43dadcb8eU, 0x3d6314673d4071e6U,
  0xbccb7fa3bad7d669U, 0x3dbd0298bc04bccaU, 0xbd6a36853df4ca86U, 0xbd7e49fa3d88f68dU,
  0x3985d84e3cd08ff7U, 0x3d8b6ab0bc946776U, 0x3d50110abd3ad00bU, 0xbd8ad9d2bd8286bdU,
  0x3d9e3a74bc7fe57bU, 0x3d33583fbce6d527U, 0xbb1482a13da79583U, 0x3dc88c1bbd77ac72U,
  0x3d8bbb0f3d3e412bU, 0x3d78c3d7bd38d4f5U, 0xbdcddbba3db49c54U, 0x3dbf1013bd050b03U,
  0xbd591d043d90c964U, 0x3d55d88bbddef5acU, 0xbd2e5316bb782d89U, 0xbe091efd3d7f86b5U,
  0x3de002fb3cb5b386U, 0xbd380f80bb14138dU, 0xbd35b19f3d150038U, 0xbd8d36b33cee1e4cU,
  0xbd218d33bdf06df8U, 0x3dc452133d34e437U, 0xbd96192f3c5afd12U, 0xbd845a4cbcdbae33U,
  0x3c2ae2c83d9afdd8U, 0x3da39b08bda442a3U, 0xbd9941723c7baf5dU, 0x3d3ff54f3c716465U,
  0x3d4ac5ac3d0f3031U, 0x3c9b9054bcfdb6b3U, 0x3dc241d63d983151U, 0x3d8d56a3bd12c19aU,
  0x3d6ef5eebdac6e65U, 0x3c3030423cf73754U, 0x3d37c3513de998ffU, 0xba698a833dc4188bU,
  0x3c6a664f3c891484U, 0x3d59334ebd75a1eeU, 0xbc09234dbd925d69U, 0xbd19e1d3bca7f668U,
  0xbd14b5d23d1661c1U, 0x3d3656fa3d4ee7c6U, 0x3dba9db8bdab74a0U, 0x3d605f69bd6993edU,
  0x3dc7f0e43d6039f7U, 0x3d22f866bdcd0eb7U, 0xbd506e03bdc23b77U, 0x3dbd929c3d0df3aeU,
  0xbc8bb4d5bc61b211U, 0xbccb3953bc0ea57fU, 0x3d85ae7abd639ddcU, 0xbbcc832b3d321068U,
  0xbd9cf19d3e2aa816U, 0x3d9d7243bc128575U, 0x3d65cbc4bbf8ded7U, 0x3ddc8779be28d536U,
  0xbd80416a3cb837c7U, 0x3dbb254c3d847beaU, 0x3da406be3d510f35U, 0x3c9dc6c8bb8bfd45U,
  0xbc87c50abc8b98ffU, 0x3d1a2ca93da8420bU, 0xbca99235bd166e11U, 0x3d0bf4acbd52f78eU,
  0x3da1e66abbd037f4U, 0x3d95cdc63d09ffa3U, 0x3d9209263c9b1a4cU, 0xbd6e07e13da9b9efU,
  0x3da848bd3bbdb80eU, 0x3da059e1bdae4d2dU, 0xbd82e562bd22190eU, 0x3daced543d70f65cU,
  0xba3ecd283d805bfdU, 0xbdcdacbbbd68eb55U, 0xbb525f5d3d315f30U, 0x3d404f52bbdd06f1U,
  0x3d81fa523d28802fU, 0x3d82ea7d3c75c724U, 0xbc02b0b93db85714U, 0xbd62da783d2f769cU,
  0x3bc6ca20bb93d2c3U, 0x3c19b84abdb9f208U, 0x3d07ee33bce52b24U, 0xbd5431b33de9de29U,
  0xbd0f7f143ca97b14U, 0x3c84e3ba3cb8b29cU, 0x3cc82614bd0755a3U, 0xbd60b6003d0c4253U,
  0xbc65aca7bcbb5ba4U, 0xbd6f87f7bd2c9da2U, 0x3d9f5d5dbc8b2311U, 0xbd2aba703d081b20U,
  0xbd196e303cc2bcfaU, 0x3db170d2bd6f6c39U, 0x3c1b4369bd6f927eU, 0x3d35fc81bdcb7580U,
  0xbd3d0fe73d47260aU, 0xbd9d0abe3d26c5ceU, 0x3d31b06cbcfce633U, 0x3d4e94783d19d87aU,
  0xbd46952fbd486099U, 0xbcab5bb9bd706418U, 0x3c655a443cdd5a19U, 0x3c8cd9743d57a2a6U,
  0x3d80eac8bd994e10U, 0xbcce3ff9bc6908c3U, 0xbd93c78cbd65b763U, 0x3b971f0dbc54c29fU,
  0xbd26e60cbc19d265U, 0xbca7f4adbc8662c0U, 0x3d9c237d3d55633fU, 0x3db5ce383d7239feU,
  0xba374769bd8efc0eU, 0xbc2530873aae66eaU, 0x3cf18c173d4ff443U, 0xbd96e541bd80f682U,
  0x3d5ff735bd1e8f73U, 0xbda3d0d1bd62408cU, 0x3d3e8564badb10bfU, 0xbdcc90223d85d41dU,
  0x3cca2559bdd63b75U, 0x3d3b5ba8bdf6f5e4U, 0x3b827a78bc466415U, 0xbd19a3b8bd9acc39U,
  0x3c07add43c0f9628U, 0x3d83d51f3c8df749U, 0x3c0f962cbc0d2d52U, 0xbddf94eabe199d42U,
  0xbd94be713d9dcb38U, 0xbdb70304bdb0e9b4U, 0x3d8878e1bcd6660dU, 0x3d9b93243bd2e3f8U,
  0xbd5c856a3d6eca0aU, 0x3b3d11df3b4678c9U, 0xbbc1e862bd9dd45aU, 0xbdac27af3ccc4255U,
  0x3d0fa1843cced338U, 0xbc728f2b3da12f1aU, 0x3db113523d61c7acU, 0x3dab3a82bdb561e2U,
  0xbd7a4bebbd96890eU, 0xbdb8e030bdbc330eU, 0xbd47c9f23d787582U, 0xbd11e19abc08deb1U,
  0x3d20fbe5bd136b89U, 0x3d88daabbc399fcfU, 0xbc9e3a693da10aa8U, 0xbdb0c52bbd9547bbU,
  0x3d9d39ef3c4009d7U, 0xbcb04d1f3dc0f9c8U, 0x3d9574b0bd64d7d3U, 0x3d3cd426bd91b2f4U,
  0xbd858660bdbd6ed2U, 0x3d8644b43c017aeaU, 0x3da8bf643dbcd2cdU, 0xbda8e000bd016c7eU,
  0xbcc91639bda07826U, 0xbd3496e73c422b94U, 0xbd41b2b13d9b7516U, 0x3da5f4203d9e043cU,
  0x3d135dbabd410f85U, 0x3dc12a3dbd04ec21U, 0x3d7d803f3d1c69e1U, 0xbd3eae233d76eb93U,
  0xbb26dad1bdba84deU, 0x3b118fc73da77f6bU, 0x3dac0be5bdb0186eU, 0xbcd44b12bd2395a1U,
  0x3d94a668bd59c70aU, 0x3ccdb8343c6eb4c9U, 0xbb9590bf3d90e59aU, 0x3cad5db1bd9ebf86U,
  0xbd68632a3da49d30U, 0x3d41fa31bdb140eaU, 0xbd09a3b5bd24f47bU, 0xbb9892ac3cc66b1bU,
  0xbda4af8b3d8dd67bU, 0xbd5432f839990b07U, 0xbcc804ef3dbe48b3U, 0x3c991775bdb1f1bfU,
  0xbdc1f1cbbcb576d1U, 0x3c50537c3dc18912U, 0xbc1514793da8afd7U, 0xbda899c5bc62c6beU,
  0xbd8207863d780937U, 0x3cc04958bc957273U, 0xbdb37f10bd49bb22U, 0xbda77ac6bd1337a3U,
  0xbd59e47e3d2a71b9U, 0xbd6ecc203d9b6413U, 0xbcc30457bd45f35bU, 0xbd1eb772bdb9cc0aU,
  0xbd4c37d9bdbeb3cbU, 0xbd4da73e3c790f6eU, 0xbda4900bbda9d8aaU, 0xbcb14168bd4c4eceU,
  0x3c21a5f5bd237129U, 0x3d89bf0abdabb1a0U, 0x3c966ab13d8e35e9U, 0x3d63bc89bda164ddU,
  0xbd89151e3d18de2aU, 0xbd88c9cbbcc7ce03U, 0xbc6d6fea3b95ddcbU, 0xbd8f92ccbd9ea046U,
  0x3d3e7d80bd80bc5bU, 0x3d97a8f0bd0e3968U, 0xbd22f2423cfbb866U, 0x3ce41c4e3ca94a7cU,
  0x3da28506bd29f1b6U, 0x3c8ca126bd0042d1U, 0x3bd4d30bbd75e671U, 0x3c30074abdb77a43U,
  0xbda5940fbc8fca6fU, 0xbd63d9193bec6b56U, 0x3d8621c43dad0aacU, 0xbdae9e6cbc8b9c04U,
  0x3c849f65bd9bc61cU, 0xbdad0cdebd4cbab2U, 0x3cd8d3233c9ff63cU, 0xbac081f73ccdfc79U,
  0xbd26d45dbd0aa575U, 0xbdba755d3cdca0e0U, 0xbc9d1049bcaede14U, 0xbcb68ad03cd1d304U,
  0xbdb700d2bd3cb1bdU, 0x3db687af3cc1f413U, 0xbcc0dadfbd7c420aU, 0x3cefc0f43a1a06dfU,
  0x3dc343bcbd608f4cU, 0xbd89d3a03c9c943eU, 0x3b8701f13db9b0e4U, 0x3d3d38fe3d84838fU,
  0xbd8757cfbd96a45aU, 0xbccad454bcff6747U, 0xbd4d92ca3d9be9b0U, 0x3c0e2d913d53aa6eU,
  0xbdb37113bd8c284dU, 0xbc5ace5bbcef0f9fU, 0xbb696a973dc6ee82U, 0x3d9405efbbcaeb92U,
  0x3e002414bda32322U, 0xbd6eb3683bfe72c4U, 0x399ea646bdc40845U, 0x3e011654bd8bb258U,
  0xbcc9bfc93d6275d4U, 0xbb1371ac3caa5f13U, 0x3994eaaabcff41fcU, 0x3d7932d93d545c7aU,
  0x3a7174523aa11460U, 0x3dbdaffe3cceb3bdU, 0x3d5ce794bdf4a94cU, 0x39fc3ee6bccab031U,
  0x3c62dad53d01cd74U, 0xbd8dead0bc2b0f6eU, 0x3e066a8a3d2b2a38U, 0x3cb892543dc768b9U,
  0x3c729a163da3d068U, 0xbd64e134bd29e155U, 0xbdeee3ad3db052b7U, 0xbdcde1663d556970U,
  0x3d15f041bd65efa8U, 0x3d7265293d6d3396U, 0xbd71dc60be1cfd53U, 0xbdaac60ebdb58421U,
  0x3dd993b83c16a2bcU, 0xbd5a79743d9310f5U, 0xbd2b23e13d888bd7U, 0x3e153b4b3d9e7743U,
  0xbda8709fbbd308b3U, 0xbd5a04bf3da301deU, 0xbdaeae36bcab9588U, 0x3dbdc6adbccaabb1U,
  0xbd9d8a45bd4b7196U, 0x3d7e4a693d8637ccU, 0xbc660144bd2b1e77U, 0xbd1e823bbd5023d1U,
  0x3d8e62823d904804U, 0x3b8fa2753d0cce90U, 0x3db081383c94206fU, 0x3bee4400bd096f50U,
  0x3d9b6eafbcb694eaU, 0x3c8c0c5fbd22590eU, 0x3c0ad7663ce74353U, 0xbb797b5cbcfc43deU,
  0xbd0c4de13d793f82U, 0x3e2b962abd31dcf6U, 0x3da59c17bdb3cb65U, 0xbc08b1713dd6a8abU,
  0x3dc3999dbcaf0575U, 0x3d3cd3c1bdc9bf02U, 0xbb1377afbd9ae7d0U, 0x3e00c1febd6e7a09U,
  0x3d9bfce03da5c2c5U, 0x3c728e0b3d78f7cbU, 0x3b11c7eb3d9b7a77U, 0xbda39d783c9e0410U,
  0xbc675f1c3dab19bcU, 0x3cc676abbdc54babU, 0xbcbc8978bd1133acU, 0xbbdc9824bd7503eeU,
  0x3db5cabe3df6d92aU, 0x3ddb46febdceccddU, 0x3dd92cfa3d93ff61U, 0x3dc8e8953dcb1f9aU,
  0x3e0007573d188eeaU, 0x3c252eb33d11290bU, 0x3bd85826bd994d37U, 0xbdc01d63bb5a8fffU,
  0x3d594d213d8a50baU, 0x3d51ed823de1cb74U, 0x3d9225d93a1539e6U, 0xbe002b12ba145150U,
  0xbd52ffefbc15b940U, 0xbd1d8ff5bde8fc08U, 0x3dc3c1eabdef829aU, 0x3dd72fee3b8a16f6U,
  0xbd83ef763cd6064fU, 0xbdafa341bd78f5a2U, 0xbd88026d3da709caU, 0xbd6d5b39bd7b968fU,
  0x3d2d7435bc884037U, 0x3e3cffc53d5a331eU, 0x3ccccadcbd0390a5U, 0xbac460d8bddd21fbU,
  0xbc179a58bd8ad76dU, 0x3d95d4d3bdcc7cfbU, 0x3c8208763d6a4d68U, 0x3da65adabc496924U,
  0xbbc16b45bd31c953U, 0x3da616403d67013fU, 0xbdd0ae07bda64da3U, 0x3c3f052a3c903c95U,
  0x3ca9319f3cfac811U, 0x3dd2c38cbcad9427U, 0x3d3a28823c9d4a3aU, 0xbd3462fc3926cb01U,
  0xbd22d155bc0159a3U, 0x3df6f023bddca418U, 0x3da7a8e23be4880fU, 0xbd0e97903dfe89c7U,
  0xbbbdd49b3d816a7bU, 0xbdb1c2ff3d2d3235U, 0xbd91d54e3c39a303U, 0x3d90c61abdbf838aU,
  0x3cafb829bdd672abU, 0xbd841ed0bbe142abU, 0xbd74fc7cbd554b2bU, 0x3cc1aec8bd830926U,
  0xbcbb56b3bd112c65U, 0xbd451b5bbd855bb5U, 0x3d8ba9efbd87a056U, 0xbde5ee453c02a114U,
  0xbc9828bd3d1fb37bU, 0xbb30a2a7bb570755U, 0xbd2e582ebcd52c5fU, 0x3da2fb1a3d732af8U,
  0xbd5557e3bdb6df7bU, 0x3d492313bd404687U, 0xbd9759a33d37340fU, 0xbda9e4e13d1b8e00U,
  0x3da4073dbda16d11U, 0x3d4ab44d3d5bf622U, 0x3d47756a3dbc52c5U, 0x3db235a0bd607dafU,
  0x3ccf31fdbd88f176U, 0xbd9111163d28c7ecU, 0x3ca6104fbd4d6fbaU, 0x3ce71fddbd8da434U,
  0xbd363563bcda3e10U, 0x3d9270ff3caa5aa3U, 0x3cf04537bd789509U, 0x3d8eb4db3da1745cU,
  0xbcab0de0bd74d6ccU, 0xbcf8ff833cce2aefU, 0xbdac0b53bcadfa5bU, 0x3ce8fe5cbd5a1c1bU,
  0x3bb222c2bd34fef0U, 0x3a4e2b753da31600U, 0xbd225dadbdcf38c9U, 0xbda38de9bd6b9217U,
  0x3c1524d93cc7d500U, 0xbd7ed6dabd4d555aU, 0xbb9c13f83d94b6c7U, 0x3cd7716abd90ff11U,
  0xbc0e6803bd87d578U, 0x3db9f7aabdce3609U, 0x3d3cb01bbcb6c3c5U, 0xbd37578dbcae3bb6U,
  0x3dba9c673d7d74c7U, 0x3dac27c0bc9c1441U, 0x3d3d57583d8fcc37U, 0x3daaf338bc3bacc1U,
  0xbd63adfbbdb23fcdU, 0xbdb8ab023d71cbc7U, 0x3d8ab7753d327b08U, 0x3cf082c9bda36d9bU,
  0xbc3db5ec3d930f50U, 0xbcb4d02f3d94cebcU, 0xbd9234d03d81bc31U, 0x3d0643123ddea25cU,
  0x3e07ba3c3c6fc4a3U, 0x3ddcbc343dd939edU, 0xbc72f4233d1ef3fcU, 0x3cc9bc9cbd5c6d30U,
  0xbbf008923d3ecf55U, 0xbcebba4abbae55a0U, 0x3d9d89223df2ed9aU, 0xbae21f28bd9cf37bU,
  0xbc04747ebda571feU, 0x3d06cbb43dcd50b7U, 0xbc304d9e3dd3c1b1U, 0x3cdcc6303d94947fU,
  0xbcb4b762bd83b1e8U, 0x3bedfafa39f8ebd5U, 0xbcf547243d45a436U, 0xbcc9040dbd58c602U,
  0x3dca1eb93d40ec5bU, 0xbce79c513d61d9fdU, 0xbd828a703cbc6c76U, 0x3cfa05aebc0db4acU,
  0x3dc94d5bbcaa0345U, 0x3caebdbebd845142U, 0x3d9ff595bc54060bU, 0x3d279396bd9e414aU,
  0x3add894f3cd9ee80U, 0x3cb75706bd81a664U, 0xbda245fe3d085d59U, 0xbd063b2a3d97e9a7U,
  0x3c9897bf3c58ee52U, 0xbd520b463ba1f6b5U, 0x3d462db23d3fde27U, 0xbd03aac33d4df272U,
  0xbd4912bebd87674cU, 0x3c90aa173d4a832bU, 0xbc498cd33de5242dU, 0x3d77b9b43be3cbe4U,
  0x3d9c1e3ebdc336f5U, 0xbd3f1daa3d891368U, 0x3cc5ad0f3db8406eU, 0xbda0f530bd475d36U,
  0xbbc76e04bdd0bf38U, 0x3d44b7273cbef4fdU, 0xbd9f765d3d86e07dU, 0x3daac632bd843f35U,
  0xbda391bfbcfec668U, 0x3cf1df2cbd61f0d0U, 0x3c337f313ca0df68U, 0xbdea96a4ba75c5b5U,
  0x3d790144bcf224ecU, 0x3d88c0553dd4d769U, 0x3c6569e3bd7ee209U, 0xbd070795bcc75f10U,
  0xbd3b76a23d143343U, 0xbd85c34ebd07829eU, 0xbda94a143d9cd85aU, 0xbcb21843bd2c0b5aU,
  0xbc0d0e7b3dc05dc5U, 0x3d9a72c1bcbe07d9U, 0xbd320af63ae5ad7dU, 0x3ca617d63c3a4756U,
  0x3d91cc2d3c6f5937U, 0xbdd93d9ebd6f39c1U, 0xbdd87a833da477a6U, 0xbdac362dbd41f5efU,
  0x3a05f5abbc5001f7U, 0x3dca92a7bc128fb7U, 0x3dcc0bf8bb9ca551U, 0xbdd9f1b2bc236bf0U,
  0xbcc36b63bd276c30U, 0xbb5dd6f43d8564c9U, 0x3d8de8d13d7447b5U, 0x3aa217dd3da6d702U,
  0xbdca7515bd09e9f4U, 0xbc82320b3d51bd24U, 0x3d84fdfcbd06985dU, 0xbd97fdca3a87ef10U,
  0x3d94598a3dacb97aU, 0xbd50d61f3dbe0a51U, 0xbadaab32bcdc4558U, 0x3dda65763d8c8a64U,
  0x3ca7db59bd21ee22U, 0x3da3eaf8bc830c03U, 0xbde62d36bcbea55dU, 0xbd3dd6853d8fa395U,
  0x3da4b439bc003fa1U, 0xbcffc9dc3d4a59b7U, 0x3d6f395fbd971993U, 0xbd73afa73d6ee249U,
  0xbc5c25d5bd68a844U, 0xbcd126c2bacc243aU, 0xbdc1d5de3d4716cfU, 0x3d3e97523cc0cc27U,
  0xbd7d28f4bd99bef8U, 0x3d3139193cce6010U, 0x3dbaf7a1bc5ea990U, 0x3ccea3b13df322a0U,
  0xbd1b2dd1bc9bb264U, 0x3ce808af3d5b294eU, 0x3b6c3e003dad86d4U, 0xbc5414f13d48366dU,
  0xbced372ebd993345U, 0x3d6c65593985ad0fU, 0x3d976fd43d00de5dU, 0xbd5b9c943cef69c5U,
  0x3cdd7a8dbd2a2f2aU, 0xbd65d9fb3c8bd039U, 0x3c06919ab995b5c8U, 0xbd6a99da3d22e065U,
  0x3b3f75fcbda11551U, 0x3d7c9a443d19d2f3U, 0x3ce3ecd33c3ce9caU, 0x3d6a576ebd8b2ee1U,
  0xbc85abf1bd4634f4U, 0x3cc0c7fa3dbf023aU, 0xbc6701d53d6a3ae3U, 0xbce52f9ebc20a15eU,
  0x3da8e864bde1d573U, 0xbd890785bce8613bU, 0x3c21ec78bd140505U, 0xbdd654efbd2190d8U,
  0x3ce709483ca00524U, 0xbd9cf3b8bd7221f9U, 0x3c063b463db9ea80U, 0x3d9a68163d922752U,
  0x3cc156b13d9d855aU, 0xbd9338bbbb9b9cadU, 0x3c0e7de73c1e2bfbU, 0x3d80f406bd57094fU,
  0x3dc4c09abaacbef0U, 0x3c9ccad33d6b2fbcU, 0x3c58835b3d650e53U, 0x3dd03fac3dbd6584U,
  0xbd56568fbd18cf90U, 0xbd7b75003d4a1c5cU, 0xbd664a0b3dcf23aaU, 0xbc00382ebd230babU,
  0x3d43fa3f3d50c8deU, 0xbd1edf28bd362786U, 0x3d92b148bdbc2032U, 0x3c11e7c8bde25242U,
  0x3d69d3a0bd5f6dacU, 0xbca327e03ce27ddfU, 0x3d4f88523daa7af6U, 0xbdb867bdbd54da4bU,
  0xbd9b3a513d03ef99U, 0x3d0561513d5d637cU, 0x3dae3e69bda23e51U, 0x3d9351d43d2c8337U,
  0xbd4b12ed3db9e25dU, 0xbd52309b3d3543cdU, 0x3d23bb433d5c75e7U, 0x3dae066ebbf61803U,
  0x3da8cf3dbda4057bU, 0x3ca66daf3dabbc96U, 0xbd0e3b96bd0cce7aU, 0xbd5b9619bd89279aU,
  0x3d5882a1bdca5195U, 0xbd5841fbbcf6ea9cU, 0x3dbaf15e3d2275b7U, 0x3d6769d3bd186d29U,
  0x3c86367c3ae0a00eU, 0xbc8f721abc1ddf65U, 0x3daa9d893d22e55eU, 0xbb8bdb113cf914dcU,
  0xbd42cd21bd5676d2U, 0x3c4637d53d8d225fU, 0xbd3933a9bd945190U, 0x3cf8e86d3d0b1a34U,
  0x3ba2a10d3d80d984U, 0x3a3838fa3ca0e9adU, 0x3cda28b1bd375becU, 0x3db28d873d564609U,
  0x3db70c86bd4166bbU, 0x3db83e4bbd7fa4ccU, 0x3d58fee63c646dc8U, 0xbcf0c4843dae6249U,
  0x3cb7b0a2bca76e41U, 0x3b5a11e8bdb3cffeU, 0xbd9b7d4dbd5dfaeeU, 0xbc4eaa713d968174U,
  0x3d6e9518bdb41b57U, 0x3d89c63fbd83f542U, 0x3d0849cebdb4f2c8U, 0x3da0cd49bcb99f11U,
  0xbda2400cbd9d1986U, 0xbd8864123ddf73e2U, 0x3d58ca2ebcc70323U, 0xbd6684a33d5f2521U,
  0xbd71ecc4bdb250eeU, 0xbd7b1c543d814056U, 0x3c831212bbc609baU, 0x3d7955fe3ce68323U,
  0xbc4070883dd11616U, 0xbd9e650e3d5f7addU, 0xbd55cf653c2ed9f0U, 0x3dabcb40bd615877U,
  0xbd5d7ed23cf6c9a2U, 0x3d051b64bd8df659U, 0x3d8bd1c2bbd13f93U, 0xbc2eec94bdba85a6U,
  0xbd951c9cbdf1de05U, 0x3d0d3da8bd4f40c4U, 0xbd53225abc80e6c9U, 0xbba0d18a3ad9bed8U,
  0xbd8429a8bdc1f0f5U, 0xbdb9f3f1bb503e3bU, 0xbd65481d3d4d033fU, 0xbc8586983c2009edU,
  0xbc441bbabd41ae84U, 0xbe149b083bb2beeeU, 0xbc5cb358bd1d91c5U, 0xbdc2a072bd1d654eU,
  0xbd34939ebce0d300U, 0xbd730ce33b9f8110U, 0xbd7b78f4bd88b388U, 0xbdc98410bbc25f59U,
  0xbb95a2863d8300c5U, 0x3daeb5bb3df976b1U, 0x3d0b5fb3bd566856U, 0x3c076a923da1b617U,
  0xbd336e99bd4f4d64U, 0xbd2de6e53d87742fU, 0xbc1fb2dd3d1eb79aU, 0xbd1acc4e3d932f8dU,
  0x3e1836263d6ed12eU, 0xbd5970f73d88df00U, 0xba0907183d92d65cU, 0xbd7b3e763dde0101U,
  0xbd3dbed33c43ef26U, 0x3d8fffb13da91bf7U, 0xbdedcfd23dce5798U, 0xbd4ff398bd9fc93dU,
  0x3c529a2fbd8aee9fU, 0x3e63e6a0bd6e8187U, 0x3cf16a71bd83c075U, 0x3db9ba7d3d89ae1eU,
  0xbda0ab003d215ca8U, 0xbd3d9243bd8c555aU, 0xbd4fa0ddbd4d2750U, 0xbdde011fbd9e4215U,
  0x3bb6ad05bd86210cU, 0x3c86332a3d190232U, 0x3d0d2d6d3defb51eU, 0xbd797f64bd150847U,
  0x3d34cc663d7ca312U, 0x3d68e2df3d20db19U, 0x3d8f9b69bd9f1cedU, 0x3da6f1293c8ac9b2U,
  0xbd6beb41bc360f05U, 0xbcf2afb4bc59f88fU, 0xbc2fe00b3ce51323U, 0x3d8b53333cf1261bU,
  0xbc764d28bb8df601U, 0xbd01bd793cc7c802U, 0x3dab8b8a3d178b4fU, 0xba8ab9003d238428U,
  0xbd0d7e55bdccb7a3U, 0xbdb570d33d95e71fU, 0x3d4dcc62bbf8ffe3U, 0xbdb907a3bc79627bU,
  0x3b5b2dfebd7fd61aU, 0x3c47c6963d8fe17cU, 0xbcd4c2f63dc619afU, 0x3ce917c93d992726U,
  0xbcdce82f3d033ab6U, 0x3d2414ab3d9b0e53U, 0x3d30189fbd08fdf1U, 0xbb4202283d0706a8U,
  0x3d2e6346bd87b83cU, 0x3cdd91b43d846c8dU, 0x3dd1ab883d7fd256U, 0xbdc992f33d988f3dU,
  0xbda26ccf3d836001U, 0x3cace7bcbd9bb519U, 0x3ca60abb3b16d925U, 0xbd882c183ccc1daeU,
  0xbdd3fe5fbd134f6eU, 0x3dbaffd23d22d43bU, 0xbd4ae5a43b261337U, 0xbd9cd6993cb6d994U,
  0xbd1f4b743ce6f826U, 0xbc960eab3daddbb9U, 0x3dd7d989bb7076a6U, 0x3b3b6fe1bd58be50U,
  0x3cc243e1bd5cb697U, 0x3d598ff4bc46084fU, 0x3bffcfb73d884fb9U, 0xbd8fd92dbb0d51e3U,
  0x3c94a0a63dcc3c5bU, 0x3cb34c06bbaa7b5eU, 0x3d6c73af3db3bc8dU, 0xbc8d82b43d715441U,
  0xbc02fd9dbcd40c57U, 0x3baa23c6bdc2902dU, 0xbd803c1cbde2ea81U, 0x3da75f67bd8b96f1U,
  0x3d007ee03dd37982U, 0xbd0c2a9bbd29c805U, 0xbc5afd56bd7bcafbU, 0x3d54e6603d383d0eU,
  0x3d943d133cd73613U, 0x3d92352a3d0fc131U, 0xbd3a289b3d9d3d62U, 0xbd0001c7bdb815f1U,
  0x3dab0af13deed8d8U, 0x3ce64aecbbd39953U, 0xbc365d2dbb3697edU, 0xbd55214bbcd681b4U,
  0x3d25b4d13d0843abU, 0xbd9429b03d46c7b6U, 0xbe0075d33ddd8b98U, 0x3c41b5293d5193caU,
  0x3cc07dcd3d856691U, 0xbda83ca73b9bbe7bU, 0x3df37a1e3d321c23U, 0xbd8f84e6bd48d9f8U,
  0x3d7edff5bcff5a3cU, 0x3d166b2c3db6f0cbU, 0x3ddb2d59bd167a57U, 0xbc639bb7bcd97f79U,
  0xbc7132473cef40b2U, 0xbdb7d189bd9e8c6bU, 0xbbb50805bd341cacU, 0xbc7c7b89bd967aecU,
  0x3c22b436bcc4086dU, 0x3d25b026bc818d88U, 0x3d62472a3c8bcd39U, 0x3c96fa5bbd727cb8U,
  0x3d89b6babd8aac77U, 0x3cdbcf67bd549095U, 0xbd0071983da35cf6U, 0x3dc3e02a3d6090f0U,
  0x3db555c33d833254U, 0x3db37aeebd36dba3U, 0x3dae1cf83dfc8ce1U, 0x3d999ce03d2acb19U,
  0xbd86e4fbbd00319fU, 0x3dd0315a3d6c9c1cU, 0x3df96fc13a73ff2dU, 0xbc7f077dbcd32a53U,
  0xbd12e6c23cc1f56aU, 0x3d675ca13d47f109U, 0x3dd88f6d3d890336U, 0x3d2d62ff3d309cb7U,
  0xbcf23177bd419e5dU, 0x3b7188453d80cef6U, 0x3db94babbcf03db6U, 0x3dc6c9c73d8b50c8U,
  0x3d892c103d82f077U, 0x3d2d28263ceb21cfU, 0xbc2fde78bd602258U, 0x3d19b97c3d5b1b2cU,
  0x3d5e4a5bbdc3ff18U, 0xbce251ce3da17d8aU, 0x3d70b044bd96d8c7U, 0x3da8d434bd4ee03aU,
  0x3d4030a73bec2d16U, 0xbd7f83563d83ca82U, 0xbcd6b188bd9921d3U, 0xbd8f15b6bc421a52U,
  0xbd547f91bd92acd0U, 0x3d765c40bc88c69cU, 0xbcb298253d38f5c2U, 0x3d9a57b83dc7dd48U,
  0xbd4cf69fbd0e5550U, 0xbcac28953dc952a3U, 0xbc6910153c1c8d01U, 0xbd5b6f353d24fd09U,
  0x3d07b4323d23406bU, 0x3c9240b13d85d378U, 0x3dcd8d873d3b4dd7U, 0x3d8d5b42bd963ba0U,
  0xbd36de6abbd49fa9U, 0xbca3e501bdad7878U, 0xbd321fd03db94623U, 0x3d5560e53bdc38adU,
  0x3d1b1977bd94fd91U, 0x3d337efc3d25c648U, 0xbd0e5f33bd62f8deU, 0x3d7e5917bdb80ff2U,
  0x3d39f3c43d9a3690U, 0xbdaec745bcde0b7aU, 0x3dc71580bdc985faU, 0x3da89dcabc277a9cU,
  0xbdd5bcefbd5cc80bU, 0xbd0db787bdc81788U, 0x3d464a763daac984U, 0x3d1808083ca196e2U,
  0x3c9af3033c8feae9U, 0xbd9197f43d740224U, 0xbda46248bcbb986eU, 0x3ca0a7cfbd31af20U,
  0xbc7dc47b3d96b40cU, 0x3d80c0653dd44bf9U, 0xbda43e2dbdf3b41fU, 0xbc1563febc189f20U,
  0xbc92487b3d0e0e84U, 0x3dba5267bd22c8b9U, 0xbd13a456bdba81ccU, 0xbd08f5633db0bf94U,
  0xbd89a97a3c9dd1fdU, 0x3bde579fbda13b62U, 0xbdef26333d7caf55U, 0xbd6393e33d2ac42fU,
  0xbdc09ef9bd700e2fU, 0xbd9290213ddcbf11U, 0xbc9b749abda3ade7U, 0xbd511f2b3c46581bU,
  0xba49c3cabd9e0f05U, 0xbbcf2ff53d40cb7aU, 0x3d2e289e3cfb2089U, 0x3d494af43c9929a4U,
  0xbdb0590abc00d201U, 0xbdbc633ebd87eabfU, 0xbd751fbf3dbcd912U, 0xbd887c6e3c9687f2U,
  0xbd82802f3b28c00eU, 0x3c8a33cdbd9afb24U, 0xbc55ba563d175206U, 0x3d72be7fbd2800a7U,
  0x3c519fda3de01d77U, 0xbc8717743b15c011U, 0xbd98aefd3cc23bf8U, 0x3b867563bcd9e918U,
  0xbdb5d56bbc23b86eU, 0x3d164fe53d071f8bU, 0x3d175b023d8fa01eU, 0x3d2752d5bc287cdeU,
  0x3d03f3a43d20cbccU, 0x3ce819333d22cf53U, 0xbd9ad34abd0317d2U, 0xbd406a86bd4b68e4U,
  0x3d030903bd8f571cU, 0x3d14343e3d842b2dU, 0xbc643e60bd3edca3U, 0x3cebf47abd8c6a50U,
  0x3cb714e1be13ad83U, 0x3c941b9cbdc8832cU, 0x3d2afbb03d9a8a11U, 0x3df229e3bc217c3bU,
  0x3b5749fdbd7e6450U, 0x3c9c67743dbb65deU, 0x3c37a0bfbd94d7e8U, 0x3d846ecdbd95162dU,
  0x3d299d09bda4cec1U, 0x3d2d27dc3c8af998U, 0x3db9c56c3cd3b675U, 0x3c1a9a113de4ae1eU,
  0x3dc0b5c43c62ad7fU, 0x3d96e16f3c11930fU, 0x3c9badb13e10a183U, 0x3da919613e02277dU,
  0x3d12cdf33d249c78U, 0x3d91a1d5bd391f3bU, 0x3d8c2f39bd0b3a5bU, 0xbdc90b173d94b909U,
  0x3dd329273da6a42eU, 0xbd874007bd490319U, 0xbd7a1eec3d0f9dd6U, 0x3d46ce8bbdd337dbU,
  0x3d8d71f8bd24d3c3U, 0xbd4efc5dbd3585b6U, 0x3d5a07a53d135dc1U, 0xbd52773c3e0172acU,
  0xbdbe43acbd750c0eU, 0xbca4b0d4bcfed5e0U, 0xbd5458f53d89d14bU, 0xbd1179e9bd9b8ceeU,
  0xbde8a52a3a11b9d6U, 0xbc36a3143d40c361U, 0xbd58aefb3d46655cU, 0x3ca714b23d69fd2eU,
  0xbd8e8ab1be100074U, 0x3d9b2f8c3b857ea8U, 0xbdb5aba5bc322e92U, 0x3d342fb1bd57e18dU,
  0x3d74481dbdb1edd2U, 0xbd802a09bd8d471eU, 0x3d4541f63d5cc3d5U, 0xbdc60e3abdc762b3U,
  0x3bae3858bd9943f0U, 0x3d9f0a4abd31beefU, 0x3d81df1039f56321U, 0x3d2c011ebd3d8023U,
  0x3d375f88bdcea169U, 0xbc840e4bbdc94c0dU, 0xbde157c63cb68644U, 0x3d5e5e3abd5a31dbU,
  0x3c7fcb6dbd0a4eb8U, 0xbc8140b6bdbcba67U, 0xbcfddc7bbd770ee0U, 0xbdb30ffebc0dc3adU,
  0x3cec971d3d915fdaU, 0xbdbc2c92bd2e1597U, 0x3d169e503c072e03U, 0xbcf08ac3bd340649U,
  0x3d974ef5bd847d8bU, 0x3d35188a3d3d1067U, 0xbca4cda23d3bd3bbU, 0x3da3341fbdc331a5U,
  0x3d54bcb13cec47cbU, 0xbd07ce593d8db3a1U, 0x3db213193d18b830U, 0xbd39643cbc97d607U,
  0x3cdbe904bd917ba6U, 0xbbbb0438bd07b93dU, 0x3d87019c3b888fb5U, 0x3d57c8363d35f610U,
  0x3c778e8cbc0ff2bfU, 0x3dc557b33d839002U, 0xbd56847b3c442550U, 0xbc95b575bd17e2edU,
  0x3d407bf33b8550e7U, 0xbd582fd2bdeabbadU, 0x3dd98af93da2b678U, 0xbd3f6bbc3e02d7a2U,
  0x3e08ff693c327dcaU, 0xbd2172cf3dbc1d2bU, 0x3d5b40f23c345777U, 0xbbaf95ac3cffa4deU,
  0xbd4aadfcbd3cb72fU, 0xbc8342543db11090U, 0x3daa74573a99d461U, 0x3ccaa46cbca1d374U,
  0xbdab71a83d808b75U, 0xbd7e5d59bd32f58fU, 0xbd22adf93cd26fe6U, 0xbcef84613d69defbU,
  0xbc9e5b4bbcfa4a1eU, 0xbcb117f3bd05331dU, 0x3da6a23abd888fc1U, 0xbd472a103cba0d0eU,
  0x3d6583bf3d8bd076U, 0xbd297154bdaf7e16U, 0x3bb2e491bcf88be6U, 0xbd42e884bd4726cfU,
  0x3d246257bdbabf56U, 0x3d861da13a6cc372U, 0x3ce34827bdd475cfU, 0xbdc90a2dbd8af720U,
  0xbcaf14743d41f998U, 0x3c51d112bcbaab2bU, 0x3d8ddad3bd0a4a88U, 0x3c8e72bb3d963174U,
  0xbdc71eadbcba1d21U, 0xbc95388cbd19cb45U, 0xbd484aba3cb557d9U, 0xbd17bab9bc838fcdU,
  0xbcd8d387bdb88253U, 0x3b95db2c3b6616b7U, 0xbd6c6793bd8010a6U, 0xbdc1b90cbd239535U,
  0x3bd0cd143d85e74fU, 0x3dabd6033cbbf916U, 0xbdb0a863bda24161U, 0xbc8cb0a53da1c7aaU,
  0xbd3666603d8fe2d5U, 0x3bd418543d086182U, 0xbc48f9073d4ab266U, 0xbda9c5da3b969bf8U,
  0xbd0134773cc46641U, 0x3c85a0693d8f3814U, 0xbc956ccb3d51395fU, 0xbd6363fcbd580931U,
  0x3d1938433c7e70aaU, 0xbd634a67bd5680c5U, 0x3d20dd4d3d9e65b7U, 0x3dcbb5233d91a546U,
  0x3d8adbd3bd0837d7U, 0x3db899423d2e1bb6U, 0x3b1743dcbd759b48U, 0x3d8838a2bcc30951U,
  0xbdb6256d3b9d0e79U, 0xbcc467e3bcaba838U, 0x3d64d34d3d8bbec4U, 0x3b9a9ee33974e41fU,
  0x3d586aea3a6b40faU, 0x3bc8b534bc07d554U, 0x3d5a00d9bdab7e24U, 0xbdb830c0bd7adc7fU,
  0x3d658c5c3d16ceecU, 0xbd9de6033d9414b2U, 0x3d0e7367bd984fcaU, 0x3d260b8ebd78bb1fU,
  0xbd5491683cd26a7bU, 0x3d44e6483d2c71e6U, 0xbcdf638bbd1a2000U, 0x3a06465cbaa03b01U,
  0x3a9527d7bd8925e2U, 0x3da8c87ebd6523acU, 0x3d025240bdddcfedU, 0xbc4f99693b615135U,
  0xbd76191abb48b93aU, 0x3ce46a9ebd9a431fU, 0xbd140d9f3dab2ba1U, 0xbd9adb07bd4f7da8U,
  0x3d480d4dbd55717eU, 0xbdbf9ca1bc42fd92U, 0x3d2f15ea3b79976dU, 0x3dde240a3ca18341U,
  0xbd60fd25bda0a6b5U, 0xbd126cb73d293ceaU, 0x3e05b0d0bd326780U, 0x3d16231a3c11a6e2U,
  0x3d9d75e93d69437eU, 0xbd900bf5bc32d119U, 0xbdd86a6e3d882425U, 0x3d1093c53cf740e6U,
  0x3be07a6c3dbad486U, 0xbd4924873d8e2d51U, 0xbd917aa43bfcd573U, 0x3e0da8eabd8b8998U,
  0xbc84c7a83bcf01dbU, 0x3968df17bde2d3dbU, 0x3e1502ab3a2b7a20U, 0xbdb5a27bbca449cbU,
  0x3ccf44bfbd2df697U, 0x3d7b90eb3d58a19bU, 0xbd81e1023d87ae7eU, 0x3dcc66d23cfe019dU,
  0x3daaa376bd0269c1U, 0x3c21fc7abccc3001U, 0x3d81c78e3ba4efb6U, 0x3d8210e83c9c8f88U,
  0x3d1d30af3d8d7e21U, 0x3de22e023bcf4cc7U, 0x3e0103ed3cb49833U, 0xbd21297f3d9e7dd5U,
  0x3dec2830bde9b386U, 0xbd2f071b3d8bbcbcU, 0xbd03cc9cbdc48037U, 0xbbf453093c790e57U,
  0xbd60f70fbe000ddfU, 0xbd398f50bc2295c4U, 0x3c4ddbc7bd0e0bedU, 0x3cfe31253d90f9c3U,
  0x3d86f3b0be058bbfU, 0xbd959d923d468238U, 0xbb84a4f13d359ca4U, 0x3d805e94bd74a935U,
  0x3a387aad3dacce5fU, 0xbced07fe3dec28a8U, 0x3d0e80a33dd86997U, 0x3da55a2fbd8befd2U,
  0x3d499250bd9ae8fbU, 0xbc49e0883d8981bfU, 0xbd364d86bcef3aa6U, 0x3d082f70bd348217U,
  0x3dd5a8c83c150774U, 0x3d3cc7ee3b2c4cb4U, 0x3c5457723cd28728U, 0xbd25f406bd8937a3U,
  0x3c9628c33d9cb0b1U, 0x3dceab823db0521eU, 0xbd937cbbbda7c2eeU, 0x3dde3e95bd7f6177U,
  0x3d605c4f3d9d2f24U, 0x3d1acfb93d251dfdU, 0xbc5024dabd3c99c6U, 0x3ccd2d6d3c8ca6f4U,
  0x3b53430c3d24cca0U, 0x3d8ad7623d6398bfU, 0x3dd3b0b73e093ac1U, 0x3d5b780cbd5efb9bU,
  0x3cab5d3d3d9ee53eU, 0xbca6e73c3d11601eU, 0xbd7228493ba98762U, 0xbc091f463d412bb1U,
  0xbda396d03ce43c2eU, 0xbda6c0053d742762U, 0xbd311aefbd3163dfU, 0xbd8e4af33d8df5b9U,
  0x3cdc219e3d8859eaU, 0xbb07a4f93cb69b4aU, 0x3e15ee49bc03f0e0U, 0x3d24b1d33ce6291aU,
  0xbd05b7e73d8aab54U, 0xbd600c473c57b4b3U, 0xb87f52c63ddd3b82U, 0x3d517721bd462a14U,
  0x3d37b7103d3397c7U, 0x3d2932443d4ed411U, 0xbdcaef9c3df901caU, 0x3df2969fbd6f5705U,
  0xbd2497163d6a3130U, 0x3cf25e49bcc4e000U, 0x3e11e9d53ceb198dU, 0xbd2b5938bd000174U,
  0x3d58c3ebbcf77911U, 0x3d9828b23daa64c4U, 0x3b658e173d12ce25U, 0x3da3c554bd369b11U,
  0xbd82f55d3e2d1400U, 0x3d942d4f3d7f5936U, 0xbd4384013d8fa2a4U, 0xbd1dce053d896050U,
  0x3d96115e3df858b7U, 0xbd9034743de98a1dU, 0x3d1dc2d9bcaef362U, 0x3bcf7900bc3f0d9bU,
  0x3ad41f37bc13b147U, 0x3c44bbadbd8cbfa1U, 0x3be224d63b25a5b5U, 0x3d99437c3dbbd0e9U,
  0x3da30b3bbd987bc3U, 0x3dc2b790bd952849U, 0x3d79cd743db65b8fU, 0xbbb38082bd048ca3U,
  0xbd46f69ebd488f0bU, 0x3cc8e792bce5b7d4U, 0xbd1301e23dcd1d64U, 0xbc4c69f7bd9519b5U,
  0xbd186142bd4e103cU, 0xbd39ba59bd857ffdU, 0x3b257011bd3dafc3U, 0xbd7d9437bdd5103fU,
  0x3da622e33d9373f4U, 0xbd8627773c88e582U, 0xbc6ba266bd03f9b5U, 0x3d2142be3bcaea04U,
  0xbddba2793cc06a87U, 0x3d6249c7bda26e04U, 0xbdbb623bbb155db7U, 0x3cf69dc73dae117dU,
  0x3d839f083dd4af02U, 0xbd6c5ff33d897d44U, 0xbd5b61efbdcae82cU, 0xbd986847bb400fb3U,
  0xbdb6d9d63d068ec8U, 0x3c0c6bb03da59689U, 0xbccaa8d33c1c9afdU, 0xbda926ccbd2cc0a5U,
  0xbd1dbbbebd792006U, 0x3d90574cbd96fe95U, 0xbdb1c9bb3c09bc51U, 0x3baac2e33d85f00aU,
  0xbd02d16e3dd6c23dU, 0xbd0111713d101e3dU, 0x3c0fa7e53d9ca92fU, 0xbd6c16233d225f03U,
  0x3d0f9b9fbc952df8U, 0x3d9b03ac3db465c6U, 0x3d8a9c2dbc964547U, 0x3c979b54bc1f3ffeU,
  0x3d8327613d1dcfcdU, 0xbdb6b1a8bceed158U, 0xbd84d7023d6b7bc8U, 0x3d81863c3d1a829cU,
  0xbcc977743cd4cceaU, 0x3dc3479b3d1bc547U, 0x3ca630d83d2dc3a9U, 0x3da50bf4bcb60d88U,
  0xbc363cf13d9f339bU, 0xbd80dce3bd885eddU, 0x3c4a5314bc0712d3U, 0xbd93a04b3d85953eU,
  0xbd0db943bd965f1eU, 0x3bdb39b13d2c1dd8U, 0x3bb0043bbc9a0e51U, 0x3c8e8b7c3d0a918cU,
  0x3cc50011bd8b7a41U, 0xbdbdcfd23d82b6cdU, 0x3d0118233bb9700fU, 0xbd7f33503dbe34fcU,
  0xbd8150b23d3fd266U, 0x3daf7e413dccbca3U, 0xbbcc69823d97ac37U, 0xbd8bb843bdd8990aU,
  0x3cf7df4fbc49b4e9U, 0xbcf3fe0bbdd859baU, 0xbdd7ade93da4ca10U, 0x3ca580733e2ea59aU,
  0xbd22ebef3c5a8a9cU, 0xbdab4588bdb6088cU, 0x3d9da78f3d6f350eU, 0xbc212947bb9c7726U,
  0x3d399f94bd0f42feU, 0xbd7f0e473d910e86U, 0x3d4382cb3d116ddfU, 0x3db66d0f3cdb1f52U,
  0x3c6bf01a3da5ae3cU, 0x3cd299b93d3b2955U, 0x3d3b8e96bc2ebbb5U, 0x3d69ba5ebbe1bb76U,
  0x3c589a5cbc874800U, 0x3aa89a6a3ce284e8U, 0xbd2aba6b3cea89d0U, 0xbd210e89bd3603e4U,
  0x3d6cd8c03d2e40bcU, 0xbda37531bbed32b3U, 0xbb9320a2bd2d72fcU, 0x3cc3d43dbd151b63U,
  0xbd9ef3c33d120666U, 0xbb5717b7bc67abd0U, 0xbd9ac0f3bd9b97bcU, 0x3d2c74b93dae2aeeU,
  0xbd0659eb3dc421b9U, 0xbd8fe49dbdbcc198U, 0x3cd45b74bcfe54ccU, 0xbac7a48a3dce1209U,
  0xbb7a096dbd9132d7U, 0x3d68c3d23dcf4e3bU, 0xbcc423f4bdae91ffU, 0xbc42b746bd5ac95cU,
  0xbd5a2a183cb02e27U, 0x3d33906439f90b7dU, 0xbda07546bdbf3be9U, 0x3dc002663e36d952U,
  0x3db4ebd2bc7cb206U, 0x3cc07d2abd61eeb9U, 0xbccacdf2bd98acd8U, 0x3d2c17ab3c55d31eU,
  0xba189bf0bc9802b0U, 0xbc4cf8ffbbd535f9U, 0xbcfb4675bd68e994U, 0xbd401ae5bd4f0588U,
  0xbcc32ddb3c9066f7U, 0x3c822b8b3d6de8acU, 0xbcbf19b13d824031U, 0x3b2205cd3d1d7157U,
  0xbd53aebbbbc2325bU, 0xbca7d65d3d5ec2e7U, 0xbda4f40cbd47a5c3U, 0x3c36d07b3ce5e059U,
  0x3da7d735bd98983aU, 0xbda3063f3dac68c4U, 0x3d97d8e3bc348512U, 0xbd90413fbdbdd9b6U,
  0xbdc0e90e3d4576fbU, 0xbb701c4abdaf6ccdU, 0x3b0edfa23d21f4a0U, 0x3d246f863d507976U,
  0xbdb7eec5bd6b3e28U, 0xbc0d267f3db0e7ccU, 0x3d961b95bdc6ada1U, 0xbd978ce53d38f2e3U,
  0xbd0496bcbcec4a07U, 0x3d3ddfa6bb1b1fa7U, 0xbd8f8338bdd7eb1eU, 0xbda7e421b8f6c95fU,
  0xbd774734bd22ca60U, 0xbc0cbd06bd05b16bU, 0x3c4540be3ca4ebf3U, 0xbb0b79b73dcf3849U,
  0xbdc7f87dbc587856U, 0x3d928b873c0f1317U, 0x3da688163d821f82U, 0xbd8bc24dbd8957e0U,
  0xbd6d4b6bbd260cc6U, 0x3c7ab95ebd35ce6eU, 0xbd277a4f3d85e48eU, 0x3c1315eabc949eedU,
  0xbad777633d2231b3U, 0xbb1f1a39bcfabe2aU, 0xbd2eba453b5b1ea7U, 0xbd465f603d5720b1U,
  0x3dce1caabdbfaad9U, 0xbd2b6f0bbd777a16U, 0x3c7778b73cfda2a5U, 0x3bf3a7e63d1ee3c4U,
  0x3dd4b36c3d92cab6U, 0x3d6b38593d426a95U, 0x3cebcffb3a7ca79aU, 0xbd92cf633da66a83U,
  0x3a9a7ebb3ca358bcU, 0x3d97f52abba641c1U, 0x3d82a1193d620f36U, 0xbb8ce11e3df5c776U,
  0xbdbe2a7e3c583b05U, 0xbd760c2dbdb4a3b5U, 0x3c90d6a4bd9dc7d2U, 0xbd09a5813dea7a26U,
  0x3d5361913d333dfbU, 0xbd900fcdbc30025aU, 0x3cefd8f3bd8ba704U, 0xbdbe0d5d3d83e777U,
  0xbd285f4ebd659507U, 0x3c90c796bd1b2f9dU, 0xbd4ebf5cbdb10c47U, 0x3ce8745d3d94ba22U,
  0xbb1e7df1bc8c1c44U, 0x3d3d4c5abdba09f3U, 0xbcc1d084bd8fc62cU, 0xbcf95cee3cdb11b0U,
  0x3db08308bd4ebb88U, 0x3d9a24243c78130cU, 0xb90d1e19bc9a86acU, 0xbd38194e3db61417U,
  0xbd173541bd88ffe9U, 0x3d1683893c82f828U, 0xbd378a7ebdc95d53U, 0xbaee997f3bed8d13U,
  0xbceef67fbd8b80d6U, 0xbd2f98a1bd7d61edU, 0x3d16387ebd0200aaU, 0x3d36fe49bce5a924U,
  0x3dc11f043bca64e8U, 0x3d637cf4bb9c471cU, 0x3d827fd7bdb60fb3U, 0xbdba1466bdb0e87fU,
  0x3bce6aa13d8d4a70U, 0xbc8b5ec73d69a4c5U, 0xbcc9e9d1bd507436U, 0xbd6ed0433dae75bfU,
  0x3d6ff9323b957ebbU, 0xbda64a33bc903dccU, 0x3c1038fcbd68b1fdU, 0x3c714f333bc0704fU,
  0xbcc58ae13d6cf102U, 0xbd46e684bdd1bc5eU, 0x3d19ece43c5c576bU, 0x3d712364bd336aa4U,
  0xbde466813d87e85eU, 0x3d11496d3d38c8e6U, 0xbd94bb34bdbf1e85U, 0x3d8929173d92d915U,
  0x3d0287663d9dcb8dU, 0xbd64ea52bdd3d7d9U, 0xbd808b8cbb8463cbU, 0xbc25e623bb9b279dU,
  0xbdf576f9bd9b0a1aU, 0xbdb25827bda343c3U, 0xbdc6ec2c3d42a470U, 0xbd9972c3bc5b212eU,
  0x3d824de83d9b89cdU, 0x3d87b9c43daf6653U, 0x3d53829abcd8ce57U, 0x3ce183a33cb5ae34U,
  0xbc84852f3c37bde8U, 0x3d3aaae33c9c3713U, 0x3d800a053c517d22U, 0xbd90049fbd105f98U,
  0xbcb723b7bd1831efU, 0x3d57c938bcd43894U, 0xbc238fb33bebcaf6U, 0x3de97154ba15bb4cU,
  0x3d46350f3ca82f4fU, 0x3c889b533cad1486U, 0xbc81a329bd77b851U, 0x3d201c2f3cfc2a01U,
  0x3d8908d1bd8f139fU, 0xbb7c03063cc2e2b0U, 0x3da5e555bbc61ff4U, 0x3d3647c3bd6dc08cU,
  0x3dd4153bbc8d1055U, 0xbcd765f33cd56811U, 0x3e0d22dd3d6d19aeU, 0x3dfe297abd348abbU,
  0x3c7cc54bbd03c42dU, 0xbcc3a18dbcc42a7fU, 0xbdc6a2283d3c0e39U, 0x3db74f083da11e51U,
  0x3d8e74d73d88b667U, 0x3dff3e29bd3b5ad5U, 0xbc9bb17f3ccb4025U, 0xbde1064dbd862f5dU,
  0xbd0d7852bd504091U, 0xbdba604a3d920d81U, 0xbd82ae98bd9d9e46U, 0xbc7308a03cbf8aecU,
  0x3b521480bd3fb91dU, 0xbd1aa06bbd33ba2dU, 0xbc53cc71bd416a98U, 0x3cbdbae03aa07c85U,
  0xbc611cc33de38de2U, 0x3d85b80bbdc86fd9U, 0x3d3c7fd2bdb3e776U, 0xbb233e62bd9b5fb8U,
  0x3d7237f8bd7e00e6U, 0xbc7eb8c9bb456c22U, 0xbdc7dd33bdcbf3cfU, 0x3c9f2f313d9bafd5U,
  0xbd8dd30dbd66bfe5U, 0xbdb9ecc7bda98395U, 0xbd53a7a5bdb64af9U, 0xbafe8a4b3d7a06d5U,
  0x3d5320c63cd7f447U, 0xbc89450a3ce3ae4aU, 0xbcacf438bb337366U, 0xbd6b73273d7d3f01U,
  0x3d0f39713dd7a771U, 0x3c7db974bd966679U, 0x3cc2aa6c3de026ecU, 0xbda9fc89bd835a1aU,
  0xbda99f5fbc0c9004U, 0x3b8d0ce43d8e3ae0U, 0x3baaa614bc173674U, 0xbd6dd746bd9ce07dU,
  0xbdb4406bbd94f80cU, 0x3d1c50fc3d5a3364U, 0xbc20ba753d683cbbU, 0xbbf03a093da77877U,
  0x3d590a303db01e31U, 0xbc2ac64cbc70c886U, 0xbd989d69bd51657cU, 0xbd359c67bc2e3c04U,
  0xbd6bfe903d404e19U, 0x3c9553b83dd53396U, 0xbd676865bc8e7138U, 0x3da03bfe3cbadf0aU,
  0xbcee7730bd17be20U, 0x3cb8d3713c04a648U, 0x3cb8a37cbd537843U, 0xbc1966753d8107f1U,
  0xbd0aad323d2548f0U, 0xbd96e2f5bd5977c6U, 0x3c2d60e0bd3e855dU, 0x3d71636f3cf8e81bU,
  0x3dcd21f6bd497258U, 0xbcea1296bda656b1U, 0xbb30ab2ebdc4f739U, 0xbdcbd257bd536276U,
  0x3bb67a41bd32d8c0U, 0x3d1e90b23dc20165U, 0xbd8fe84b3cc93036U, 0xbdaeaaba3c7369dcU,
  0x3c5f806cbda2d87bU, 0x3cddc2113d50775dU, 0x3def09d6bca4336aU, 0x3d97ac70bd94f2abU,
  0xbc996974bce134ecU, 0x3d3d287ebbb21b88U, 0xbddc6c853ddb2cdaU, 0xbbd28448bd15073aU,
  0xbcb24da23d970588U, 0x3dfa6d43bd0706b7U, 0xbce014c03cd9a251U, 0xbdab76a7bda0524eU,
  0x3d1748c3bdb9187dU, 0xbdd8d9e5bd6be15aU, 0x3dd1650d3ceb4bb9U, 0x3cce0de2bd52eda9U,
  0xbd30b27cbd039565U, 0x3d31b161bd36d0c5U, 0xbaf925dcbd097328U, 0x3d6071cd3ceeb479U,
  0x3d2bf9aabd811c11U, 0xbd8bf2bd3d11dcbfU, 0x3d9221943be86d0aU, 0x3d9d59f83d6c91f5U,
  0xbd7a5fc8bd15f973U, 0xbd2128e13e00859fU, 0x3d52418b3c8be010U, 0x3d4cf8e03ca57258U,
  0xbc0117933d809283U, 0x3db70b1abd6a6e1dU, 0x3d8dd09fbc25ac9dU, 0x3da068ca3d6cbf61U,
  0xbc99e6cabce5b864U, 0x3cda8a0abaa4ec5eU, 0xbd608bce3e047093U, 0x3dd91364bda937a8U,
  0xbce87a3f3cd1a6fdU, 0x3d82afcdbca7f423U, 0x3d7372a5bd219b60U, 0xbd23e7cbbcf33f63U,
  0x3e38999a3cb05dcfU, 0x3d8c5c2abd7e0a30U, 0x3df4926dbcfc2fe4U, 0xbda3c0edbd71022bU,
  0xbd0866233ddda0bcU, 0xbe1ac753bde844d9U, 0xbc263c8b3d2ebf69U, 0xbd0149a0bcb0c171U,
  0xbda582e63b1a0e15U, 0xbd46e7ecbdda5a03U, 0xbd73e8523d2627f0U, 0xbd95d823bd7ea97fU,
  0xbd006a5c3d9b4297U, 0x3cf735e33d01a2fcU, 0xbd236324bc0966e7U, 0xbd5a75bcbd90d99cU,
  0x3d4c275cbcae76feU, 0xbb938341bcea3644U, 0xbdac23953d65407fU, 0xbd7d98b4bdb3c6beU,
  0x3d31c46dbc163ac1U, 0x3d48d2763e125ab7U, 0x3d50298abdb3ab29U, 0xbd94acfd3bf43821U,
  0xbd13d4093c776894U, 0x3d8d5242bc832465U, 0x3d4d8e61bdcdd14dU, 0xbdc5dee23c9fe0acU,
  0x3c2feb90bae5abdeU, 0xbcd9f8e73d143e1aU, 0xbc87b8d93d98cdb7U, 0x3dccbeda3cdd4dbeU,
  0x3d7431a1bd881ea5U, 0xbdd4607a3bf51886U, 0xbda8d0063b8deaa2U, 0xbd26f32d3d7703f0U,
  0x3e2e5f91bdebc7dbU, 0xbcc2cb90bcd6f1ffU, 0x3cce38c13cf43eadU, 0x3d429d65bd13506dU,
  0x3e1ae3853dc86aa7U, 0x3cbc0ebdbdcb2da0U, 0xbd8b768d3d2fc2b7U, 0xbd3148c93d761f1aU,
  0x3ccb38513d3ded81U, 0x3b7f54a9bdb01e21U, 0x3d3ec8923d1fbdc5U, 0x3c8e6e813b89894fU,
  0x3d8cce5f3d522af1U, 0x3d3fb62b3db9db48U, 0x3d0667643d66eb21U, 0xbdd04f00ba986543U,
  0x3d57f6a33d583712U, 0xbd13f7d0bd1fd0bfU, 0xbca7c243bd26b6f3U, 0xbd2d13c23d8f4573U,
  0xbbca4c1dbdf1dfb5U, 0x3d5860363db19e34U, 0xbdf185d2be1105a2U, 0xbdb84323bdcd6bc6U,
  0x3d654835be05caadU, 0xbd2847edbd937cb2U, 0xbd0ba544bdc363dcU, 0xbdc28b123de5559dU,
  0xbdb59a89bb45f071U, 0xbe0fc937bdd3c1f2U, 0x3c3450e43da3aae5U, 0xbd201e55bdad493dU,
  0xbda6882f3d14d1e8U, 0x3d34e3e43d0ccd50U, 0x3d1d7ce03d20354aU, 0xbd2806bcbdaa6403U,
  0x3e30b4b8bdb6e415U, 0xbcdb6dbdbdac08c7U, 0x3da3d36dbd2c7421U, 0xbdcc7efdbd5c5222U,
  0x3d38445f3aa0cfb7U, 0xbdb993c6bdc33810U, 0x3c8c4788bcb230cfU, 0xbdc776423e15cf1eU,
  0x3ce0156a3ce3c71eU, 0x3d05b5c33b020672U, 0xbd98b0d43b551e02U, 0xbd90c81bbda79927U,
  0xbda290713d019d06U, 0x3d59a4833dbe86d3U, 0x3ca712debd6e84a4U, 0xbc39b4873d703142U,
  0xbcbc09c7bca9c6a2U, 0xbd9027b03bf3f09cU, 0xbd4c6b443d94561eU, 0xbdbaca4f3c895d4eU,
  0xbd6af4773cf928ebU, 0xbd3bf5eb3d7b4266U, 0xbd89fb5d3d922859U, 0x3cec35163db8736dU,
  0xbd159ee4bdbf162fU, 0xbc961e163d6e3cc0U, 0xbc0cf55bbda06b21U, 0xbd18934c3dd7ee66U,
  0xbc58953ebbb38b00U, 0xbcbe8acebcd2cd3cU, 0x3dbd12acbd7e631eU, 0xbdb4e4bcbd4ff2baU,
  0x3d0fac0bbd56441fU, 0xbd40de3dbd3e90adU, 0x3d45c5cabda61436U, 0x3cf433cc3d6ef240U,
  0x3dceea4e3d4cdbcbU, 0x3d68fb3fbd3c7d40U, 0xbcdf671e3c8290fbU, 0x3b0630ff3d1c7839U,
  0x3d086f313d7c5e95U, 0xbc321838bd4b8e54U, 0xbd0eabb6bd2edcefU, 0xbd850b05bd0f7a70U,
  0x3da18f753d519ad4U, 0xbd68908ebdb5a6ebU, 0x3d1f5d80bda2296fU, 0x3cd9130b3cf6abd7U,
  0x3cc536bebd31ad2dU, 0x3c9df1543d85bd33U, 0xbabbbc0cbd8d4ac1U, 0x3c35cd29bd3934f3U,
  0x3d1e84683c9cc5b2U, 0xbdb608ea3b123772U, 0xbd9b33d13da4267bU, 0x3c9df4253cd24009U,
  0xbd8c2e943d9ad618U, 0xbda1bc63bd706d86U, 0xbd8fecd53cea3303U, 0x3c96d5683da193fcU,
  0x3d4cfde53dc4a923U, 0x3d3e34c2bb91f15bU, 0xbc2fca5fbc87bd63U, 0xbd87349f3c35cf67U,
  0xbd647c4cbd90af2eU, 0xbd95d8743db98c33U, 0x3ce6c8f33db018deU, 0x3d92da81bdbf7d11U,
  0x3cf1e96cbdc64ec1U, 0x3ac966bebc6271a5U, 0xbd1d532c3d119071U, 0x3d21755dbd7e67c0U,
  0x3db599cbbdbbcf92U, 0xbd22b081bd924cf3U, 0x3b823600397ef6ecU, 0xbdc1929b3db4d4c6U,
  0xbbb51616bd9c84fbU, 0xbd9cdc283d0db16fU, 0xbdad09463c7335c0U, 0x3d4abba4bb559b51U,
  0x3cf00067bdc37138U, 0xbc2a1dd8bd816368U, 0xbc91c8663d7f56c8U, 0xbd813c393d090b22U,
  0xbdae24cb3d0d7f7cU, 0xbcbeb421bc6ed73aU, 0x3c34f35fbc8254feU, 0x3d2a19d2bd81c90dU,
  0xbd361757bcdefa81U, 0x3bacbf41bd7a03c2U, 0x3dc336cebd353ce8U, 0xbd6e53483d0bd53eU,
  0xbd257b8abd9bcc7cU, 0xbd6d3cc9bcb001c4U, 0xbdaed5d0bd8a2c6cU, 0x3ccaa778bdc124e2U,
  0x3d59c168bda4f26cU, 0x3d2c8935bb05bcefU, 0xbd8363e23cb4fa72U, 0x3d959079bd669b68U,
  0xbd3da827bdb7b4a5U, 0x3c20f180bd94d0e5U, 0x3c219086bd5cd0f8U, 0x3d9a3de6bceeb693U,
  0xbd9f0573baf72823U, 0x3d84caa03db123c4U, 0x3cc0924ebb6e1cabU, 0x3b98ad563d80338bU,
  0x3cf4c5ff3c50ca03U, 0x3d9f4bc73d608297U, 0xbd9a1d98bc006467U, 0xbbec25e73dac319bU,
  0x3da2cc24bd870650U, 0x3d80de163d9d46deU, 0x3db45608bd78bf5cU, 0x3d9ef5b23d19f79cU,
  0x3d115d48bab37927U, 0xbc987503bc59872aU, 0xbddcd65f3aa9783dU, 0x3d10b97f3d1abfdbU,
  0x3cdd1daa3af53f37U, 0x3d86c6c6bc344b4cU, 0xbc94be253cf287e4U, 0x3cd3d68cbdbcfca2U,
  0xbdbc9db33dca9a4bU, 0xbd96ea8fbda3e347U, 0x3d4bfaf1bdde6628U, 0x3dc40849bd843e7fU,
  0xbcbf046bbd6b0e46U, 0xbde776f9be07b1aeU, 0xbddb8430bd7fc7f4U, 0xbd5cc0033b13cac7U,
  0xbd181fdfbb48e168U, 0xbd4ab23c3d49111eU, 0xbd4ca05fbc4f8afdU, 0xbdcb6a31be0f6fedU,
  0xba9b7c983db6386bU, 0xbc29bf5dbe0cc8edU, 0x3db5b497bdfd918cU, 0x3ce996123d4404deU,
  0xbd19ad583d157ddaU, 0xbc5df53abe0dc881U, 0xbdf965533d160a10U, 0xbd949584bd28c1efU,
  0x3d1ba0d6bd8619c2U, 0x3ce02923bd885b4dU, 0x3c8a2f273c083fbeU, 0x3ceea952bde3fd28U,
  0xba130d99bc54507eU, 0xbe03de5fbdc8e552U, 0x3d95610e3d088fa7U, 0x3c9047473d8aa62fU,
  0x3d8646a63bd46badU, 0xbdb4f89e3da6c63dU, 0x3baa3289bda96889U, 0xbc239b0bbb6877f5U,
  0xbc30d741bd40fceaU, 0xbd3967873d96da56U, 0x3dda9bf9bd9701c8U, 0x3c8f22dfbd269ef2U,
  0x3d32ef2f3d5a7a07U, 0x3dc617b8bdd12e8dU, 0x3d1e380abd0f33c0U, 0x3ba8e8103ca59dacU,
  0x3cff3523bbd18dc8U, 0x3d8592373d97b4a2U, 0xbbbbf448bd4a9cfaU, 0x3d0189dfbd79fe47U,
  0xbca383693d074128U, 0xbd0363983d401df2U, 0x3d30d8c9bdbb3856U, 0x3d44bad43d069187U,
  0x3dabd8f43d39b9e7U, 0xbd03e6bfbdf7696cU, 0xbdb54e37bc68c7bdU, 0x3d9f145f3dbaf65fU,
  0xbd42c7873ddc8e3fU, 0xbdaff9a4bcdfc6c1U, 0xbcaa50d33d9233ccU, 0xbcd384a7bdc6dd81U,
  0xbd7830033d6431ebU, 0xbc94d5453cc9a7a4U, 0x3d3cb8a5bd97fc3dU, 0x3d1bb5eabc2444e8U,
  0xbd00bec03dbc0b23U, 0xbcd6bb5cbc8563bbU, 0x3b8521d3bb93753bU, 0x3c31cbe33d8b26b2U,
  0x3cb3f7dabd25af85U, 0x3c81385dbcd7d3ceU, 0x3d69a5dabd14d741U, 0x3c0f45fbbd72d48fU,
  0xbd35f48b3d790eb4U, 0xbbc082fb3d1ecaecU, 0xbd0fb4fe3ced9442U, 0x3dc66f713d8592c1U,
  0xbd71b48bbd714a9dU, 0x3c5aa5983bbdc940U, 0xbbaee4fc3c85e6e2U, 0x3c25af443d8b4f16U,
  0xbced4b763d6d3c91U, 0x3d069abe3d07023aU, 0xbd54cb32bc1b1d1bU, 0xbc7e7cf43d0f3effU,
  0xbd26b93d3d556fa7U, 0x3c9d1a6fbb875960U, 0x3c826aca3d2abe16U, 0x3dda0a0f3d8c3e4eU,
  0x3a03c7cdbd99a01dU, 0x3c7f02f0bd891b94U, 0xbdcf5158bd3581b4U, 0x3d746c033cff2363U,
  0x3daa62be3dd6d868U, 0x3dc404c73cae9afbU, 0x3d95fbeb3c437bb5U, 0xbd484cbabc9a1535U,
  0x3c69a979bc9986e1U, 0xbd88b070bad7f471U, 0x3cd7b06c3d98b5a8U, 0x3d9632fd3dbd60adU,
  0x3e019491bdfc19a3U, 0x3b77d78b3c711669U, 0xbdce763d3d560174U, 0xbd03b3163e00028eU,
  0x3cfa80d73c9c3464U, 0x3dbd331bbdb496b9U, 0xbd92848e3dc2dc20U, 0x3d41ef95bd4f8995U,
  0x3ba24ecbbda31907U, 0x3cb7d05e3c5c0a01U, 0xbdb59b633c69c800U, 0xbd8fdc4ebde1f513U,
  0xbc8f5e653d27d406U, 0x3dc67b903d8435a7U, 0xbd3b27b13d0f38b1U, 0xbc9e96febd20534bU,
  0x3c8122093c71d5eaU, 0xba856470bdb7cfccU, 0x3d2abed4bd7ff38cU, 0x3da2390b3da3552cU,
  0x3d27051b3d54b16aU, 0x3c14ff8abd785376U, 0xbdae505d3bad608eU, 0xbcaeabe73d50f20fU,
  0xbd2ad14d3d488cd9U, 0x3c9941b8bd89f44aU, 0x3d8d7fe4bcfd3b24U, 0x3d93a5183d18cbb4U,
  0xbda439f3bd9367e8U, 0xbd0078b13c9104bcU, 0xbc0ade763dd7e039U, 0x3c127323bc750c4cU,
  0xbdaf3de7bc87f822U, 0xbc7e2c043d3145e0U, 0x3d8f3fb6bd2fb9c9U, 0x3d254211bdbe0becU,
  0xbd8097053dce9949U, 0xbdc31b41bd95d673U, 0x3c8e48ce3d2569d0U, 0xbd988b6c3d4554cbU,
  0xbd15d6b03d8d972eU, 0x3cb1e2f2bda5a034U, 0xbdb5caa43c48792cU, 0x3cd280233d0df687U,
  0xbd85cf413d6a4499U, 0x3b232a98bd2d10ddU, 0xbc5fcc3e3d85a671U, 0xbbfdbbb0bd3cbc63U,
  0xbd6f7a85bdb8a9b0U, 0xbd3c9cf0bc84eb17U, 0xbd797c82bc9e52f5U, 0x3d618dfa3b5bb18eU,
  0xbc87d2ce3c8e29f4U, 0xbd936df53c6401eeU, 0x3daa6fd93d19c01cU, 0xbd5450e33bd97c2aU,
  0xbd14b9f8bd45291bU, 0x3d6d6f43bda9e1e7U, 0xbdb4f8db3d8b55c9U, 0x3d2dbc58bd4a8c80U,
  0xbd13a4ce3a9931e2U, 0xbdde4405bce89f4eU, 0xbd603dcfbcbd22eaU, 0xbd9aa0a2bd7c95f3U,
  0x3bb0dcb1bca6d28aU, 0x3d32c2bdbd3387a8U, 0xbcd20b3cbc824999U, 0x3c2064583db113b5U,
  0x3d9ca620bd287b47U, 0xbbe7d9143ba3ce61U, 0xbdd84a5cbd7cc04eU, 0xbd62b40f3d747a0dU,
  0xbdbabad23c962a20U, 0x3d0f2fc6bc56a2abU, 0xbcdd5e82bcf27514U, 0x3d64eaf4bc0ec1a9U,
  0x3d109d49bdc6df44U, 0xbd890c733db54ed1U, 0x3da1608abda6c230U, 0x3dbf52a93a5c8af5U,
  0xbd94f603bdcc78c0U, 0x3d8c1b733c6a873cU, 0xbcdc55c33c9cbb3cU, 0xbd85b99abd74c504U,
  0x3d6b7db8bcda94cbU, 0x3d1edca53da7f51cU, 0xbc21695cbb2f10cdU, 0x3d1c432abc2a5c50U,
  0xbd3bf65f3cc4e82bU, 0xbd1276303dbf259eU, 0x3cf19e6cbac62423U, 0x3bbc0008bd65ac4cU,
  0xbd8a5b67bc2bfd62U, 0xbc8606b93d811788U, 0xbc51a6f03d663367U, 0x3d1860b2bcbc0567U,
  0xbd9a1d733d364f30U, 0x3d068891bae1b23fU, 0xbd5cf7bcbd96324aU, 0x3d18576c3d9cd9c2U,
  0x3d11af053d7aed9eU, 0xbd1abb72bd08fa7eU, 0x3d8602c93d0f6939U, 0xbdf271ba3d244667U,
  0x3c9e6bfd3bd50169U, 0x3d343bc73d5f5d17U, 0x3dbd2491bd6483fcU, 0x3c95f1e33cd5fe2fU,
  0x3dcd070cbd590d93U, 0x3d8840ab3d634542U, 0xbbc639de3d402ffdU, 0xbdc5dec53e0a79b5U,
  0x3daf09af3dcc067fU, 0xbd42eec53c3272d5U, 0xbd8280333c88dcc9U, 0x3c60a7433d8234caU,
  0xbd669bcd3da11a86U, 0xbccba2493d4bc3a1U, 0x3bce5231ba206757U, 0xbd6fd6b7bc50d98eU,
  0xbbbb87b1bd64ce4cU, 0x3dc530f73d77f10bU, 0xbd5a3ef1bc9ef502U, 0x3d7aa9d13d4a5f52U,
  0x3cd1489d3b482674U, 0xbdb7d70f3cba4d9aU, 0xbd94d8d93d8be29eU, 0xbcb83ac03cb2510eU,
  0xbd0bb8c83c5a5e61U, 0x3c3a4b3b3d087dbaU, 0x3db681a63d97102aU, 0x3cdc1d5e3d1eac39U,
  0xbd3402453aedf69dU, 0x3d8b77b23ced2bb9U, 0x3dd1c4873dac269aU, 0xbd68a7bfbd31e854U,
  0xbd91afb83d385f6fU, 0x3d8a6c90bd4a883eU, 0xbd54a6103d928dbeU, 0xbb9793763d1cc823U,
  0xbc39fd14bc1132aeU, 0xbd164b4c3ce7d2e2U, 0x3d801f243d08b52bU, 0x3d920e00bcbcb76aU,
  0xbdef04813c61b448U, 0xbbb7e89bbd226d04U, 0xbd188b763cab96ebU, 0xbd72fecb39c7e96cU,
  0x3dcd8a6c3c0f36caU, 0xbd6db5c43d64f87bU, 0x3dd049f0bc29054dU, 0xbd166b2bbd0d6236U,
  0xbcdc2822bcea8733U, 0xbc770c90bafd4b5dU, 0xbc99ef013d6ab111U, 0x3b97b625bd918975U,
  0xbb88d6d73dbe502dU, 0x3d9eb4953cfbc19aU, 0x3dd07e65bc480e5fU, 0x3d94941d3d0bb6edU,
  0x3d8fd0babc80a873U, 0x3d7092873af376d6U, 0xbd6227eb3d140f40U, 0xbd025367bd90e7f0U,
  0x3da78a8f3da957e6U, 0xbc462cfabda5fdf1U, 0x3c8f0edd3b663efdU, 0xbc6546843d232445U,
  0x3d864e6fbc54c144U, 0x3dcf11fe3d8c029bU, 0xbc919f4f3d074686U, 0xba858c01bdab1410U,
  0xbcd51a813a928253U, 0x3d05dd69bdbbf736U, 0xbbc034fb3d8aafc6U, 0xbca1f3f8bdd9f611U,
  0xbd7989fbbd57503cU, 0xbdc9322dbd07c2bbU, 0xbd9097eabca59062U, 0xbc6f2311bd85f2b3U,
  0x3bf4ca18bdd82d85U, 0xbbc6a410bdcadbd5U, 0x3cfcdbc7bc5dd595U, 0xbdb5a156bdab0dc3U,
  0x3de0ba1a3dec4e1bU, 0x3cfabbeb3cbf5c31U, 0x3dd1a7903d4bae09U, 0x3cebded93d91dccaU,
  0x3d958b60bd8bff7bU, 0x3d481535bd1927e8U, 0xbd8b923c3cd36af9U, 0xbb352d133ce670d7U,
  0xbc0e0a6ebb978708U, 0xbcb63cfa3d91d951U, 0x3cb6390bbca8594fU, 0xbd57058d3ba2990eU,
  0x3d9ff1c73b16a1fdU, 0xbd2c3ca2bc7cfeafU, 0x3d98fee33ceb0261U, 0xbacddb24bd1b5f65U,
  0x3cb86f683c73a54dU, 0xbd0264b33db6d7b5U, 0x3d111530bd2592b9U, 0xbc9886e43d40a83eU,
  0x3d87b99bbd26b999U, 0x3df259723c7626deU, 0xbcd54156bd27c586U, 0xbd19182ebd44eb31U,
  0x3caf22543d765555U, 0xbc32ab51bdf6e995U, 0xbdd42429bcdaebd7U, 0x3d271ae53c3ea821U,
  0xbd9ca10abd8c8cb6U, 0xbdb01e65bd7fe5e5U, 0xbc93759fbdc303c3U, 0x3d3ca20bbe08b718U,
  0xbdc952273d2e6369U, 0xbd73fe0dbc3808b7U, 0xbcc0360b3d5247f8U, 0xbaffb108bd88dc54U,
  0xbbd701cc3de4e06dU, 0xbd0d7850bdd8e0c7U, 0xbd3fca703dad2bfeU, 0x3d2491473cc475b8U,
  0xbc61c9f23c653bffU, 0x3ca117553d7a1888U, 0xbde6188abd6c3617U, 0xbcc2dfbbbdca561cU,
  0xbd27d0b23cc02f26U, 0xbc608aeebd31f7d3U, 0x3d30e250bd6b4a60U, 0x3d6d05243dcf33e6U,
  0x3dadeaba3dad3463U, 0x3a8da835bc6366c4U, 0xbcfac1a83cb6e9cfU, 0x3de1d21fbd511a8bU,
  0x3d9365fb3d9ae640U, 0xbb5e142fbc9ad16aU, 0xbcbb81273d848794U, 0x3c999434bc6417ecU,
  0x3c84c947bc308c3bU, 0x3d4c3b7abd0dc76fU, 0xbd2de36cbd6fc0d8U, 0xbd2ef0d83ce8cb3bU,
  0x3da39672bdffeebbU, 0x3da6db91bdaa2a64U, 0x3d884334bbf3106eU, 0x3d811e5abd8986eaU,
  0x3df9a26ebdb27dbcU, 0x3d9bab71bcb2cbdcU, 0xbda9ee11b9fba38eU, 0x3d36dd0fbd507169U,
  0xbd43f34fbdb8cd26U, 0x3d2c9fae3da25fe5U, 0x3d8c22f6bdd04105U, 0xbd4b4bb6bde3d2d7U,
  0xbd5c74e83de86bfbU, 0x3d33f3f53d5040d8U, 0x3c97f3663d038e1cU, 0x3cf446f6bc9abecfU,
  0x3dc7e8013dae12feU, 0xbb9466c9bd14628bU, 0x3c35b15fbdc711d5U, 0x3c2beaf73d8c6dd2U,
  0x3d0f8f4d3b49cb3aU, 0x3dc94747bda54413U, 0xbba17e953cae55edU, 0x3c8241ac3c683196U,
  0xbccad6183b7456a2U, 0x3da073de3d0aa25eU, 0xbdad583dbdbb9b0aU, 0x3ca3bdfbbb207fabU,
  0x3bb10c533d0d81a1U, 0xbd10a4b5bcc65e09U, 0xbdd7bfbcbd7f59f8U, 0x3d43f2433dafea4eU,
  0x3d6eab60bc3ee24fU, 0xbd8f719cbd3b09c1U, 0x3cb381123b14d590U, 0x3d64dd613ca0294eU,
  0xbe044e483c099bf1U, 0x3d89ce41bd46cdf8U, 0xbdbe08eabd7b15e4U, 0xbcf2e8613cf2daa1U,
  0xbc80f0963d143e78U, 0x3cd913de3b7a447bU, 0x3be54261be04b49fU, 0x3c5d2f673b91599bU,
  0xbdd3954e3d994f7fU, 0xbdf5b156bd32f369U, 0xbd8e6750bdb8c6cfU, 0xbdf9f15b3d1dba21U,
  0xbc4148263bd93903U, 0xbcdeb5243cccd198U, 0xbcac57ab3d05052bU, 0xbd4b74563da9f555U,
  0x3d5e4663bd9920e9U, 0xbc0b7dabbba991e9U, 0xbd88e0823dd30900U, 0xbd21a3f43da5bd08U,
  0xbde7368d3dc6ee7cU, 0x3e09c5d13bbb126eU, 0x3da08253ba6db69cU, 0xbd9d370ebd6a8d89U,
  0xbdb12a6037e85e42U, 0xbdaeecda3c5586aaU, 0x3d60cbfbbd4bf7a8U, 0xbdd38cafbd1c8af6U,
  0x3d460a8d3a74331fU, 0xbcb89ccabca98e47U, 0xbd0875f5bb0e216bU, 0xbccb9046bd938f74U,
  0xbd8d99c83d2af437U, 0x3c8d60d7bd044514U, 0x3d46de1abd059f45U, 0xbdcd39ccbd1b4234U,
  0x3d5211acbc26f1aeU, 0xbd8b2891bd012e11U, 0xbd112d443dc42063U, 0xbd5badcbbd422999U,
  0xbd640109bd3d1868U, 0x3df0b4ea3d67dc5fU, 0xbd3b2fbdbd24c78cU, 0xbd0b80313d94142fU,
  0x3d5ecf9c3d20e5a9U, 0x3b71862e3b53fc31U, 0x3d8b8d1b3dd9a8d9U, 0x3dd5b3963cfb3c89U,
  0xbd1559013b6fdfadU, 0xbd6c2478bca26a56U, 0xbd21efb03d83be0eU, 0xbd161a7b3d31b991U,
  0x389ac5723d7d060fU, 0x3cb6d49abd8e3e20U, 0xbd6a7b88bcedff43U, 0x3d43cb87bd8f6d7fU,
  0xbd89229bbdb84938U, 0xba954a29be056ae7U, 0x3ba20c9b3d113104U, 0xbdc2fe4ebd8d30c5U,
  0xbdc3f223bd7808e6U, 0xbd1b3202bce0012aU, 0x3c7b579fbd791f7aU, 0x3cc3b77bbcab9ca4U,
  0xbc95dccf3d7d59dfU, 0xbcd28bd43d038697U, 0xbd6c04ecbde0d3f0U, 0x3c533b2ebd0579ebU,
  0xbd257f3b3c7829b5U, 0x3d7988a2baa1dcefU, 0x3d4cf96e3d040f5cU, 0x3d8e299e3cc5b8d1U,
  0xbdd09e4bbc9c3337U, 0x3c86882ebd38a126U, 0xbd484678bcae396aU, 0xbdac49c3bcbcda72U,
  0x3d26ad7a3d6cdc00U, 0xbd07252ebcf5cbaaU, 0xbd868e3dbdfb5170U, 0xbd7792a73c9897f0U,
  0xbb56b6e8bbacb2a4U, 0xbdacae68bd1f0ff3U, 0x3bb88eea3cd747a6U, 0xbd9896fb3da1c704U,
  0xbcd5de34bc8e263dU, 0xbdc3e3a0bd48b370U, 0xbacf3314bd9c347aU, 0xbd6db9cdbd72f02cU,
  0xbd953e2f3cb49d07U, 0x3dba1cc6bdd6bca4U, 0xbc1b8945bd7045aeU, 0x3c56dd6b3da064e7U,
  0xbd52c6a4bdf06868U, 0x3dc38140bd88d066U, 0xbd311ab5bd7b4d39U, 0x3d383c7ebdc45b79U,
  0x3dbb5aa4b9d7074aU, 0x3d9ca525bd4ef696U, 0xbdbd1d6a3cf2ba6aU, 0x3d1a90d3bdcccdd7U,
  0xbd2380553d775f6fU, 0xbdbb41483ce82d41U, 0x3c262ffdbdc634d7U, 0x3da5d033bd726316U,
  0xbd4b192c3c31a342U, 0xbd883f5bbb8b7b1dU, 0xbcdadaf9bda2f177U, 0xbcb3740d3d17d127U,
  0xbce42f83bd821ea1U, 0x3da72ef93de802cfU, 0xbb8e575fbd88127bU, 0x3c98d708bcfbff54U,
  0x3cb35fd5be013703U, 0xbd272e5bbcde6e3eU, 0x3a96f584bd5d663bU, 0xbdb96e0c3dc777f7U,
  0xbd7e7a4f3ccc077bU, 0x3d2a59df3c58c8b7U, 0x3ce693943d4c3ae7U, 0x3c30a46e3bd19befU,
  0xbcc2c1d6bda0937fU, 0xbd8210583cb3a52eU, 0x3d2728363d97c624U, 0x3d3876d43cfcbfb2U,
  0xbdc0989f3dc10f89U, 0xbd8cf552bc2fd177U, 0x3da96cb23cf6c064U, 0x3c0986483c937780U,
  0xbd09eac03d8cc25dU, 0x3e22228e3adb55adU, 0x3d0f0bed3d9a3576U, 0x3d8979f13dcf9c11U,
  0x3dc8d4e53c56d357U, 0xbcfdcd463db8f1c4U, 0xbd6ad6463c32f726U, 0xbd98493f3ce45bc5U,
  0x3def5d443def80a7U, 0x3d8a61173cef3ab5U, 0xbcf301c63cfdbacaU, 0xbcbde40bbb2e2dedU,
  0x3d0e571dbd8b6679U, 0x3d7e71aebd70d09eU, 0x3cf72a0e3d55964eU, 0xbd255bb33ddb6b64U,
  0x3d1dc6343d6ab050U, 0xbd9638483d46435cU, 0xbd0d9f2d3d33b93eU, 0xbe035b113d85905aU,
  0xbca569153baaff6dU, 0x3d9857f43dc1e9a8U, 0xbda8fc1f3d95ef1cU, 0xbdbe99b93d79d034U,
  0x3cce833e3ccf3abaU, 0xbcd92991bdb78d83U, 0x3d9ae5ae3d90ac31U, 0x3daede4cbbd2a90bU,
  0x3d3cd89fbcd98a0bU, 0xbda13a643d3e36f4U, 0xbd1141cebce984a9U, 0x3d1c0822bd9a08a8U,
  0x3ad86a9dbdb69cecU, 0x3d1d49373d8fa245U, 0x3bce8a30bdc85633U, 0x3db46632ba01045eU,
  0x3d93fbf03dbe73ebU, 0xbdd001233da22f05U, 0x3dac7afb3cc6294bU, 0xbdba0e3e3db90d5aU,
  0x3d346814bd1adfd9U, 0xbd0dcd92bdcb71a6U, 0x3c3ab9aebca5b1efU, 0x3c39af483cec0b63U,
  0x3d44b6043cf2305bU, 0xbcfa73d7bd74ff44U, 0xbd271d5f3d1d61d4U, 0x3d476fe23cb6c2a5U,
  0xbc9bb5aa3da0a9ccU, 0xbdbfb74ebd5c08e0U, 0xbcbd39a3bdbd012aU, 0x3d50f0493cff3420U,
  0x3da693a5bcae2f7aU, 0x3d413402bd78626cU, 0x3db85680bbed94a6U, 0x3cea62653d653e7cU,
  0x3da0f4cc3e04d743U, 0xbc06853a3b9f065bU, 0xbce3f7143d9dffffU, 0x3dac90a43d05c3bcU,
  0x3d305c7dbb776bf1U, 0x3dd1756fbc03509eU, 0xbcd9260cbbccde68U, 0xbdbc12acbb119621U,
  0x3d4f1126bd1e2aa2U, 0xbda60411bd20e6bdU, 0x3d9ae577bd4ada94U, 0xbd9d77e53d6e617aU,
  0x3d35c6b73d0c24ddU, 0x3da5f3c2bdb6887cU, 0x3d9640cfbd53b6e1U, 0xbceb75bcbcc15566U,
  0x3ddcc3eebdafb99dU, 0xbdd398fc3dacf121U, 0xbdab11ee3d3f62eaU, 0x3c24e4a8bc965ce5U,
  0xbd963e143c9da3d3U, 0x3da2b763bc2295b6U, 0xbb411e953da7fc02U, 0xbd3f4a7c3d89d8e4U,
  0x3d49d65abd9aad74U, 0x3d8c3884bd6ba6edU, 0xbdc101a93d11d954U, 0x3d88f367bdb35f42U,
  0x3d17789abd983d2eU, 0x3c2cc1713dae154aU, 0xbdaa0214bd15a1d8U, 0xbced2367b93c639aU,
  0x3d0f31f53d32a089U, 0xbd848f903d0d00d8U, 0x3d30c3313db6944cU, 0x3cb1ad33bd939503U,
  0xbd70df42bd8aad4aU, 0x3d9e9a1cbc4bbc5eU, 0xbd1f81d93d884f81U, 0xbd5459ae3dc82508U,
  0xbd8a6427bc1c193fU, 0x3c2788d0bc1a2a3bU, 0xbd33c783bdd9ba06U, 0xbd9e3f7fbc92ecefU,
  0x3d2b068a3d1d8903U, 0xbc90cc923d572afdU, 0xbc985fa13db814b6U, 0xbdf497583da22202U,
  0xbaf25435bda8d162U, 0x3da8a5bcbd4a92a6U, 0xbd6356b7bccc55d0U, 0xbd1da2e4bd89a706U,
  0x3d3ecd25bd55c33aU, 0xbddddc8dbb45d2daU, 0xbd5a093f3da8a69eU, 0x3bc308ea3cff2af7U,
  0x3ca88a713ce4c436U, 0xbda54b53bd17d66aU, 0x3c47749abd995a22U, 0xbd65dfd9bd9b7b0eU,
  0x3d057847bd1ab74cU, 0xbcc28933bd4713f9U, 0xbd3f89733d674f29U, 0x3c9af8cebd1a45d1U,
  0x3d3822d53c50593cU, 0x3d28d7013d4fe4f2U, 0x3c8d5d5dbd2c788cU, 0x3da46588bd2de670U,
  0x3d8176303d4ff75aU, 0x3dce5ab33d8bf472U, 0x3db975fa3da2f156U, 0x3decb3c03dbefd25U,
  0xbd7ab5cdbc92a80eU, 0xbd72c8ecbc97be67U, 0xbd6d1525bd5704efU, 0x3c53440bbd880374U,
  0xbd203d85bd201fe7U, 0xbd46af89bb12c38aU, 0xbdc7323ebda30d40U, 0x3cc10439bd811abcU,
  0x3c34f66d3c411957U, 0x3d92da4d3da74394U, 0x3db592cabdc19714U, 0x3cec5407bdc9d8bbU,
  0xbd9674e43d8e3a2aU, 0xbcfa0330bd9e4715U, 0x3cb40465bd6c2094U, 0xbd75ceabbc582309U,
  0xbdb6ce033cad5fd7U, 0xbdcba9b63d2d0582U, 0xbdbd9e4f3dd5897bU, 0x3babc947bcdf090bU,
  0x3cdc9ebcbd973961U, 0x3d8a5b4ebcfe3c8dU, 0xbdbb23d7bd46a89aU, 0xbd51cf47bd71029eU,
  0x3d084c523d3e4b65U, 0xbda75dc23c0bb071U, 0xbd6c3bbebd0390d1U, 0x3d8c134a3da53fffU,
  0x3c46b6ff3c99014dU, 0xbde8d10d3d5cc3d6U, 0xbd85c7d23dc82bfcU, 0x3d2cbf963cc8afb7U,
  0xbd8f2250bd8c9eb9U, 0xbd891532bc0acca9U, 0xbc5adf933c4b9f6aU, 0xbd698fc6bd7245acU,
  0x3cce6bb4bc9c5e4cU, 0xbcfcd3313d221e46U, 0x3d1b6b89bde4674eU, 0xbdd0dd27bd11887dU,
  0x3d9083f93d42f179U, 0x3dd31789bc52387bU, 0xbd06465e3db9d8a7U, 0xbd43b1c33d192687U,
  0xbd79a209bd50f286U, 0x3c5f180a3d96a5c9U, 0x3dc451623c0f7281U, 0xbdc7edeabd423736U,
  0xbd815552bd9c4a70U, 0xbd800f7cbde16ec8U, 0xbd0f0d543d26dc3dU, 0xbd5f8124bc964555U,
  0xbd2adde6bdd6c6ddU, 0xbe0ce89dbd299aeaU, 0xbdaa795f3e0b0d36U, 0xbd29b3523dc75a7eU,
  0xbd3479ffbd70ceb9U, 0x3d144443bbccd6feU, 0x3d0216e03d40af55U, 0xbd8a48703c06e5e6U,
  0x3e1048203b9de2b7U, 0xbdb38b59bdd93dc3U, 0xbdcfc976bda2e249U, 0x3d8decf03d86debbU,
  0x3d11081a3cb3254fU, 0x3c94c76fbd332c51U, 0x3ce083923d28b0feU, 0x3d098b6abda63787U,
  0xbce9c309bccde581U, 0xbb91fc55bbc2b1e7U, 0xbd67d7103aeda86cU, 0x3d947cd63c9de941U,
  0x3de238523dbe3286U, 0xbc71953ebcca8718U, 0xbda1f9ddbdd2111eU, 0xbdc85d8fbddf82d4U,
  0x3ce0f3943d28cdacU, 0x3ce206ed3d12ad53U, 0xbd817cf73d39e13dU, 0xbc96df19bd955132U,
  0x3d4de8213b880107U, 0x3cf41f4f3d548450U, 0x3d80bdafbd82f61bU, 0xbd6c0ed73dbc931fU,
  0x3d3e1a71bdb6f790U, 0x3d9db4083d499ae3U, 0xbd62c0f5bd1cb33bU, 0xbd8f13d6bc40c1ffU,
  0xbd5f4338bdad8b70U, 0xbe1c79a93d24c864U, 0x3d4cfe073da20a4bU, 0xbd7f9af63d935632U,
  0xbd0e4f903d51b518U, 0xbc72b53ebd85a5e6U, 0xbac025b33c81b846U, 0xbdbc59153dd9b574U,
  0xbaed9f193d7dedaaU, 0x3cfa4bae3c83766eU, 0xbd6df3493d65adcaU, 0x3c815b6bbd086584U,
  0x3db5ede3bde72defU, 0x3dba36383d42efc2U, 0x3c2af3cd3d3c7b79U, 0xbc27e4b8bd72e3a5U,
  0x3dad37613e0cd1a5U, 0x3dcb57ff3cb9a7c6U, 0xbd34fee03c4abcceU, 0x3e0ed2943ddf5ca0U,
  0x3dde972dbc17db96U, 0xbd088afc3d1f988fU, 0x3ce9811b3dc08185U, 0x3c246969bdc207cfU,
  0x3dd45af83d93aa29U, 0x3e3b089b3de04227U, 0x3dad0c1d3b28e321U, 0x3de1e868bd844b70U,
  0xbd0ad9a13d0e74deU, 0x3d49dbf23cc01635U, 0x3cc577253b10a7fdU, 0xbdcb85823d805d61U,
  0xbcb790b3bdd7e205U, 0xbd44e124bcc9abeaU, 0xbd98ffa03ca1ef90U, 0xbdcf5c7e3d59a0bcU,
  0xbd582ae6bbad1ef0U, 0xbd3b60a63dea1008U, 0x3d84f06a3ce87cf8U, 0xbd2ccdf8bd1d19daU,
  0xbd0b76be3daffc11U, 0xbcc0c06bbceefa2fU, 0x3be51ce6bcb6555cU, 0xbd0918223e0acfd5U,
  0x3d2cf8eabdd513b5U, 0xbda4cab73da72b60U, 0xbcdf3c7a3bebdfbeU, 0x3ced5be2bd971d4cU,
  0xbd5465cc3bff7a28U, 0xbd0581ca3c3cd5dcU, 0x3e0b16a03d2c861eU, 0x3cb3b0e53ccbf036U,
  0x3d962f56bd2fca41U, 0x3d97ff0fbd88f11bU, 0x3c707ad53d79dd67U, 0x3d2692813d74a3a5U,
  0xbc4ccd3a3dbcda57U, 0x3d73ed953de1f6fcU, 0x3c91e2083c952488U, 0x3d9b82393d066316U,
  0x3d10ef4c3e17477dU, 0xbb1a18ab3e28f41aU, 0x3bd210213d2a23e8U, 0xbd74004ebc3e064cU,
  0xbdb62a0bbd81e5aaU, 0xbd8341da3d4013d2U, 0x3ccb0e033db43f7cU, 0x3d4fd1733e035393U,
  0xbd70d5b0bdb479e2U, 0x3cbdb52dbd2cf8c4U, 0x3cf40fa4bc9e6bc6U, 0x3c4603473da71623U,
  0x3db5955c3d60b260U, 0xbc48c7723e131ea0U, 0xbcaddc373cd8d519U, 0xbe01640b3d09e662U,
  0xbd7293cb3d2ada5fU, 0x3d3548583d67ab03U, 0x3ab926433e0d5ad5U, 0xbdd285cc3ca31b15U,
  0x3d36ee1bbdee4a0aU, 0x3d0cd6f63d79dd2eU, 0xbdacb26d3c758796U, 0x3d4350b1b9a5ef8bU,
  0xbd231ec6bc915418U, 0xbdd632bc3ccf3dc0U, 0x3d738ec4bd7fa56bU, 0x3d9a8042be1892adU,
  0x3d7fd35b3cb48d4cU, 0x3c2e39693c8a73bdU, 0xbdc4bfbabcb10dcbU, 0xbdc570313d6bdb49U,
  0x3c9be534bd71e431U, 0x3d539e5a3dc4d129U, 0xbd16aa063bc94ef4U, 0x3d64ef5bbd70247bU,
  0x3d8034f53dc9c458U, 0xbaba85a63debf7f9U, 0x3c52c4c6bbdb4b05U, 0xbd025528bcdd1473U,
  0xbd8229c73da0bb29U, 0x3da8ee783d669d5cU, 0xbce75fdc3c4d0da6U, 0xbd9c9a933df3d20dU,
  0xbcb4c0f9bde73439U, 0xbcbc3d363cf93ad8U, 0xbdbca5023cd6b1bdU, 0xbc0b9d893dc352daU,
  0xbc81eba6bb99b436U, 0xbd6da30b3c072645U, 0xbba95bb33d46d55dU, 0xbd5bdbd13d7bf582U,
  0xbd0569b8bd97bff8U, 0x3d54f5633d0799bdU, 0xbd825c1c3e014d15U, 0x3a54d62b3e1962d8U,
  0x3bc62632bcdb9f38U, 0x3d34df7e3e0c2238U, 0xbcdf7d78bd14d7b0U, 0x3d1b2bc73d00fabfU,
  0x3d7016e33d4a2881U, 0x3d71ae083cafc5eaU, 0x3d2068c7bcf2a247U, 0xbc7a54a5bdc3c9cfU,
  0x3dc6c49f3ad29525U, 0x3de1efe7bd11bc8aU, 0xbde685603d4ad9b9U, 0xbb5439893e0cb0d1U,
  0xbde9ebf9bbb57876U, 0x3d378c5abcc8ce43U, 0xbd83d727bc30a602U, 0x3cedb41c3dc51417U,
  0x3db36b473dbafca2U, 0x3d1088723e13d4e7U, 0xbd0a356dbcb3c64fU, 0xbdd62d36bcea88fbU,
  0x3dc42799bda6383aU, 0x3d3b5b2b3d9c6892U, 0xbd849481bdd5c537U, 0xbd604c17bd81b61cU,
  0xbc8079903a96321bU, 0x3dc7be813c32a523U, 0xbd44ac733c9a567fU, 0x3d5a050f3dc71c08U,
  0x3d8f168a3d895dd7U, 0x3c3f986f3d2839a4U, 0xbd0061ec3dd5db14U, 0x3d91f898bcd7116aU,
  0x3ca36d743d103d87U, 0xbd799219bd1ec0e7U, 0x3dbd2678ba8a44d8U, 0x3d6a89213d5cdeebU,
  0x3deed6593c4119fbU, 0x3c0a865c3d3ecd47U, 0xbcf4ee0fbbca2a70U, 0xbd8eb82a3dfd3bcfU,
  0xbd8386b43d83d923U, 0x3df853db3baa0e59U, 0xbdeae363bcca6fa8U, 0x3d62c3b2bc997209U,
  0x3da5f5a1bd563915U, 0xbc71b300bd999b03U, 0xbaf4383b3d12b223U, 0x3dc5a63c3d63f789U,
  0x3c13919abdd77fdeU, 0xbc84acf2bd0b6a22U, 0x3d22c58c3e1e6392U, 0x3ca755a03df252a9U,
  0x3d3e0d98bd710381U, 0x3e1b157abd648bebU, 0xbce47f543db00b6fU, 0x3dadf3563d694248U,
  0xbbc409ebbc1f7b72U, 0xbcc6bc7e3ca42997U, 0x3d72db12bc240d19U, 0x3d53559dbdab6c6aU,
  0x3d40f1ed3d310bb4U, 0x3a8c87d7bb9ccb4bU, 0x3d8e8181bd6422d9U, 0xbd480ae73d0515e0U,
  0xbcc1f034bd123e54U, 0xbd30037f3cf9c1c6U, 0xbd3fcb1abd28e475U, 0x3dda34793d70066aU,
  0xbd8fc034bd071ccbU, 0x3d8f4ebc3d020a71U, 0x3c4eded5bda16f69U, 0x3d598192bd342df4U,
  0x3d8dba2e3c55c093U, 0xbd3d0ec13d121b74U, 0xbc95a278bd1191c4U, 0x3d8e3e21bd8b0e5fU,
  0xbd0acee6bd92747dU, 0xbdcba1e33d997f66U, 0xbcdf3f353cb3d6bdU, 0xbd7db6353d0564efU,
  0xbd46b99cbd73ce5bU, 0xbd9dec43bcc11935U, 0xbc57ca0bbc9123a7U, 0xbc4a619abdc68882U,
  0xbd9fe082bd576eb9U, 0x3bb4e67a3d8019fcU, 0xbc69a284bbb7ea67U, 0xbd97d4d8bd96432bU,
  0xbd605087bce8afbeU, 0x3c458f173c0d704cU, 0x3dc9d3cbbd82f684U, 0xbbf363b8bd1af66bU,
  0x3c8531bb3cb91602U, 0x3d670e67bdc07bb1U, 0xbd6009a3bdb164bbU, 0xbd0682a7bda752faU,
  0x3da6e6373b861c9bU, 0x3a6d4011bdad1d85U, 0x3d0ef1453c2042a6U, 0xbda7b7423cd2da73U,
  0xbcdb4292bd2b8554U, 0x3cca49c33c79f3e3U, 0xbcd1d9afbd99d77bU, 0x3bdb0a93bd374732U,
  0xbc8081afbbf83557U, 0xbcd69688bd955e18U, 0xbd9b1e2b3d2b7aedU, 0xbc2e601bbdc8ebafU,
  0xbc9e90d0ba1548acU, 0x3d541eccbd91dc7eU, 0xbd805361bdb69706U, 0xbe02f346be09038dU,
  0xbdb49714bb8eec9eU, 0xbc844da6bd9ca6f0U, 0x3d19841f3d058469U, 0xbd993e8cbe20feedU,
  0x3d9e3dea3d03b2ecU, 0x3ca3a89b3d50f826U, 0x3d7c8ea7bc42f395U, 0xbd9b924cbd4635b8U,
  0x3d798dc7bd5e6f95U, 0x3d84d615bdb0d5efU, 0xbdf2e1f73da375f1U, 0xbd56f91abdc935fbU,
  0xbdab6b693d1e8cf1U, 0xbcd83b16bdda4974U, 0xbcb4931ebc64a9d1U, 0xbdc0110d3d64fcd2U,
  0xbd54524f3d1a37d6U, 0x3c05e7d1bd8dfc72U, 0xbd244dd0bd630302U, 0x3db468783d6e9975U,
  0x3d100d6cbd35fdccU, 0xbb9cbd20bda12627U, 0x3d3b47babd950092U, 0xbcee91bcbcd17f2cU,
  0x3d4023d03d7d4a4bU, 0xb91b9c1bbcfcd929U, 0xbd2384073c8d3a57U, 0xbc3649e6bd089c6bU,
  0x3dc2b7a13ad6b293U, 0x3d7634cf3d9907f0U, 0xbd702c92bd9748f7U, 0xbcf1a478bd7eb6feU,
  0x3d3fde833da5f6f5U, 0xbc8147a5bd0d1edeU, 0xbcca8a10bd009b0fU, 0x3d8a9465bce46e70U,
  0x3dc250933cdbd07cU, 0x3dc17aed3d0b2403U, 0x3d19173f3d81d477U, 0x3c5293b1bcb42a37U,
  0xbd84e0613d98d9d6U, 0xbd53253cbcd1d9f6U, 0x3d7dfdc9bd0af042U, 0xbd31f51cbc195bc6U,
  0xbdc4bc453d8111a3U, 0xbc2787d8bdc24b24U, 0xbd965dd6bd525c9cU, 0x3d46888a3d19a2ddU,
  0xbdc5ec37bdd36721U, 0xbc0ae2533d9e9645U, 0xbc15552e3c477981U, 0xbd872a81bdbe2f69U,
  0x3be7857a3bf9b3eeU, 0xbd9fc64abd86db3eU, 0x3d86c4dfbcc948eaU, 0xbba26cf0bdb9a959U,
  0xbd8bc9653cbffc8aU, 0x3dab41873cbc8c58U, 0xbd8b2e903d5e99eeU, 0xbd99e5dcbd7b9abeU,
  0x3d66eaf1bd9b57b3U, 0xbd3eda2f3d678aacU, 0xbca5392abdbdfd47U, 0xbcc6f7e03d915f85U,
  0x3db25ae53d301725U, 0xbc8f1ab0bd8df2c6U, 0x3bb644a53dbe7ffcU, 0xbb85bb2d3d63ac81U,
  0xbd63d35bbcd66642U, 0xbd32f639bc025fc0U, 0x3d3962183d974292U, 0xbd85fe7d3da8c632U,
  0x3cd73f9fbd959703U, 0xbd202189bd9af3d9U, 0x3d3703cfbcd3c127U, 0xbd01bab73dbf0ad0U,
  0xbdaef2483c3eae5eU, 0x3daf6ddb3d3f8c5cU, 0xbdad33ff3b563b89U, 0xbd6b7fcc3cb4c798U,
  0x3d99c56f3be0377cU, 0xbd7308c8bdc0d0d0U, 0xbdb3599b3d9c7d6cU, 0x3c8be427bc65025bU,
  0x3cc207c73d00a4f0U, 0xbcd4a1813b1f1521U, 0xbd1c0fe03c4778e5U, 0x3d2198e1bd5a5045U,
  0x3dab6cdf3d9d64d6U, 0xbd9b3cd1bbfa20a0U, 0xbdb9d32dbdcbc419U, 0x3c97d19fbc9ae20dU,
  0xbc5730cbbcb5417cU, 0xbd612e903dbf589fU, 0x3d27cb723d69d02fU, 0xbd0c3ab2bcaa3299U,
  0xbdbf374abd6a2431U, 0x3db24d5f3db72b0aU, 0x3cea8256bd9d3942U, 0x3dd508263b85dbb1U,
  0x3d5d5b49bd3377e1U, 0xbd8084b6bd9405a0U, 0xbdbdc779bda419ebU, 0xbd64a1603ca4015cU,
  0x3d2c8629bd505430U, 0xbda6a9373d41bb28U, 0x3c605c76bcd0cd8fU, 0x3d8c1730bb5cc317U,
  0x3da6d8043d31a33cU, 0x3c86b579bd682d91U, 0xbc28b9283bcd26c5U, 0x3dbb52babb4ab988U,
  0xbd67a812bd681921U, 0xbdca0076bced4550U, 0xbdbb41053daac8c2U, 0xbda944343d2f333cU,
  0x3c4a87db3d198d50U, 0x3d82305b3b0275d7U, 0xbda19f503daece94U, 0x3dbbbc2e3b901840U,
  0x3da894ed3c01fae0U, 0x3d873214bd98f7c8U, 0x3cc19e5dbd94883aU, 0x3d12d56cbc846797U,
  0xbd8a060fbd713931U, 0x3c4e8bdebe031b20U, 0xbce9dbc0bddaa6f5U, 0xbd73c0113d4b1b24U,
  0x3d772ef63dd03e0eU, 0x3d0c6850bcea014dU, 0xbdb98bbabae37202U, 0xbcaba60dbc316960U,
  0xbdae87c03e09e234U, 0xbdd9e1bd3d864277U, 0x3c667723bde9657cU, 0x3d5ab699bcac5c75U,
  0xbd4c6b03bd63af9dU, 0xbdd48f61bdd7063eU, 0x3c5514d3bca560ebU, 0x3c572fb5bd203b39U,
  0xbd98e7a93d512e8bU, 0x3d34f1b33c8ecc56U, 0xbdbeb15cbd587123U, 0x3c9df1a5bdc8c0daU,
  0xbde21ca73d1c7f44U, 0x3da99213bcb5f29aU, 0xbcf5ccd13cf3a027U, 0x3cf05f48bd9d9a5fU,
  0xbcb283d23d3dc5afU, 0xbd92c43fbda1a9b7U, 0x3d660677bb2c8d4aU, 0x3d269e7a3c7c786aU,
  0x3dc1e13abb582996U, 0xbc5ea436bd236b92U, 0x3c5731713d6da732U, 0x3d6ae057bdf627bdU,
  0x3d45b38e3d96eef0U, 0xbda77de5bd8baf06U, 0xbd7f7d68bcfa7952U, 0xbdb7c5eabdbdfa40U,
  0xbd7e08b83da6c669U, 0x3c656ea7bd8dc05dU, 0xbd61132c3d73eca4U, 0xbd9f9a73bd87bbffU,
  0xbd84c0b23dca4421U, 0xbbe6772abd0c024cU, 0xbc35ff25bcc52a44U, 0x3d1d9c83bc88ffedU,
  0x37e6cd723d5c2ae8U, 0xbd3ec04ebd889154U, 0x3d84cd4cbdfd51f9U, 0x3d1f1e59bcdbf8fbU,
  0xbd52bef23d27042cU, 0x3d6f77e1bd880f59U, 0xbdad31ff3d1b0c6cU, 0x3d7322223d784d8cU,
  0x3da8182d3ce9284dU, 0xbdaf72d23d573d55U, 0xbd46e53bbdabf523U, 0xbd4f6740bc2bc011U,
  0x3cc5d5253cb35cb3U, 0xbc06e6c83d07da6fU, 0x3d9a3bc83ca45b9cU, 0xbdc7223f3d018d93U,
  0x3d82b0dfbd8e082fU, 0xbbe32037bb66916eU, 0x3d2907b33d45d63bU, 0xbd5d5fc93af50aabU,
  0x3d67a2273cfb70f1U, 0xbd6fe7f4bd2414d7U, 0xbd54180cbd75caf8U, 0xbdca85cfbda785a0U,
  0xbdd2490dbb6c0bfeU, 0xbdca4eca3d7b8bf7U, 0xbda285893d2eba6bU, 0xbd24878c3d838df1U,
  0x3d3576653da76ecdU, 0xbd986630bd11a269U, 0xbd3760f33d4ca31cU, 0x3bb0f73abb6ce04dU,
  0x3d9eec833d0c6d2eU, 0x3d26e0ee3dbb9f81U, 0x3d1e43aabc17318fU, 0x3dbd69703de1e825U,
  0xbb47be20bd37134fU, 0x3cd728f13cd4b490U, 0xbd8f99913e2a4283U, 0xbd17ab163dbbdf7cU,
  0xbd525ea53d641a91U, 0x3dd4717ebd4aaef8U, 0xbdbb4eef3c9c1ab2U, 0x3d745e763b95eadfU,
  0x3dfd4da53d81ee3eU, 0xbd8be4683da476f2U, 0x3d053789bd947e70U, 0x3e1e47ad3dde063aU,
  0xbd6b2db4bddd9da0U, 0x3d0fafa1bc67fcddU, 0xbd3810ecbd839791U, 0x3d8a3e2e3e3aa30eU,
  0x3c9c2b78bd89f93dU, 0x3d835227bd821758U, 0x3b212674bd1cf7c0U, 0xbdc5faf6bd1d484aU,
  0x3cd387d83d2c5991U, 0x3d2e00b63d061207U, 0x3dcb815f3a615922U, 0xbd6defb63d5e2649U,
  0xbd9b956bbd97523eU, 0x3ce752b3bdb5c788U, 0xbdc04d443de48982U, 0xbcbda2f83dab9e68U,
  0xbbf5e0b5bd45dd01U, 0xbd76c26b3d322f37U, 0xbd68d3e23dca0a27U, 0x3dea24e63e0058d5U,
  0x3ddddb5a3ceb44d0U, 0x3bbb567abd753829U, 0x3dd5c6de3d4ccbf3U, 0xbd8d38f33c6c9004U,
  0xb9bc330f3c74174fU, 0x3ca8b6a33dfa61b8U, 0x3de179ff38d5402aU, 0x3d6f3ebb3d196ddeU,
  0xbcc4ce82bb9cefb0U, 0xbb4eaf883d1df6c4U, 0xbce15d6a3c8ba908U, 0x3cc323213e0d403fU,
  0xbda63ac1bc536e89U, 0x3d0d8cb53d8d3840U, 0xbc7fe7b9bd13b33eU, 0xbc0dcb58bd4563c5U,
  0x3cfd2f88bc97a1fbU, 0xbd7c78d8bce7bd3bU, 0xbd06f8e93c95e31dU, 0xbd5c8da43d65148eU,
  0xbcfce3d5bc2b4403U, 0xbd4dac6f3d8709ddU, 0xbd4719253d1f956dU, 0xbc09ae5f3dbae41dU,
  0x3cd8c044bda9d7b2U, 0xbd6f4af73d882de8U, 0xbd3dee95bd9c22dbU, 0xbd8b66093d1acd10U,
  0x3dd25ed93d2aeabdU, 0x3d368dbfbd81f2c7U, 0xbc9b50f53ca566e2U, 0xbd99e130bd2033bbU,
  0x3d61d6d03d34c8f6U, 0x3db07267bc9504a1U, 0xbdbd5a45bc063896U, 0xbc85ad68bd3ce0b8U,
  0xbd123723bcf472f1U, 0xbceb94adbc2005ecU, 0x3d87f2e7bd1c29fcU, 0x3d69241abdddd341U,
  0xbdb51594bdadb61dU, 0x3df2ce323dba5a78U, 0x3c1ded3bbd4bc4dfU, 0xbd44f752bce2fa6eU,
  0xbd7ec12e3cc73fd8U, 0x3cf76b58bce858afU, 0x3d99e971bd85e9d7U, 0x3d0a56f03cd038c8U,
  0xbd86f08cbc2bca94U, 0xbdd64df73d92aeeaU, 0x3a5cc8bdbd823797U, 0xbdc861193cc012cbU,
  0xbd1e20523cf679b1U, 0x3d2752453dc0fe2bU, 0xbd892cd53daa0c00U, 0x3d523e6abdb22b45U,
  0x3bd46314bd38a8dfU, 0x3dcf4d963dce7f4fU, 0x3d5eefc8bda8aa8eU, 0x3b645971bd47122aU,
  0xbca4de0bbdc284f9U, 0xbbb8fb7c3d1995e0U, 0x39130b16bd95cb1bU, 0x3c1196fa3d785968U,
  0x3c5365183caf37ccU, 0xbdee1dbebd1111ebU, 0x3b95843fbc8b1946U, 0xbbbe1d2abcfc3397U,
  0xbd0d9fa2bd91de97U, 0xbce9d14f3cf0e04eU, 0xbd0db6debd7f7eceU, 0x3d889b0e3df95da0U,
  0x3d7891d5bd5580e0U, 0xbdac84da3c92f66fU, 0x3d6bdf573d84a51aU, 0xbd43b9cd3d74916dU,
  0xbd393a1f3cacb6d6U, 0x3d8bbf073d07250dU, 0x3db26f5c3d8e1ec7U, 0x3c3de354bc9fd149U,
  0xb9ae376d3d8cf854U, 0x3da191563d887886U, 0x3d96a5e13c8b6e79U, 0xbdcd4dc53e181691U,
  0xbdb099b1bc7d8f8bU, 0xbdab7ed73e1a5261U, 0x3d348c0dbdd8543cU, 0x3c6ac6e13c38c7b8U,
  0x3dd55d0abdb81eadU, 0x3d91e1823d2e3c26U, 0xbd861505bd85c4a7U, 0xbd7b153ebd479db8U,
  0xbc4f76f93d2d9a3bU, 0x3d07bc403d670170U, 0x3d9851833dd67b35U, 0x3d31a1143d3966b4U,
  0xbd4ad4f0bbc7c035U, 0xbd81ee3839bc2ca7U, 0xbd6736543da38ef4U, 0xbcd0f321bc906ba8U,
  0x3dd76f26bb24fa6eU, 0xbd8986cf3c18021bU, 0xbcc40d9dbd529067U, 0x3d516ae83ddbaae8U,
  0x3d5fbca1bcd30e0cU, 0xbdaa556fbd8d5375U, 0x3d5f89603d2ae90fU, 0x3bc2d1d6bb05a40bU,
  0xbd4945d93c9ee8e9U, 0x3db866f9bdd43ae0U, 0x3b95a187bd14aa83U, 0x3d7700503d4f20b2U,
  0x3ced2267bdc1b4aeU, 0xbe0969aabde01d45U, 0xbcae25053d78faedU, 0xbca131d93d951074U,
  0xbd1bf8213d3d55d7U, 0xbd9bd8df3d8aec87U, 0x3d8b32ffbb9a3afcU, 0x3d2bbcb63d01fd9fU,
  0xbc8b75f0bc75d54aU, 0xbd0ebdb2bd40fc0dU, 0x3dda32ca3dae4caeU, 0xbc941ce33daccb43U,
  0x3d232f1dbd1bef77U, 0xbda2253ebd11aafdU, 0xbd32ef163d98dc29U, 0xbc364cf9bd90368cU,
  0xbd9858bb3c999916U, 0x3cf5db683d8231a5U, 0x3d7c57cc3d440b34U, 0x3d5b18d03d60ecd9U,
  0x3dfc719cbd954ad6U, 0x3d81e0a63dab2959U, 0x3ceeaa28bd990485U, 0xbd782ed0bd4c90a3U,
  0xbd5c252b3d90e8f1U, 0x3dc6dad8bba6b960U, 0x3d7cb75a3da21576U, 0x3dd391af3afa2e80U,
  0xbc1147d6bc824408U, 0x3d3cd773bd7839d9U, 0xbd31eb28bdb150c8U, 0xbd8d59c4bd53ceb7U,
  0xbd058228bdf0ea1fU, 0x3d8500933ceaa23eU, 0x3d56a60cbd760220U, 0xbd2caa683dac2818U,
  0x3dac89dbbcb308a4U, 0xbe212fe03d4023ceU, 0x3d1a2acdbdabe536U, 0x3d34e940bcca55b8U,
  0x3d5e23a3bcbe0a4fU, 0x3c957f253d4d944fU, 0xbd9e1a52bde301cfU, 0x3d88f023be05935eU,
  0x3dd1b764be0fd1caU, 0x3bf8f3d6bcfe07bdU, 0xbd369fc5bd87c715U, 0x3d4139133caea25fU,
  0xbd1a6fad3d2a29c7U, 0xbccdfe6bbd3f6989U, 0xbddc0bfbbd6a4a3dU, 0xbd1bcff0bc81a3acU,
  0xbce43e68bda714aeU, 0xbd3827e03c410dd6U, 0xbd800d8abda8dda2U, 0x3dbd4a8ebd96c5b4U,
  0x3dd32cefbd80badcU, 0xbc87e0d7bda16ae6U, 0xbcfb1a4f3d819935U, 0x3d25c7473d13cf3cU,
  0xbd60b75c3db71cb6U, 0xbdc44bab3d8e8031U, 0x3d11968e3c8b7243U, 0x3ca9d5013cb23adeU,
  0xbdb32ed73ce64320U, 0xbd5c3d29bc0533faU, 0x3c93c240bd5ae195U, 0x3cb18286bdf18469U,
  0x3ca507b6bcfd781aU, 0xbd7c0821bdbcd931U, 0xbd94b6dcbd725b90U, 0xbcb22fe93dcbbd24U,
  0xbc46b0f9bcba7220U, 0xbe19484abd536771U, 0x3ca20a993d9e162cU, 0xbd6b4f823ded6fc6U,
  0x3d94aa85bbbf6d67U, 0x3cd714613d45f036U, 0xbd8457ee3b91276bU, 0xbd65f05abdce5ad6U,
  0x3d730df4bd5de4fdU, 0xbdcab0173d68801aU, 0xbd06981e3d0cca47U, 0x3c1b168abd029423U,
  0xbccc48dc3d4c82e8U, 0x3c9ce567bd9929d5U, 0xbd9e54c33d539324U, 0xbdb0e06ebc75ffaeU,
  0x3cf730c23bd0430fU, 0xbddfbfafbd92099bU, 0x3d396c1ebc8827a6U, 0x3d34f919bd8ba7e0U,
  0x3dde96f53db56883U, 0x3dbec2803d89e8efU, 0xbc97746f3de4cceeU, 0x3dcf093d3d9d9364U,
  0x3dc462ec3dc064fcU, 0xbd8ca5903dc5937fU, 0xbcd4582e3d072124U, 0x3d836656bb9e27b3U,
  0xbd7797003d6b7044U, 0xbd0b419bbd8647a2U, 0xbd0a77fb3d05df22U, 0x3d320d7a3d199b00U,
  0xbc95740fbd821c13U, 0xbdb4caca3d4a5118U, 0xbd24e636bc0f2918U, 0xbd24ad993d2c2cb3U,
  0xbbb4a070bcd40a19U, 0x3dc734e939c67366U, 0xbd2a4d39b9c689d2U, 0xbda105af3dc88bc1U,
  0x3c5a037f3d8e1c46U, 0x3ceb2f3ebdf4d91eU, 0x3d3ed5283d12737fU, 0x3d24db7abd69ecd8U,
  0x3ae046dabb66052aU, 0x3d2a92c43cf0bc9fU, 0x3c7877dfbd8f7168U, 0x3d4b27743c12319eU,
  0x3c110faabdadd4dcU, 0x3d99984abdea4600U, 0x3d0e6c6f3d12884cU, 0xbc5fa042bc822f81U,
  0x3d9d7cf53d1a3844U, 0x3d0b972c3d88b2e6U, 0xbd2e2eef3da26d1fU, 0xbaef1be23ce4e385U,
  0x3b369d7b3d58a391U, 0x3cce3b9e3c871465U, 0x3d846c79bd504e32U, 0xbc66f77e3c329f38U,
  0xbdaaa3243d61a403U, 0x3d658093bd31c217U, 0x3dfaeecbbdca6566U, 0x3d9047f53d75b552U,
  0x3d8cf0f6bd801808U, 0xbd576994bd0c1bfbU, 0xbd91c402bd76875aU, 0x3d40ae71bd5c126aU,
  0xbcd7a17c3da3da63U, 0xbda7b4903c98e73cU, 0x3c9287903d897cf0U, 0x3d47b68e3df08d56U,
  0xbd0d0808bdb087e4U, 0x3ce7fdb13d021db7U, 0xbc67627fbb33d9bfU, 0xbc4805133dca5dcdU,
  0xbd96724cbc725284U, 0xbd426fc4bd2c1dc7U, 0x3d9157833cd21f7bU, 0xbdaf039a3d2c9deaU,
  0x3d17b8d53d5d16b8U, 0xbd2663b73d95fa4fU, 0x3d82a4773c1c4284U, 0xbcc0a299be06b447U,
  0x3cbe094b3d63acc7U, 0xbd89a94bbc38b56cU, 0xbdbe748bbdddae04U, 0xbdc633a03db1bd09U,
