
/**
  ******************************************************************************
  * @file    cnn_data.c
  * @author  AST Embedded Analytics Research Platform
  * @date    Thu Apr 28 15:39:21 2022
  * @brief   AI Tool Automatic Code Generator for Embedded NN computing
  ******************************************************************************
  * @attention
  *
  * Copyright (c) 2021 STMicroelectronics.
  * All rights reserved.
  *
  * This software is licensed under terms that can be found in the LICENSE file
  * in the root directory of this software component.
  * If no LICENSE file comes with this software, it is provided AS-IS.
  ******************************************************************************
  */
#include "cnn_data.h"
#include "ai_platform_interface.h"

AI_API_DECLARE_BEGIN

AI_ALIGNED(32)
const ai_u64 s_cnn_cnn_weights_array_u64[ 50827 ] = {
  0x3da965743d81d383U, 0x3cd3b86bbbfce0a7U, 0xba1f8102bdaf0c5dU, 0xbd780b763d42638eU,
  0xbdb736e73c6778e9U, 0x3d9a7e723d45c245U, 0xbd445bf5bd896a24U, 0x3d9cb590bd8e6bc2U,
  0x3d1f4eff3d0ffb44U, 0xbdc1be40bd49be6bU, 0x3d11cfe6bc9f54c8U, 0x3c3fd9463d84e632U,
  0x3cf73572bd8f01ffU, 0x3d209503bda6be4eU, 0x3c9d4022bc17c5faU, 0xbce9d5173d8c0f0eU,
  0xbd9af634bce1ca18U, 0x3d5721aa3d97e354U, 0x3d1120793d2a10b5U, 0x3d417c02ba3425a3U,
  0x3db88c1a3daa48f5U, 0xbd00798bb9fbc086U, 0x3dae47bc3dcf30dcU, 0x3cdd851abd97aafeU,
  0x3d953b3ebd36a0f7U, 0x3d0ffaa83b0c099eU, 0xbcbf4967bd6f0671U, 0xbd94aaa8bd7a1131U,
  0x3d976040bd0d39caU, 0x3d4460fc3dbdcdb4U, 0x3d4670c83b399002U, 0xbc0677533da5ddc8U,
  0x3ac6c1633b093383U, 0x3d05e60fbc73cd25U, 0xbcc4503cbd9f1d9eU, 0x3d8482243d69aa00U,
  0x3d9c9ce5ba577b31U, 0xbce9fe6e3dca5ecaU, 0x3dba458e3d9bdb62U, 0xbbaa699e3d44887fU,
  0xbd1f0a493dad1e9dU, 0xbc54269b3d78e2a7U, 0xbc1493e03dc00ffcU, 0x3db76e673d604ddcU,
  0x3d3af8863d938189U, 0xbd0ebf2c3da41d39U, 0xbd8e468a3d8dcb8aU, 0xbd94d7103b8e0fb9U,
  0x3d7c5391bd59b13eU, 0x3d605c04bce561b1U, 0x3b932b763d21e741U, 0x3d088a903d851944U,
  0x3d9f90babd9465d4U, 0xbd8304753bbb539dU, 0x3af7cca23d7a4e1dU, 0xbd1244583cde2842U,
  0x3d49d7bf3d36e54aU, 0x3d8c4b863d960e3eU, 0xbac1d5273da5e3bdU, 0x3d1542a0bc45ac20U,
  0xbdcd6252bda8dae3U, 0xbdd4c8693cd97519U, 0x3d8474f6bd96c1e0U, 0x3dd18314bd945be5U,
  0xbd31e95bbdbda6d3U, 0x3d9cada2bd4bec3fU, 0x3da5f2bc3d952c9eU, 0xbd443d6dbcbbba25U,
  0x3ca82d31bd1bda41U, 0x3d9e999f3cc7bd8eU, 0x3d8f59db3d1cbf57U, 0x3d227fb53d3e165cU,
  0xbd9d22863ca24846U, 0xbc377022bdcf08b1U, 0xbda96ee3bdb13ca2U, 0xbd5de93a3d7247d7U,
  0x3d9450e33dae6769U, 0xbb94f12dbd3152a0U, 0x3d7b7bf5bd9a5b73U, 0xbc1a6eaebcce3d1cU,
  0x3da0f5a43d5f907eU, 0x3d4dcf41bc3c255fU, 0xbd88a4c5bcbbcb7aU, 0x3c87bb493d62fbf6U,
  0x3cda04813d3ba40aU, 0xbd9329ed3ccf5985U, 0xbc99c4063d6b7e7fU, 0x3d921958bd02e457U,
  0x3d4261a13c125338U, 0xbd5ebbf53de7d318U, 0xbd73602fbdecae6dU, 0xbd5da89f3d91e888U,
  0x3ccc56ac3d899905U, 0xbb0bdd3ebcb0f495U, 0x3dc5afd93dd9730fU, 0xbc086086bddc5fffU,
  0xbc382ef4bd095466U, 0xbd48dcc93c243d3eU, 0xbd60d71bbc544b5fU, 0xbc2fcee3bc8d1e0bU,
  0xbd962e563be96eb0U, 0x3dd88bf53dbd2b51U, 0xbd85ff603d7e3929U, 0xbd3d2451bb97b586U,
  0x3bddfa9f3ccb94a0U, 0xbda14aff3ca18220U, 0xbd680205bc365999U, 0xbda92f4d3dd37957U,
  0x3dcbc79abd67bc43U, 0xbdac1333bd5b2a1cU, 0x3c6f769fbddca28eU, 0x3d1639133dc36b20U,
  0x3de92d893de4563eU, 0x3da3c9e7bdb43268U, 0x3d83b4313d59451fU, 0xbde8473f3d88596eU,
  0x3d9f028abcade489U, 0x3ce17473bda2c84bU, 0x3d0f777fbcaa2cd6U, 0xbb784200bd406ed3U,
  0xbd9e1918bcbff602U, 0xbcd90c143d3520ddU, 0xbd4bab07bd3365e9U, 0x3d06c0523a954434U,
  0xbda22b153c4f4bb8U, 0xbe1182233dcac081U, 0x3d853fde3abb7648U, 0x3d9060be3d96f288U,
  0xbd9fb065be00b27bU, 0x3c66f75c3e155cc9U, 0x3cf36855bd163f7cU, 0x3e039416be0df2c9U,
  0x3d23f9463d101782U, 0x3c49a94cbdd07116U, 0xbcf96e733d9b39cbU, 0xbdde37953c237d8dU,
  0x3d820733bd7ac849U, 0x3d80dde5bd862e20U, 0x3b4891a33dc3a7f9U, 0xbd56020fbc379787U,
  0x3d399e9fbd70346eU, 0xbca969823d6f6e03U, 0x3d8845b9bd9c88e9U, 0x3d097b6c3b06f01dU,
  0x3d348555bdc3ce6bU, 0x3da8af803d6f4f15U, 0x3dc1772d3d36cdb9U, 0xbc7d97413d97f1a2U,
  0xbd4ab4b2bdb28664U, 0xbd9c10793d102306U, 0x3c66bcfabcfb6be4U, 0x3d9db37e3d5750a2U,
  0xbba8be63bc4918daU, 0x3b779974bd02c877U, 0xbd939259bc0e559dU, 0x3da667b2bddc0a83U,
  0xba9f8a10bc07266dU, 0xbdafa5723d16d650U, 0x3c8631a7b9d06258U, 0x3c26ec843c374d25U,
  0x3d9c30ebbd0117faU, 0x3bd3d7f13dd1d530U, 0x3d09c52c3d8930c6U, 0x3d7f7d9cbe11bf8fU,
  0xbdb99aed3de5a400U, 0xbe168bf83d6583e6U, 0x3df2c9213caff7a0U, 0x3d78a9eebd510412U,
  0x3db402cbbdc93d78U, 0xba9142903d2a278dU, 0xbe1a714a3c117aa7U, 0x3df6ccdebca37a09U,
  0x3d821848bd012bc1U, 0x3dca303abe048f8cU, 0xbd8928113d86bca5U, 0xbd48708abdb48f21U,
  0x3b4c520c3cbae1f4U, 0xbe25035a3c75a579U, 0xbcb55bb0bd3ba527U, 0x3da535143dd29cbcU,
  0xbbf6e326bdd8bd34U, 0x3d814d193d34cbd8U, 0xbde0ac383cd6dc28U, 0xbcd1d7ccbd5ef488U,
  0x3d526c8f3dc2d4bcU, 0xbd591ddebdf7561eU, 0xbc3ee63c3d712f1cU, 0xbe250b703d0c63f5U,
  0x3db70fa43d192346U, 0xbd07ecb33d889584U, 0x3d933875bdea634cU, 0xbdbe90ce3c7bcea8U,
  0xbdda820b3da52c88U, 0x3df30e483df78a48U, 0xbdc1646dbc495fa1U, 0x3c9244b9bb963412U,
  0xbd98fade3e0139aaU, 0xbe108727bc9ceaf0U, 0x3dfd0fd53d528b0aU, 0xbd89e7c4bc765eb7U,
  0xbcb21b1dbd1ba51bU, 0xbdb750e7bc156595U, 0xbd9c56e9bd8365b1U, 0xbc2652e2bd4bccd8U,
  0x3d87f4153d5c89ceU, 0xbd32ad873d1c785aU, 0x3cb0c3ef3db1cd22U, 0x3c3de65abcfbeb67U,
  0x3d06cd9c3d988712U, 0xbd1740943d38cab6U, 0xbc457cd03d9b7550U, 0x3dc97bcebcd2421bU,
  0x3d4ec1453d143762U, 0xbc3edeb23b85221aU, 0x3d70d1763cdcb6d0U, 0xbb8999a2bbe8a3d5U,
  0x3d7345983d90a664U, 0x3d668f673d227922U, 0xbd9b977fbb964697U, 0xbd533433bb7b7b5bU,
  0xbd732e7fbd9cd768U, 0xbd587d073d97cb99U, 0x3da5037c3cb011b8U, 0xbd878322bdc1c46eU,
  0x3d9c0cb43d4c309bU, 0xbdb3920e3d6644f7U, 0x3d18788dbdc6ac8eU, 0x3e00320c3d9ccc60U,
  0xbd8e35fcbdcc0198U, 0x3c75288f3daf9a96U, 0x3d221a3a3d152dd2U, 0xbd88771abd8dffd9U,
  0xbd6c9234bd0ea725U, 0xbd84b785bd417803U, 0xbc85d8b9bd750fdeU, 0xbe000e573d86967bU,
  0x3c558929bdda8ca0U, 0x3ca08bb73b4f1e7bU, 0x3c04a1793d95f3f1U, 0xbd97170cbd3715f9U,
  0x3da343543db6ff65U, 0xbde5a895bdfa8107U, 0x3de7928ebd7d0206U, 0xbcf5e9c3bca114f6U,
  0x3b991a483d496809U, 0x3cf0e05ebd8ba0a0U, 0x3ca45010bde3d87cU, 0x3d9da1103d83bf20U,
  0x3d4ab7723cef37bcU, 0xbd702ecebdc5d301U, 0xbcf88ec43d8f97bbU, 0xbd43f11fbd0ca932U,
  0xbd3463d3bd42d849U, 0xbcdec3943cac37ecU, 0x3a2334d43c25a31dU, 0xbd7a17633cfc1927U,
  0x3c38ae04bcc37e63U, 0xbd9831b73d889f60U, 0x3d7b16413d6b72c6U, 0xbd2cb797bc8156e2U,
  0x3bf82be4bdc64f3eU, 0xbd419553bacfa788U, 0x3e095767bd1979f3U, 0xbdbdcb68bdaf01afU,
  0xbb55e818bd80e975U, 0xbda0c7e13d86df1eU, 0xbd8d1b2cbd07c167U, 0x3e1a28f7bccb7e71U,
  0xbd1845f7bdc4a933U, 0x3d272b68bd41edcdU, 0xbae8c7b93c84f14cU, 0xbd4d8f6d3d8b03faU,
  0x3e19de46bd632875U, 0x3c1c6b0bbd953c8bU, 0xbd7236c6bd998080U, 0x3cff9ee73cdbcce0U,
  0xbccde4943e0f0741U, 0xbd3f9a98bddf4052U, 0x3dc14e3dbd8ec63aU, 0xbdabab77bd9565dbU,
  0x3d9811b3bd9a80b0U, 0xbe04c3ae3e058bd4U, 0x3de3e0c2bdb97701U, 0x3d8b49ea3d9f3830U,
  0x3c0b3619bd94ae96U, 0x3def3b0abceabee9U, 0xbdd236f13d8c5c55U, 0xbc2e4dd7bd88f6e9U,
  0x3d2ccd08bcc80135U, 0xbcfa02bd3d1a10daU, 0xbd2e44d63d787cb9U, 0x3ce1392abd8836bdU,
  0xbbf966013d30155dU, 0x3d4ec9233bd1638eU, 0xbd45a4a23d39f5fbU, 0x3d0bf9f93ce5c1beU,
  0xbd9df5c43da52465U, 0x3daabd863d59e86dU, 0x3d8f1f663b38f1f5U, 0x3d4d0f80bdd54912U,
  0x3b9fbe463b0b7da8U, 0xbab91307b6e8e009U, 0xbac2005835af3714U, 0x3b3b7346b9ef20fcU,
  0x3b523c6c3b809964U, 0x35dd8b2237ea5970U, 0xbb2f1ec0b9b689beU, 0x3a89274cbb7d8088U,
  0x3a9344d5b78b6976U, 0xb7e7e06abbcd12f4U, 0xbb373b6cbb31dc9dU, 0x364a439f3ab4c55bU,
  0x3caea5d3badb11a4U, 0x3cb1bff63b5d9c70U, 0xbd16cd1fbd1af082U, 0xbce2c723bc2ae5fbU,
  0xbd5c1154bcb7a2b0U, 0xbd42a02e3bb24d76U, 0xbccc08cebaa9af82U, 0x3b1e80d7bcee8ef6U,
  0xbd518f3dbbed06d4U, 0x3d50696bbd1977ebU, 0x3cf2b9d0bc4a0050U, 0xbd23d92c3c69501aU,
  0xbcf90658bcdb0c8eU, 0x3c6765743d16cb03U, 0xbcd1f9dd3d2b02ceU, 0x3d42e49b3d22cefcU,
  0x3b9ed8f33c1ac346U, 0xbc6fa78bbd8f3e7eU, 0xbd2dbb53bc839dedU, 0xbc3ef77fbd55041eU,
  0xbcbc1792bc46bcf2U, 0xbd2ac9113d2888baU, 0xbd05a3e9bc8467e2U, 0x3c9e38d5bcf9e22dU,
  0x3cfbae6d3d2ee172U, 0x3c818f563d28a798U, 0x3cf139643c822f59U, 0xbd60a4bfbc98807dU,
  0xbcf8401abd1dbe53U, 0x3cd725edbcbe3f3cU, 0xbd5a342a3ce2b896U, 0xbd0324cfbccfc7b5U,
  0xbd4453563d1180f6U, 0xbd3801ff3d52f444U, 0x3ca413633cb0296dU, 0x3d0d6500bcb85511U,
  0x3cbc7ecc3d77cf89U, 0xbd58d3703cbc17c3U, 0xbccb2bac3c9727cdU, 0x3d377473bcdb52acU,
  0x3c4e2964bc7cf05aU, 0x3c699883bcb64c85U, 0xbc7d4700bd480416U, 0xbd4150943d749960U,
  0x3d08224abce17883U, 0x3d37ad98bc830824U, 0xbc0885643aeec501U, 0x3d23b54dbcea2063U,
  0x3d5f62c93d831accU, 0xbc5b417bbd33d23fU, 0x3d3723b93b4d10eeU, 0x3cd284b4bd401acaU,
  0x3d4b801e3c36e828U, 0x3d384f66bd4d79c1U, 0x3d3046083cf63aacU, 0xbd0c62913d2708c6U,
  0xbd099f5f3d178b88U, 0xbc6fe1033d2577daU, 0x3d7315a83cfbbae9U, 0x3d18892d3d2fec6eU,
  0x3d56087f3d8addb8U, 0x39f2bb1f3bbdf8f5U, 0xbd02d0183d676085U, 0x3d1ebae7bc9d03fcU,
  0x3d032680bcae6fe9U, 0x3cdf78eebd4a777cU, 0xbd85b94dbcfca5feU, 0x3c2cb466bce9b296U,
  0x3d62de25bd60f7e5U, 0x3da182773c80731fU, 0xbc0b85d73c20f3acU, 0xbc807aa1bc7ee41eU,
  0x3d4854c7bbbec0e7U, 0x3c819f9fbd16561aU, 0x3d434878bd12d538U, 0xbd3241b93bd00112U,
  0xbd10e4d73caeabffU, 0xbc343af5bd4a6c59U, 0xbd039298bce44a88U, 0xbd6bc4b1bd6a1d64U,
  0x3c923e84bd36587fU, 0xbca411633d71ffb6U, 0x3d120ee43c962693U, 0x3cd2f998bd0c5a74U,
  0x3d708905bd3cc410U, 0xbc8992cc3cf01c1bU, 0xbd7b1a6cbcc6e455U, 0xbc5835ca3aea5f82U,
  0x3d590347bcae3938U, 0xb9a1e615bc2a0348U, 0x3cd9b1463d256fa7U, 0x3c73dff43cb7316bU,
  0x3c9b8f913d39e472U, 0xbc15657abb313ef8U, 0x3c706e18bc4b92b6U, 0xbd1103a73c6268ceU,
  0xbc0135a9bd345833U, 0x3d208bd33bf0f05dU, 0xbd35d4783bd3a314U, 0xbb9558853ce77c5dU,
  0x3d22562e3a83c0e6U, 0x3bdc29f3bd228d84U, 0x3cc358ac3d06996fU, 0xbd33523f3d0c87c5U,
  0xbbdf7ec3bc9d4680U, 0xbd3448ee3cd3afdcU, 0xbb6c18d6bcffc5aeU, 0x3c9a12b43ce7d910U,
  0x3d2b7208bc7fb73fU, 0x3ca7a7d53d399e1aU, 0x3bf5fb0a3d3f7bf7U, 0xbcb83b4ebac03e76U,
  0xbd550698bd4f464eU, 0x3cfe3684ba9eb606U, 0x3cd4d8463ba99865U, 0xbd52ea9dbccdb851U,
  0xbd25181f3bdc435bU, 0x3ce3d8e63d186628U, 0xbd269b5e3cd23693U, 0x3d52ada9bc6effbdU,
  0x3cbc32debc82620fU, 0xbd02736dbb8e0913U, 0x3b20b278bd153e6dU, 0xbcfd8f20bd245504U,
  0xbb7440343d2af206U, 0xbcbe8174bd0020cdU, 0x3d10dea33add382cU, 0x3d17ce8bbcd42229U,
  0xbca5987f3c6cb089U, 0x3cd2d7a7bce4473fU, 0xbb872785bd5d1ec3U, 0xbcd1f593bc5c748aU,
  0xbcc374ae3c51d3efU, 0xbc488298bbc9a3c4U, 0xbba3fc8ebd534e83U, 0x3c8152733c725bf7U,
  0xbce175e63d0801abU, 0x3c10b4c4bd617aaeU, 0xbc9218d3bc007f08U, 0xbd8205fc3d0684b9U,
  0xbd0340473d621dc9U, 0x3b737734bc882c35U, 0xbc7b90693c2336eeU, 0x3ab610f2bcca3c3cU,
  0x3d11185fbb3464c7U, 0x3ca21d523d5ed431U, 0xbd1773353d2c803cU, 0x3d3c109a3d7454a9U,
  0x3d2b05fe3d138b95U, 0x3d30677b3cb51f14U, 0xbd709fde3ce3ef39U, 0xbc4f9e063be3ec35U,
  0x3aae369bbcf63418U, 0x3cd058483c823ac7U, 0x3c8172713b23b1ffU, 0x3d058f3fbaf9b297U,
  0xbca866ec3d1fbe94U, 0x3cf6892c3d41392eU, 0xbaf15fd73c4ac38aU, 0x3c09e30dbcf4d5daU,
  0x3c0761d33d5365e1U, 0xbd5b23ccbd28719eU, 0x3d5ad513bd3c50f7U, 0xbd58d5a6bc84b514U,
  0xbd405fd93d451a54U, 0x3d0992253c41dc28U, 0xbc99ec343d574b29U, 0x3d655f7cbccd844dU,
  0xbb3114c1bcf77f6bU, 0xbd383b393d4d9cc9U, 0x3c707c5cbc4afcb9U, 0x3cc83212bc0c8a8eU,
  0x3cb1f20cbce3b1e9U, 0xbd09fe1f3cccc2b5U, 0x3c9e1ea43ccc3885U, 0xbd0e25953bd92afeU,
  0x3a54fa383d0ee970U, 0x3d08087fbd1063a1U, 0x3a8898d73cdefbe1U, 0xbd658ec3bd45c8a6U,
  0xbca9d32e3d71c8c7U, 0x3d283fc63c9a2037U, 0xbd57f22b3c9f2fd2U, 0x3d1afb093ce306a6U,
  0xbd74c5753d183980U, 0x3ca5f6bd3b0212b0U, 0xbc9a5840bd48b931U, 0x3b1f380ebc958e08U,
  0xbd640e9bbcdafb2fU, 0xbcfa74f53a1248e9U, 0x3d56153fbd0263ffU, 0xbcc345e2bc8796e7U,
  0xbcdc64743d326c27U, 0x3c41c76d3ccc2734U, 0x3d3ac6243d269e7bU, 0xbd7862a73d42c54aU,
  0xbc8d12c0bc338e9aU, 0x3d55a060bb69479bU, 0x3cede19abcb1c8f6U, 0xbb80aeedbd74dc47U,
  0xbc3719b8bc5ca61eU, 0x3c4e5f453d52fb3dU, 0x3d4b44c93d825847U, 0x3d3a580f3b5c51dcU,
  0x3d3592c73c93dd49U, 0x3cd60ef73b567eabU, 0xbc271dedbd2dc0b6U, 0x3d29556a3d4aff6eU,
  0x3bdc64473ce30d12U, 0xbb418f263cd5db6bU, 0x3cbb90413d0156e8U, 0xbcd244f3bc548ebdU,
  0xbd3315b03ca7cabaU, 0xbc952523bc4da85aU, 0x3d15eab1bcf1c507U, 0xbd5f43cd3c7f718eU,
  0x3c85627a3d562fc6U, 0x3d2c403c3d0bf171U, 0x3d0c27453d13cb58U, 0xbc2e35d23cb9f9bfU,
  0xbb4cb5683d15b330U, 0xbcc9c8cf3babe718U, 0xbbd796973bdef5ddU, 0xbc9dd07bbb9d917cU,
  0x3d5fed703bacb001U, 0x3d225973bc2fc9cdU, 0xbd1b0adf3d040e12U, 0xbd521f1b3d2b0a52U,
  0xb8ce1172bb04e975U, 0xbc8ad02abce11f1fU, 0x3ccd6db4bd116272U, 0xbbc10100bd0695f4U,
  0xbcfe6637bc1859cbU, 0x3bb8eeddbd2f8b42U, 0xbc4ad249bce5208bU, 0xbc11b776bd8311d0U,
  0x3c5139debcbb56b6U, 0xbcc086163d2091a9U, 0xbd2fb50c3bde749cU, 0x3c256cd53ae3bd05U,
  0x3d17bbee3d36c6f4U, 0xbce111663cf034d4U, 0xbbb400563d0ef9e4U, 0xba1332273c23d076U,
  0xbcb21a77bcb8e50fU, 0xbd5de8e13ce0fc92U, 0xbd0dec77bd69b15dU, 0x3c224cabbd77d3cbU,
  0x3d64a219bc3c4d4eU, 0x3d0c47003c7cd847U, 0x3c7ea061bd3c0e55U, 0x3d4f85323d79beb9U,
  0xbc559da43c409094U, 0x3c1fc66e3b263640U, 0xbcc57370bcc26e40U, 0xba419a19bc19f873U,
  0xbd5a5ead3d2ada97U, 0xbd60787f3d153306U, 0x3b47e7e8bb8f1f26U, 0x3c980653bd45ac29U,
  0x3d2df38f3c0091a7U, 0x3d2c72af3af3ea17U, 0xbb355bf9bd525b1cU, 0xbd13a78c3d54f02cU,
  0xbcfe6b473bcf0bd9U, 0xbcb487343d5cbb42U, 0x3d0146773c7bd0f4U, 0xbace31023d571f33U,
  0x3cd235a9bd3d0dd1U, 0xbcac8d513c848405U, 0xbd617a87bc020ef6U, 0xbcb65e483b8afb65U,
  0xbd4a3c6fbcee7413U, 0xbd39dcedbc99403bU, 0xbd264687bbb18582U, 0x3d6c50473c912f55U,
  0x3c7be0b43d53e46fU, 0x3d498bac3a6442aaU, 0x3b0ae8aabcee3117U, 0xbd5aac6f3d616847U,
  0x3d32eda73c6898ddU, 0x3d1047923a2f0fe6U, 0x3ce8e8843d3962b1U, 0xbc0555bf3d3cf4c2U,
  0xbd5948debb903160U, 0xbcfa881dbbc5efafU, 0x3d5081153d265876U, 0xbd40df553c5139aeU,
  0x3c8219033c8d109dU, 0xbd5cfee6bd3f127aU, 0xbcd1012fbd6c32b2U, 0x3ce1a3a13c353d0dU,
  0x3d0ad401bc86b7d4U, 0xbcd90cc5bc7db2d2U, 0x3ca0e1663d0ae69eU, 0xbcd82e4b3ce824b5U,
  0x3d56b5303bb53d99U, 0x3ca60438baf9cbafU, 0x3d3f4761bb91b560U, 0x3c90d7f3baccb8ccU,
  0xbd3fd4ef3d354cdcU, 0x3d4ddd78bd2b7343U, 0x3c2d45dcbcb6b6c9U, 0x3d595ea8bb3ee73bU,
  0x3d53be733cafd92bU, 0xbd2adaaabd03db44U, 0xbd7e8ec3bd670257U, 0xbb83bb2b3ccf3fd9U,
  0x3c5e141a3d05613aU, 0x3cdd04e73c990276U, 0xbd38572d3d21901dU, 0xb85b68d13bc67c76U,
  0xbd318647bd5564f9U, 0xbcc12ef1bcaec62eU, 0x3c1a3e00bd3a267cU, 0xbc680ba9bbbf030dU,
  0xbc44be4d3bd7e365U, 0xbd69aebf3d35670cU, 0xbb00a2dcbb670b5fU, 0xbb7090c73d33aa31U,
  0xbc7e8d84bcb14689U, 0x3cf20fb53cb80f9bU, 0xbbd31e18bd48218cU, 0x3bfba0d93c232ccdU,
  0xbd626e543d4e29a1U, 0x3c124985bd4c99abU, 0xbd03de27bd23d9e4U, 0x3cb869c0bd2db47fU,
  0xbd3e8f8e3d39349aU, 0xbd0784ab3cf3640eU, 0xbd1097b7bd1b0514U, 0x3d369e183d1ebb82U,
  0x3c5e605abcd99a94U, 0x3b901bb83cc9f6dbU, 0xbd46595bbbb34601U, 0xbcb018233d3930cbU,
  0x3a3aa71abd555982U, 0xbd04d72dbc63daa1U, 0x3a0256f8bc7d36f7U, 0xbcfdbcd7bd45f7f9U,
  0x3c256a5c3d228a9dU, 0xbcaf987a3d46ee94U, 0xbd56437d3a5f4dadU, 0xbd0ba282bca78492U,
  0x3c33855cbc4a9c23U, 0x3c82a875bb1a4a65U, 0xbc1c06ad3d0f5677U, 0x3d2b59bebd43a824U,
  0x3ccf66a93c52cc97U, 0x3d03a7b5bd12f31cU, 0x3cebc4dabc93aabeU, 0x3d00870bbd1f18b1U,
  0xbc2391febc2bcd47U, 0x3c3672f43d4846e9U, 0xbd02f2ed3cc3880bU, 0xbd3340da3cdb4f35U,
  0xbccde44c3d1dc232U, 0x3d4b80e63d0d5212U, 0xbd1579efbcebe059U, 0x3cf376a2bc777036U,
  0x3d1ab41ebcb1fcfcU, 0x3d5a5d21bd2c1292U, 0x3c3387723a9da23bU, 0x39485101bd3dd126U,
  0xbd45c83bbd6e97f2U, 0xbbd159b6bd28d779U, 0x3d48671f3bc1650bU, 0x3d1f09e6bd464738U,
  0x3cbbf0803bd50065U, 0xbd2349f53c997fe3U, 0x3c8a3297bb3d8e09U, 0x3c19fe5c3d4feddcU,
  0x3d636bc7bd0ddc09U, 0x3cd6ed783d643030U, 0xbcec3840bd2ed137U, 0x3ac3d86b3c4d7115U,
  0xbb8f4245bd435235U, 0x3ac527b33c1fde93U, 0x3cb660ad3d15e516U, 0xba1165573d592245U,
  0xbd490585bc96ced1U, 0xbd7c3a6f3be2f51bU, 0xbd493a803cc35e8aU, 0x3bd84f363c7e5310U,
  0x3d6c6c303c6928baU, 0x3d1ddcc33cddec3dU, 0xba82e09b3d43edd5U, 0x3d253d27bd090b89U,
  0x3d2f8eb7bc88508eU, 0x3c8092ddbd5d1054U, 0x3d4f4a243d22f922U, 0xbc185995bca8e78dU,
  0xbc7428b8bd46e1b8U, 0x3cebc65e3b82de8eU, 0xbd1d70ba3d19d165U, 0xbd0be67cbd1cc541U,
  0xbb702815bbe91497U, 0xbd0e7ab5ba9c6e14U, 0x3d6b4bdabb3ac7d9U, 0x3d68d8dc3cfa256eU,
  0xbbd2cfe33d32bb23U, 0x3d38f2233d0712e0U, 0xbd384adfbd25c08dU, 0x3cfa20553cbe9d41U,
  0x3d0a6969bca514a3U, 0x3c934eb0bd625a3eU, 0x3ab0eb24bd37a5feU, 0xbd0870f1bb50e132U,
  0x3d2accc53c88aedbU, 0x3d1972eabd4ad1c8U, 0x3cbbcae4bccf1d39U, 0xbd149c24bc804744U,
  0xbc828337bc8ee93aU, 0xbd1c06d03d31c83fU, 0x3b1bafb53c648fc1U, 0xbcd2cfcf3c8d754bU,
  0xbd4e23b53ce03833U, 0xbd31b1b3bc3d7b24U, 0xbd593561bc836676U, 0x3ce859c1bbba943dU,
  0x3cabc781bc9b05faU, 0xbd2d79c13b51196eU, 0x3d5293463d073ef9U, 0xbbf132283be5a33eU,
  0xbc3323063bf7d1c8U, 0x3d4d83be3c9ae649U, 0xbd463b403d285f8dU, 0x3d5203c0bd67e8acU,
  0x3d083675bcfba664U, 0xbc487ca7bd3fb55fU, 0xbc8d9d163d7155beU, 0xbd49f8fbbd202340U,
  0xbb28a0f73d1701c7U, 0xbd553b94bd3a3757U, 0xbb6063febd526f98U, 0x3d803e17bcd4cb50U,
  0x3b523716bc34c4b6U, 0xbcbe54033d548d1fU, 0xbc9abba3bc5bc5aaU, 0xbb5f303cbcc37935U,
  0xbca4ec52bcbfdcf9U, 0x3ce842293d4d89f0U, 0xbcad1b843d5c3e57U, 0xbd2388083d0e6743U,
  0xbd174df53c6f9214U, 0xbc430aa03d0e0474U, 0xbc644583bcb40e27U, 0xbc81b187bbf160f3U,
  0xbd1c4c22bbc33cb6U, 0xbd5f0847bd0c0f16U, 0x3886b58c3c57d7baU, 0xbb1bccffbd3bb129U,
  0xbd4a2210bc96f734U, 0x3caacbeebca57d3cU, 0xbc49c88fbce0a7a9U, 0xbd12871dbcc408edU,
  0xbc9777be3c8b092bU, 0x3d32d5203d41d283U, 0xbd2a6b843cc2f94fU, 0xbbfa974abd64ff2dU,
  0x3d173617bc1d86bcU, 0xbcd2fc1c3c6e17f9U, 0x3cdb45f6bd068bebU, 0x3c9a4c023cd029c6U,
  0xbce596a3bd3555c6U, 0x3d436c153cf918e2U, 0xbd172837bd1c9665U, 0x3c45a221bcc6430dU,
  0xbd6d9c813cdc9618U, 0x3d1743d8bb8c24e6U, 0xbd374163bc5ac811U, 0x3b7f9d123cf73bfcU,
  0x3d0a34733c54ef95U, 0x3d0273573c8d0984U, 0xbcbeedffbcad04beU, 0xbd0078173d37b4f8U,
  0xbc2d56003829f4c1U, 0x3c21b635bbcee125U, 0x3d3d65d13d38cd6bU, 0xbd288b5abd38471fU,
  0xbd517c933d127e04U, 0x3c89ea04badcc437U, 0xbcf7ed073b237bffU, 0xbc93e93c3d24be3eU,
  0x3d5520903ce8402cU, 0x3d64e3093d25355bU, 0xbb3621333d2055b5U, 0xbd449da3bd199b1dU,
  0x3d6d314e3d18dac3U, 0x3d4aeab13d6de1d5U, 0x3d69b900bcd7c31fU, 0xbc9c1cfdbcd027ddU,
  0x3d0a9ed93ccbe69eU, 0x3bf416083d341415U, 0x3c7ee1cbbca962f7U, 0xbd079fb53cd7753aU,
  0x3d370dedbcc2957dU, 0xbc2d4c173a9c2f24U, 0xbd2a6a7c3d22ae16U, 0xbd69a121bc90a667U,
  0xbb0376b73d4ac8b1U, 0x3be5410c3d670035U, 0xbd172be93c805859U, 0x3bf418bd3c45a5ddU,
  0x3c203f41bcdb9fcfU, 0xbc8c168c3cb3ad3bU, 0xbcd82094bd5dfcd0U, 0xbcad2f853bac3576U,
  0xbb0c13f83ceb08c1U, 0x3d065cb1bd51816eU, 0x3d4212d23d61b095U, 0x3d438be0bc9a92a1U,
  0xbbd658413d3ebcc8U, 0xbca4fdadbd8d10d8U, 0xbd97e834bd23e6e7U, 0xbce8660c3c8765b1U,
  0xbce332b9ba5935bdU, 0xbcca72963c49dbb5U, 0xbcf30909bcc4d5caU, 0xbd13816abd3a0a0eU,
  0xbd25b34a3cdebd82U, 0x3a0d2d6dbcb3ef0bU, 0x3d45ef8bbcb5ac8dU, 0xbd2114033cfad5a6U,
  0xbbd7e7dfbd3696fcU, 0xbd0e827c3ccf47ecU, 0xbcdcad01bccdaa8cU, 0xbd416b753c086147U,
  0xbb3b4199bd24a182U, 0xbcbb77793d6ee645U, 0x3b6cffb4bc99552fU, 0xbced6fb5bcc39a93U,
  0x3c39aded3c6f6b82U, 0x3d2c3c67bd07fa2bU, 0x3c78c876bd42aa18U, 0xbd3e4a6e3d45ac0fU,
  0xbcacf6453d64ca26U, 0xbd74b9af3c670b97U, 0x3cbd18893d15cff7U, 0xbd3881f63cf4d705U,
  0xb954b20e3bb3690cU, 0xbcce08653c4a7000U, 0x3d2902d9bd6405d9U, 0x3cf16a2e3d258983U,
  0xbd41adeabd012647U, 0xbc3372c2baad0597U, 0xbd3cba853ce3b657U, 0x3cdeec813d4b8532U,
  0x3d6e68f43d67e7eaU, 0x3a4481e43cdee56dU, 0xb898483c3c49705bU, 0x3d6742913d410131U,
  0x3c9dd5273c6abf3eU, 0x3b07a687bd490d95U, 0xbce3a2ff3cf43aa9U, 0xba1f58303d35d976U,
  0xbc2297323d84e081U, 0xbaecfc093d495cc4U, 0x3d5a631c3d26f833U, 0xbd4a6b29bcaa0bc6U,
  0x3d5b73033d20175dU, 0x3d16c6a33d63af80U, 0xbcfdbc91bce5fdecU, 0x3cc5a27ebc8335e7U,
  0xbb80f1dd3c60cf3fU, 0xbc96c052bd203602U, 0x3b9a5cd9bd469821U, 0xbc6dcc6c3c292423U,
  0xbd48c4a3bd2d0f47U, 0xbcbdb25bbcc867dcU, 0xbd5b12323d06cfbcU, 0x3d4547373d606f3dU,
  0x3b94787dbce78e4dU, 0xbcd03e53bd9e9892U, 0xbda3c10cbccb692fU, 0xbd2747eabd69a8e0U,
  0xb93cef76bc44a006U, 0xbd43ddc3bba96a31U, 0x3d61b429bd13218dU, 0x3cc32274bcd31354U,
  0x3cf40edfbd1c4ab5U, 0xbd58b591bd609831U, 0xbcf01315bd0f8a70U, 0x3d2eeac1bd89d807U,
  0xbc9b43b6bd4c02b0U, 0xbce098f3bd1a4684U, 0xbc0a0236bbd29391U, 0x3c7899153cbc4946U,
  0x3d2b663b3d7ef0d6U, 0x3d49cec13d08fcd7U, 0x3c932f6839078097U, 0xbd0342e6bc9ed446U,
  0xbd0c37c83d2baf8eU, 0x3ccf58a4bc299a8dU, 0x3b89e31e3cc94aeeU, 0x3d31fdb9bd158acbU,
  0xbcb89c63bccd9aa4U, 0xbd0e898d3ca26713U, 0x3c1bae15bd085f7aU, 0x3d2c90e9bd2b2d7fU,
  0xbb67db5e3d25c26aU, 0x3af49dbabb99eb9bU, 0x3d2e9db5b9e69652U, 0x3d3cbddbbcc2087cU,
  0xbd1bed803be09bb8U, 0x3cb9612d3d3520a6U, 0x3d14231e3ba0ff0bU, 0xbd1663df3d8c8f7dU,
  0xbc77ef223cbeff25U, 0xbcf4100d3d114e50U, 0x3d1174233d4af293U, 0x3d60c72a3bd3b77cU,
  0x3cb68d30bc87513cU, 0x3d37b128bcb03924U, 0xbc088a8dbd571cacU, 0xb9f4d5bb3d5c19ecU,
  0x3acf61983c6352c4U, 0x3d1966e8bc221e2dU, 0xbcdc7c5f3d51a314U, 0xbd2781f4bca51600U,
  0xbce1cc4d3cf25f57U, 0xbd4cea473c633642U, 0xbcba02e2bd0c4e21U, 0x3d668cefbcb1adbbU,
  0x3c1fe228bd22c1d7U, 0x3c7f61adbd01b262U, 0x3c034af43c4bacfbU, 0x3d33d1cbbc99f61dU,
  0x3cffb9ed3bffa03dU, 0xbcc9b062bd5b79a2U, 0xbcbbcda03bc2226eU, 0x3d17c8ab3c85cd8fU,
  0x3c72bf52bd4cb5b6U, 0x3d1e71f1bcc721aeU, 0x3d41d3e43c586b68U, 0x3c21d0ae3d34eb0aU,
  0x3d0953423d185d87U, 0x3bb59169bd278a06U, 0x3ae32a37bc38192eU, 0x3c89c7503d49891aU,
  0x3d46b103ba80788cU, 0x3cd70aeb3cb8bd24U, 0xbd5d0fc23d2f5c39U, 0xbd14bb963cdc160aU,
  0x3a544b0f3d2feba2U, 0xbd143331bcca3045U, 0x3ca832df3d41321eU, 0x3c429d16bc2e97beU,
  0x3d4c0a67bc017803U, 0x3c4b0cf5bd59e954U, 0x3c26df13bd6bfb93U, 0x3c85a46bbd677323U,
  0xbd16e8e03bc91a53U, 0xbc71972b3d13fcb4U, 0xbd0b41ffbcaa7c24U, 0x3c8b43b2bd1ef397U,
  0x3d17d5573d49aed2U, 0xbb60f642bc87ffacU, 0xbc8470873cbf5b37U, 0xbd25bd82bd0702daU,
  0x3c1ae9a3bd283db8U, 0xbd21adb13d44a91cU, 0xbb994612bd647408U, 0xbb0ef168bd2f026eU,
  0x3cfe950abd15ff3dU, 0x3cba4b733b5d838eU, 0xbd47d52cbcf55ebfU, 0x3c699228bc6102a8U,
  0xbc439ba43d09ae6bU, 0x3c341521bd352846U, 0xbc836e0bbc47a645U, 0x3d5eebf93d5adf93U,
  0x3d2886c9bbd610d0U, 0x3d615a1a3ceaa4a5U, 0xbd7068033d10c53fU, 0x3d3a72283d032a67U,
  0x3c732d1d3d029917U, 0x3c547c623c3a7de0U, 0xbd7454693d4d3cddU, 0x3b8e7fc53cc19cdaU,
  0x3d6bb59ebb6cd911U, 0xbc222ce33d791eefU, 0x3d6018c93c0c5c71U, 0x3bfcb863bcdf7f63U,
  0xbd4729553ccba6fbU, 0x389ef8fc3d19cbe7U, 0xbc810fbc3d2140a3U, 0x3bc27d023cb695f9U,
  0xbba2a83b3d0b9121U, 0x3aac3b86bd2aca08U, 0x3d74867d3ca50fe8U, 0x3d07abe63cf80180U,
  0xbcd0a1203cdd87ebU, 0xbc9416873d627fbbU, 0xbb87bd7c3d59754aU, 0xbc63ba4a3ceb9aa8U,
  0x3d543acdbcda6d33U, 0xbd245f69bd30a7f2U, 0x3cfb3fd2bbc5e459U, 0xbb597d98bc3e6fd8U,
  0x3d297fef3c2bb045U, 0xbc495123bd236cafU, 0x3d053d65bd622763U, 0x3bd81018bd126c15U,
  0x3c5260563cdc7441U, 0x3d085be0bd5d24c1U, 0x3b517652bd349077U, 0x3d1ab84d3cb22b18U,
  0x3d060fa0bca21e8bU, 0x3ce2717ebd5db28cU, 0xbc5bd470bd6e02b0U, 0x3c6237a63c1a1f30U,
  0xbcdda01e3ccd1e25U, 0x3ca2aef5bb9c32bdU, 0x3d3e623abd05d006U, 0xbcd8ec7a3d697758U,
  0x3d0a48e93c154a8fU, 0xbc49ff03bd4c5320U, 0xbd20c455bc50650aU, 0xbd2933e33cbe5de4U,
  0xbc9536493c63f2c9U, 0xbc339363babb4dc2U, 0x3d24cbfcbd0b87d3U, 0xbcb9942a3d27ebfdU,
  0xbd4ff3e53d14f196U, 0x39bb65743d40b642U, 0x3ba1a602bc9a279cU, 0x3c57e4103ccd8ce1U,
  0x3d4aeb55bb916a8eU, 0xbc9614043cebb114U, 0x3cc17b383d6ed64dU, 0xbd0dd32f3cb6e287U,
  0xbcf9c3573d137857U, 0x3d139fc83d448c8dU, 0x3cac10f1bc6c31efU, 0xbd1cad733d4d980eU,
  0xbd649abd3c83c66fU, 0xbd5de2b4bd43193cU, 0xbd4de2963cc0916fU, 0x3c9e555cbd262a4dU,
  0x3d01e5b13d36bb97U, 0xbd1398c73c10f36eU, 0x3d164377bd3a09c8U, 0x3d0fa78fbd50ac9eU,
  0xbd0e96533b911ff6U, 0xbbe2c8ca3a133df3U, 0xbc85807b3d3fbfffU, 0xbd4c0ae93cbca48eU,
  0x3cc7a1293bb9857eU, 0x3d437ff5bcd526c8U, 0x3cd506f43a2ff27fU, 0xbcb5bdcf3d03d987U,
  0x3c327abbbc0cef92U, 0x3d34b8aebd4ca02cU, 0xbd4901e13cc43e6aU, 0x3ca8b4b1bd090831U,
  0xbd6eb339bca03f1dU, 0x3d2050cc3d1da05eU, 0xbd5797d53d4eefa3U, 0xbcf6580bbcfc4e55U,
  0x3d2c3bb7bbe9e922U, 0x3d33703bbcc1490dU, 0x3cbcd4d0bd409d38U, 0x3c9f8f383d0cbc1eU,
  0xbcd3377ebd39fe2eU, 0xbcaae30bbd591fe1U, 0x3cc258f13cf5b924U, 0x3d14f9babcfeb592U,
  0x3d2355ce3b1c232fU, 0x3d0ca9d63bf456a9U, 0xbcf9e1993ce90780U, 0xbc17f1993cce3ecbU,
  0x3d52eeeabd29b9dfU, 0x3d3575b7bd4c3f9fU, 0xbd64f611bd1f74beU, 0x3cd62c32bd1d2bc3U,
  0x3d1a8f01bd7dbd8eU, 0xbd1716fabc252472U, 0x3bfcd3873d2cce94U, 0x3ca2359fba7e2029U,
  0xbca57e08bd4bb755U, 0x3d2482ec3b7ab5c5U, 0xbd2c4af2bd483476U, 0xbd056877bc2b4ffcU,
  0x3cae907bbc093a4bU, 0x3cb98f33bc2210d9U, 0x3d1a3e99bd2c5db7U, 0x3cf931923c850263U,
  0xbd2f8402bd660b2dU, 0xbd75cf3e3d4b8ca2U, 0x3be5c5c53d7c45c4U, 0x3aada533bb806c28U,
  0x3b2a9d73bc1394d8U, 0xbd4310f03d3609cdU, 0x3d19f624bd0f4976U, 0xbc97b0b33d4afdceU,
  0x3d15c75c3c7cfdaeU, 0xbd0909c5bd37f6c4U, 0xbd8d664bbcb46579U, 0xbc54eb5c3c6dc1e0U,
  0x3cc586aabd17b0edU, 0x3cd06085bc6a7d4aU, 0x3d4d68373d671045U, 0x3cdeb4d93c461a19U,
  0xbd4d81ffbbe7d9e1U, 0xbd3e58573bc0a710U, 0xbcef51013d40091bU, 0xbd1dac15bc8ccf16U,
  0x3d3d3d113cf03edfU, 0xbd03c4c53d4daa52U, 0x3d0796e73c3d7900U, 0x3d3a4bfdbcfb2a93U,
  0x3c63d6793d4f37a6U, 0x3cc0168e3d49da51U, 0x3d17958cbd68cf5fU, 0x3cbfe8a3bd6c94ffU,
  0xbd09478b3cfad430U, 0x3cb0abc0bbd81c73U, 0xbd502dae3d1145feU, 0xbcea3f91bd2b388eU,
  0x3c8ded783d69a188U, 0xbd2013eb3d04375cU, 0x3c79b6863bce3f6eU, 0xbd28e8963d531ac6U,
  0xbb909dddbd0e74dfU, 0x3cb641a2bd0a6df3U, 0xbd60d520bbee53a5U, 0xbcbc03cfbd0bd919U,
  0xbd33b8a5bd3fac3eU, 0xbc2b71ef3d49fae6U, 0x3d29a447bd4d3fb3U, 0xbb9f9216baacefdbU,
  0xbd3976f33d1e43faU, 0xbcf3dc703d26ac5eU, 0x3c59eb963c8dd00dU, 0xbd1653dabc4d925cU,
  0x3bd83232bd57ba39U, 0xbd550b42bd0ea792U, 0xbc88a221bd237961U, 0xbc69051dbce10322U,
  0xbc4861093d00b7cbU, 0x3ce7a2bcbcd469cdU, 0xbd3b1c8c3d56d14dU, 0xb98f76a0bcb6e22fU,
  0xbd073f18bd5c1edbU, 0xbd07780dbd61c53eU, 0xbd5b18fcbd5c9ac5U, 0xbd4f3c823d9216b0U,
  0x3d0bd6143c182e04U, 0x3c20f36e3ce29252U, 0xbd6e29a7bcaa8ee1U, 0xbd28343a3d4f0710U,
  0x3ceb5b8b3a692fecU, 0xbc81cd843c95d959U, 0xbd82160a3d5cf717U, 0x3b27249abca76f5eU,
  0xbaa5ef8ebd70d1c7U, 0xbcc0e11f3d16d40cU, 0xbd5244f2bd41ad5eU, 0x3cf4b58d3d61fb50U,
  0xbd23127fbd4ad75dU, 0xbd60acd2bd1a1c41U, 0x3d1479813ce2d734U, 0xbbd2bda93ba5e8bcU,
  0x3cab56a13d20383dU, 0xbd2dfaddbc89e9c3U, 0x3cacbc0c3d227c25U, 0x3c4eaba5bcaab06eU,
  0x3bf23748bcb11d52U, 0x3d43835f3d5397ceU, 0x3c2cfab93c890f6cU, 0xbd2dc7073c62919dU,
  0x3c3eed783d16fce2U, 0x3b9c3a1fbd42668eU, 0xbafee815bd5d823aU, 0xbc979dd1bd3f73a2U,
  0xbc335be43b8b5612U, 0x3cab7bf8bcbcc885U, 0x3d3a93d4bcee5976U, 0x3c77a7bc3d150a40U,
  0xbc8dac1a3b831111U, 0x3d09876e3d4c71f9U, 0x3cbe157dbbb4ad7bU, 0x3d104a173d01050aU,
  0xbd5955e5bd313ad5U, 0xbc22f541bc80734eU, 0x3d054580bd206182U, 0xbd62d663bcfde3d0U,
  0xbcd89b80bcf7ebafU, 0xbcae2a01bca8ad8fU, 0x3d542726bd72e859U, 0xbd4d772bbce7583fU,
  0x3cfedc2bbd2cce38U, 0xbc2b33833c74e5d6U, 0xbd55bd9ebceff437U, 0x3b7679033d61e41aU,
  0xbd7791383d3eba8fU, 0xbce64903bd8ec5caU, 0xbcb43984bce94ac4U, 0xbce00846bd7f4fbfU,
  0x3ba30b143cfd76e7U, 0xbd5ef3273cfc62e6U, 0xbce263babd53af01U, 0xbd058eed3d56727bU,
  0xbd3f64a53cbf02a4U, 0x3d3ee7423cc0600dU, 0x3d626db63c4443adU, 0xbd124f983a0020dcU,
  0xbd1db66f3b3a65c2U, 0xbbd3c119bd050c6bU, 0xbd654d03bd64209dU, 0x3bd78f88bd1acf04U,
  0xbd5857e63bd0e7fcU, 0xbd02d33dbd3084d2U, 0x3d0c3b3c3c005f22U, 0xbc82d32abc2ecadeU,
  0xbce81a15bcc2802aU, 0x3cc9c2d03d3fb022U, 0x3d4362463c08907aU, 0xbbe8e011bd2bac53U,
  0xbb7f977fbb3d6d44U, 0x3cf58868bd0072bbU, 0x3c032af83d0b3a83U, 0xbc0342b83c7728bcU,
  0x3c2f2ebbbc2c367dU, 0x3d461eb3bd08a68fU, 0x3b8eea1e3d69733aU, 0x3cd73fca3d2b0f7aU,
  0x3d20869ebd6ed084U, 0x3d2b899f3cb23344U, 0xbce68937bcd8f86aU, 0xbcf7aeff3bbf8233U,
  0x3d0077a53aef98b0U, 0xbd1e8c2b3d59e538U, 0x3d10b312bbf90044U, 0x3cd98c10bb66b593U,
  0x3d5083cd3d25cdbcU, 0x3bbc9b61bbe100d7U, 0xbd1b45713cdecf8bU, 0x3c3bdba7bcc3d9c6U,
  0x3c8fa9fdbb6ba18aU, 0x3b50ff923cdceeb4U, 0x3ce296783d14cb59U, 0x3d3e59dc3cf65fe5U,
  0x3cfc1288bc9acfe0U, 0xbc62484bbb39c7f2U, 0xbd225fd5bd148b88U, 0xbd23e048bc9ddabeU,
  0x3d2da8823b32e44cU, 0xbd1f4a6e3d07499fU, 0x3cb30609bb43ecd0U, 0xbd1ada0f3c37d3b6U,
  0xbcc9bfc13c11e8fbU, 0x3c3b472fbd7b77e6U, 0xbd485fd8bc070bc3U, 0x3d1100313d23e7ebU,
  0xbd2ab0133d10b289U, 0xbc7e0c023d2ffad2U, 0x3a43ae953c622245U, 0x3d180074bd4e39d0U,
  0xbc13121b3c4bc159U, 0x3d1fc717bba2e3b3U, 0x3ccc0f3d3d254039U, 0x3c3e6f823d063c7cU,
  0xbcab9cf7bc39dc19U, 0xbd64cfcabd117043U, 0xbd3751f4bcc5c587U, 0xbc7d02fe3ce42080U,
  0xbd33bf213d07c611U, 0x3bf4bf9abc7082dcU, 0xbc3e9709bd2dd1e5U, 0xbcf915d2bc801eedU,
  0x3caf73b1bbd1c0edU, 0xbc3a1bfd3ccc7c9aU, 0x3d3e7acb3d6bfb86U, 0xbc7b3eeebd145bfbU,
  0x3a8a32bdbd6b617eU, 0xbcbbbe593c4327f6U, 0x3cdecb5e3d01310fU, 0x3a83647b3cd5b840U,
  0x3bb37d96bd655776U, 0x3d843a333d0e8461U, 0xbd47cbea3d2add7aU, 0x3d518e01bd09a74dU,
  0xbc97f2723d226f45U, 0x3c6c23cdbc2d4c04U, 0x3ca0f113bbdedf2fU, 0x3c78eb2b3ca097ffU,
  0xbd0e5cb4bb8d4e50U, 0xbd321a5ebacb96bdU, 0x3d35cafdbb9d2677U, 0x3d5129703d5bf349U,
  0xbd713ac13d178c80U, 0x3c87d29bbbe7d701U, 0x3cfaec863d26c913U, 0x3c67a8acbd397e40U,
  0xbd205d59bc90c91cU, 0xbd59681cbc35384eU, 0xbb109b5d3d0f56c5U, 0x3c7d3a513d5ca443U,
  0xbcb30f713d1f8889U, 0x3d33f7abbd38e3dbU, 0x3cd82c7e3d049847U, 0xbd12de2aba5e1218U,
  0x3d0e10f0bd411112U, 0xbcf6a47fbd7d70c1U, 0xbc3a72883d3fa32fU, 0x3c83e21cbd513703U,
  0x3d6198393c6ffb5dU, 0xbcecb558bca69713U, 0xb7c17b58b90cbffbU, 0x3cc827763cbc21d9U,
  0x3d4ecbb4bbe0de10U, 0xbc9ae19ebb2478a2U, 0xbd165fc8bd227de2U, 0xbd3ff26d3d238b86U,
  0x3d615a4fbd183876U, 0xbb67be95bbafc2b8U, 0x3be435ce3d4c9f10U, 0xbcb1ca95bb18eb78U,
  0x3ce31994bc98bfbeU, 0x3d2cf5b93c6f73f9U, 0x3d466bacbcf19824U, 0x3d3fd64a3d3154f6U,
  0x3d63dc3d3baa565eU, 0xbd1126963d10b59fU, 0x3cd998be3d692edeU, 0x3add0affbd5aa91bU,
  0x3d3888403d07ba1fU, 0x3d0552713d4625c5U, 0xba732df73d3f4299U, 0xbcac0be73aef3338U,
  0x3d4bf0db3d7b6519U, 0xbbe0f8533c70f15eU, 0x3d257883bcc1d156U, 0x3d35944abbd3c1f7U,
  0x3cdd8b44ba74e66aU, 0xbd24468bbbe5a3d9U, 0xbce32b533bee2adbU, 0xbd0c879b3ceec326U,
  0x3d0a6d21bd2a5736U, 0x3d535d4b3c219d33U, 0x3d18b53cbd518407U, 0xbb3ef21abcb5be87U,
  0xbce75eca3d262781U, 0x3cb091f0bd132e9eU, 0xbc0c06fa3d63afcdU, 0x3cb4cd263d1f189aU,
  0x3d036894bc555912U, 0xbd403d32bd3ba64dU, 0x3cd2e315bd26e05bU, 0x3cadce8f3cc0cb4cU,
  0xbd0d02843d40a79dU, 0x3b30a4773c356faeU, 0xbd31179a3d04308bU, 0xbc71cc593d5037bcU,
  0x3c491166bcfa5f2dU, 0xbcf9f8e6bcb37c8dU, 0xbcd8875bbd263dc2U, 0x3c1784bc3c40f517U,
  0xbd6f5313bd0da5ccU, 0xbd6be047bbbf274aU, 0xbc830dc3bcab903eU, 0xbd11dc85b9732369U,
  0xbcb026c9bd0664a3U, 0x3d2601bb3d0c21acU, 0xbbe1d0dabd601679U, 0x3d49460a3cfc6faeU,
  0x3d0e9664bd4e9b41U, 0xbd7d1ae13c7faa7bU, 0x3a3d139e3d3660bfU, 0x3cef671c3ce88ae0U,
  0xbca463e6bd6deaf4U, 0x3ce7224dbc8d5692U, 0x3d1adb67bd08968fU, 0xbcad3b1cbc48087eU,
  0x3c768bfd3a9f7254U, 0xbcd46ab3bd06047eU, 0xbd828bca3ba6ad74U, 0x3ce7e703bcbc9abfU,
  0xbd4f4bb03c91286eU, 0xbba9b59dbb22dbfeU, 0xbd2659ccbd2b1ffdU, 0x3d21f5853d0e8c39U,
  0xbc8aee44bd4b341eU, 0x3c191dc4bd1d94b2U, 0x3d7cb19bbd59d4cdU, 0x3cd2cee23cdb499dU,
  0xbd2b0d21bcf263a4U, 0xbd2c49193ca27445U, 0x3d18de3abd3734c5U, 0x3d1d6e07bd134998U,
  0x3d24ec453d5ca23fU, 0xbd2b17793ccba4b5U, 0x3c9d55d7bc04a813U, 0xbd3865edbd1ec4d7U,
  0x3c7d62893d250a8bU, 0xbd12df0dbc3a2f6cU, 0xbd599a87bc96820dU, 0xbd068c1bbd32b5aaU,
  0xbd06368f3d23850bU, 0x3ca89b49bce78969U, 0x3d5bdd363d06ee75U, 0xbd3489ad3c6e5a64U,
  0xbd280667bc3f9c2fU, 0xbd4c44c7bc728ec0U, 0xbc4f30d5bc1cfe17U, 0xbc75b0043d546d20U,
  0x3d01ce453c885758U, 0xbc3f01053d50ad82U, 0xbcab67edbd5f2f3bU, 0xbd6ebc62bc6ed74cU,
  0x3d585624bd439d07U, 0xbcd61d993d0f20fbU, 0x3d268ddabd1802c3U, 0x3c86e741bd3cb27aU,
  0x3d4a05b2bc075f74U, 0xbc47e8f73c9b696fU, 0xbd14f9033d375774U, 0x3d481ffc3c0b4ca7U,
  0x3d14c5033d11ab15U, 0xbd5c5651bd1afa4bU, 0x3ba716eebba90362U, 0xbcff2174bcb57751U,
  0xbc8024233d1280d6U, 0xbd257323bbda45f3U, 0x3c22a43dbd00bcb3U, 0xbbc896c13cf39019U,
  0x3d1bd6253d2ffdd1U, 0x3d102d9e3cf2859aU, 0x3d014f173d50bc71U, 0x3c5c624fbafbda52U,
  0x3d1d53e43d07de00U, 0x3d5890febbae82c9U, 0x3b82d7a23d3925eaU, 0x3d3849aa3d32f4beU,
  0xbd19e658bc89f747U, 0x3d4e39813d1cf76cU, 0xbd7d8ef23c9afa0eU, 0xbd3f3feebcdcc836U,
  0xbc30aba23d0c6b18U, 0xbbc316d4bd2f417cU, 0x3d14b7823d210630U, 0xbd0ff8523d192a2cU,
  0x3c8e85873d3763e8U, 0xbd40b23ebcaae033U, 0xbb6345f73c80c41fU, 0xbd0206693d58e478U,
  0x3cdd991e3d0a30d0U, 0x3d48dfa2bc031144U, 0xbd1d75e1bd067258U, 0xbd2e2033bc06b664U,
  0x3c31b7ff3d7e427bU, 0x3d1097eebc648d4bU, 0xbd048a45bd08506fU, 0x3d5439663cc9914cU,
  0xbbf885943c4e188aU, 0xbd5a7b0bbc6c7a29U, 0x3c99264ebd1dca0dU, 0x3d0489d6bce8b23aU,
  0x3c84865cbcd20c66U, 0x3d0fe1cfbd423467U, 0xbd0cf3c5baf357f6U, 0xbc7f9d83bd6cdd23U,
  0xbd707da6bd2a18f4U, 0x3d6235333ca882dfU, 0x3d4210553cbe3f95U, 0x3c5c2cf9bd2930e3U,
  0x3c8774cf3c0ea13bU, 0xbcf2ef853d15246bU, 0x3c82e47ebd619cf9U, 0xbbf490d93d58b741U,
  0xbb89b7a93d0ad060U, 0xbcd90c53bc40b5f2U, 0x3d1198b6bd5d2ec2U, 0xbd30124c3ca3ae6dU,
  0x3c46539c3cc0c8a9U, 0xbd0edb563c2b3362U, 0x3cc2d77e3d26cf6aU, 0xbc9fb491bccbefffU,
  0x3d3cf5f4b9f5ef9eU, 0x3d2d4cf53d1a9e60U, 0xbcbbb7523c6a6c27U, 0x3d4be2dcbb9919b4U,
  0xbc6c25a63c9168f6U, 0xbd41de9dbd5be715U, 0xbd27597e3c59dd05U, 0xbce74c5ebd71cd77U,
  0xb8fc7eec3ce07cccU, 0xbc849b4b3d2268c6U, 0xbd26df313cb1dee3U, 0x3d03aca33d5853efU,
  0x3c61ac463bd94e0eU, 0xbd38d3dbbc9871f9U, 0xbd51ad33bc90fe6fU, 0x3c4830ecbbc3e2eaU,
  0x3cc98650bd42f166U, 0xbc84b00ebcf5d8beU, 0xbd88c07bbd135f93U, 0x3cfe01fdbd29726bU,
  0x3ba584753d5925ceU, 0xbd6175613cf4febfU, 0xbd1a06723d4dac9cU, 0x3d45bad5bd073afcU,
  0x3d2dd9e13ba1ce9dU, 0xbd69f07fbc1e3e10U, 0xbabd06043d15ab54U, 0xbd781454bd269f7eU,
  0xbd3de1f43d073e2bU, 0xbcdf2c0a3cc86bd1U, 0x3ca3486fbd6bd0f6U, 0xbc8649de3d019b15U,
  0x3d5939483d234283U, 0xba94457e3cad75a3U, 0x3cb15de43c666e70U, 0x3ca0ff693c0ac7ddU,
  0x3cd5db63bc841158U, 0xbce30659bbd0e0bfU, 0x3d4c3bbb3bbe0622U, 0x3d1c72c4bd5024ffU,
  0x3d2526243d17bb9cU, 0xbd1e32cebc8a5ff3U, 0xbc55f38a3a4efe92U, 0xbcfdf6543d4a082cU,
  0xbd660102bd288bcfU, 0x3d5e8b17bd53c186U, 0xbcb6ed58bccc2ad3U, 0xbd06e5953cd729c8U,
  0xbd0169fb3d69a573U, 0x3bb7f225bca56fc4U, 0x3d4ff5f23c1a0d12U, 0xbd381740bca8f3a6U,
  0x3d5437683cd86e0bU, 0x3cc552a13d8105c1U, 0x3d6d8ad63d0c4e98U, 0x3d1270f2bb78968cU,
  0xbd272489bcaadd60U, 0x3ccc751fba862407U, 0x3cbfb1833d2b0a0cU, 0x3d2293513ba0883bU,
  0x3d04074bbb9ce362U, 0x3d5e7bf1bc3a7652U, 0xbd123440bcb0552bU, 0x3d4371bb3d4685eaU,
  0x3d35998f3c05f989U, 0xbcd9964b3d046a59U, 0xbd420136bb16440cU, 0xbd4ac68a3c1c2ae3U,
  0x3ce66b803d6a80edU, 0xbd13589dbbf7a344U, 0x3d114ae3bd65bdddU, 0x3d317591bd0acde5U,
  0xbd22faa93ccffc4eU, 0x3cf60033bba52da8U, 0xbd371ab93d2b6379U, 0x3bc9a76cbc0f8a0fU,
  0x3c378720bcf7a0d3U, 0x3cf6ccb93d327209U, 0xbc0679f93d240624U, 0xbc997d8c3d6ddc7fU,
  0xbc5a74653d167202U, 0xbd15bb55bd4e13abU, 0xbce1209bbd413654U, 0xbcde95a3bd34c20fU,
  0x3d37d648bc17d283U, 0x3cbaf0a7bceaf0e4U, 0xbcb698d3bcaa343fU, 0x3d1bed543a191f54U,
  0x3d4e1af43c57fe3cU, 0xbac85810bbacc7c6U, 0xbd5541a4bbb1bcf3U, 0x3c965a82bcf68ae5U,
  0xbd022b32bccfb8a2U, 0xbc97b84ebcee52caU, 0xbd20e9f33d343e5dU, 0xbd4efdcbbc6ede31U,
  0x3a99bc723cbbb0d3U, 0xbcd77e203d199254U, 0xbcaee8e43d55e434U, 0xbc9398273c80780bU,
  0xbcd8400dbd06578fU, 0x3d6dfcbfbcb85c1aU, 0x3bf589afbc9b7d0fU, 0x3cbacd1bbd1cbdf8U,
  0xbce5639d3b1efeadU, 0x3ba02ffd3ce7afc5U, 0x3d174247bd209421U, 0x3d52bc093d07907dU,
  0x3d0c8d06bb289ca2U, 0xbb715fe1bd4237fdU, 0x3be14a533ca0ca58U, 0x3d13766bbc8f784bU,
  0x3d014f63bd53fbeaU, 0x3cce904b3c945050U, 0x3b7dbca6bc539a81U, 0x3c969cfe3c8d15b1U,
  0xbc599d11bd22c79fU, 0xbbfe5933bcc53b67U, 0xbccfab2f3d5629e2U, 0x3cb8bf0ebd15fe8fU,
  0x3d3a590a3c03082dU, 0xbb3c362abd1ad298U, 0x3b85cacc3d36c663U, 0xbcf281eabcc65b27U,
  0x3cf047e73afc9f68U, 0x3d239c56baed0bc0U, 0x3d08c0723d113f40U, 0x3d56c5573d53760fU,
  0x3d0fabd23d0e97daU, 0xbcd3ed06bb8f2f98U, 0xbd06b76dbd07daf0U, 0xbd050a44bca5114aU,
  0xbd29af6bbd65a152U, 0x3d21c87b3d32f769U, 0x3d1ad0433cad2d82U, 0xbbc992a8bcfb5f3bU,
  0x3d4f41c4bd56ffdaU, 0x3d02938b3cdfbde7U, 0xbd096c933d53532cU, 0xbd586717bccdada9U,
  0x3d61d5a9bb8c9c12U, 0xbd2c1850bcd5e96bU, 0xbc7beef6bd51cb06U, 0xbd1b55c6bc6a5388U,
  0x3c98ae063bafc904U, 0x3d112f06bd466c62U, 0x3d4e58313d2edff5U, 0x3c93f440bd331ad9U,
  0x3d5f26d43d3d0624U, 0xbd13c8a23cf6b11aU, 0xbd5970493c8ed782U, 0xbd2909d23d55eef1U,
  0xbc9126f2bc771a1aU, 0xbb0e7c77bc9a487aU, 0x3c2bc4c7bc4b1a4cU, 0x3cc25aae3d198b73U,
  0x3d632175bcd48c6dU, 0x3cb406e53cd4c41cU, 0xbd59146dbd10bd59U, 0xbc94253dbd2a636eU,
  0xbd5cc4cbbd3caed0U, 0xbc9a1df13bafc8adU, 0xbd03485c3cb2c441U, 0xbd29ea443cd9803eU,
  0x3c15e123bcb28f09U, 0x3c93e102bce10dc3U, 0xbd673c143d693199U, 0x3d001e60bd2a95daU,
  0x3cc8736d3cd284e7U, 0x3d01a96dbd359f40U, 0xbc3c64a83c7994b2U, 0x3cdc83463d210a99U,
  0x3c9375b03c994855U, 0xbd1ad772bd00caecU, 0x3b30e8bebc751ac2U, 0x3c0538163cba0bffU,
  0xbd599153bcfdd5c8U, 0xbd013dadbd6d5c2cU, 0x3d3be37ebd45012dU, 0xbc5ad010bd2d7a06U,
  0x3d3f3eb33cd515adU, 0xbd25c5943c859dc1U, 0xbd04ef1fbc4a99e1U, 0xbb9c71ef3ba83a27U,
  0x3bb1467cbd157895U, 0x3d2dc98f3d0209a8U, 0x3d55410d3cff0e85U, 0xbb327bccbd08d821U,
  0x3cdb27603d50b265U, 0x3d03926d3ca268d6U, 0x3d072ef4bb08ffa9U, 0xbd14bc6cbd2b4992U,
  0x3cb2c9043ada6452U, 0x3d3330923c0ab871U, 0xbd3801173c18faf0U, 0x3d372de5bd064df9U,
  0xbcf99c343cb7495eU, 0xbd4197a4bd0f16a6U, 0x3d29825fbd4bb214U, 0x3c9e5df63d802e4aU,
  0x3ca99f42bc44b529U, 0x3caacff6bd52d601U, 0xbd056b7ebcf2e0e3U, 0xbd327661bd16619dU,
  0xbd6ba7a9bd17d7ceU, 0x3d14a368bc8b3bacU, 0xbd3f56d2bd272f6aU, 0x3c9afcc03d22afedU,
  0xbd6294103c0dc983U, 0x3cafe329bd8edd54U, 0x3b9cb759bd818263U, 0x3cc9abf6bcab6fb1U,
  0x3c2377bdbd52908dU, 0xbca28dc1bca73012U, 0xbb92b5273d1eeffeU, 0x3d306fb6bcb88fb5U,
  0x3d3b2d1b3d0afe30U, 0x3be60858bc904579U, 0x3cf4145e3cd505dbU, 0xbbdfd1fbbd58e53eU,
  0xbbb164febabd4cc3U, 0xbccb09b5bd7a54b0U, 0xbd3b24d6bcbfd571U, 0x3b9536ac3cadfcfbU,
  0xbd2fdc83bd36e7b4U, 0x3caa4f6c3d15c36cU, 0x3c829c313cfe6e6aU, 0x3d32399438cf1a92U,
  0xbd20af45bae0d742U, 0xbd12fe0a3c8b0260U, 0x3d30fc923c4b556fU, 0x3d24093dbcb9a5e8U,
  0xbd545b723d5cabedU, 0x3bd2ec75bc7b3eddU, 0x3bae3b44bc8e030bU, 0xb9416f26bcdfcf17U,
  0xbc155ac33d58860aU, 0xbcb7c7e03b91f193U, 0xbc66adcab824cb81U, 0xbcc2151f3c318905U,
  0x3d5ab5fabd45a343U, 0xbd2a956b3d105b26U, 0x3bc84a4abd54c476U, 0x3d650b81bbbb2da7U,
  0x3ca9ec8dbbd0c86aU, 0x3d112c733c87142eU, 0x3b6eba71bd09066aU, 0x3cd9e5a53aa8a8c9U,
  0x3cf82814bd15b809U, 0xbd6bbacf3ac814cfU, 0xbaa36f29bd580a45U, 0x3c394d2bbd4d88deU,
  0xbcb7470c3ce0c741U, 0xbcbeebddbd7fa247U, 0x3cd66c883d3e17acU, 0xbb4dbd15bc8e7564U,
  0xbb52aea23d33e1f5U, 0x3d0312c7bcea687fU, 0x3d8434cd3d0d5d94U, 0x3c190f9e3d10e938U,
  0x3d538dd73d3b08b6U, 0x3c8d228cbc494768U, 0xbcea9284bb5c0c33U, 0xbd0aac213d298ff9U,
  0xbd0bf4df3cd6db45U, 0x3d1ca683bd36cf4fU, 0xbc3ff994bcf48d21U, 0xbd61ab093b99518dU,
  0xbb50fe2abd7cfe20U, 0xbc5f6c3bbd083f27U, 0xbb710b953bde290dU, 0x3d0eded3bd026418U,
  0xbc9501353ccb0b0bU, 0xbc374c76bd4ef8f9U, 0xbd1080acbd1e3dd3U, 0xbc842339bd5c4cbfU,
  0x3d6a5c50bd371699U, 0xbb2e32af3d3bd94bU, 0x3c96c25d3cda7a6bU, 0x3c372207bcadcd3fU,
  0xbd1891223a19aba1U, 0x3d4027f4bd46384bU, 0x3d0c921fbc6b48a0U, 0x3a4699b53d6e5200U,
  0x3d3282053c401aecU, 0xbd284d613c7370a7U, 0xbb1195a7bc9a89d0U, 0xbc80da653d180c08U,
  0xbd170a65bd48dc9bU, 0x3d074bedbb934922U, 0x3d46b7be3d47cba5U, 0xbd412974bd4bdd47U,
  0x3cd18d163ccd1204U, 0x3c989e063c14d60bU, 0x3b14a8cd382b984aU, 0xbd26d66fbd353bdbU,
  0x3ce0dd8dbd3236abU, 0x3d2a39aebc9fd124U, 0x3d426eadbd69afa0U, 0xbd6f38b3bd4afd4dU,
  0x3d188c46bc9c8617U, 0xbd0a75a8bd07ead5U, 0x3b4df91fbd62a1cfU, 0x3d5abaffbbd0fe0bU,
  0xbc3ece6abd501db7U, 0xbd1ac991bd6cff7aU, 0xbd6385783d318876U, 0xbc6473eb3d121b0fU,
  0x3d32e43bbd053238U, 0x3d5d70e0bcc7e125U, 0xbd64f9143d07e2d1U, 0x3c86bfa93ca918ddU,
  0xbcaf2bfe3c2891e3U, 0xbd116c66bc4349aaU, 0x3d11cf27bc9f9cf2U, 0xbd4d885f3d50ff60U,
  0x3c9c4952bc3eb84aU, 0x3d21393dbd054f4bU, 0xbc550fc33cc908beU, 0x3b7740fa3bf845f8U,
  0xbd46adcabc2940a2U, 0x3c786d56bc90c8ecU, 0xbd0aa255bd63d947U, 0x3ce43a563d1721acU,
  0xbd107efe3ce6e73fU, 0xbcb1cd9c3cb82519U, 0xbd3544db3d34e15dU, 0xbaf46964bd2a689bU,
  0xbd22bd093cc3837fU, 0xbc9b26cf3d1976e5U, 0x3bcc40843a8527c2U, 0x3d5eeb82bc15bcb8U,
  0x3b7b8f8d3c8ec846U, 0x3c8f248ebc254fd1U, 0xbc85e22f3d1fb424U, 0xbd370a74bd2b7634U,
  0x3c8ab6273d5b1135U, 0xbcf82870bc1a6c72U, 0xbcb0ec093d6894e9U, 0x3cf654babd54c0b9U,
  0xbd05c3023cde0b36U, 0xbd593260bd3c7ef2U, 0x3c0762c0bcf4d185U, 0x3ca3ca8e3d371819U,
  0xbcc3abdf3d1967d5U, 0x3d4a80a23b0da103U, 0x3d16ac273cd0d3faU, 0x3d5d6a45b91c0299U,
  0x3d26e7203c7422baU, 0x3d4d6c84bd4dbcddU, 0xbd52bb253d0b2ec3U, 0xbc5dff77bd703ad2U,
  0x3cd434c13ca8e82aU, 0xbc36e9e13cbcdff2U, 0x3ce8bdaabd5b4415U, 0xbcb8b7e4bd04eb95U,
  0xbc4803833d53e0c9U, 0xbd025c81bd123a6fU, 0x3d39dcad3c20e50eU, 0x3c7e21d6bd079156U,
  0x3b4852c83cc0e135U, 0x3d354017bd3cbe7fU, 0xbcb85f143caf80bfU, 0xbd59d6693d3d6000U,
  0xbc88164fbd2aeaccU, 0xbc11ed6d3cd2de18U, 0xbd1437debd5f67e8U, 0xbd0d3a873b5bdb02U,
  0x3b07bedc3cef5903U, 0xbd0507f8bbf5bfb3U, 0xbb8ccb023cd200d3U, 0x3cd069c8bd5dffd0U,
  0x3d5325e8bc077775U, 0x3d2bd713bd230fa6U, 0xbc8451a0bad539ecU, 0x3d674682bd5a48e2U,
  0x3c9ce6fa3c0240acU, 0x3d3b367dbc8a5b9bU, 0x3d11ef233bd6ccf5U, 0x3c9747af3d2b55ceU,
  0xbd5e53d1bb6cceccU, 0xbc35b4bd3c20657aU, 0xbc27a6a13d4bb983U, 0x3c2059163d61433bU,
  0x3cb5fb093d220f7fU, 0x3d4a8c24bcff2008U, 0xbc3433193c8db729U, 0x3ab359d1bd24ae76U,
  0x3cb542ebbd6aa5ecU, 0xbd56b3153d39cf0bU, 0x3d2cb0b13c97b861U, 0xbbace2bc3a5c12d1U,
  0x3d1ada15bcf0dd8bU, 0x3cd40f7dbb34cfe8U, 0xbd529251bbc923b5U, 0xbc196913bbd7b3a8U,
  0x3cdebed43ce64a35U, 0x3b6dc378bd1ea33cU, 0xbc363dd73b72aaafU, 0x3a8d5fab39978f1eU,
  0x3d5915113d5a8afbU, 0xbd20c2c03ce892e6U, 0xbd4a323ebc8c63ffU, 0x3d040e12bd5f4ad8U,
  0x3a48d2d33aba5516U, 0xbd31c1e53d34c66dU, 0xbb922e49bcbd7c26U, 0xbd1448b23beaf389U,
  0xbd279fe6bd520cb6U, 0x3a4eb85d3d13384cU, 0xbc9a1fb63aca22e6U, 0xbc97b17dbd433477U,
  0xbd29fe85bd658399U, 0xbd20f7fc3c41ba32U, 0xbd46b9c7bd1a56f4U, 0xbc0aed08bd501f82U,
  0xbd50f532bc83cc34U, 0x3ad9d411bc5495dbU, 0xbcfee67f3c53d37fU, 0xbd5d5822bd00c35fU,
  0xbd097e78bd1e2174U, 0x3d60a06fbd467093U, 0x3b627feb3bcbd48eU, 0x3d48edd03bb81537U,
  0x3cd60a4cbbe91f37U, 0x3c3252e23b5b42d2U, 0x3bebc7733c9e5e73U, 0xbd4feeb4bd103234U,
  0xbc4a036c3d12627eU, 0xbbadc63e3d58aaf5U, 0xbd652ec8bc95b6a3U, 0xbd3f8ecc3cb0709dU,
  0xbc10a2753d0de198U, 0x3d6c55de3c5596f7U, 0x3d2cba41bcf26007U, 0x3c0fcb5fbd148afbU,
  0xbcbff041bcc8e1ccU, 0x3b1112b5bd19585aU, 0xbd3210323cb0c976U, 0x3d41aa363c8981d6U,
  0xbd46d7b23be85483U, 0x3c972c57bc5e7ff7U, 0xbbd639d839de95eeU, 0x3d13b3ff3d1c6392U,
  0xbce7a1553d4cc1edU, 0x3b63a4f8bc17036fU, 0x3d3ab5abbc95d9eaU, 0xbb8a3bbd3d3e3789U,
  0xbd09b147bc57c49cU, 0xbd61df3739cbc887U, 0xbc3fa2b7bcd34376U, 0xbbce0ec5bc329753U,
  0xbd5238fa3d20a6a9U, 0x3b39481a3d54e798U, 0xbd41cfc1bc9cd075U, 0x3c09c1aabc01757bU,
  0xbcd9f643bc709663U, 0x3cd6ccaabd0e0d78U, 0xbd621ead3bdc41f4U, 0xbd2b2cafbc9743d0U,
  0xbc92fd133d359b48U, 0x3b24d8413ac3c7f8U, 0xba07bee4bd509458U, 0x3cf6a3fd3ca42b26U,
  0xbd0e1b123c57782bU, 0xbd632d1a3ac6c374U, 0x3d2da9efbc336640U, 0x3c752b46bd4f5160U,
  0x3ce09886bd53a08aU, 0x3ada5a87bd5c61a5U, 0x3d03faa23d4e9a91U, 0xbc9930ad3cdb5856U,
  0x3c9093fe3cd06bc1U, 0xbd269149bd163fd8U, 0xbd4af6dc3b8e73a8U, 0xbc0119d13d5d9bb4U,
  0x3d0a91ffbcf63fa0U, 0xbb210818bd63a9e6U, 0x3c1376793d32d254U, 0x3d6672a4bd1997e8U,
  0x3c63d729bd137cdaU, 0xbc06244dbd32b768U, 0xbc8b5eadbd3da12bU, 0xbc3ebeb13d3c0cc0U,
  0x3cf080f63cb9a65aU, 0xbd2817c43c3a95c2U, 0x3d0f77593d048914U, 0x3ca753c6bd292263U,
  0x3ccce2e13c94aab7U, 0x3c8fbd02bd139af3U, 0x3c51c7fd3c863a95U, 0xbd51880a3d1ad59fU,
  0xbcb54a9f3d668a5dU, 0xbb073833bd188e1eU, 0xbd108e633d02114aU, 0xbcd2e4c03afec026U,
  0x3cac9878bd48fa34U, 0xbd0547253d580f66U, 0xbd2cd2883bfb8a73U, 0x3c0da1d4bcea02a4U,
  0x3c4b87b63b4af96cU, 0x3d663ea8bc57e058U, 0x3c6ebe2abd27b1c4U, 0xbd3539a23d5e2214U,
  0xbd022bdcbd1e5918U, 0xbc97eec5bd409be9U, 0x3b79402ebbfd02b6U, 0x3d682c0f3b6298efU,
  0xbcd121f4bd587b15U, 0x3d03cb3f3cee8adeU, 0xbbc81a873d3d65d4U, 0x3d02bfeb3ceca65eU,
  0xbbfaacda3c79f946U, 0xbce227133d2349e1U, 0x3d2f5c8ebcb492a1U, 0xbc367e5f3a11aeb4U,
  0x3d53ef923d08a5bbU, 0x3d3da31abd68c20bU, 0xbd05bd983c512db8U, 0xbc8ba313bd14be74U,
  0x3d2f51ad3ca47404U, 0xbd52ba583d57eef4U, 0x3ba8ce9e3b9f6ebdU, 0x3cd0f237bd60d909U,
  0x3cb842e3bd069d0cU, 0xbd1b89a03d3dcbafU, 0xbd02d120bd5a9319U, 0x3d6914ae3d5cb303U,
  0x3d14005e3d65cca7U, 0x3cda657a3d22a863U, 0xbbc373323ce5ee0eU, 0x3b8a75053ccc827cU,
  0x3bc77d723cd3c3deU, 0x3d193e35bbfda055U, 0x3d26d92c3c8b415fU, 0x3d2895b23d0111deU,
  0xbc49f593bc889534U, 0xbd20f0d23d00b3a3U, 0x3d06e2b83b2c3ef7U, 0xbcff5f843d2552ccU,
  0x39a84606bbb8ccf1U, 0x3d3b1fa03d19e8e6U, 0xbcd12941baf1ced9U, 0xbcb1ea49bc899632U,
  0x3c6517293d2cebffU, 0xbd2223043d585520U, 0xbc850689bd5df780U, 0x3d59cc93bc5cabc6U,
  0xbd1008143d3b97f7U, 0xbd0ffa97bd3ff8d0U, 0xbceb9e2abd1087afU, 0xbbc858b33ce1ddefU,
  0x3ca93d02bbc258edU, 0x3bf1ba183d65ebfcU, 0x3ca5481b3d2e8ec3U, 0xbd1849993cc88ea1U,
  0x3c837c7c3d6a15b8U, 0x3d4787143ac91f50U, 0xbcd07b62bc36643eU, 0xbc9344bcbc230361U,
  0xbbad593abbb0d5ebU, 0xbce075c5bd50cdc6U, 0xbc554552bcd1dce6U, 0xbd217efabd4bfbb8U,
  0xbbe4dc36bd4e461cU, 0x3d140519bd5f5e9fU, 0xbd658b163c7a83f0U, 0xbd265aedbcbddc89U,
  0x3cd29b293cac99b1U, 0x3bf6bf6b3d0616c9U, 0xbd21a190bcf2c45aU, 0xbd3810f03d72d4b5U,
  0x3c82446ebd357891U, 0xbcd37a573c6f5614U, 0x3b4a3c74bd14a9edU, 0xbd290662bc6780d7U,
  0x3d4d90043d3e6489U, 0xbd108c4ebd65ff5dU, 0xbcacf0d7bd0b0b64U, 0xbc21313c3d0fd398U,
  0xbb0b6c36bca2244aU, 0x3d56b392bc6de11eU, 0x3b9109d03c8ac04aU, 0x3c173239bccacf38U,
  0x3cbfd3f93c0443beU, 0x3d369aef3c891ea3U, 0xbcc8094abc511f6fU, 0x3d3b4d593d493c0fU,
  0xbce68615bcb8756eU, 0x3c2bd5d0bc60d87eU, 0x3c734937bd1a0b33U, 0xbd2263f23d18d8cdU,
  0x3d1f6ac7bb8117adU, 0xba71f179bd269ed0U, 0x3d2af08bbd3d6713U, 0xbc359b483ced4809U,
  0x3d577c7ebd1cf39aU, 0x3d5746773d1b3423U, 0x3d12f859bcb29082U, 0xbd5371a4bd57e833U,
  0xbc857178bbf3e471U, 0x3bc40cf8bcc818f0U, 0xbce46485bcaa24e8U, 0xbd1539c6bc18aa50U,
  0xbcd7693cbcc7bd18U, 0x3ba155b5bd060e1fU, 0x3c14a9383ba67030U, 0x3bd09443bd5a6075U,
  0x3d6671ce3c3dbab8U, 0xbc84d42a3d479f00U, 0xbd28d625bc2c8145U, 0xbcac38ddbc98c522U,
  0xbd39263e3d238514U, 0xbd1b5dd53cfaf30eU, 0xbccbb9ebbc4d3466U, 0xbd5935bf3d4fa251U,
  0xbc302ebfbd6a90b2U, 0x3d6af2e1bc922e44U, 0xbd5953363c670874U, 0xba9db2f4bcdeccddU,
  0xbc3734cbbc437175U, 0xbc8bd9bf3d660701U, 0x3d1ac54c3d0de0c5U, 0xbc8d187f3d56287bU,
  0x3c11bfe9bd472de9U, 0xbd5b99d43ca13981U, 0x3a9d6ee5bd56ae7fU, 0xbd20fe42bd25d13aU,
  0x3d3bf291bb442220U, 0x3be4f810bd0f5c96U, 0xbd0dec40bd6ab60eU, 0xbd382949bba6ebcfU,
  0xbcc5f88ebbfcc5f9U, 0x3d0a2058bb34224dU, 0x3d4ac15c3d33fec6U, 0x3d4c1ccbbd0c0892U,
  0x3c58c0763cb419dcU, 0xbd44f7153c7c45d5U, 0xbc9be44abd140668U, 0xbd09e830baa41690U,
  0xbd3f6466bb94bcb7U, 0xbd2389703d32f68aU, 0x3cc5b8adbca90381U, 0x3d35f1473b50ea7bU,
  0xbc05999fbd0d2c0dU, 0xbd3810ee3c69f610U, 0x3d531131bd06c119U, 0x3c9bc3003c92e299U,
  0x3d1f36e73cefc655U, 0x3d22e52abc8c154eU, 0xbb9b5279bd34a23aU, 0x3d76e4143d581bc7U,
  0x3cc5d22f3d1005feU, 0x3cad1e2abd1a3748U, 0x3c9e3624bd412b24U, 0xbb84dcfe3d405001U,
  0xbd27d600bcd8131eU, 0x3d3a6c26bc0605aaU, 0xbd366f88bc194de1U, 0xbd22f1abbd3512d2U,
  0xbc700a143d0e9dc1U, 0xbd38774dbd3b9091U, 0xbc15f3d93b9cd602U, 0x3d707dd73cb925caU,
  0x3d5577e0bca0619dU, 0xbd1dbc6ebcb32f44U, 0xbd3e7c98bd4de746U, 0x3c7537433d161f14U,
  0xbd17b8343cac087fU, 0xbb1ee5963cde5741U, 0xbd28b0123c7a55a3U, 0x3d7922f4bd3da4a8U,
  0xbd025d42bc565a17U, 0x3c989e153c8b4eafU, 0xbcf31b283d5a7ab0U, 0x3d21947ebc51398cU,
  0x3d5e51b1bd6caafbU, 0x3c539a91bda6a552U, 0xbce6e48dbd585754U, 0xbd37deca3d621a2aU,
  0x3c7b8e5abc1a0d4dU, 0x3d601cc4bc3918e8U, 0xbcf665fe3c5e2644U, 0x3b577cd63c80da42U,
  0x3d6a3813bd4dc484U, 0x3d43a8d4bd40349cU, 0xbd13ad5ebd1ed220U, 0x3d2926b2bd01403fU,
  0xbd3a192abbd5200dU, 0xbc4b80543d6311adU, 0x3ca00fe9bd43c0daU, 0xbd5ea4083b1cf670U,
  0xbce196de3cb69b11U, 0xbd502b18bd0fbbc5U, 0xbd56fdb33ce0d341U, 0xbce6f343bd2f6865U,
  0xbc252c5bbd4bd32eU, 0xbc78999e3d6e83d2U, 0x3d82e612bd461902U, 0x3cf159cdba3ecc5dU,
  0xbd22aa1ebd0ceaccU, 0x3c2205ba3d7d5e24U, 0x3ca3a0e73c70f954U, 0x3d5d3fb03d77cd57U,
  0x3befdbdb3a66673cU, 0x3d58c513bb351562U, 0xbbf3cf7cbd1e7ac4U, 0x3ca15a943d6bb18cU,
  0xbd15819a3c821786U, 0xbcd1339bbc672fbfU, 0xbd09dcccbd559572U, 0xbcbc41c5bcf23e96U,
  0x3c99bae03d2cb26cU, 0x3d5bafb63b172214U, 0x3d002d6abcd2074aU, 0xbb2e4bdc3a41356eU,
  0xbcfacfb03d366181U, 0xbc8bf980bcb3145fU, 0x3b641e2b3b49f18cU, 0x3d8092b9bc29d64fU,
  0x3b302e653d3e176fU, 0xbd3b64b0ba581958U, 0xbbf6e525bd10abfcU, 0x3d7d8a383d847516U,
  0xbcf67f42bd111c77U, 0xbcb3312b38680db8U, 0xbd775ef6bcc977fdU, 0x3d132536bd0cb65cU,
  0xbbd3e9a83d4164e6U, 0xbd0455423ce50891U, 0x3c968bc9bb976038U, 0xbd001ea4bd465365U,
  0xbd8d0946bd246513U, 0xbc8ac4773d39c2f5U, 0x3be986363cfa715fU, 0x3cf911753c835060U,
  0x3cdfccd2bc27d478U, 0x3c8551c7bd8bfdbaU, 0xbc51cc5f3cb48156U, 0x3c7e9fc8bd3c5d23U,
  0xbd2d4becbc2f7de5U, 0xba2781433cbb04b8U, 0xbd3ffac7bc4a5824U, 0xbd4b766c3c92f974U,
  0xbd3e9c16baa67c96U, 0x3c9466c23c8d07baU, 0xbc2ac7113cd6dea1U, 0x3c1f4800bcbf6abbU,
  0xbcbd030c3d5eba80U, 0xbca420ff3d15c6c9U, 0x3c841b113cd5546eU, 0x3d0e1f5abc394533U,
  0xbd5b87573d6ae583U, 0xbd26c89bbced6bfaU, 0x3d6adbec3b190a79U, 0xbc67d264bd430402U,
  0xbd515309bd04a2aeU, 0x3c97398a3cfd1764U, 0x3d8336e53d2d9f32U, 0x3d5f087cbcaa66c4U,
  0x3cf7278dbb0abddeU, 0x3d5d0e613c933274U, 0x3d48c2d4bc816491U, 0xbd624baf3c57102cU,
  0xbcfddafcbbccf7cfU, 0xb9584cd6bd243b69U, 0xbc61e0563d0ffcabU, 0x3ba03dcd3cad28aeU,
  0x3cb958143ca4c500U, 0x3c948b0dbca9db36U, 0xbd5bf5d1bcd745d3U, 0x3d2d85693cc4e339U,
  0x3b6303693d2f291eU, 0x3d11c4fb3cd25274U, 0x3d6932bdbd3a4bb1U, 0xbd312064bd24ea50U,
  0x3d31f88d3ce5b60cU, 0xbd1925033cb32878U, 0x3aa7f0c2bbb3b385U, 0xbd0732a83ce4b883U,
  0xbd2c2d253ced70bbU, 0x3d0492a93c5c45fcU, 0x3d0bde0f3b120d8dU, 0x3d55fb22bc228ea1U,
  0x3d11d7bcbceeac0fU, 0xbcdb1ee238ac13f0U, 0xbd49eca83c59f658U, 0xba80228dbd48e211U,
  0x3d20d3603c9a5498U, 0x3d0deaf33d3136aeU, 0xbd21b3c53cf8e170U, 0xbc2903e03cc37fffU,
  0xbd84ed00bcb8793bU, 0xb9b8ab043d5ad2baU, 0xbd3886c5bd02ab1bU, 0xbb3d9a89bd015568U,
  0xbd22e2933d2ef48aU, 0x3c8f6d81bcecb20eU, 0xbd871e95bc3aebcbU, 0x3cdde0963d466469U,
  0xbb8190d33cb94315U, 0xbd6c42e2bbd73c9aU, 0xbcc94d49bcd1794cU, 0x3cbc0a24bccc8865U,
  0xbc9222c0bc18308eU, 0xbd1f9ca7bd425407U, 0x3c0f405e3bb43e65U, 0xbaa340a63cac99c4U,
  0xbd0116073c9f9aa9U, 0xbc2adc793be53c61U, 0x3d5f29173c701fcdU, 0x3cf7b8883d35a1e7U,
  0xbbea9d06bcc62584U, 0x3d30ef7c3cccff55U, 0x3d66d611bcb0a674U, 0xbd2bd7d93b1339e1U,
  0xb979ae89bd5d1d31U, 0xbc65a71ebca53814U, 0xbc4d180fbc5f2604U, 0xbd2bcda1bcabf72eU,
  0x3bb30729bd098b6aU, 0x3d28ded3bd03cb0aU, 0xbcb0ba9ebd26f9faU, 0xbcd947eb3c6c21f3U,
  0x3b87a85fbd2bcadcU, 0xbbc7f5ffbd21ad51U, 0xbd437107bcb6b756U, 0xbd133d1ebd44ce6fU,
  0x3cafef773ba9c1a0U, 0x3d56eaa1bc2c1597U, 0x3b862ba0bc497073U, 0xbce38a5b3d576b18U,
  0xbcdb4f94bbfb201fU, 0xbd17a0303d31a013U, 0x3d1c0e6b3d2bff38U, 0x3cc60d73bd134356U,
  0x3c40eab2bd38541dU, 0x3c4315a7bd6f1c29U, 0x3d63a368bd5f96eaU, 0x3d747d4ebcae341cU,
  0xbb71abde3b0e0a8aU, 0xbc2ba8b83d62c4adU, 0xbc812e11bd55bd78U, 0x3c82cde3bce0c87cU,
  0xbd572f30bce013a5U, 0x3d3f885b3cd56c35U, 0xbd90540c3d2ed0a9U, 0x3cba2409bbbfcebfU,
  0xbcea66613baa3724U, 0x3d11836abd213482U, 0xbba4ac34bd6c29fbU, 0x3c2a95153ce4514aU,
  0x3d2e788ebd3e846bU, 0xbba71a063baa9648U, 0x3d2e9ff73bd8c9e3U, 0x3cf323333c06e467U,
  0x3d08bbd03c1edbb2U, 0xba8159b9bd421ad4U, 0xbbafbf67bc584a2aU, 0x3d3f603c3d677deeU,
  0x3d64b9fdbc3454cdU, 0x3cddcee03cb0b047U, 0xbd1c38abbc2f514cU, 0xbd0c01703b353dc1U,
  0x3c20156f3d0d171eU, 0xbae1556c3cd79fcaU, 0x3cebb43e3d11115eU, 0x3bf6e00dbc7f6283U,
  0x3cac1e8bbd066e3dU, 0xbd0abcd13ca572e7U, 0xbc97df773cae05d3U, 0x3a861ba6bcbd66f6U,
  0x3c84ed333ce8da3dU, 0xbd1d72073c5415a2U, 0xbc9996d3bd1911a5U, 0xbd6a67d1bcf4278cU,
  0x3cac5fa8bd811c44U, 0x3c9b5223ba8fe98dU, 0x3d238f2cbcf59c8dU, 0x3d2cc5f2bc2ffc0eU,
  0x3d2c89463bd2ba23U, 0x3d713e8d3b357eb6U, 0x3c62865c3d400d80U, 0xb9fd2cd6bce1bc85U,
  0xbc33a64abd380b2fU, 0xbc07a4cbbcbc087eU, 0xbd18ed023c0de427U, 0x3ca9d56fbbbd823eU,
  0x3cfc9c2fbcbdff22U, 0xbd4d43df3cc73e3fU, 0xbd32f8bbbbd79892U, 0x3cbe9452bc3df6f7U,
  0xbd081b99bd32dfb5U, 0xbae12ac63b811293U, 0x3d8026a43d369688U, 0x3d695fa8bd2004f3U,
  0x3d457bfcbcca7b7cU, 0xbcd382e8bd5fc0ebU, 0x3baa4ddcbc2ab5f7U, 0xbcb16ea03c782fb5U,
  0x3cc542353d52ddf4U, 0x3cdf96ab3ca56a89U, 0xbc876c793d73761bU, 0x3c7758793d636637U,
  0xbd1c25bb3d39bea5U, 0x3cf2d23fbcc87b40U, 0x3c49fa20ba86ddd6U, 0xbd3acfa23d5e3f07U,
  0x3bb0d65f3d15dc54U, 0x3ba556a03cfd4b6dU, 0x3c9d7b7f3c40d41fU, 0x3d5141f73c8a7653U,
  0xbcf799cebc71a0c6U, 0xbd6869983b273ad9U, 0xbd31307d3c3ae588U, 0xbd295918bcd84209U,
  0x3ba4caa23d4e62ddU, 0xbd58d13f3ba93e39U, 0xbccf79b73bccc02aU, 0x3d44fc63bc84f9f1U,
  0xbd17f995bd5f5867U, 0xbb91dbc73d550d96U, 0x3d16db5c3d687714U, 0xbce7c2063d3b7740U,
  0x3d0d8f3cbca9d1a6U, 0x3ccdc9c6bc7a1826U, 0x3d37e278ba2a53f3U, 0xbc6de9853d49e3a8U,
  0x3bf2a3ca3bcc9e77U, 0xbd18dc72bd0944f4U, 0xbd48e49fbd0b233fU, 0x3d3f656f3bdd8c04U,
  0xbbb1009c3b2b1cf4U, 0x3ce4b4953cf15d88U, 0xbd5fb8e13d051b40U, 0x3d336b023ad07afbU,
  0x3d2ecfea3bfbf564U, 0xbd1657fdbbad5e92U, 0x3d1c65f83d277aecU, 0x3b1c7041bc2c720bU,
  0x3cdcf862bcc97e21U, 0xbd630f4f3d6d7017U, 0x3c9002de3d3b75bbU, 0xbd67c7f53d188e3eU,
  0x3d5ff3be3c6f5123U, 0xbd41da973cae4d17U, 0xbcd309af3c618153U, 0x3cb823953b995e81U,
  0xb91a01dbbcf5e71bU, 0xbd27a64abafaab5dU, 0xbcaeb16ebd09d7c1U, 0x3d5ed1e73cabeec3U,
  0xbd47800839af53b8U, 0xbd18d19d3d29ad41U, 0xbc68e3ff3d3fba41U, 0xbd4622fb3c418ff1U,
  0xbcd05edebd09b8e8U, 0x3c62a17c3d5ae823U, 0x3d59ca1dbbe395d6U, 0x3d0e57edbd45a8bfU,
  0xbcc50de13ba6611aU, 0xbd5310413ca54948U, 0x3cbadad73d2f3aa6U, 0xbd23be8ab9bc302bU,
  0xbd4ef81dbc59126eU, 0xbd43dea13d124166U, 0x3c7bac30bd56a15dU, 0xbae448b1bbf19b69U,
  0xbc2d7f4a3d1e73ddU, 0xbd0d5d123d5dcea4U, 0xbd566dc23c33711cU, 0xbc15e077bd64e779U,
  0xbd32fd593d6d33b1U, 0xbd46d3c5bd5ec2bdU, 0x3bfc3346bcea41e3U, 0x3b89b15cbb5a8ee2U,
  0xbca2926dbcebd9b0U, 0x3d712391bb90e5b4U, 0xbc2dd01abd62b171U, 0x3cf1c1823d0e28feU,
  0x3cefa0493ca6b8c5U, 0x3d6383a7bc47a7fcU, 0xbc365bffbd3f2461U, 0xbca7f9c5bcbe998eU,
  0xbc8b0a9a3b5bb680U, 0xbcd4cc5cbd02e6beU, 0xbbaf8b01bd3752b0U, 0x3d63078b3b2ccb0aU,
  0xbc8b23e93d08dc1bU, 0x3d5583973d47df18U, 0x3d00d17fbcb1fb03U, 0xbc0df41c3cb60b50U,
  0xbc7e321e3d41d194U, 0x3c1a08673d04a7eaU, 0x3c98ef5c3c899f30U, 0x3b8685073c904d6aU,
  0x3a31cba63d22b211U, 0x3d5e419b3d5d7b8fU, 0x3d749b7cbd0f5878U, 0x3d678e4cbc85892eU,
  0xbcc7d4d3bd548191U, 0x3d2c85723d091dd0U, 0x3d01caeebc87cf5bU, 0x3cb8d2243c43853cU,
  0x3bfaf2eabd65739fU, 0xbd10fa5cba2c5debU, 0x3c52e3e2bca2f7d5U, 0xbd302fe1bc42fe4bU,
  0x3d4872f13c02b108U, 0xbd309448bd2d4b96U, 0xbd6e075ebd6c5e43U, 0x3d51de543d4f1ae9U,
  0xbcdc459bbccf891aU, 0xbc90b7abbcbc4718U, 0xbd5794ef3c47302dU, 0xbd3f7775bd4804c1U,
  0xbcf3b0d43d4c1e6aU, 0x3d1da4b6bbbb3ab8U, 0xbc849cf0bd2a5670U, 0x3c6038db3d46f068U,
  0xbd669adcbc8cc69bU, 0xbc6060143d29067cU, 0xbd21ac15bd339fe0U, 0x3cc648bd3ca8cbd7U,
  0xbd09f8cc3d512384U, 0x3cef2c353c355bbfU, 0x3d2695fbbd263abbU, 0xbd3314e53cb3f4f2U,
  0xbd1583063d727ad1U, 0x3d353bc63cb0fdbaU, 0xbc442802bc5d52caU, 0xbcbb92bebd241a78U,
  0xbc91fe21bc925d11U, 0xbc27c1babd0e0fdaU, 0xbcd36146bbf8b12bU, 0xbd4823643d5c1117U,
  0x3c68266c3a96ad49U, 0x3d5d42d43c55a35aU, 0xbc8c7f76bd1624bbU, 0x3d5b3f99bd09388dU,
  0xbc23a0593d0305d9U, 0x3d0d5d403d202472U, 0x3cb8ffa7bbd3f357U, 0xbd01d3623d1f5ab3U,
  0xbd493956bd2d2401U, 0x3cebc301bc611beaU, 0xbc5562a83d47ad0bU, 0xbca76f6d3b0e35ffU,
  0xbcabf79fbceee4d5U, 0x3cc416e5bcc4cbecU, 0x3d1b071b3cb9182dU, 0xbd6a811d3b97efc1U,
  0x3d3aea233c1f1a89U, 0xbbb56f88bd18c49aU, 0xbce955ea3d49f1e8U, 0x3bce7aa1bd0fe0a0U,
  0x3b179892bb3b3e2dU, 0x3d00c7503d68ac0aU, 0xbcab1a293d1eac8bU, 0x3bb22d7d3d4807afU,
  0x3d5187cbbc8652f4U, 0xbbab73debca647f5U, 0xbcf51daebcfc2bd0U, 0xbd019f5bbcdf546eU,
  0x3d0aae82bd62abaaU, 0xbc940880bd497e7eU, 0x3b4f341cbd3b9c82U, 0xbd5c8acd3d301044U,
  0x3d4372f43d2a4410U, 0x3cca1b72bd0e01b0U, 0xbd199655bd0b2730U, 0xbd391380bc2cc992U,
  0xbd2d400f3c8ecf77U, 0xbcb68c1e3d0811bfU, 0xbcdf1646bd6a4878U, 0xbbb0b881bd06a6c7U,
  0xbc9a373f3ccbb045U, 0x3d15a9ccbd225846U, 0xbd092fe5bd437298U, 0x3b55a4e5bd5084beU,
  0xbbec37113c6677f0U, 0x3b8ed92dbd27b3b1U, 0x3b4b6947bce1d8e6U, 0x3bc79dde3cb31629U,
  0x3d389e7b3d1f95deU, 0xbd318a203af07303U, 0xbd58189cbd4cc92bU, 0xbd62cd603a4ebc91U,
  0xbc8ea84dbc085ea8U, 0xbc8fc4263a6365d4U, 0x3d00f04fbd39f8e9U, 0x3d077d4abd0985a0U,
  0x3bb12a0bbcc7625dU, 0xbc334ddabd3e7174U, 0x3d308a6b3d5b2960U, 0xbc9171bf3d113aeeU,
  0x3c499c65bd2e1165U, 0x3b2a36ae3c8e77a7U, 0xbd389894bac9b53bU, 0x3d4acfe83ce54865U,
  0x3d0592bcbbe98741U, 0x3c4c4d2abc47f79dU, 0xbcd08f55bc8a9cc6U, 0xbc064566bd233ea3U,
  0x3cbf1dde3d119745U, 0xbd1dcf263d0bffccU, 0x3d31c0973c936a70U, 0xbc9b9788bbcabb00U,
  0x3d4e4693bd062082U, 0xbd373ec83cd8a9deU, 0xbd2dd3abbd48c535U, 0x3cb8732d3d6338aeU,
  0xbd104e4dbd1882a5U, 0xbc4394e4bd4c5044U, 0xba3ab8f4bbfda970U, 0x3cb31e033d287f34U,
  0x3ccaff383ccab249U, 0xbd25d8e7bcdda721U, 0x3c99a544bc94e53fU, 0xbd5e6ccc3d31050cU,
  0x3d2e30373babb9c6U, 0xbad9c49ebd374665U, 0x3ce35a7c3d36ebc3U, 0xbd25b7c9bc09c3a9U,
  0xbd11771bbd4ab9c6U, 0xbc42ef5bbd037e0bU, 0xbc0a028f3d3ee3d1U, 0x3d2f5c2d3d38c938U,
  0xbca5072fbd01d422U, 0x3d4dd72bbb6841b1U, 0x3d39e68cbcf20fa8U, 0xbd00ec8bbd14aefaU,
  0xbd6583c53d323d08U, 0x39e82d583cea979cU, 0x3ad7b86a3b3b4142U, 0xbd1126793d1d3cf8U,
  0xbcf2bbc9bd6b0437U, 0x3cd8b70abd5c41a7U, 0x3c0bd863bb701dd8U, 0xbcf8d8a73d3507abU,
  0x3d320c95bd378c9dU, 0xbc92a8c13d028624U, 0xbd2b2efe3cb42d63U, 0xbd60bcd1bd41a98bU,
  0x3cd730d83c9bb073U, 0xbb836463bd6508b9U, 0x3d21566fbc9c7836U, 0x3d0573cd3b15efebU,
  0xbcf704a7bcd1a940U, 0xbd53b356bd541b83U, 0xbce88074bd156fd7U, 0x39cfa196bcd21817U,
  0x3c36b1eebc9950c9U, 0x3ceca761bd4feba6U, 0x3cfce92039bbf409U, 0x3a219faebd47c4aeU,
  0x3bf2f57dbca48bf9U, 0xbc63c2fabd369a10U, 0x3d357f86bcd6fbffU, 0xbd157599bc199c97U,
  0xbd2395d5bd3ae081U, 0xbcbf17a2bc58e45bU, 0xbcb1e134bc87483dU, 0x3d19475c3cb60d23U,
  0x3b23aaa4bc837c59U, 0x3b6af560bbf4938bU, 0xbbe8a935bd63ad71U, 0x3d544f6dbd0b7947U,
  0xbd1ac878bc87429dU, 0x3d4c542c3c17101dU, 0xbd1a55d2bd2218b9U, 0x3cedce24bc6d4d0bU,
  0xbca6ca913c9552d0U, 0xbd57c2d13c5a2278U, 0x3b72de0f3d6943dbU, 0x3d3cde313c13f4deU,
  0xbaa579fe3c44da1eU, 0x3c8dbf46bd200d2cU, 0x3d11aa63bc3f0874U, 0x3b56db0d3c3137fdU,
  0x3d2b317dbca2cb5fU, 0x3d155b9fbd19ee19U, 0xbc282af6bc5ac8a1U, 0x3c68c3acbd42c817U,
  0xbd15d5be3d30c818U, 0x3c520b093c5fee73U, 0xbc384fa3bd60debdU, 0x3d52e8983b051bcfU,
  0xbc6941f43d114664U, 0xbcece0423d015009U, 0xbd1604fdbaa88b37U, 0x3cfdf9153d6f071eU,
  0xbd0fb5483d22af2dU, 0x3d6caa043bfccaa8U, 0xbd26c2a1bd0cc9deU, 0xbc9bee873acff6e7U,
  0x3d4ea60dbd065ce2U, 0x3d1f46f83d497529U, 0xbd35b287bce0b3f5U, 0xbbbc79afbd40c269U,
  0x3d1e0b7ebd13c52dU, 0xbce2cdfbbd3c986eU, 0x3ce07f423cb51699U, 0xbacf5b2a3c04cf62U,
  0x3c1c6e033d3fb467U, 0xbcbf1d1e3ac23cf5U, 0xbc4d4f073cacbfa7U, 0x3d0f7e9e3befaee0U,
  0x3d5868e83d40a22fU, 0x3c8ea30bbd0beefaU, 0x3d5e2679bd127a42U, 0x3cf6ebcf3d0e4063U,
  0xbd6439003d14661eU, 0x3c580a06bd304710U, 0xbd14769abbb60b3fU, 0x3d13d3b63d0d0728U,
  0xbcf0e3debd4e026dU, 0xbd6cc4b9bd30ce45U, 0x3cbc2659bc1e93c8U, 0xbd0d6e38bd2dd4c1U,
  0x3caac3d4ba9fb747U, 0x3c97cfcdbd1c0261U, 0x3d5f3e403d3a1c01U, 0xbc49f113bcfc7cafU,
  0x3d51a3cc3c34807cU, 0x3d4f6f0e3d2d9f7cU, 0x3cf8d178bd5b08dbU, 0x3d190a03bd54501eU,
  0xbbcd64653c914d75U, 0xbcae8ee23cc74bd8U, 0x3d0671f8bd63c9b9U, 0x3ca0a51c3d2cdc1aU,
  0x3bc4a05dbd01874dU, 0xbd294e89bd57d9aaU, 0x3c958b02bd190116U, 0x3d5a2b763d50cf2fU,
  0xbd06aa43b9dd4b91U, 0x3d4acecbbd3a9c14U, 0x3d35d0063bc08f51U, 0x3cf3275ebb762a87U,
  0x3d58fd6b3d33cc55U, 0xbd251761bb2cdaaeU, 0xbce18da8bd434a8dU, 0xbd061aedbc8c7be9U,
  0x3d25ccd4ba7947a2U, 0xbcfa68b73c0c04c0U, 0x3cc19bdd3cd677a6U, 0xbd0ac7a43d637f37U,
  0xbd0a61ffbc604bedU, 0x3d3433e5bcc5d956U, 0xbd7fa815bc1632d3U, 0x3d593fb1bbb429c0U,
  0x3d5b8409bd2fd766U, 0x3ccec4793cbbd1deU, 0xbce6d6abbb956d3bU, 0xbd041c833c4417c6U,
  0x3d41a6163cf04492U, 0x3c80c425bd0fd63bU, 0xbc8652673caa702bU, 0x3c9f309fbd0b3295U,
  0xbc374522bc4f3434U, 0x3bb0c303bcb2e23dU, 0x3bdad7b0bc9a3cefU, 0xbcc7c294bc38d00bU,
  0x3d2e8ce03d10a9e6U, 0x3cc54acf3d460fd8U, 0xbbeee4b63d0f2446U, 0x3d25b7c03d3ce984U,
  0xbd392a603d2219a4U, 0xbcf25e243d21032dU, 0xbd4bd8d7bd069307U, 0x3d468c81bd4b78e1U,
  0x3c9d5ddebd25c33eU, 0x3d37d010bc91812bU, 0x3c276c0e3cd61accU, 0x3c1bb3fbbd28b8a9U,
  0xbb7903cc3c3ccbb3U, 0xbcef36b5bd4a20acU, 0x3bd386303d63bd13U, 0xbc7722b83cfded11U,
  0x3ca055fc3d0bef59U, 0x3d074cc6bc7cec83U, 0x3d37d3cf3d4af9f9U, 0xbcb03b77bcbc2ba0U,
  0xbcf22463bd1dc1d0U, 0x3d29d6573d54880bU, 0xbc225a4ebc8d2b78U, 0xbb3b3754bc8ab32eU,
  0xbcee4cb33b194fbbU, 0xbccb52c7bbcbc9bbU, 0x3d087a1abaef3df3U, 0x3d40437ebcfac4c8U,
  0xbcb104943d67493cU, 0x3c8d4ce0bd28491bU, 0x3d7a703cbd5ce5f6U, 0xbd1795a7bd56b6e9U,
  0x3ce8478bbd594ab0U, 0x3d11e2d63b7973bdU, 0xbc293e05bcde63c0U, 0xbc8822a5bc0f9171U,
  0x3c77f48dbc5c03d7U, 0xbd0de5553be786faU, 0x3cc10360bc9cfea8U, 0xbbfb84c73c2eb645U,
  0x3ce3e53d3d0cd808U, 0x3d0df495bcf5aaf5U, 0xbc13c715bd1c887cU, 0xbd770800bca6de73U,
  0x3c68018e3d0466edU, 0x3d0bea3f3ce1a30cU, 0xbd3fe4ab3aaf3433U, 0xbc26d9b6bd6b564aU,
  0x3cf261ff3cc1e23aU, 0xbc9f7afcbd0aa8d1U, 0xbcb83beabcce7158U, 0x3d146c2abcbf7baaU,
  0x3d0f30e53c83ecbbU, 0x3d356a143d2681ccU, 0x3cdbafccbd0e2144U, 0xbce4c1b6bd1c1aebU,
  0x3d3beb09bd1cb00bU, 0x3c5833493cda2dfeU, 0xbc637e5d3d05e785U, 0xbc787b84bd63453aU,
  0x3d60ce05bd55d2f9U, 0xbca8c0103d43eebaU, 0x3d67fb913ce1b2d0U, 0xbd4563ec3cadec56U,
  0x3bed13a43c93ce39U, 0xbc4cde473d5c26c5U, 0xbd577a08bcfa6eb1U, 0x3d199ad7bccca8d0U,
  0x3d1a4cc9bcd0cf77U, 0x3bf216d1bd6ae22eU, 0xbd8afea53d6297ddU, 0x3c44acf5bb95e1caU,
  0xbc94ef91bd19c301U, 0x3d31b7153cfa3091U, 0xbd6be3973cb2be59U, 0xbc370bc33d399b7eU,
  0xbd0fd37b3cbcb7c5U, 0xbd33e445bcaacadeU, 0x3d6af4a53cc12dcbU, 0xbca13746bca04f34U,
  0xb910d522bc9ad7a2U, 0xbd1ca3473c7570daU, 0x3d3981c23ca11616U, 0x3d2d40ebbb31e7e5U,
  0xbcd7a253ba1b518cU, 0x3ca3f876bc404700U, 0x3c39ad883d41e88aU, 0xbc6cb9da3d41d910U,
  0xbd0aa2b03cd56672U, 0x3cbf528f3cbd0f94U, 0xbce10b8dbbd25767U, 0xbb028a5e3c0ad8c8U,
  0xbd0a3192bce70a66U, 0xbd3c25e73c9602e8U, 0x3d348c72bc4602e7U, 0x3d1778ec3bb3555bU,
  0xbc47975ebd58bb56U, 0xb9d63f2a3ce59dfaU, 0xbc571004baf08576U, 0x3cccc1ecbb7b8623U,
  0xbcfc49e7bab860d5U, 0xbd37b82d3cb63d06U, 0xbc316481bd47e343U, 0x3cd24f8c3d4e1af1U,
  0xbd6612093d1e28c4U, 0xbd231b51bd602558U, 0xbd5f4e9abd058fc2U, 0xbd4a9c383cd000a5U,
  0x3d04a034bc1bbce3U, 0xbb7b3cb2bd6517e4U, 0xbcb706233d4e41e0U, 0x3ba0b8debd37869dU,
  0x3c3047343d224926U, 0x3ccc7e46bd57726aU, 0xbcbd58d7bce54f54U, 0x3d0abdd9bc3a4210U,
  0xbd4b95253cf9e9a5U, 0xbd474e83bd62e0b9U, 0x3bef72c4bcfebc0cU, 0x3d3549c4bbf6af90U,
  0xbca21139bd052e67U, 0x3d66cd7a3c0f8013U, 0x3acded4f3d2281bcU, 0x3a264d253d512c16U,
  0x3ccb292fbce7036dU, 0xbd23a901bd26024cU, 0x3d2b9f8c3cca5b33U, 0x3d0a85073d49edadU,
  0x3d32ab2fbd19b33eU, 0xbd68e9deba893ad8U, 0x3c23dfe73d0861e3U, 0x3c0f1af93cf5ce95U,
  0xbc516a1a3d4688b9U, 0xbcb37efd3d016114U, 0xbc6c9d11bd2e033aU, 0xbc80728d3d45b8d0U,
  0xbbfe0de6bd5d103fU, 0x3d28ba533d5e9653U, 0x3d243282bd214258U, 0xbd0d5aefbd17a483U,
  0x3b27006a3c3c1fc4U, 0x3d3b4accbd1f0540U, 0xbd08b746bd121137U, 0xbcb696b13d2d46acU,
  0x3d24ae463d181bc9U, 0x3d153597bd6a9ebbU, 0x3d32f27b3c55eaceU, 0xba2cdd6ebd7e917eU,
  0xbd0485ab3d539105U, 0xbd526db83c793451U, 0x3ceaf6a6bd5b4ec9U, 0x3cb6f2a7bc9f6d3fU,
  0x3cf362693d04101fU, 0xbd1541ff3bbc5637U, 0x3c866ddbbbf55ff4U, 0xbc6b5f18bc9b9496U,
  0xbd01fe093ce8e48dU, 0xbc5daf78bc9c2b29U, 0xbd180260bd40805fU, 0xbbdda451bd098c01U,
  0x3cfb98e9bd03ac8eU, 0x3d0eda00bd4726cbU, 0x3c4aa0d63d41b659U, 0x3d45eb623d0fa03fU,
  0x3d17040abd259940U, 0x3cfdbb053d1a9273U, 0x3cd2281dbd1161dfU, 0x3d28f3a4bd3a2ea6U,
  0xbccf30cebc151d12U, 0x3d4ae03c3d244fa8U, 0x3d2aa1563d4d5f62U, 0xbd66bec73b5f3385U,
  0xbd08851f3d39e3deU, 0x3d6693f73d423a50U, 0xbd03c0793bff8b00U, 0xbc92cd2abc2df64cU,
  0x3d04b42a3b71ac2cU, 0xbd379790bbd4a892U, 0x3c1846bfbd37a37dU, 0x3c22a58f3ca29cacU,
  0xbd0507e23cfca809U, 0xbd0bd3923d1e3f99U, 0x3cd13db6bbb97ff3U, 0xbcea99c2bd522de3U,
  0x3d590be6bd01fbe7U, 0xbd1f06e5bd178a26U, 0x3abc8addbd3721d2U, 0x3d04f9d7bb9c9b42U,
  0x3d00b7923cd3b52cU, 0xbc53e6bc3be6b7e7U, 0xbd2f4e353d4fbb0eU, 0xbd43ac53bd6ce118U,
  0xbd1db1f13cca2aedU, 0x3d75dce33d10625fU, 0xbc94f6943d02f29fU, 0x3cdba7e63cc7671cU,
  0xbc85cd433cd5cfb3U, 0x3caa42183caf9478U, 0x3d183a223b16c466U, 0x3d60fca5bcf5f7e5U,
  0xbc4e4e463c550ff2U, 0xbd31b2723d092d7dU, 0xbc69540c3cec27edU, 0xbccf8b6cbc96f470U,
  0xbce309e63d4a5205U, 0xbbc639f63a7437a4U, 0xbc7f93903d138d90U, 0x3d61da983c559c70U,
  0x3d68649b3d0d72b0U, 0x3c9a2bb23d2966f0U, 0xbd33a8e33d6ca1dfU, 0x3d6b54bbbd5e53dfU,
  0x3ca996d7bca2f2d1U, 0x3d29a8edbc7c5534U, 0xbb53a232bb91ae65U, 0xbc2596013d3d34c2U,
  0x3ce8ed2bbc3b6843U, 0xbceb65adbcf5c2f1U, 0xbc1485383c001447U, 0xbcbcedc43d07d8f8U,
  0xbd27f1a4bce7e245U, 0xbcaec37a3d6852d8U, 0xbd33cf53bb91f8bfU, 0xbd5bae64bd0c2f1eU,
  0x3d03922fbd55ed99U, 0x3c424e73bd10f98fU, 0xbd48304ebcf6ea5aU, 0xbd1be307bd8e7c5cU,
  0xbc567cd6bba0a6b7U, 0x3c843cc4bd1fb7e3U, 0x3c5992fc3c915138U, 0xbd5564053ce97891U,
  0x3b121f8fbcee3820U, 0xbc8bc4f0bc106c0bU, 0x3d1a9173bc16402cU, 0x3cb580ff3cc0165aU,
  0x3d1b7f0abd170bcdU, 0xbc1598a1bbe3bbe6U, 0xbd22ed31bcd47ad1U, 0xbc739f4d3b8deb18U,
  0xbd2cc882bd105937U, 0xbca1fc153c034193U, 0xbd27ef99bc9d526aU, 0x3d023de1bd0614f3U,
  0x3bf7339dbcbb3760U, 0x3d5904a0bd3bebf0U, 0xbd5fee623d5ca21bU, 0xbd071d873cbd6992U,
  0x3d00590c3d4b212cU, 0x3d4b1b58bd5aee14U, 0xbc957796bd0704a5U, 0x3c2984393d306109U,
  0x3c8446fd3b674420U, 0x3d4084e53cd99b0cU, 0xbc8da0ee3d279e7cU, 0x3d11e4313ce78912U,
  0x3d3bfb713d2cd992U, 0xbd409c783d420b7fU, 0x3d5510693befbc1eU, 0x3b74ef203d616b62U,
  0x3be7df09bc6a5fdeU, 0xbcfd4bb3bc88a29aU, 0xbc6ab17cbc918ef9U, 0x3d24e9f43d099b39U,
  0xbcab63883d2360abU, 0xba089043bd40b912U, 0x3c9a24223d54bec7U, 0xbc55ff333d6d3759U,
  0x3c053f79bcd90f59U, 0x3d0833f83c82ad72U, 0xbd4063efbd1345fcU, 0x3d2335d33b2e43e8U,
  0xbb78b0543d348eaeU, 0xbc82f5ecbc588ef8U, 0x3d80ba34bd6911a9U, 0x3d59161e3d1f58c0U,
  0xbc3447a2bb837fecU, 0x3d4432b63d1ede27U, 0xbd098f5ebc645d2eU, 0xbd3f74303d00dd8eU,
  0xbd4b4623bd5997c1U, 0x3d4d62b7bcf3159aU, 0xbd0bb64abd381755U, 0xbcd0eea03d39a011U,
  0x3ceb539cbd0cedb9U, 0x3c151d7a3cc1d943U, 0xbc877b99bc9f02bfU, 0x3cd1804bbd0e3ad6U,
  0xbd4caa163d31938eU, 0xbc8c9608bd3d0237U, 0x3cd4e360bd137ec5U, 0xbcfa53053cf03b7aU,
  0x3d3d7a80bd24eb99U, 0xbd63590b3d36fc4aU, 0xbb70c5093d4fb831U, 0x3d148defbd1e9244U,
  0xbd5d72d23d4db2acU, 0x3d574129bd65b872U, 0xbd5d3bb1bb8ab5c0U, 0xbb9f139a3d31fd92U,
  0xbd05c50cbc48d573U, 0xbcba2960bd17d986U, 0xbce6e457bb58f31aU, 0x3cbf56ba3cc69dddU,
  0xbd240895bd7e7ab8U, 0xbcaaed5a3cffe219U, 0xbc5c25673d39130fU, 0xbd54eeda3b8b0b9bU,
  0x3cb371cc3ce71681U, 0xbb4fd8983ce1d2c0U, 0xbd50be423d61ee83U, 0xbb0b9e2cbd5a6359U,
  0x3d477a013c06fb2eU, 0x3d233130bbe7b7e0U, 0xbd9439573c93c661U, 0xbd44542fbc7a50d5U,
  0x3d6a2d3bbd2a675aU, 0x3cc5ace23d185064U, 0x3c89ff8c3d54af13U, 0x3c0afb4bbb79ec3dU,
  0xbd08ed103d32dd42U, 0x3c35fd44bd56f5a7U, 0xbc2552843d269e80U, 0x3d8b68ef3d6066dcU,
  0x3d207dc2bd63be5eU, 0x3ca40b43bcb72b81U, 0x3cb6e3dd3c940137U, 0x3d56f8503ce45088U,
  0xbb4b355abd36a0e9U, 0x3d27ed9dbc91e5e4U, 0x3d1c141cbcd090e3U, 0x3c9f4128bbf4d95fU,
  0x3d62ec0e3d19baafU, 0x3c5d519abb93c58cU, 0xbc865a6b3d2d1593U, 0xbcee522e3ba4d6efU,
  0x3d1eab4bbcca20bdU, 0x3d54e7a0bcaf978fU, 0x3d8b0725bcfeca89U, 0x3b160a8dbd834373U,
  0xbcad24c1bcdf70beU, 0x3b8f69813b29341bU, 0x3d6d3bda3cf17c23U, 0x3cb1b5ad3cd8362dU,
  0xbc9f89efbc3c1f02U, 0xbd4f9287bbea4fa3U, 0xbd7efa0dbd1515ebU, 0x3c0f492d3d4183b9U,
  0x3ca871073ca171e4U, 0xbc9ee2b7bc12a7e4U, 0xbd71d7fbbccaffc4U, 0xbb985e563caf4c26U,
  0xbd324048ba9c063fU, 0x3b1269543bbf9d8cU, 0xbd466843bb8cd524U, 0x3b7c609abc0636c9U,
  0x3d6081053d1f056fU, 0xbd6b2c4ebd3aa395U, 0xbc84decf3d5c5f33U, 0xbb22e008bc0d46d2U,
  0x3cb4fe03bc1d01c8U, 0xbd479b5f3d76ebf3U, 0xbd2423c2bc9a99aeU, 0xbcae82fe3d277314U,
  0xbc3bd78f3c8e7459U, 0xbd7074aa3d44a998U, 0x3d65ff6b3c764c74U, 0xbc48d0173bcf7668U,
  0x3c3eb9703d39caafU, 0xbceea9003c968150U, 0xbc86f7b23cf5c904U, 0x3ca9b173bb26f216U,
  0x3c846e7e3c255869U, 0x3c4e5488bd1aac8dU, 0xbce3054fbc09095aU, 0x3d5221d03d242626U,
  0x3d10767a3d583771U, 0x3abb31e7bd3e1e35U, 0x3c4f3d163aa05c85U, 0xbd2bc858bcd7d36cU,
  0xbc743c203cf0e759U, 0xbd271b71bd7ae32bU, 0xbc4630b83c6f1197U, 0xbad08947bc353653U,
  0x3d0bc5943cb1d152U, 0xbc36985dbd860eddU, 0xbd2956f13c22d094U, 0x3cbd8ac73c9841a1U,
  0xbd0ba3febd4b197fU, 0xbc37e3703c98068dU, 0x3c9ed67bbd59bc15U, 0xbcde1909bd52c65aU,
  0x3d6009de3d6a0d64U, 0x3d666b8fbcec72caU, 0xbc35a00c3d5d7f7bU, 0xbd2e149a3d2c6d98U,
  0xbd05067bbcc2c5fdU, 0x3d0a99653d8c6577U, 0xba3f04ddbd3dc87dU, 0xbd67aec4bd71beabU,
  0xbd21e1033d2f614dU, 0xbd197cf5bc73e13dU, 0xbd056848bd36fd73U, 0xbd303fdc3d368f20U,
  0xbb98fa8f3d66b4dbU, 0xbd2e96c2bc8d7666U, 0x3d44690b3cfcfc08U, 0x3be623e53d2edb26U,
  0xbd1c61fb3ccab1b5U, 0xbbc1a120bd3396a5U, 0xbd36f1543c10d014U, 0x3d125eedbc997145U,
  0xbd03aac4bd27a2e4U, 0x3cafbb00bd19a9adU, 0xbc6d563a3ce01ad9U, 0xbcb9fba73d4b4501U,
  0xbd179da1bc163501U, 0x3c4b78073d301b44U, 0x3d6065c9bc7ff3e7U, 0xbd81042b3cf240c0U,
  0xbd5524dd3a071e70U, 0xbd4088973d4490b8U, 0x3d4cbef43d6b04f8U, 0xbc6998dbbd91d372U,
  0x3d38164b3c1ce1f7U, 0xbca98c343cd21b30U, 0x3c9e4ad33d29aa64U, 0x3d71e3b73cbdf9b1U,
  0x3d35d9fdbd068b8dU, 0xbd26a75d3b1e3485U, 0xbc5303ffbd244057U, 0xbd1d35ae3ba3d237U,
  0xbc005e8ebc471203U, 0xbcd20560bd5be466U, 0xbcec805c3d23ca34U, 0xbca51cca3c68cc7cU,
  0x3cbf98d43cd7420eU, 0xbc8616d13d448cd7U, 0x3d619f483be72720U, 0x3cc87caabb9db3c2U,
  0xbc959f2bbd34e1d7U, 0xbd695780bc85b5d8U, 0x3af8f7d4bd23ac3dU, 0xbd0395063c7efb14U,
  0x3bd484a6bd64055eU, 0x3d10d2f4b9b6289bU, 0xbd2e5b563d1de0adU, 0x3d3b365e3d7067c5U,
  0xbd4310ecbc6e0317U, 0x3c3ab00cbc8834c4U, 0x3c04093abc42e6dcU, 0x3d5abec3bd0b5222U,
  0xbd2924f73c44231aU, 0x3c632820bd241190U, 0x3ba4e0903c5021feU, 0xbbf95552bd6f52dfU,
  0xbb7683debcaacff3U, 0x3d1c25823d867be4U, 0x3d34ab88bd57b6abU, 0x3cdf4e6fbcdfc66eU,
  0x3ce5381a3d4e9690U, 0xbd12bf7ebd55806fU, 0x3d26e703bcedc11bU, 0xbc1ad28d3d5d1b6fU,
  0xbc38f3373d1be08eU, 0xbd65bf423d1d8348U, 0xbb9afc08bcbd3380U, 0x3adc2850bd3acd11U,
  0x3d3cb83d3d1c142bU, 0x3cdacbcf3c748763U, 0x3d53194a3cb3e211U, 0xbc4b431bbbd9cd3aU,
  0xbb990998bcefff8fU, 0x3bd6ebac3c11f9a5U, 0xbc2626983c02ffcdU, 0x3ca590ea3d38b358U,
  0xbd0fcbb8bd311f3cU, 0xbd548720bce1cc7fU, 0x3d525c713c88b655U, 0xbd81ca393ba47670U,
  0xbd4bfe37bd14cd68U, 0xbd3f9352bc77acbcU, 0x3d5db8eebd0d29baU, 0x3d298525bcf2adc8U,
  0x3af857243d46c88eU, 0xbd5513a83d3808a5U, 0x3d371bf13d3c355fU, 0x3d2454743d2ce21fU,
  0xbd43b3063c6790f2U, 0x3cedb9173d2888f5U, 0x3cd683c63c02f1c8U, 0xbd3fecb1bce4d4a6U,
  0x3c02fc863cec3e8eU, 0xbd3f2db8bc362790U, 0xbd3c8763bc8a898cU, 0x3d3da460bd1cfd01U,
  0xbcbb32213d593031U, 0xbd0fff9bbd4271b6U, 0x3d2958c2bcc72ca8U, 0x3bc5cd0ebd093899U,
  0xba8419133c70ae84U, 0x3cc36011bc0cc8f5U, 0xbbf18d09bc871440U, 0x3bf48d31bcef3708U,
  0x3b9a55a5bd67cc59U, 0x3bd2fa21bd1c137dU, 0xbc7b9c553d165718U, 0xbd6a06c83c9f4519U,
  0xbcd13f973c074646U, 0x3d2aeea9bca30136U, 0x3c3518a9bc7d815eU, 0xbceefaadbd51980eU,
  0xbcfe091c3cdb6fe1U, 0xbc08a63abd323125U, 0xbd058086bcca9b12U, 0xbc4c6fdcbcf26a32U,
  0x3c0dd5b9bd10aef6U, 0x3d47d6713d70516dU, 0x3d2b6910bca4f821U, 0x3d46c4d8bca1d0feU,
  0xbcbbc720bcb57bcbU, 0xbcad7f5bbd684768U, 0x3c39e97c3d6a89f5U, 0x3d5811bb3d22a7caU,
  0xbb907fe73c77c86cU, 0xbc62519e3d4a60fdU, 0xbd3cc1cabd23e333U, 0x3bfe1d313b9bb405U,
  0xbd71cf543c5c505fU, 0xbd1e407a3d18a8fdU, 0x3d2e3bb7bd2f1d61U, 0xbca500253d2afea6U,
  0xbd04d9243d0051beU, 0x3d113aa83c8d2cd5U, 0x3ca49e1e3d3fad47U, 0x3d622724bcaf9a9dU,
  0xbc6bf556bd1ee625U, 0xbce16860bd301cb5U, 0xbc1fc615ba3079efU, 0xbce933be3d389407U,
  0xbba64c2bbbda166bU, 0xbd2bfcf73d609ae2U, 0x3cd0b33dbce4b56bU, 0x3d2ca9493cdfaa98U,
  0x3cec141bbcd3ecf9U, 0xbd44aa9fbc434f94U, 0xbd04206dbd6b4768U, 0x3c6eb5d438195fcfU,
  0xbd561dccbd66fa68U, 0x3c9a3bab3c459024U, 0x3cf065c6bc8478a5U, 0xbca421713d1c4fabU,
  0x3d615cbf3c3c07a9U, 0x3cd8c639bd12cf70U, 0x3ce3a7f53d198f9eU, 0x3d3894f8bbac772aU,
  0x3c3e70563c22f26fU, 0xbc529c663d36bf75U, 0xbcb93f8abd1bdfa9U, 0x3bf4a995bd600fc0U,
  0x3d31691ebb8eb746U, 0xbd38645abd3c6ceeU, 0xbc31b650bce69950U, 0x3c925ac63d68421fU,
  0xbbf2463d3d336b50U, 0xbd799395ba8ebf8aU, 0x3cb2408dbca2042dU, 0x3d3c872fbcef26f6U,
  0xbbf08a173c03aa94U, 0xbd4f91323d20a4dfU, 0xbd45d4c9bcf85330U, 0xbd2f2e8b3bb9ccedU,
  0x3d12ccb43bd17f86U, 0x3ced8b89bd173725U, 0x3d7ec6c03b72066aU, 0xbc653889bb532357U,
  0x3b9828d3bc412c42U, 0x3d1498c83cdb6daaU, 0x3d72b883bc454582U, 0xbcdcf577bcab2f73U,
  0xbd57a5adbca2b0b6U, 0xbc23c62b3d3eb093U, 0xbc6bd722bb25bf86U, 0xbd08c8a73cdd45dcU,
  0x3c3afba83c990d31U, 0x3a9c69b2bd4b2c8dU, 0xbd2de6093d5a0a39U, 0xbd354e7f3c6815d4U,
  0xbd1c09fd3cabd835U, 0xbd05aeb5bd4ca95aU, 0x3cf13c9d3d12bb44U, 0x3b9526e1bcab6f17U,
  0xbb277c883cfcc8a4U, 0x3c2b8f76bc71babbU, 0x3d1564fa3cd5fa6cU, 0x3bd7aeee3c99e474U,
  0x3d833720bd70cbccU, 0xbb662f26bd3de525U, 0x3b1526533b3ac1feU, 0xbc8a3aa7bd22e05aU,
  0x3cfcbeb6bca0f08fU, 0xbd57d7d33caffc8cU, 0xbc5e4c543d38cf93U, 0xba1ba17b3d35d348U,
  0xbd42a2b9bae1c630U, 0xbc80d0253d2a2cc4U, 0x3cb377003d344789U, 0x3c7faf0a3d506579U,
  0x3d2c9ecabd7082e9U, 0x3d1d65a8bcf19662U, 0x3cb077a73d382fcdU, 0x3cbf6fb0bcf17ac6U,
  0xbd15d12fbd44d455U, 0xbd335db43d7b284aU, 0xbce4d2c73d03cf98U, 0x3d329fdd3b963fbdU,
  0xbcaa0e643d5e3d3fU, 0x3985d263bc063369U, 0xbba97701bcc2e392U, 0xbbe6e204baf9a700U,
  0xbc223abd3cdb9ffeU, 0x3ceaceae3d001e0aU, 0x3da067f23c9cc688U, 0x3cce276d3ce820bbU,
  0x3cc8e6523a17ac19U, 0xbd13c500bc689171U, 0xbc56d806bd36af6bU, 0xbc1fc2a7bc64aed1U,
  0x3d3e0a883ba6befeU, 0x3d4c264cbca4d4adU, 0x3cbc9b92bc81ff8aU, 0x3d498253bd547390U,
  0xbc1d9030bccacf31U, 0xbd48b5053d7f4489U, 0x3d28985e3c9bff63U, 0xbd4f8b5fbcd4307aU,
  0x3c5a94b43d30e4e9U, 0xbbe190623b038caaU, 0x3d558919bcd81853U, 0xbd64538f3cac2734U,
  0xbd62301abd3e9759U, 0x3cb4e16d3c415483U, 0xbd6fdeebbd0b104eU, 0xb6ee70903c6dcb57U,
  0xbd14a116bb9c8508U, 0x3d3e39a2bc324df7U, 0xbd1d6b7fbb96fdb8U, 0xbd1d014dbc976f53U,
  0x3ce6a9143d5e11cfU, 0x3c9fce6bbd6d674fU, 0xbd1e80a3bca10661U, 0xbd54645ebd301c9dU,
  0xbcc174cdbc8273aaU, 0xbcd328edbd227b0bU, 0x3c8fd394bd0d983dU, 0xbd20dc8f3d42d4e7U,
  0x3d3159cc3d2257f3U, 0xbb79a2bcbd6adef5U, 0x3a1f4c8f3d515838U, 0x3c4fd1cdbd0a83fcU,
  0xbc100841bd0dd569U, 0xbce3d7cebd47410bU, 0x3d57cea3bc617337U, 0xbc0061ebbcb31262U,
  0xbc90e2c7bc8ffdf8U, 0xbd43420fbc0b4e11U, 0xbcb985e63c1791b0U, 0x3b729e943d06c40aU,
  0xbd204db8bc254753U, 0x3c483dbc3d11cc32U, 0x3d7f815abcdb9193U, 0xbd7131d7bd5e46cdU,
  0x3d07b7f1bd3d6bfcU, 0xbd252dad3d37d74dU, 0x3d076c233c1cf28eU, 0xbcae3ae93c372deeU,
  0xbd012891bc8cd484U, 0x3b1fffe13d4dd5fbU, 0xbd0f638fbc89cff1U, 0x3cb77ee5bd513e10U,
  0x3d054fc33d12925fU, 0xbcf70ff03ab6f75dU, 0x3d4f81a53d50bef1U, 0x3d970a383d91944eU,
  0xba041d1abd6227d8U, 0xbd71bda8bd05752dU, 0x3c91573bbd356446U, 0xbd0977643d4f2445U,
  0xbbc96457bc31a5c7U, 0x3d2301813c06c577U, 0xbd2ecc5c3d132cf2U, 0xbd429bbf3c918b2dU,
  0xbd4c076abd2594bdU, 0xbcc6546ebc49ac37U, 0xbccf9fd4bce25298U, 0x3cb3730bbc9de712U,
  0x3d13472fbd25f68eU, 0x3d47e4b63d18feb5U, 0x3b7d03e03d4ba92aU, 0xbd4467afbd06c83cU,
  0xbc23fa583ca9df82U, 0xbc36d89bbcb1dcc0U, 0xbb429321bcb90dbdU, 0xbca5dfc43b022ee3U,
  0xbd119b84bb520bbaU, 0x3d2c1f53bd36ede0U, 0x3d336e5bbc6347a3U, 0x3b82effcbd4cf6a2U,
  0xbd4624613d448c9eU, 0xbd576b4bbd3b54b3U, 0x3c8e2ead3cc32b6cU, 0xbd65597d3b3ab8a5U,
  0xbd31fcd3bcfbec44U, 0x3cd91b35bb55eb09U, 0x3d4686b93ccc3a9cU, 0x3cef239d3d1cd7c4U,
  0x3c4e68513d1b0108U, 0x3d1af7343d163c24U, 0xbc8edbd43d05f15cU, 0xb8897be53cb69a45U,
  0xbc3750aabbe73f80U, 0x3d2e7b153d176df6U, 0x3cf71096bd63c7d9U, 0xbc16725f3d251d5fU,
  0xbd13a1743cc368d5U, 0x3d62390c3bc9116fU, 0xbc952529bd5e439bU, 0x3b2f1fbb3d1ad72bU,
  0xbd545711bd1dc8ceU, 0x3d006dfc3a5d1c97U, 0xbd28c00dbd3a59e0U, 0xbd419dbbbcc01282U,
  0x3c4e48a5bd14dc1bU, 0x3d4fd73fbc0746cbU, 0xbcaa78fcbd7ae3d9U, 0xbc2a16393b31febaU,
  0x3d222ec43c2dff52U, 0xbd3a05e1bd3ffacdU, 0xbc0e226cbd128ab3U, 0xbce4fb7f3cbb86dcU,
  0x3c9d8a20bd589ab7U, 0xbd47d93e3d5e1bebU, 0x3d0d26813cfd4e4eU, 0xbc0c00dc3d4acd70U,
  0x3d25ce7d3c119358U, 0x3d146774bbeea688U, 0x3d264a33bba70ac2U, 0xbd5f0abcbce96a6fU,
  0x3cb02578bd084b50U, 0x3d314424bbb4e53dU, 0x3d0d1d93bc86caa8U, 0xbc9f59b4bc96aa9aU,
  0xbd5b96303c6e8ab5U, 0x3d40d7f4bd513853U, 0xbccb21373c86a49fU, 0x3cbd51e13c8c0101U,
  0x3d0282d6bcfa91bdU, 0x3cee44f13bf9c756U, 0x3bfdbb19bd3fbe94U, 0x3cbad7e1bc08ff76U,
  0xbca55cfa3c9f4e85U, 0x3c6ab63c3cc08a4fU, 0x3cb1b613bd4d5258U, 0x3cbf690dbc1bbdcbU,
  0xbd524c8f3d6804ecU, 0xbc4e564c3d70f565U, 0xbd2a12c63d61af34U, 0xbc71679fbb5d34afU,
  0x3b9b3567bc4797e3U, 0x3b5731e639918ef0U, 0x3b9443ffbd11b56fU, 0x3d2b91eebc970ebbU,
  0xbd583a283c8bb25aU, 0x3d484e063d071c71U, 0xbd705611bc0d060bU, 0x3d2c0a563d59c981U,
  0x3d248ab8bd2ca12dU, 0x3d0729233d0df0d9U, 0x3d1957653d1ee31aU, 0xbd0a0e5abd6db734U,
  0x3a62aa103c986163U, 0xbc2b0ef3bd91e8faU, 0xbcce086cbbe73537U, 0x3cfc530bbd423adfU,
  0xbccc086ebd11650bU, 0xbd1298d63d17f4f5U, 0x3d3593583d53be31U, 0xbceaaf213cca7393U,
  0x3c05aebb3d2ce403U, 0xbc05cdd6bd5ae28fU, 0x3d3ffc84bd5889d2U, 0xbc923d2b3bda0736U,
  0x3d11ca6d3d465a70U, 0xbbdf6e273d2d0d4bU, 0xbc30382b3d23ecbbU, 0xbd2ebc74bd3c68a2U,
  0xbc99a6ca3d1965a0U, 0x3ae4c6bc3d522f2eU, 0x3d36c054bd293e37U, 0x3cd758b63c806485U,
  0x3c49cf0d3c8cb476U, 0xbc9748903c210cceU, 0x3d226e3abc755657U, 0x3d64a84f3d19c6a8U,
  0xbd395941bcea5badU, 0xb9cdeb5ebc85b7aaU, 0xbc753ba83b36205eU, 0x3ca019853d4588faU,
  0x3d336e9e3d68dc50U, 0x3c03e99a3d459bc7U, 0x3cac1dadbae459b2U, 0xbc493b16bd650cd2U,
  0xbd0ebf093d60759eU, 0xbcc105923c57599cU, 0xbc1f42afbce1378dU, 0x3c8671d83d48e50fU,
  0x3d42ecbf3d46e2edU, 0x3d6b22583d1af9d5U, 0x3cf08182bb8ee152U, 0x3bbaf7f33cf1d28fU,
  0xbd25d9d43d341595U, 0x3c7e805cbc47ca24U, 0xbc5a288ebd4d037dU, 0x3d19a2a4bc1e21e3U,
  0xbd3e22ad3d6d5e58U, 0x3c848b933d28e8c8U, 0xbc7aee2a3c0ff016U, 0x39d4628cbc930c89U,
  0xbc871dbbbc27b95bU, 0xbca4271e3d35ca8fU, 0x3d234237bd147e93U, 0x3d130114bd428382U,
  0xbca6b7973d5f14a2U, 0xbc63472abd19cb94U, 0xbd56c4b3bd0c349fU, 0xbce7d9b3bd157076U,
  0xbac58632bd4864a9U, 0x3cf410ea3cb71fb2U, 0x3ca7b8193cc6ce38U, 0xbbab538b3b8e8388U,
  0x3c83c9ddbd158e5dU, 0x3ca9f353bb75b5b6U, 0xbc29b6fa3d30a3a8U, 0x3c1ad0073baaed8fU,
  0x3d63a01b3c089120U, 0xbbf88dc83d6b8217U, 0xbd39c7b9bd39306cU, 0x3d322896bd226282U,
  0x3d121bb4bd42964cU, 0xbd4035953bec0d86U, 0x3d031ff63c54880cU, 0x3d34edcbbd1af1cbU,
  0xbb0d3eadbcc1ad0cU, 0xbca38fb8bd6c3c03U, 0x3d18c4313add5564U, 0xbcf856bbbd3737ccU,
  0xbd1c340bbd2203bbU, 0xbd4e293ebd06d472U, 0x3cf0ff6c3cee415eU, 0x3d43e7703935e300U,
  0xbd64dc4bbd0ef990U, 0xbd24ca0cbc421fecU, 0xbd6425b8bc3011aeU, 0x3be80968bd0eea4fU,
  0xbccf4ec43d131d87U, 0x3c5b94c53cf57f55U, 0xbd0bc9e53d5a58d5U, 0x3c38194b3c736266U,
  0x3cc2a78cbbdc60cfU, 0x3b71b2be3a1f12b4U, 0xbd2b6831bbeaeabdU, 0xbc9bec193d49bedfU,
  0x3a9831f93d1a1583U, 0xbc9ee5153ca2bbc8U, 0x3c28a993bd399e50U, 0xbd2206ce3c15de82U,
  0x3d5f19303d2e8accU, 0xbd21d469bd75544aU, 0x3cfb30ccbd0a96faU, 0xbc2a67003d276e4bU,
  0x3d2f83793affa2d8U, 0xbcc712e2bcf37f29U, 0x3d32ac1bbc7d6122U, 0xbd4ad2de3cc8dde1U,
  0x3bc69e833c52b046U, 0xbd168c313ca57d83U, 0xbd3dcd2ebd336b3bU, 0x3ae731e0bd3ed381U,
  0xbc4240edbc42be03U, 0x3d05af78bd69d4f7U, 0xbc2077f8bd2cfccaU, 0xbd3af075bbef9f98U,
  0xb9b3d592bd13d56cU, 0x3bc946053d28e64aU, 0x3d46ae1c3cefc24fU, 0xbb97f6033a5c8635U,
  0xbd45f6f63cbc922fU, 0xbc9d3125bc587dc2U, 0xbcb028f5bd41a07aU, 0x3cea1546bd2a6030U,
  0x3d479247bce91c91U, 0xbc144db9bd658cbeU, 0xbceb8011bb94ad1cU, 0x3d4a062b3d4099c4U,
  0xbd52ac0a3d5045aaU, 0x3d4c5544bd0636c9U, 0x3b16b8dcbd2895d3U, 0xbd6392043cf4a253U,
  0xba9933fbbc7fefaeU, 0x3c921812bb35a4fcU, 0x3c6f77c5bcdce6b0U, 0xbb62b38b3c8f2c9eU,
  0xbc63582d3cef3e3aU, 0x3d2909843c88a896U, 0x3d5ce9a63d5d534aU, 0x3d351fb53b61b593U,
  0xbc6d5dd9bbc4c10fU, 0x3d01352e3c95ed87U, 0x3c88fe4a3cfc4b93U, 0x3d2a83a83d6c74f5U,
  0xbcf7d2e5bcaea362U, 0xba09e8413d4bb868U, 0x3ba1928f3baa4e56U, 0xbd29094b3d1d6dbdU,
  0xbbec83b73c93a475U, 0x3d1f6689bd01ef8eU, 0xbd4a715ebd1b1fb1U, 0xbcf9c07fbd3e024aU,
  0xbce86844bcad139eU, 0x3d36b24f3d5da92bU, 0xbd5379a6bd2cbcf3U, 0x3c659fec3d1ec5c3U,
  0xbd2d998ebd013dacU, 0x3c8727f8bcb33d98U, 0x3cf2635fbc896f1dU, 0xbd147af6bd4a3176U,
  0xbc7b9d4c3c2d02dcU, 0xbd484f76bd3db72cU, 0x3d3b40e33bc8a554U, 0xbd663b873d61af89U,
  0x3ccbfb2b3ce08f16U, 0x3d136fafbb779f08U, 0x3c1221f43d3924c6U, 0xbd6cf1d73d50edaeU,
  0x3d0408fb3c6d2954U, 0x3d6b187d3d411d3cU, 0x3d2250763d5ea35aU, 0xbd24cea73d0c2ddaU,
  0xbbb71df7bbbdbfa6U, 0xbcedcd7b3a816de4U, 0x3ccfbc9f3cf7c5b6U, 0xbc07a9803d47c386U,
  0xbd32f5b23cb02a00U, 0x3c784fa53b29c863U, 0xbc247b853d3c5cbdU, 0x3d3cb8373c9a669eU,
  0x3c9b0a2abd113846U, 0xbc4d9895bc4a64ceU, 0xbd20d00f3c950a3bU, 0x3d2cf5343cd82db7U,
  0x3d1a39813ce5630eU, 0x3d0dfa50bc1dbf0eU, 0x3d035e20bcf07ab4U, 0xbd38d1ae3cb9b561U,
  0xbd79f1efbcbf1939U, 0x3ce2077abcf7962fU, 0x3d279a8b3acef2e1U, 0xbd67536f3d3a75f2U,
  0xbd0873cb3d60d575U, 0x3c351b87bbc738fcU, 0x3c1e5bf03ca1efdeU, 0x3d38dedfbd08d14cU,
  0xbd5572293c984496U, 0xbd58d5b0bd639c65U, 0x3c3fcbb9bd0f18b7U, 0xbd09d975bd4fa0ecU,
  0x3ba1d664bd4da9f6U, 0xbcd178eebc68d471U, 0xbd51d5553c1c8659U, 0x3cfe64ad3c54be66U,
  0xbd003eafbd201f9aU, 0xbb7b420e3d0e1ad8U, 0x3d19f11ebc266cb9U, 0x3d09bcf23d6c72adU,
  0x3d38f6f03d0e9db9U, 0x3c94c5953ca4acffU, 0xbbf5c5863d06d192U, 0x3c922d853c9f98c8U,
  0xbbd9978c3d3ee2baU, 0xbc6f089a3d6519daU, 0xbd1591813cf55ea6U, 0x3d35962bbcf9d153U,
  0xbd3d26d43cbc2355U, 0xbcb9e37e3d437d82U, 0xbb283f803d09c387U, 0x3c6ecd9e3bedad41U,
  0xbb9863dabd36ed6eU, 0x3d6317743a8a3944U, 0x3c1cd34bbd53cc3fU, 0xba41f3c73d26a07aU,
  0x3cf303653d283b1aU, 0x3c6348fc3a9aa729U, 0xbd36d6cb3d364edbU, 0x3d289b5b3d2f930aU,
  0x3d66cf71bc959d90U, 0xbd142674bd3f69fdU, 0x3d199474bd4054a4U, 0x3d2d0d9cbc50e664U,
  0xbc964b883c842e69U, 0x3ba1cf113c7a50d2U, 0xbd5123bbbd407af7U, 0x3d045db7bd2be564U,
  0x3b8f711abd359296U, 0xbd18237ebceb96deU, 0xbd38660abd109641U, 0xbd1810b2bc9a813fU,
  0x3d35b2bbbd401fa4U, 0x3d2f10c3bd027c64U, 0x3b6968803c8d4afbU, 0xbd6a5a7bbd2b89c3U,
  0x3d0e4146bcebb251U, 0x3d4fda8bbd0d8c30U, 0xbb5ca279bd3d32bbU, 0xbc693bc0bbcf0529U,
  0xb90f32d13d4183b5U, 0x3c5f4a44bcadf807U, 0x3d1acd113ca73cfdU, 0xbcc33273bd410022U,
  0x3d66ebf83d5e228dU, 0x3d5b1c76bd208d28U, 0x3bbecc293c8b97d9U, 0x3d13f831bd452803U,
  0x3d1e6a7bbd031a9dU, 0x3d0ffed539c72002U, 0xbd0ce687bcdddff3U, 0x3ccb7ea33cca9002U,
  0xbc08c6dbbc279ee6U, 0xbd55371bbc17e8ebU, 0xbccb807c3cd97b5dU, 0xbd52d738bc844a5cU,
  0xbd2575533ae0fc96U, 0xbcf03603bd38563eU, 0x3ce0d50b3d252d8fU, 0xbb5cc007ba8eaea8U,
  0xbd12393b3d1c1d38U, 0x3d07c898bb504075U, 0x3d285e44bce9a851U, 0x3c91ccbbbd6ea979U,
  0x3d00fd863c3cd616U, 0xbb720fcf3d1e2498U, 0xbd3d7e05bc2b94b3U, 0x3a7b4f293d0c500aU,
  0xbc387141bc7a89c0U, 0xbd6b9c393ce4e9f5U, 0xbd1147ee3bf77f45U, 0x3bc2a804bc4fdb96U,
  0x3d4b9f5ebd1c1349U, 0xbc5a67b3bca5be54U, 0xbd152703bd34179fU, 0xbd5200593d237c44U,
  0x3d2004363c313ee8U, 0xbd398ee3bb72d3b6U, 0xbd49705f3c3a6b93U, 0x3cbd169bbd41c9ebU,
  0xbb4a0e21bd0b4cefU, 0x3d6a82b9bd52e178U, 0x3d0dcf7bbd5e7401U, 0xbd4e77843d293e2fU,
  0xbd575723bd3b6843U, 0x3d3e1d9bbc5ec948U, 0xbd1be8783ce2d2d9U, 0x3cd06dbb3cd61d26U,
  0x3c74ea243bb258e0U, 0xbd089d2dbbc12400U, 0x3d0a2d0bbd159aebU, 0x3c5c6d463c484750U,
  0xbc7af6adbd540a42U, 0x3d029506bd406ee6U, 0xbbddfac23cd3d349U, 0x3cf694c63cc53cfdU,
  0xbcc66b3d3d230670U, 0x3d538250bc04ba06U, 0x3d2e63dcbd0c4b29U, 0xbd371e4e3d30798cU,
  0x3cca192d3b3764f7U, 0x3c409dffbd45f927U, 0xbc34bfff3d3e38a2U, 0xbb2bfb07bd6c7787U,
  0xbc83483e3d16f290U, 0x3d21205f3c7986ffU, 0xbd47387c3c8ac2e8U, 0xbc607810bc4b1817U,
  0x3c22a129bc1a1c3eU, 0xbb80376cbd07863cU, 0x3d36dc54bbb856a9U, 0xbca33f293b3c7162U,
  0x3c9ae7d13d1ed216U, 0xbc8225353d5cb386U, 0xbcf78707bd4fadd2U, 0xbd317bd5bbaa06e3U,
  0xbd362df6bc95afcfU, 0x3c8a65e93b62aaacU, 0xbd34f8d4bd087159U, 0xbcf4397a3d61c530U,
  0xbd22bea03bf3f52dU, 0xbd5b07e63c95cad7U, 0x3d640f613ba37ffdU, 0x3caa1368ba126884U,
  0x3c1e6c623b123003U, 0xbc5efeb13cd24e0cU, 0x3d5a0b933c87bb7eU, 0xbcc842ff3cce4020U,
  0x3a94d177bcb0c290U, 0xbc86d2753cf2582bU, 0xbd5c0e983b68c252U, 0xbb83e55f3d52af9eU,
  0xbd58bc82bc3c3edfU, 0xbd55872ab9843142U, 0x3d393f3cbce0a125U, 0xbca7f4933d51c67fU,
  0xbcd37796bc8ecbb6U, 0xbcad6e15bc857594U, 0x3cb9ff0bbcde3029U, 0x3d6a7d7abcf7401eU,
  0xbd398ee23c912845U, 0x3d352873bca6e5b7U, 0x3d256673bbde34b4U, 0x3c9f3436bd31d6d2U,
  0x3d4022373c64e1a8U, 0x3aeb7117bd3e1713U, 0xbc9c23f43d4b8edaU, 0xbbf95428bd1864e8U,
  0xbbeb806a3c1340e9U, 0x3d143354bb2eca82U, 0xbcbe7b503bc35208U, 0xbd301503bd2f1e68U,
  0xbd077c2abd434581U, 0xbd4c3a72bd12c892U, 0x3cfe2f453d4e4740U, 0x3b32ad793cd366f4U,
  0xbd6cf2753c3aa41bU, 0x3c4f9a18bbe7ad09U, 0xbbb276993bed11afU, 0xbd370e55bc74703cU,
  0xbc6ceefd3b2cb326U, 0x3cd8c7633d4af523U, 0x3d36d2edbc43b452U, 0x3c020be2bcd4db30U,
  0x3ca2fcedbd4a2e42U, 0x3d5dcb903d606ae4U, 0xbd20382a3d549599U, 0xbcf83f293d38ff14U,
  0x3bf3649c3c98faafU, 0xbbe0f07bbc3b2f13U, 0x3d152bdcbd3331f1U, 0x3d15a34a3d3b7a6fU,
  0x3d078e233b1e7c07U, 0xbc80b7303d69842cU, 0x3d6416b9bcd063c3U, 0x3d173a03bcce8035U,
  0xbd0a61e63ce8dbfdU, 0xbcca6ffcbc77eec4U, 0x3cd434fb3ca7d84eU, 0xbcda68f3bc60af41U,
  0xbd398464bd303f2cU, 0xbc71bc473b3027b8U, 0xbd3fd8f2bbe1fb71U, 0xba9a0a7d3d06636cU,
  0xbca3f8153d497f5fU, 0x3b9120a3bd35a463U, 0xbd7055b53d17fe61U, 0xbd76b0493d666cc5U,
  0x3d56fb353cdaefebU, 0x3ccabebdbc16ac4aU, 0xbd1538bd3c93023fU, 0xbc2440593d43fc7cU,
  0x3d08c9ddbd093e45U, 0xbd0e116fbd20b60dU, 0xbc4ace14bb5182e3U, 0x3c1eec843d02c691U,
  0x3d130f2dbd53bdfbU, 0x3abdbd0dbd01c994U, 0xbc7070dabcef70b6U, 0xbc803f46bd549823U,
  0x3c8d31203c928439U, 0xbcbee4fdbd0ca7e4U, 0xbc3ad145bd0b9697U, 0x3d7fa8a5bcdd4481U,
  0xbd1dd5fd3d68f993U, 0x3bb0ceb8bd7fb279U, 0x3a981fe73abf3e33U, 0xbd0413fbbca8642eU,
  0x3c6e3564bd3233d8U, 0xbd119ea9bc46f35cU, 0xbb8c56ae3ab65a43U, 0xbcd71b073ccd2d48U,
  0xbd1426b8bd1525acU, 0xbc8db9ddbca14016U, 0xbd07fb7ebd20d9a7U, 0x3d3e8003bc5c6a14U,
  0xbd37f881bbf6f4e0U, 0xbd14fcef3cb55cd2U, 0x3d7916a4bd1baa65U, 0xbca888dd3c75b907U,
  0xbd425bd8bce647bdU, 0x3cacc3df3c2c3ed6U, 0x3d3cb02ebb0e891fU, 0x3ce8d7ed3ce39063U,
  0xbb08632ebc1b82f2U, 0x3bf2abfd3d3812ebU, 0xbcb2be23bd52b44bU, 0x3d26b329bd452ed9U,
  0x3c98c041bcf2b81fU, 0xbca28df7bd7b2c48U, 0xbd5258b8bd3188b4U, 0x3d415b7bbcd36e13U,
  0xbd5bb7a53cc6220aU, 0x3d62b6e3bd4bcc7fU, 0x3d0581e63b7fe08eU, 0x3d678e95bb8239e1U,
  0x3baa9ac03cfabf3eU, 0x3ca9b2213b46a716U, 0x3d02526cbc8a6c31U, 0x3d2f8202bd14fd4aU,
  0x3c6bfaf3bc049b44U, 0xbd4e82b1bb249ffeU, 0xbcd4d32e3d6a9ecfU, 0x3bb544e53d12c337U,
  0x3c5077dabbcf22c6U, 0xbbda626a3cfab868U, 0xbd61d5973d010e65U, 0xbd0761ad3d4b64eaU,
  0xbd392985bd2c2826U, 0xbc8468c43d47dd2cU, 0xbd51bb193d50da84U, 0x3d16ac5cbc1f0df6U,
  0xbd21c647bc12399dU, 0xbd7a49423d3ac107U, 0x3c87248cbd2cb402U, 0xbb29e7913d22d326U,
  0xbd3f27e0bcdd67fdU, 0xbc93aba1bd313cbdU, 0x3d0665043d5925c8U, 0xbcce075ebcf7ad79U,
  0x3d3fdc15bcc4b980U, 0xbd3b2949bd5dac8aU, 0xb6f903703d1df39eU, 0x3d5f83453d397c57U,
  0xbc3265c43c49ada2U, 0xbd498a793d349b9aU, 0xbd6830c53d483528U, 0xbc6109913ca03082U,
  0xbd1a8b80bce538b3U, 0xbd74246dbabd60f0U, 0xbd0634a2bbf83deeU, 0x3cff8d113d27ddcaU,
  0x3d0b4d85bd1a81f5U, 0x3b5284e33d9497aaU, 0x3ce58ca73d091c28U, 0xbc4799893d6d451eU,
  0x3c7ef8943c8e658fU, 0xbb09ebd63b07a06fU, 0xbbdc278dbd3d460fU, 0x3be86c03bd6ed157U,
  0xbd2415e4bd1be9d4U, 0x3d259f91bc4a0ce8U, 0xbd0e5d2c3912f654U, 0xbc8a82ccbd176411U,
  0x3d1426643d5047c6U, 0xba51922e3d30367cU, 0x3bcf2c2a3d1871bcU, 0x3d6b0e2b3d3749adU,
  0xbc7754b63cf4f128U, 0xbd17eae8bcb6ddb9U, 0x3cc4ff2e3cdcb3d8U, 0x3d1aad9fbd4a9856U,
  0x3bc44a96bd8cbc82U, 0x3bac11293d1497caU, 0xbd5b6c7cbd0fa067U, 0xbd2d392dbc83a8faU,
  0x3cde90923d1d5045U, 0x3bb6e92b3ce5b980U, 0xbb1025803c30776dU, 0xbc0b92893c55f9b6U,
  0x3d2ec80fbd07db36U, 0xbd34ed213d006bb1U, 0xbd4de4ff3d755d28U, 0x3c239cc5bd27275eU,
  0xbd4bf97c3d04f623U, 0x3ce0130c3cc2b630U, 0xbc714e49bd1612d5U, 0x3d02f4b23d43d442U,
  0x3ccc11683d141219U, 0xb9dcf6f83cedb376U, 0x3d76af943ccf259eU, 0xbd7ec1d0bc597bf5U,
  0x3c8a494a3c7a6e03U, 0xbb8c3d3dbd3dd1caU, 0x3b357d843caa8653U, 0x3a1af674bd865e7eU,
  0xbd56c099bd06eaa8U, 0x3d1b92bb3d2da881U, 0x3c8cf6903d14aefbU, 0x3ccc8c3ebd302b73U,
  0xbd0bf14ebca59dd9U, 0x3cd1cfe93d50bcd6U, 0xbd1dd90fbd2d6e5fU, 0x3d3d54f03d5341a1U,
  0x3d00e82cbd05fd0dU, 0xbcf3ec733c060041U, 0xbbb0011bbd622140U, 0x3cb340603d0ca43cU,
  0xbd1485ec3d3679deU, 0xbadd7ad53be06611U, 0x3c3a3f93bd16d07bU, 0x3d3ad09fbd2328f3U,
  0xbc998b473c88b8cbU, 0xbc98104d3c5e84a3U, 0x3d0a42b9bd284433U, 0x3c85ea4dbd2fcc11U,
  0xbcf4ced33d2b6cb2U, 0x3d382d163d8e1311U, 0x3d5f27de3c9a6b98U, 0x3aaa7b1238fdaa0aU,
  0x3d0f542e3d129524U, 0x3d0abdc2bd1f3762U, 0x3c9f3b453ca55a95U, 0x3bd03480bc80d773U,
  0x3d782ea93caa1bd8U, 0x3c3cbf7dbca9be90U, 0xbc7be7b8bd08e2deU, 0xbb60573e3bf8ccabU,
  0x3c626313bd4bf8efU, 0x3c72eef53cdd607bU, 0x3c2fd02f3ca28f5eU, 0x3d2e86d13c9e7d42U,
  0xbc09f753bd41de53U, 0xbd218b06bd1813a5U, 0x3bd85074bd24059eU, 0xbd2cbf2ebd1bb121U,
  0x3d0cbbabbd7f4486U, 0x3d414f983a1933ecU, 0x3cc7d0e83d692060U, 0xbcd2d26a3d1545bcU,
  0x3c3ee115bc2797f1U, 0xbc61e21d3cd75af2U, 0x3d26a73c3c65ee43U, 0xbd3047df3cac6771U,
  0x3c81b303bd1d897cU, 0xbd573243bd2833d1U, 0xbd2403e8bca6120eU, 0xbd5e11753b0aed4bU,
  0xbc98ee30bc06c80fU, 0xbcf5f1213d5504b6U, 0xbd41382dbac24becU, 0xbd59395bbd367319U,
  0x3c9a07bd3d574076U, 0x3cecc31f3cadd6f0U, 0x3d3aa8e03d43053dU, 0x3d10bbd4bc4fccfaU,
  0x3bfacf6a3c9fb553U, 0xbd422ef1bcb1cd1aU, 0xbd4620e1bd4a10c5U, 0x3ce3ff1e3d0b52d2U,
  0xbc7d941e3ce0ad91U, 0x3c31654d3c9bb4ecU, 0xbc9c398ebca6e38eU, 0x3cda9c903ca2cc9dU,
  0x3d245bc5bd50db10U, 0x3d3f214fbc0ea60eU, 0x3d1bab963bbc587dU, 0xbb621957bc3ccf56U,
  0x3d4dae5f3cdc1657U, 0xbc85e2eabcb5c0efU, 0xbd4b5ccebd015676U, 0xbcea84f0bd537febU,
  0x3c58d32e3ce84c80U, 0x3cf0388bbc8e11a6U, 0xbd045b2d3cecf8bcU, 0xbd05877c3d0162cfU,
  0xbd51cc37bcc41571U, 0x3d15a79f3c0da361U, 0xbc1ca34b3d1e431fU, 0xbb96558d3c76c96cU,
  0xbbf506a53d28d71bU, 0x3ce94a5d3c9f4525U, 0x3caa0b7abd289f70U, 0xbd0fbb3cbd2a914dU,
  0xbd5220d6bc3b8719U, 0x3aa580b33c52b97fU, 0x3ca9b20f3c999427U, 0x3d30ea863b346b35U,
  0xbd6865b6bc514a49U, 0xbb63febd3d131d72U, 0xbce2c0a8bcbd4440U, 0xbd0fea98bcc966a9U,
  0xba966aadbc9d249fU, 0x3d391e8a3ccba9a3U, 0xbc3825003c3c8358U, 0x3d24957c3cc267f2U,
  0xbc974301bc9a26e9U, 0xbcdadbf53ce3c1b7U, 0x3c8b264f3b899602U, 0xbd51cd233c429fe7U,
  0xbca9c93ebcb2c6ddU, 0x3c8d7d68bd65808aU, 0x3c7087ccbb47f4c8U, 0xbd64ce80bcfc10b4U,
  0x3c907bca3bca8ea0U, 0xbd5437fc3c6bd828U, 0xbd7a1183bd6b48e7U, 0x3c1f3a7e3d33acbbU,
  0x3d30df223b84f377U, 0x3d3375b7bd376c7cU, 0xbd280d123b6aed07U, 0xbba6ca1e3d106769U,
  0xbbc1988c3d380262U, 0x3c01df4bbd1db371U, 0xbd5ba4a43d1efb3fU, 0x3c74a65fbd923092U,
  0xbd09fe9ebcb031e8U, 0xbd31ac733cb19e88U, 0x3d0fc9edbd19a8bbU, 0xbcf4e4ef3d17548cU,
  0xbd06da9a3ccad6c5U, 0x3c5d373f3c86b622U, 0xbc81413f3b864625U, 0xbcd2222bbc20cb4dU,
  0xbc68b2b63c645034U, 0xbcf6d759bc3a5630U, 0x3d33184f3c5e3cd6U, 0x3b078eb5bc862db9U,
  0xbbab6555bd016e0dU, 0xbc8a54cf3c98a9a5U, 0x3d1432503b72f1f2U, 0xbba8dad0bbe73811U,
  0xbd12f6a4bc94c9f8U, 0x3d43e0cd3c84a4a0U, 0xbc0f02313d605955U, 0x3cd3fae03d106899U,
  0x3c3453ebbd0e4962U, 0x3d0da288bc0b7387U, 0x3d6e368fbd17b8daU, 0xbd1345bf3c3592d4U,
  0xbd69adc1bd0e83c5U, 0xbb68195cbcec35f0U, 0x3cc027e73d6067fbU, 0x3c995221bc9c4d5bU,
  0x3d3014c9bd15358fU, 0x3d20bc1cbd1cd6eeU, 0xbc730dc1bc108acaU, 0x3cc1bb5fbd207225U,
  0x3d4ca5afbd0e1b09U, 0xbc2c6648bd83e18aU, 0x3c05ca1eba113f71U, 0xbc99015b3ba38dffU,
  0xbd59fb6f3c7c7b17U, 0x3c01c2bfbd3a396eU, 0x3ccd9c2abd01a5aaU, 0xbc6a6caabd1cacecU,
  0xbcf9eecf3a9f9d08U, 0xbd6278a9bca0b265U, 0xbc31f6293cecc108U, 0x3d618c90bc24ee31U,
  0x3d1cbcbc3c59b3a9U, 0x3d4e1bbabc776503U, 0xbd1301be3ccea731U, 0x3d564d993cb4a3e6U,
  0x3c986bdb3c8ac95aU, 0xbcb45ef7bc008c6fU, 0x3d29b109bd301c10U, 0xbb9051c23d38b0f7U,
  0xbd26a3a93d53eadfU, 0x3d5fc252bc4a3622U, 0xbd00ab9bbd53788bU, 0xbd312ec83d12e528U,
  0xbc983066bcd0cabeU, 0xbd3e08533d170c24U, 0xbcac6c733d6fa47bU, 0xbc1401e5bca70606U,
  0xbc205a93bcd333b5U, 0x3ce7911cbd555905U, 0xbd6118d53c6e8a2dU, 0x3d2d0007bb60cb1fU,
  0x3c1b5c4dbd215821U, 0x3d22da893cd99e2eU, 0x3d4a1fb1bd4245e0U, 0xbd083482bc90a77aU,
  0x3cee284f3d0bcae3U, 0xbb00e82fbce7291bU, 0xbd55871bbd57caafU, 0x3d556ef1bc3f00d8U,
  0x3cf822b73d28deb4U, 0xbd35542ebb9d76daU, 0xbd5cb66e3c907809U, 0xbd3d53c1bd576b0fU,
  0xbd5ae532bd523009U, 0xbd540c4fbd178063U, 0xbc370654bd5d67f1U, 0x3cbaab35bc48e79bU,
  0xbcace9e1bc895d04U, 0x3d0ad3f9bd59c3adU, 0xbc4813b73d2bcefbU, 0x3d32c1363cb6d6ebU,
  0xbd216c86bccb917fU, 0xbc373466bd4b5219U, 0x3ce18ccd3abcae42U, 0x3cbc1753bd09108dU,
  0xbc1b64973caeed16U, 0x3cc711043d5d27f5U, 0xbce5722bbd5d6aadU, 0xbbaf5e543d47d681U,
  0x3d0c1f9f3d1e453dU, 0xbd111d1f3d62b09aU, 0xbd60271ebcf7aa88U, 0xbcd76929bb555505U,
  0x3c9c3ba7bd470271U, 0xbc8782873c2edaebU, 0x3aa5d808bd12b30eU, 0x3c78bdc3bd22ff30U,
  0x3d5b996e3bde018eU, 0x3bc802233d234356U, 0xbd2ad428bc6cb882U, 0xbbaf2fd23d56f3b5U,
  0x3d3ac30b3d58bbc4U, 0xbd3dff72bccc929eU, 0x3d3c2fa73c39e8f3U, 0x3cc00c70bd609ea6U,
  0xbbe816783cfb436fU, 0xbcaa46d33b78ccedU, 0xbd442483bc727962U, 0xbd02742f3c680975U,
  0xbb92c23d3cfff075U, 0x3d678701bd4ade23U, 0xbca3ef903cf1f9afU, 0x3d31c2ac3d8d6c27U,
  0xbd080c1a3b7326eeU, 0x3cfb9c96bd15e697U, 0xbcbe1f9dbd1fcbf6U, 0xbcf246bdbd42fab3U,
  0x3d29268dbd1bf22eU, 0x3d5a18babd223149U, 0x3c99b5a0bca89fceU, 0x3c2252ad3d585d4bU,
  0xbc0505243d5c6237U, 0xbd0f8e383d814d9dU, 0x3b89798dbcb92bdfU, 0xbcbbdbb5bcb4c773U,
  0xbd6535eabd296a51U, 0x3d17f02b3bdd8d49U, 0x3c3357663caaa487U, 0xbcde1187bca763f6U,
  0x3cc5faacbc89d2c5U, 0xbce808ccbc60f4aaU, 0xbc085b63bd2dccffU, 0xbc7230d33d3ac91aU,
  0xbd3446eabbfb0834U, 0x3c17de89bd779dcdU, 0x38a300693d201bb3U, 0x3cd8ab3dbc65a8acU,
  0x3d563013bd01a3afU, 0x3adbe5b7bd580c1bU, 0x3d45d8253c40bd54U, 0xbd1a58d13b6e7c2dU,
  0xbd615a2b3d0cb997U, 0x3d4aa72d3d0c8232U, 0xbd40b6b1bd46592aU, 0xbd0cca6f3c75b634U,
  0x3d4c037a3c59ab5dU, 0xbc8ada563c19177bU, 0xbcfb2a873cd4edaaU, 0xbb393ed1bc14f6eaU,
  0x3d0a1ff8bd53ced8U, 0xbc6a32fbbc007da7U, 0xbd10943a3d71f303U, 0xbcf3158cbb842334U,
  0x3cf9a23cbd110357U, 0xbd56ec3ebcb799ffU, 0x3cf189abbd2bfd27U, 0x3d18aa73bd665a62U,
  0xbc81bcadbad403a2U, 0xbb6f6b7ebd3dbb98U, 0xbaf7c3c6bce9f5b0U, 0xbd3243703d951bc7U,
  0xbd0d926abd3efd1bU, 0x3ca419ddbd373e02U, 0x3cee5a063cccbfd3U, 0xbbcc4070bd846852U,
  0xbccf9958bb7e917fU, 0xbccde39f3d03e94eU, 0xbc955f503cdb7db6U, 0xbc7367b7bd05c6dbU,
  0xbd1541c6bd3bedd3U, 0xbc9b64463ca44608U, 0x3ae1d28a3bcc7adaU, 0xbd1d53efbd00e819U,
  0xbabb5b71bcdbbff9U, 0xbd08dbb8bd10f0d8U, 0x3cb83bbb3d735063U, 0xbc129803bd4433b6U,
  0x3d63da2cbd1281f0U, 0xbc2de5433ca89637U, 0xbc88d894bcd4734dU, 0x3d3285783ca48b64U,
  0x3d46b5f63bb983c9U, 0x3ccb5f77bd43d8b1U, 0xbc6d1dcdbcb0a4b9U, 0x3cf1edcabd01f26dU,
  0x3d3bf2063c4d38c7U, 0xbcb5b0893cba5475U, 0x3d4009af3d3f1ad4U, 0x3c9fb1423c377accU,
  0x3c9c9baf3bddbd57U, 0xbccf9bce3cbda830U, 0xbd6ccd283d305087U, 0x3ca60b45bcca8ed5U,
  0x3b9a7f88bc916657U, 0x3c9735babc956a55U, 0x3d1bd361bd5ebed6U, 0x3b842376bcac9862U,
  0x3b87e7e83c4bd50fU, 0x3c42a0be3b13a09bU, 0x3d5693e8bd3c8206U, 0xbcca579fbd173458U,
  0x3ae8601a3d5753fcU, 0xbb8140103d42f511U, 0x3d16b2b9bd70c2c3U, 0xbd468ba13c84d958U,
  0xbca87d333a958d4bU, 0xbd5c76b33d392038U, 0xbc87ce133b8e26feU, 0x3c70a416bcd7eb6eU,
  0x3cfe783fbd723d0eU, 0xbbc049a1bd59754eU, 0xbc68fb383c8771faU, 0xbcb2c29e3d427d89U,
  0x3d5b06cdbd501f4eU, 0x3b4484b53d23e81aU, 0xbd31c20ebcd415f6U, 0xbd1717d03d401b91U,
  0xbc3e65f43d030106U, 0xbd540fc03d186f5bU, 0xbd0443babc2671b0U, 0x3c860320bc6d1834U,
  0x3d3b0f5a3d1fdf50U, 0x3d47dee53d02eb73U, 0x3d471a543d63db46U, 0x3cec1212bd6b4780U,
  0xbb115803bae565e8U, 0x3d2154423c153b33U, 0x3c3a4510bc4babafU, 0x3c919a94bd5f4c93U,
  0x3c8a18443c0292a6U, 0x3cb39444bc48b9c2U, 0xbcc83ecfbc48bfdbU, 0x3cdae0573d4ae34fU,
  0x3d57c25fbd4838fcU, 0xbd465a1e3d4d805dU, 0x3afd5c47bd37e8a0U, 0xbd5535b3bcfb9024U,
  0x3d38a3593d35e49aU, 0x3c41f04ebd4bbd6fU, 0xbcf95df3bbd2fb08U, 0xbd17c0d2bc976d54U,
  0xbc74bfb5bd29a0a0U, 0x3c9f784d3d1bf48bU, 0xbb8c5337bd241b17U, 0x3cb09e6e3d1c5a45U,
  0xbc95c517b9143114U, 0x3bbda2fb3c54f579U, 0x3d012eb0bd24b459U, 0x3d447cf7bd59f222U,
  0xbc95689a3d6ab9f8U, 0xbcc2c7f53ca848cdU, 0x3cfa1f4d3d5c5baeU, 0xbd57f050bd018baaU,
  0xbbde62813d5f414cU, 0x3d425a743caa9d1fU, 0x3c590c403d0dffe5U, 0x3c38f2f7bd279ba1U,
  0xbd42ee913cb49a8bU, 0xbd46960bbb60e80eU, 0xbc7bebe0bd06af97U, 0xbb00cec63c1a23caU,
  0x3d3de9a33cf65ed7U, 0x3cbf4929bc50ca5eU, 0x3be115a1bcfd0ae7U, 0x3d46f35e3c6f635cU,
  0xbd38414d3bea546cU, 0x3cb67b863cc94244U, 0x3d7d61dc3d30868bU, 0x3d4bbfb5bc877f54U,
  0x3d17b1b83ba5346bU, 0x3aa66e8a3b78d7a4U, 0x3c9c3add3ca9d3d9U, 0x3d2919a4bd45f3aeU,
  0xbcab46ae3cf88c0cU, 0x3cabea443cbadd70U, 0xbd0098df3d0d64e6U, 0x3d0197823c63acb1U,
  0xbc37021a3d092cceU, 0x3d481b003ce307c3U, 0x3d4fad8dbbc29b5aU, 0xbd1c4b76bccd3f59U,
  0x3d50050a3d221ccfU, 0xbd15149f3cf88823U, 0x3cc7e1503d26f0f5U, 0xbd55ce85bca50e98U,
  0x3cc96b433cf04381U, 0xbc4d50e73ce810abU, 0x3d2b1d45bd0ad48cU, 0xbd181e0dbcf460b4U,
  0x3c6a4245bd33882eU, 0xbcfde47b3d25bb05U, 0xbd465ae33d21c3e1U, 0xbc980c7f3d294f07U,
  0x3d102e3dbd01cafdU, 0xbcf23c863c579b61U, 0xbd02cb90ba2484e5U, 0xbd2b8b05bd524b44U,
  0x3c48d8bf3c817062U, 0xbce5d5313ca3a5f5U, 0xbaab20dc3cf676eaU, 0xbc7a7a1c3d12d40aU,
  0xbcfb344b3d1b2389U, 0xbc09f00fbc226572U, 0x3d4f80993c59653fU, 0xbd26b4e2bd3be4aeU,
  0x3d2309cd3cb9112aU, 0x3d2be6b53cc3004eU, 0xbcb332933d01622dU, 0x3cd3c97cbd40646dU,
  0x3d3de168bcdb5fdfU, 0xbc9969dc3ccbf3f5U, 0xbd35342c3d52acc3U, 0xbd73ca21bd642944U,
  0xbca9b59ebcef0138U, 0x3d68d324bd38592dU, 0xbd2c3b9e3c6941f3U, 0x3cc4f0c63c6a2a11U,
  0x3cca035e3d0459acU, 0x3d130ac43d577b70U, 0xbd6d9691bb5d44b9U, 0xbd4740fbbd384dcbU,
  0xbd0eb2da3beb8eb6U, 0x3d3c1ce6bd00dbceU, 0xbbecf1033d662fbcU, 0xbced43f2bd3f575aU,
  0x3cab8cba3b2548b0U, 0xbb757060bcced241U, 0x3cdad81ebd2e671cU, 0xbc9e4d413c855440U,
  0xbc9f3cf53c96643fU, 0xbd0e87c8bbf20544U, 0xbd0a50acbd2008fbU, 0x3d062cd1bd069884U,
  0x3b8936a1bd77abfdU, 0xbd6146263d171ef6U, 0x3cd53a74bc01231bU, 0x3bf24ea63cc4b82eU,
  0xbba22560bd19785fU, 0x3b8837a8bd85768aU, 0x3cb755553d387d9fU, 0xbcd0fd7abc436cafU,
  0xbd659ab3bd784046U, 0x3c083e51bd1e1b73U, 0x3ca9cb8b3a85f4efU, 0x3b8ed76abd421eafU,
  0xbcc755a6bd229fbbU, 0xbd62d83bbb9d3fa4U, 0xbcba44123c76b139U, 0x3b8a194c3d1833ceU,
  0xbd36e6c7bbc7faf1U, 0xbd57c9debb02df8bU, 0x3d44e3423d34b5f7U, 0x3c73dd883c928198U,
  0xbd59d3133cdfd50bU, 0xbc8cd498bba70735U, 0x3c958235bd476e08U, 0x3d292329bd20e796U,
  0x3d1ae2da3d12b56bU, 0x3ce9cee3bd26366dU, 0xbd6962f4bd45b34dU, 0xba54b983bce4ae18U,
  0x3d23bd503d62061fU, 0xbd61ba24bc6bb0b2U, 0x3d098f29bd48fefcU, 0x3ce7b3b0bd07aea3U,
  0xbc5f0e93bbaf0824U, 0xbd1932e2bd567770U, 0xbcf876c83d0c3227U, 0x3c8f92ec3c3fc6c1U,
  0x3d0ba8153d16497eU, 0x3be740e23d0a9440U, 0x3cc647a03d6abec1U, 0xbcef891f3d56f2e0U,
  0x3b36906bbcd1814eU, 0xbd16bccfbb1e6d23U, 0x3cd4601abbd9ceb0U, 0x3cd48a8dbbd907c5U,
  0x3a58a7febbb55dd8U, 0xbc64af7d3cd9b9afU, 0x3d83f7e2bd0bb551U, 0x3d3b1953bc8ddad8U,
  0xbcdfbc08bcb268e1U, 0xbd12efbe3bb7ba1bU, 0xbd23797e3d5f8791U, 0xbc6972373c1b97ddU,
  0x3ce2d65bbc010c85U, 0x3c50f8cf3d067da6U, 0x3be61060bc016754U, 0xbd1be2153cad2980U,
  0x3c5ac8efbd2d7e11U, 0x3b5e5e183ae550faU, 0x3b3d72313b9f1795U, 0x3d705b643bd69c33U,
  0xbc2e4a50bd126e86U, 0x3b2f0ef0bcf8ac5dU, 0xbccf191ebb857ac2U, 0xbcc331fe3d533991U,
  0xbc75efb5bd53bfb7U, 0x3c2f9230bc98c851U, 0xbc3b9612bce01b78U, 0x3d6dd1333cb2f8b6U,
  0xbc85cf0b3cf25ad2U, 0xbd61191b3d073f93U, 0x3cc3e8fe3cd1f961U, 0x3cd271b73d1b1153U,
  0x3d0642e53c62667eU, 0xbc3028adbabfcb2cU, 0x3c2708283d1ebef4U, 0x3c1d6e09bcf8af44U,
  0xbca0c81abd4bd1efU, 0x3c00ae41bcbd3c10U, 0x3c74006f3bf3e9d3U, 0xbbc5881b3ca62049U,
  0xbca6ebf53c1b952eU, 0x3d26084e3d5258ceU, 0x3c367125bd28a7cdU, 0xbc49fef23b93b06cU,
  0x3d59c00cbd24bfa7U, 0xbd6d89153d5f7855U, 0xbcb081733b5dc9ccU, 0x3b82b59cbcd46270U,
  0x3cc39cb8bc260130U, 0xbc3bafb63b7ebc36U, 0x3c4f83bb3d0c095aU, 0xbc000a363d18405cU,
  0x3d0f7b6cbd3b011aU, 0xbc62777a3bcbe1aeU, 0x3c8e897dbd4db976U, 0xbd3052f73c33ca3aU,
