
/**
  ******************************************************************************
  * @file    cnn_data.c
  * @author  AST Embedded Analytics Research Platform
  * @date    Wed May 11 18:42:40 2022
  * @brief   AI Tool Automatic Code Generator for Embedded NN computing
  ******************************************************************************
  * @attention
  *
  * Copyright (c) 2021 STMicroelectronics.
  * All rights reserved.
  *
  * This software is licensed under terms that can be found in the LICENSE file
  * in the root directory of this software component.
  * If no LICENSE file comes with this software, it is provided AS-IS.
  ******************************************************************************
  */
#include "cnn_data.h"
#include "ai_platform_interface.h"

AI_API_DECLARE_BEGIN

AI_ALIGNED(32)
const ai_u64 s_cnn_cnn_weights_array_u64[ 46187 ] = {
  0x3db630803dbc301aU, 0x3da570cb3dd0daa9U, 0x3a6639753da849ccU, 0x3d540b11bdbcde01U,
  0x3d95018abd0e5ba1U, 0x3dc1a1ba3da3f990U, 0xbc5da31ebd975a80U, 0xbcea720abd86da57U,
  0xbd7142213c21aac3U, 0xbd77eee23d77cfeeU, 0x3da68e4ebd27713cU, 0x3b06caf4bdb78d1bU,
  0x3da2caa83d9b3d39U, 0x3dc37419bd9d8936U, 0x3b412200bd9d8eefU, 0x3d610817bdddc5a2U,
  0x3d6cbedebce928b8U, 0x3da7df71bcbef010U, 0xbdfe4d1e3d6ec86aU, 0xbd9f0e2fbd80d9f6U,
  0x3ce14a3bbd9be3b3U, 0xbc1adb5b3db296e8U, 0x3d4c25eb3d93280dU, 0x3dbbfc14bcf9c391U,
  0xbc486bb83ced9972U, 0x3da01f64bcae1315U, 0xbdcd052ab94ec7a4U, 0xbdc7d6e6bddf1022U,
  0x3da08f673c922875U, 0x3d23f7f2bd88e0ffU, 0x3d06099c3df044f1U, 0x3d4af1dbbc8ecb09U,
  0x3ca54f853d793f2fU, 0xbd440b62bd9cb471U, 0xbdcbf10abdb81a51U, 0x3d04fad33caa8cddU,
  0xbbd93fa63dbd1181U, 0x3d3568babd54b4d3U, 0x3dbd56a13dba10e3U, 0x3dd0b52c3c916757U,
  0xbcc48e973d28fbc6U, 0xbd1a6ac43d97b859U, 0x3d5f8acabd6648deU, 0x3bcad0943cca9e02U,
  0x3d28b6363d6f7bffU, 0x3c8703dbbc65a308U, 0x3c3faf48bd2fc518U, 0xbcabaaa13dd0eb0cU,
  0x3d982565bdc66dcaU, 0xbd885c203bdbcbb5U, 0x3d0014cbbd453cefU, 0x3dd566ca3da85df7U,
  0x3d3a74f6bdab40bfU, 0x3d8bdf8b3d7d9918U, 0x3d2287793d949fc7U, 0xbc8da14a3c55e9daU,
  0xbd72af833cd51827U, 0x3d58ff5fbd67620eU, 0x3d2b98823d407cc0U, 0xbc735092bb243888U,
  0x3d1bdcdfbd7a2e95U, 0xbcaf93e8bd5a3d34U, 0x3d8b0ccf3d8c6dcfU, 0x3c6c1df23c859b94U,
  0x3d004cb03db8c78fU, 0x3c9af4b8bd7aa3d2U, 0x3d9203c43c4ad1fdU, 0xbd9a7c29be0eedc4U,
  0xbd9f43783ce409d7U, 0xbdff0667bd7b1789U, 0x3d718b89bd764e01U, 0x3d9ec260bdbb26feU,
  0xbd4db42bbde62787U, 0xbcaf22b2bb95c363U, 0xbe00b9d83dae01cbU, 0xba76df543c8fb819U,
  0xbd374ad5bb17ded4U, 0x3b3c11243d5918ccU, 0x3d5388f7bca6c358U, 0x3dc4c8bfbc8eedb2U,
  0x3dc6b6663daf636dU, 0x3d85acdc3da3ba3dU, 0x3d9eefb03d21457cU, 0x3d9c3b3d3cff416aU,
  0x3ddefec8bd9be8d6U, 0xbd5c1d303dc1e65dU, 0xbc332d633dcd58abU, 0x3e1e872d3da18032U,
  0x3ddddf7cbe6c7c80U, 0xbdd28dd03d9084d2U, 0xbe6268173cbf4646U, 0x3d0233873df8eb88U,
  0x3e135c71bd1e53b5U, 0x3e00f3d9be764755U, 0xbd0a03023c15135aU, 0xbe1e3d983dd1fa1cU,
  0x3d8aa2703db7094bU, 0x3e3e7c4a3bc3fdf0U, 0x3d487809be5bc598U, 0xbd84af263bb29c84U,
  0x3dad76c3bc8e83daU, 0x3d9944273d6b0d79U, 0x3d52cef33da8677bU, 0x3db1ef703b9a4c40U,
  0xbdc2263ebcf35f2dU, 0x3d90cf52bbd8afd3U, 0xbd7ccac1ba7128f9U, 0x3c91f0ea3d97b774U,
  0xbd3fbbb2bb9e2bd1U, 0xbdbb3a26bdb04614U, 0x3c8a9f7a3d4430f1U, 0x3d4755afbd460e6bU,
  0x3cc4085c3b5386b0U, 0xbd269dbfbd14df1cU, 0xbce65a1ebd4493f6U, 0xbd83044f3c3238c4U,
  0x3cd48aa1bd988c77U, 0x3d1be3243dd07af4U, 0xbe06e7d9bca1f3bcU, 0x3b354a7e3d196fceU,
  0xbdb854cfbd975c80U, 0x3d284723bdbe5f8cU, 0xbcf265b2bc41f970U, 0xbcf5f5c53d03ea60U,
  0xbc2838213d946416U, 0xbde0f734bdc0c3a9U, 0x3c9c21293d98a5bdU, 0xbe650bc03e009609U,
  0x3d6b61a3be1025e4U, 0x3e19b98e3dc995cdU, 0xbdfd8cbcbe47a302U, 0x3dd929423e1a1176U,
  0xbe5ed2d33c22f2eaU, 0x3d8fbabcbe35f081U, 0x3e08367e3e2ec470U, 0xbd3793fbbe5efa95U,
  0x3e4929ab3c9d39b7U, 0xbdb3bc923dfe3f3aU, 0xbdbe371dbd1810a8U, 0x3ccbae91bcce15f5U,
  0x3dd0ceb1bd8e85a4U, 0xbdc8ff70bcfe0583U, 0xbd8125d33e04204dU, 0xbdc7bf3e3d8de621U,
  0x3dc021443d8bd3fcU, 0x3dd669cabd1cde1dU, 0x3d86045ebd6acff4U, 0xbdeff2643d8a9586U,
  0xbdc58e933d2b16a9U, 0x3bcd781fbd332422U, 0x3cd6663dbd0cdfaeU, 0xb843d9e03d6e1eaaU,
  0xbd83b8c6bcad2e2eU, 0xbcf093a83e0dd0a9U, 0x3d9488f6be1aca4eU, 0x3deb85683d3047f5U,
  0xbdd869633c96d78aU, 0x3d1054523d2e66c2U, 0xbcbe679fbd1a2ff4U, 0xbd79dd27bdc03216U,
  0x3d8420283d876181U, 0xbd5a97f2bd8cf07dU, 0x3db03a1f3d824149U, 0xbdfbda663ddda450U,
  0xbd193098bd955128U, 0xbbb98b413e06b04fU, 0xbd3502273d9db268U, 0xbd36ca43bd137c90U,
  0xbcf227d33d97494aU, 0x3ab217b5be12d94bU, 0xbd8018f53dc5500fU, 0xbd2071dbbd910c88U,
  0x3d8ec7ecbdfd41c4U, 0x3d50b9b03e2e5ed9U, 0xbbd75c41bc1adc4aU, 0x3cd12f5c3cab03e3U,
  0xbc03fef33db6f1efU, 0xbd6c7014bc162289U, 0x3d536c8b3d835e05U, 0x3d5d5b76bb61a46bU,
  0xbd95c3ff3d83a8d8U, 0xbdb86ecfbdb1c943U, 0x3d007e513dc6d131U, 0xbde0b4b33da11b62U,
  0x3dc53547bd83b23aU, 0x3d747b9c3db51edcU, 0xbd5fa771bd2fac50U, 0x3e20c1ad3dabb697U,
  0xbb9ba177bd47d124U, 0xbcbe8c93ba8cf15bU, 0x3d78cfe53e3520c8U, 0x3d69c493bca29eb2U,
  0xbc01cc92bd15f200U, 0xbdb58122bdeca7a2U, 0xbdd3631bbd7031cfU, 0xbd03d3c03e39ed87U,
  0xbd9b78633d403a5eU, 0x3e16d6e6bd1c98efU, 0xbdd21129bcbd7491U, 0xbbb5ef33bde47a8fU,
  0x3d93c941bdf60f72U, 0xbd0f59843b305e12U, 0xbe1a894abc9343c3U, 0x3d0ec5fc3e0dc36cU,
  0xbd8cb25c3cbdc154U, 0x3df1190bbdb5c115U, 0x3d9d70443a064287U, 0xbe256156bd69acdbU,
  0x3d21ab293e21502fU, 0xbd6764403d801cb3U, 0x3d02ae3abc1ab1e0U, 0xbc92430d3b93191aU,
  0xbdb2165dbd8d09a5U, 0x3d9a3c953d99d9ccU, 0xbc208e7ebd141093U, 0x3de41027bc9eccb0U,
  0xbd2cd24b3d874b90U, 0xbd3179f4bb1ab0afU, 0x3dc5481d3b8f3053U, 0xbcf1533d3da234ccU,
  0xbdb66771bc9ef149U, 0x3c908b7dbd474ef0U, 0xbc3375d1bd883cadU, 0xbd8bfe84bdd7b1f8U,
  0xbd82e381bc8ec5f8U, 0x3d45d87e3d93c3caU, 0x3d1957823d9e9e73U, 0xbd6c2539bd8b73f8U,
  0x3d92e86f3d0e2ddeU, 0x3d98c7e33d7d5efdU, 0x3d096fc93d20eae3U, 0x3d9fb69f3dbf87afU,
  0x3daaf915bd7a2e3eU, 0x3d505c213d4b1486U, 0x3dac2030bda79d5fU, 0xbd0b0bcb3db815f0U,
  0x3db7f3db3c844ca1U, 0x3dde4587bc22a6c3U, 0xbca170923cc9a01cU, 0xbe04cca1bdcac2e0U,
  0x3da0cfbe3d3538adU, 0xbe11630b3b421d0dU, 0xbd86ad0dbdfe8765U, 0x3df292443d54e0b2U,
  0xbe039655be057e53U, 0x3e09c0953d8a1055U, 0xbdb9e28b3d829d38U, 0x3b88053abe2ef4a7U,
  0xbc9a6a423e1e81c0U, 0xbe24ae8fbe167961U, 0xbd561d113cba2fb2U, 0xbda9cfbbbd8311d5U,
  0x3d478e89bdc00d27U, 0x3cfa8488bdfa6d20U, 0x3d11a4193d81abeaU, 0xbd20e30ebc03ce65U,
  0xbc98988a3d6756cbU, 0x3da571d6bddc4c9cU, 0x3cf800473db219bfU, 0x3d24ccf7bd9ade02U,
  0x3d4190923dcf4419U, 0x3d9735ec3c3e5441U, 0xbd9b27ab3bd90b4eU, 0xb9ee87d03cf7d4c1U,
  0xbd938d53bd027520U, 0x3de4d9b43daa6ea2U, 0x3dd6dea73e3bd6bcU, 0xbd608ef2bcb0cb32U,
  0x3c5bf3f1bcd027d1U, 0x3d5445473d9d4af0U, 0xbe0667d13d43cc4dU, 0xbda1e5a1bdcebe9cU,
  0x3ce493dfbe0306f3U, 0x3d440e0fbca238abU, 0x3bdaeb90bd83e2ebU, 0x3ddcf29e3dbc5642U,
  0x3d38c1d6bdc81ad5U, 0x3dd88aa33de5aa5cU, 0xbe146b1c3dd4b99aU, 0x3d3f08ba3c5d5a7eU,
  0xbae6e0f33dd4d62fU, 0xbd4503e3be2550d8U, 0xbc9273f73c94bd59U, 0xbe0c313abdac7a6eU,
  0x3db9afc0bcb0b07fU, 0xbd88bddc3dd386a5U, 0xbde8a7dfbdf05d86U, 0x3db6655abc2eb46bU,
  0xbca2809a3d902d35U, 0xbd2822e03dc3bfa6U, 0x3da2146ebd855743U, 0xbb666240bdbd3087U,
  0xbc11d62fbbe0b41cU, 0xbdb32f75bd96b1fbU, 0x3d918f01bd96a539U, 0x3dacd5d9bd616aa7U,
  0xbc37b0dc3d21c6deU, 0xbdabd45cbbfd7558U, 0x3cdbb8ef3da51f99U, 0x3b05a249bd04b79bU,
  0x3b54967034bc5c10U, 0xb59ab06aba268b80U, 0xbb8c11f3ba1be99fU, 0x3b916c95b718b780U,
  0xbb9ef73eb923fd36U, 0xb88880e43c1ea2efU, 0xbb84cb94bac085b5U, 0xb66b2e383ca84fabU,
  0xbb3abc0c3be464c9U, 0xbbdcf6313ca9f1f3U, 0x3bd04e74ba4cf7b3U, 0xb6beb6d43c36d8c6U,
  0x3d59f5bfbd1e95c5U, 0xbd31fb4fba91f0feU, 0x3c2b3466bd06f5f8U, 0x3cd232c9bd2f70fdU,
  0xbcfa87903b72beb3U, 0xbd0aef813d21561aU, 0xb83b85dc3c077abeU, 0x3d4c1bbe3b970487U,
  0x3bdf8dd83cbe1894U, 0xbb40b485bcd43394U, 0x3d5e3f2fbd74aa7eU, 0x3c97f116bca4de7aU,
  0x3d0e898cbc092e5fU, 0xbd67dffebcb26519U, 0xbd6943fdbd43ff3bU, 0xbd7f698cbcd6d3e7U,
  0xbd5c75fcbd42b2ccU, 0xbd3ca2423cf1f8b9U, 0xbd3bc3f0bbe576aaU, 0xbd2b129e3d66f1f1U,
  0x3c8790e8bd04a61aU, 0xbc992b7a3d2fc0c0U, 0xbd5e60fbbd1361d0U, 0xbd1e4e7bbd23dcf6U,
  0xbcde206d3d4a12baU, 0x3cb9b9043bec7972U, 0xbc04f11a3d19f967U, 0x3ae9dc06bd37e32cU,
  0x3cee5d2e3cea8967U, 0xbd10bfa8bc82540bU, 0x3c2637a9bc7de4e9U, 0x3ceae840bd413c73U,
  0x3c11667ebbbaf396U, 0x3c874a6e3ccfbc2fU, 0x3cbb182bbcf28800U, 0xbc8ab599bbde2ce6U,
  0x3d19b7bfbc6591d1U, 0xbd4b977d3ce51d62U, 0x3d0f56fc3d0dcfb0U, 0xbbd56dc7bce0d3caU,
  0x3ce54867bbc43bd3U, 0x3cff6680bd51fae9U, 0xbd0181d8bd5e29ccU, 0x3bff94d8bc519202U,
  0x3d06de5c3c604b6bU, 0xbcbdb8d9bcc4767eU, 0xbb4b45edbd0e6742U, 0x3c6020873cc72bffU,
  0xbd6c3e65bd10f29fU, 0xbd0c19e63ca53ed1U, 0x3d0eaf853ceef299U, 0x3d3a28413cfa3d9fU,
  0xbc9890b93cf2a44fU, 0x3c3a34283d1c7cc1U, 0xbcaf178bbd1675acU, 0x3cc4b1febd167d51U,
  0xbd303ea73c59a41cU, 0xbbe0a5c93d18afe3U, 0xbd6b8e103b28c624U, 0xbc922da83d0e907dU,
  0xbceb0c4aba89aef7U, 0xbc973e183ca8e150U, 0xbb146c993d30e12cU, 0xbcc2d3313d0ca154U,
  0x3d541d04bd005238U, 0xbd3b140f3c904a68U, 0xbc4bc26abc78d722U, 0xbd5046fabc218f7cU,
  0xbd4438733d3ecb45U, 0x3cd243763d52ca5cU, 0xbd575ed8bd406163U, 0x3d0accd2ba03f5a2U,
  0xbd19e169bc8e34a6U, 0xbd62e7a7bd60a125U, 0x3bb57299bc6ddcadU, 0xbd0aaadfbd1575acU,
  0xbb9024f5bd40548fU, 0xbc412411bca11e0bU, 0x3cfcad6dbd4c4377U, 0xbc8efaa63ce8e448U,
  0x3d5c1fa0bccf56c4U, 0xbd2be8003cf20381U, 0x3c0a282d3cc49907U, 0xbcc6fd57bce5d888U,
  0xbc6b3cb33c879360U, 0xbd0631d5bbf96f71U, 0xbcdef91c3d6b7541U, 0xbd15d404bcc9725bU,
  0xbd0cd4393d03ec29U, 0xbd36f051bd48237bU, 0x3b220c363b9374eaU, 0x3d36a46fbc577de0U,
  0xbd07fd1b3d1ac69cU, 0x3d26b9a33cf35f40U, 0x3d17e0663d3bf4e4U, 0x3bbc8a3bbc244809U,
  0x3d58dd14bd65aec1U, 0xbcab07983bd0c684U, 0xbd48c6be3cd297b4U, 0xbc1fd173bd33d0edU,
  0x3cb00fb4bd0e0e32U, 0xbd2d3b043cb5532aU, 0x3cf34b693d485ff0U, 0xbcd5d212bd4f991bU,
  0xbc1301d2bd0fb26aU, 0xbd0371ea3d130d85U, 0x3c81b78e3bab350eU, 0xbc9a6d613d537fd9U,
  0xbd155e2abb1e2180U, 0x3d34e3533d328f52U, 0xbcb6dc7abd4936c6U, 0x3bc3d91d3d1c1055U,
  0x3cbd74abbc7c22f9U, 0x3d10b5583d1a3015U, 0xbd7b05c13bdfa856U, 0xbc722dc63d09f30fU,
  0x3d0562a3bce7c085U, 0xbb948c01bca0b49fU, 0xbc1b6c90bd24ffdfU, 0x3c927bb23c96eff5U,
  0xbd408f403d110161U, 0xbca18f90bc515e58U, 0x3d8ff874bd63c832U, 0x3bea0a12bc4dc54eU,
  0xbbd2d0ad3d53c27eU, 0x3beddcb83c99cee1U, 0x3d4ce587bcb996ddU, 0x3cc63591bcba6a4cU,
  0x3c066b003cca5ba8U, 0x3ca5508ebd4cb060U, 0x3d394c3e3d0e7b99U, 0x3b8b3dc9bd32aa99U,
  0x3ce5c4c2bca44805U, 0x3c41777bbcfcf6d9U, 0xbd10ce4b3d1cb448U, 0xbb0e7fb4bd45ec2cU,
  0xbc05ef1abcc77be0U, 0xbbccba0bbc005c42U, 0xbd7df6553d081b60U, 0xbc304856bd13afe0U,
  0xbd467381bceb6eb3U, 0x3c2816e33d51b6abU, 0xbce85bc1bcbdf93fU, 0xbc941ae53c62d2a8U,
  0x3c75c4493c9124d7U, 0xbcc54b99bd2c596bU, 0xbd3de660bd00e99fU, 0x3cb3a49c3d520ceaU,
  0xbb219daabcaadd28U, 0x3cac45a03d881a45U, 0x3c4e994e3bf93481U, 0xbc39eeed3bd692e1U,
  0x3d4781353b9df73aU, 0xbd771188bcb4762cU, 0x3c6725e9bcc0654dU, 0x3b432b9cbd243740U,
  0xbd123fe03c96f899U, 0x3d28737cbd3c495eU, 0x3c11b1b8bbb21e37U, 0xbcc856223d79e53eU,
  0x3cd2d8babd474f0aU, 0x3c410f843d42b222U, 0x3bb28a533c9bad7bU, 0xbca36d40bd2604afU,
  0xbcba32573d3933b3U, 0x3cd01957bc84aba7U, 0x3c8a09dabcccfa35U, 0x3c0710b6bcbe3748U,
  0xbd06512c3cd36aa1U, 0xbca341b5bd11eef6U, 0x3d03f2563d6d2e3aU, 0x3d67188dbc6f6e43U,
  0x3cea19bebb9d1e9fU, 0xbbd8cbd8bd919909U, 0xbd39a84cbd2ae267U, 0xbc866bf939c00b8eU,
  0xbcc6b51e3c02b767U, 0xbc9a67cbbd70ed08U, 0x3d24e7ccbd38e2c4U, 0x3b3886423d191bb4U,
  0x3d02b509bd4f20cbU, 0xbcf34e883d8a10a0U, 0x3b377afdbd3bf36fU, 0xbbda9fd63cfbb992U,
  0x3d25db3fbb22d061U, 0x3d73bf833be6e747U, 0xbd2af7c23c72dbf6U, 0x3bfc922c3d0e0fd3U,
  0xbcb713af3caba069U, 0x3d296c443d2d4d08U, 0x3cc7b6adbca297ecU, 0xbd6d0604bb1822aeU,
  0xbd0cc5503c88e212U, 0xbc7669dbbcf49d8bU, 0x3ce6eae33c938089U, 0xbd1037a8bd6562c1U,
  0x3d550d06bd207c94U, 0x3d593e453d9cf40aU, 0x3ca92f063c74e95aU, 0xbd4ac6bc3b1176c5U,
  0xbce4a4783d342cd0U, 0x3b5ffb16bd5e2387U, 0x3bf7a4a13c9ee19aU, 0x3c2b9268bca5fb28U,
  0x3d0ce5353d7368faU, 0x3d22bdb8bd1eb698U, 0xbcc467c33c95906aU, 0xbcf448c43cdbb0d5U,
  0x3d32bdd3bd54944bU, 0xbd30cb2e3d2c3d34U, 0xbd8348a43d0a9ddbU, 0xbaae23b83b5989c2U,
  0x3c6a536d3b75d5fcU, 0x3be948f7bd4f9adaU, 0x3d18a016bbde10f5U, 0xbd1a693dbd685c50U,
  0x3d293c1e3d619a01U, 0xbc86133d3c95c3b8U, 0x3d6c20c23d5ffe59U, 0x3bad5f163d7d2a8cU,
  0xbb662dc73af8bf51U, 0x3c356d02bccdef75U, 0x3cf003b83c66f7dfU, 0xbbb14f2a3d583dadU,
  0xbd1f7255bcc614ffU, 0x3c0b42433c499032U, 0x3d0779e83d034eabU, 0x3ba481c33d149b2eU,
  0xbd12fa4e3b4c4d13U, 0xbc80f6e53cdf0580U, 0xbceb853bbcc9bdbeU, 0xbccb128e3d1ae047U,
  0xbd5eba983d336c47U, 0xbd24dce6bd1ace94U, 0xbce5fb7f3d170c11U, 0x3c92bd72bd1f724eU,
  0xbc9738d63d2538beU, 0xbcad60553d1f177eU, 0xbca0265cbceff05aU, 0x3d2615613d25cf04U,
  0x3cc43ec1bd4dee1bU, 0xbc53e6753d453794U, 0xbc3c81babd57f530U, 0x3d0d3cd63bd404cfU,
  0x3d7ae5e93cf59ec1U, 0x3d6d0e683c6f0d48U, 0x3d3bb0733ca6ea46U, 0x3d3fa70c3d4b5ffbU,
  0xbd415cd83d3118beU, 0x3d9f60973c9eee29U, 0xbd23de613c9bf8d6U, 0xbd39ba023d619fdeU,
  0xbcf90efd3d20b056U, 0x3ccef57f3cbd17b3U, 0x3cf93b81bc1c8412U, 0x3d337c61bd3a47c5U,
  0x3bb6f0c03cd4e57fU, 0xbcbb5a973cc16b1bU, 0xbd46aad23c7ce7a0U, 0xbd40e67fbc41215bU,
  0xbd4b3d2dbc6692c8U, 0xbd251ebbbb002d33U, 0xbd1b65cc3cca2423U, 0x3c8f1f7ebd08e0c6U,
  0xbcc5e501bd207013U, 0x3d1313483d285f0fU, 0xbd6b751fbd0455c9U, 0xbd2e0726bca8311aU,
  0xbbe76d12bd3eb352U, 0x3a6e6777bcb19d4dU, 0x3ba5932abd6866c4U, 0xbd48469dbca94e92U,
  0x3d434832bd100906U, 0xbc85edf43d027a3bU, 0xbd51e8b0bc067e81U, 0x3cfb8e16bd2172eaU,
  0x3b4c27693cc6143cU, 0x3d63480d3d38d5d7U, 0xbcdc9a11bd581636U, 0xbd01b50d3cbd19d2U,
  0xba9418093d21e492U, 0xbcb3f8edbc287f07U, 0x3bc5b91ebd26a107U, 0x3cb96b5c3d2ba244U,
  0x3c097f203c3c7a95U, 0xbcd6eaa73c5f0ebbU, 0x3c672845bc86aea7U, 0x3b43ed2abd112860U,
  0xbb852f083c1aef80U, 0xbd567287bd67358bU, 0xbcde6541bd0d36bfU, 0xbced016cbd1345c3U,
  0xbc002d36380ccaf7U, 0xbc846affbc858541U, 0xbc64c3db3cd6575aU, 0x3cbaea38bd61c97eU,
  0xbd662783bccfe75dU, 0xbce105523d6d868aU, 0x3b7cbbc5bcf1f3eeU, 0xbc78e0b33d3a0b8aU,
  0xbbf69da0bcd4fb95U, 0x3ccc2f2ebd0181d5U, 0xbd0c5da23d38d67dU, 0x3d2fe6803d287092U,
  0xbcb016373c194833U, 0xbcb4b15c3d74be83U, 0xbc9fcda3bd376eeeU, 0xbb212de1bb0cbe9fU,
  0xbbc9c951bc0b2730U, 0x3cfafb32bd3052b5U, 0x3b857cd13c35efc7U, 0xbba6f9c2bd3e5177U,
  0x3cc6f1763d3e326aU, 0x3d48fdf13d8ece85U, 0xbd5147083d2a8708U, 0x3c82d26ebd3723d6U,
  0xbd5e0f043c367e13U, 0x3ce9c20a3bfdaa06U, 0x3c3f51f5bd352e69U, 0xbcea5038bae027e4U,
  0xbc06b2f93c01b668U, 0x3da946a4bd04c4aeU, 0xbc2ba76dba65c246U, 0x3bcdf2513d03dad4U,
  0x3c28eccfbd4d52ddU, 0xbc6ba3023c53eff3U, 0x3cc178a0bd018e2aU, 0x3d861ef13c5e8d49U,
  0xbc3fe0733c94e776U, 0xbd2686a63ca42772U, 0x3c677e41bcbe961cU, 0x3c5f492dbd3dada0U,
  0x3c3290b3bd016c80U, 0x3c8947233d1c8292U, 0xbc5ad2b0bd6f61f8U, 0xbc9fafd13c5b44f9U,
  0xbd5ce998bd725096U, 0x3d3bc0ea3d7782d8U, 0xbc415c093cbc58cfU, 0xbdac3860bc7b6cfcU,
  0x3c879d063d18e483U, 0xbc1f431f3d1a1433U, 0xbc9de943bcb99b46U, 0xbb0c6c2f3bc6fb72U,
  0x3cf11baf3d98854eU, 0xbc4694543ca3d751U, 0x3ca9b87bbd609bd5U, 0x3c8feecb3c12a621U,
  0xb99c9721bd4cf9efU, 0xbd013c20bc6799ebU, 0x3c871d0abd052b61U, 0x3d35f20f3c9d256fU,
  0xbd309e8c3cd1343aU, 0x3d50eac6bd7433e6U, 0x3cf1c2e83c987410U, 0xbcc0ae453d09300fU,
  0x3c83e463bd6d06c4U, 0xbcafa8f5bc920ccfU, 0xbc953d623d2eca4cU, 0xbc88767e3d10b3d5U,
  0xbd168bebbc90183bU, 0x3d370b67bca16837U, 0x3d783dfabcf6828eU, 0xbd49ff903b919037U,
  0xbcb5de683b4b85f5U, 0x3d0fe016bc80544eU, 0x3d06347bbcc6cc12U, 0xbd4c0d8fbc0053bbU,
  0x3d1151ffbbf694c5U, 0xbd119f44bd166613U, 0xbc1f28333c10b5e9U, 0x3d24f732ba0ab0ddU,
  0xbd11e8f6bc81c6baU, 0xbb2c3d8cbd1764aaU, 0x3d490c66bd49d84eU, 0x3c520ba1bb9f3c86U,
  0x3d49850c3d5caaaeU, 0x3c86e57c3d32c206U, 0x3cdc7b1abc46932cU, 0xbcba04b2bd2fc526U,
  0x3c5896023c75e397U, 0x3d30c603bbae22bbU, 0x3c0efb9c3c858986U, 0xb8c654793b406e05U,
  0xbc60d91e3d3b8de6U, 0xbc82c49dbd6a80f1U, 0x3d434f173d2ad8e3U, 0x3d44adec3d76a8e2U,
  0x3d5ffb8fbc8053aaU, 0xbd2208e8bc09feb5U, 0xbcd087cebd0d55d3U, 0x3c5e25b1bd597a4aU,
  0xbd21e199bd04eed2U, 0xbd47202b3d11813eU, 0x3ca8073f3d04195cU, 0xbd1f54133d8753e8U,
  0xbd56291d3cb3a8e5U, 0xbd5519263ce5ab64U, 0x3d72fe7f3cae1c52U, 0xbc9c92f13d1160eeU,
  0xbcc44bd9bc9d4e63U, 0xbd0acc5f3d61ed0cU, 0xbce0bf99bd5e50b4U, 0xbcce72c23c947a09U,
  0x3b8f0feb3c856f27U, 0x3beb6cd93ccdacedU, 0xbd32f4373a867238U, 0x3c28460fbbbbe380U,
  0x3cac037cbb393303U, 0xbd02cfd83c0ee8a9U, 0xbcce5fc7bc26e3b2U, 0xbc41665a3bf3339fU,
  0xbd008653bb6239eaU, 0xbd80b9e2bc2ef99dU, 0xbc1166353d160faeU, 0x3ca6efb03c968314U,
  0x3cf13ecdbd8ab02dU, 0xbda186fe3c6edd7fU, 0x3bfc8c64bc2537ccU, 0x3d8870f23d8848a7U,
  0x3ccedde1bcb3a024U, 0xbcb4a5f83d2b5d68U, 0xbd1b468a3bb1b8ffU, 0x3becd3553c3bd2fbU,
  0xbd274f4ebcf8b99bU, 0xbce5fd183cf147a7U, 0xbc6799e53cb08d4dU, 0x3cc4b9023ba9bc41U,
  0x3c4823153d7b49a0U, 0xbcdb40c4bb7596dbU, 0x3bb3a4d23cd60453U, 0xbd36460dbcd2ac6eU,
  0x3d4f9dec3cece231U, 0xbcb8228c3c6ab7bdU, 0x3c9f47f8bc96247bU, 0x3c09fc86bcc6b7b0U,
  0xbcbb7e6ebcbcf460U, 0xbb854f27bc232973U, 0x3d0a054e3cf70660U, 0x3ba0618fbce3fa9eU,
  0x3d225aaabc94d151U, 0x3ca4087abd5e4d92U, 0x3d5d3f1f3caff030U, 0xbc88aecfbcf52e55U,
  0x3d191478bd05278bU, 0x3d2ccb3cbce306a9U, 0xbd9b7fe1bc24d5dbU, 0x3c855ac83c848850U,
  0xbcd50d9cbcc14835U, 0x3d723cc1bd3dd22fU, 0xbd4c55bebb4cf79dU, 0xbce83ba2bccf8ee3U,
  0x3c8eb30c3d2e1a3fU, 0xbc66b7ebbd5a4f7eU, 0x3d4cbacdbd1f7031U, 0xbd2170e1bcf5cf43U,
  0x3bac7f1e3d07bac1U, 0x3d2d1ead3d2ef6d7U, 0xbce63579bd530081U, 0xbd9866e93d41f401U,
  0xbd2e16473be35659U, 0x3c35e4ae3b9c275dU, 0x3d08330d3b9ed1ecU, 0xbd18d3883d22056fU,
  0xbb399e35bb82b7e3U, 0x3d3f0ba73c75e36cU, 0xbcad03b4b90ad36aU, 0x3cd8c790bce97484U,
  0xbb81b1793c85a342U, 0x3d692e8d3cdb54e5U, 0xbcc5ca363d5c50ccU, 0x3c66f404bb9b283fU,
  0x3bb4e686bc317311U, 0x3b800a31bd2330f6U, 0xbaf874d93d56f026U, 0x3d3ac04bbd5602a8U,
  0xbc98d5bc3c9cf0edU, 0x3ca7144e3d210becU, 0x3b66eb9e3cf32695U, 0x3b4a1e7cbab1015fU,
  0xbd47e513bc3182b0U, 0x3d18ab953b917802U, 0x3d0138a13c9e0c8eU, 0x3cfaf39bbca1b7d2U,
  0xbd5bd0c03d4d4085U, 0x3cf183c0ba8c51b6U, 0xbc95c23aba4a4addU, 0xbd35219f3cd91692U,
  0x3cfa2c9f3ceaf2bfU, 0x3c00cc6dbd43653bU, 0x3bbb9a463d395ca0U, 0xbd4046733cfd836cU,
  0xbd246a6ebccd5ecfU, 0x3c2bd1ccbca9d588U, 0x3d6b88e1bd193e0aU, 0x3ce2d7943c23ba61U,
  0xbd440ac8bd4651b4U, 0xbd332fa4bc9a37dfU, 0x3d5e95583d276bc1U, 0xbd2d87f2bc5355e0U,
  0x3d3c13e73d03c415U, 0x3cdafe763d10668cU, 0x3b8b17a43d460a01U, 0xbd559c15bd47cf49U,
  0x3c43cb0e3cefbd88U, 0xbc0193c7bd30c09fU, 0xbd2768af3c8f8da7U, 0x3d3af4133cf89487U,
  0xbc16914e3c0e9bd3U, 0x3d107e243ce31944U, 0xbd5672043c10493bU, 0xbae774cabce0d477U,
  0x38d917963c0944a7U, 0xbd70006d3d422d64U, 0xbcdc07c6bcc8e33fU, 0x3c8ea8213ce8bb61U,
  0xbd106eb9bd1957c6U, 0xbd602dd83d1aded8U, 0x3d4215fb3d224a90U, 0xbcd780c83c65e594U,
  0xbc8e026abc61ba92U, 0x3c8379ca3c927b69U, 0xbd2bd2cabceadfd6U, 0xbd2dfa953d5b3736U,
  0x3d610aa93d27f6a0U, 0x3d5ae39dbca911daU, 0x3cf048dabcb3d864U, 0xbd499bcdbc6907e5U,
  0xbd13d132bd162961U, 0xbd32be40bd530875U, 0x3d7fc8d5bd39d7dbU, 0xbd149e8d3d2e82d4U,
  0x3d7ac4dd3ce5b4b3U, 0x3c2e2e3e3d04d42cU, 0xbd07b0f43d821e76U, 0x3d65c2ec3d1b362bU,
  0xb9a77390bd57a4a2U, 0x3c672f9fbd37559cU, 0x3d7786ed3d0f1019U, 0xbccf5bd13c70db3cU,
  0xbcc2b8e03c80054cU, 0x3d05952fbd82a0abU, 0xbd1fb4413d2151c8U, 0xbd748466bd04e8fcU,
  0x3cdae6ce3cef5fa0U, 0x3d56732e3d0abd4cU, 0x3af600273d5edc94U, 0x3c59c7ba3c864577U,
  0xbd1306c43c8408a8U, 0x3d2a5864bc7b3431U, 0x3bedff693c055b71U, 0x3d2dc99dbb1b3c48U,
  0x3ce254b9bd09816cU, 0x3cedbb55bc7e36a8U, 0x3d0a89bf3cc3cfcbU, 0x3cb302cb3cc88554U,
  0xbd3033003c387f06U, 0xbc207c383c859fc2U, 0xbc0e2a08bd1eb815U, 0xbd3f7a00bc5c85daU,
  0xbd3a04d3bd767996U, 0x3d74483abb938edbU, 0x3cbeabfabd47eebbU, 0x3c983299bd7e6ab7U,
  0x3c5bfb293d1d71a0U, 0x3cfa0be7bc2e75a9U, 0xbd8b758b3ca5de5aU, 0x3dab0a9bbd6eca17U,
  0xbd2e1297bd30f348U, 0x3d5b4960bcd452d6U, 0xbd248e77bcad087fU, 0xbd50ac62bcea2c1bU,
  0x3caeecf43bb1630fU, 0xbc8414683ba670deU, 0x3ccbd0603cd697d2U, 0xbd3614a73d0710daU,
  0xbd465df9bcf8477eU, 0xbd49be3f3b62c98dU, 0x3b7645583bfaae11U, 0xbca845843d6f8a59U,
  0x3c49319bbce392a8U, 0xbd8cd964bcddeaa7U, 0xbad813dd3d2189d3U, 0xbc83d17d3d07f4d3U,
  0x3c1610fcbb1ecab8U, 0xbc4639093d52b054U, 0x3c257736bc91dd7aU, 0x3c8fc292bcad98b3U,
  0x3bfb52b83d3ce33dU, 0xbca7016a3c93ecbeU, 0x3c005386bc832bd2U, 0x3d081f703d1f1f60U,
  0xbc8513503c74a0ecU, 0x3bcd53a8bd53d4e9U, 0x3d21f0a73d8deb5fU, 0xbd4cb3be3cfb37e5U,
  0x3c982fb2bd5c8555U, 0xbc6163653ce7beb1U, 0x3d5c39a73d253aa3U, 0xbca846e03d53cc19U,
  0xbd387bbbbd0a824fU, 0xbca2803d3cea80acU, 0x3c2919543ccf1b9fU, 0x3d629db3bd55771dU,
  0x3c6416e23d40e6cbU, 0x3cd317f9bd71b109U, 0xbcbdd4863d23a1faU, 0x3cfe4ba03d714ac6U,
  0x3d7bd2c13d3634d9U, 0x3d843980bd4ab0c8U, 0x3d69f0993d437e80U, 0x3d10b7d0bd2c928aU,
  0x3cc1fd3f3c77f888U, 0xbd6785f13c008ecfU, 0x3d649245bd262990U, 0x3ac647093d09fb1eU,
  0xbc4a44063d2b4778U, 0xbca244e3b9e60d2dU, 0xbd08e6e6bcc9b338U, 0xbd4500b9bd0123caU,
  0x3d470712bd4567faU, 0x3b01462d3d0e4b7bU, 0x3d3f34263d49a72eU, 0x3ce03a503bc95b79U,
  0x3cf1df0a3affb89fU, 0xbc5a6eef3c56ee28U, 0xbd0e72263cb4057bU, 0xbd309399bc974da0U,
  0x3d53f7abbc53940fU, 0x3cd3a3d6bc05eea3U, 0xbd331acd3cda53c2U, 0x3c11e6edbd3aa31fU,
  0x3c70e544bd898001U, 0xbd5822453d23be83U, 0x3d04271b3d1e1aadU, 0x3d3480f63d2e6525U,
  0xbd51a9f4bc3ca35aU, 0x3cc4b046bd2a982fU, 0x3d2e8061bd6aabc0U, 0xbd3b97b43c0df3d2U,
  0xbd75e6cfbcac6fa2U, 0x3d2090e6bd6336c6U, 0xbd7eb5c63ce6e5d3U, 0xbd8045bc3c95fd16U,
  0x3d26d779bcb6c902U, 0xbc5526e53b036dc5U, 0x3d16768a3d00178eU, 0x3cdf1b2d3b15c344U,
  0x3c9215e0bd5b5e6aU, 0xbd1f5572bd48ed5dU, 0x3c967e593d28326aU, 0x3d01a775bd0dded1U,
  0xbbf3517abcecc98bU, 0xbcb2bdf9bd352264U, 0x3d0b896c3b833744U, 0xbcd02683bd52076dU,
  0xbb87b8733b16bd9fU, 0xbc049333bd4cce5eU, 0x3cb7e58d3cdc1206U, 0x3ca99309bd4cf8d6U,
  0xbc2d1e21bd70c137U, 0x3c6d909a3d643f43U, 0xbc3c76793d68bb8aU, 0x3cfe9b34bd4ffa49U,
  0x3b879a7dbd4affb8U, 0x3b32d3b73ce1d2abU, 0x3d1e84893cfec346U, 0x3d2cba4bbce5b5a8U,
  0x3d2deec6bc94ea66U, 0x3d3dae8fbd030965U, 0xbcac480bbccf4cc3U, 0xbc7fb824bd1b6741U,
  0xbbd31d453d2656c4U, 0xbc59adca3d7e138fU, 0xbd1bb2853ca91747U, 0xbd1dc1e3bd6619aeU,
  0xbd0c78c8bd06d186U, 0xbbb9137e3cb48fc4U, 0xbc540d5dbca68db8U, 0xbd094fa03d5e1109U,
  0x3c9cdc37bd625e28U, 0x3d8090fb3ce097e3U, 0xbcd58e3d3ca96851U, 0xbd67c6523c5339c2U,
  0xbc8ac7373c691223U, 0xbd661e60bafa8a6dU, 0xbc88f8743d29eefbU, 0xbd4064b53cb699c2U,
  0x3d25a0a3bd2f19f5U, 0xbc93b6653ce0d9ebU, 0xbc41bf723d3812c2U, 0x3c90368dbcc26921U,
  0x3c5cbe553bd3d849U, 0xbaaa4aee3d386ab2U, 0xbd2a16dfbd177462U, 0xbcfc7995bd27b824U,
  0xbcb5f174bbff7736U, 0xbd0e827ebc94e7f2U, 0xbc9d425d3cbf79d6U, 0x3d0c00693c588f4aU,
  0xbd0b7ec33b0ccfb3U, 0x3cee0b75bc7fee81U, 0xbd12b0efbd43183dU, 0xbbd1d9f53d3bb70fU,
  0xbd615d913c0779faU, 0xbcba90a63c0935c4U, 0x3d2d8bbf3cc0faa6U, 0xbc5c1dfcbd3e86d5U,
  0xbd2ef6723c178d98U, 0xbcb1e3cdbd38b948U, 0xbc4f2687bd1c6de3U, 0x3d9b4c5b3d0f82adU,
  0x3d650f91bd5cdc2aU, 0x3d856c143d4a004eU, 0xbd631f903c41b32cU, 0x3cfacf08bc633752U,
  0xbd542dd5bd367831U, 0x3a99d407bc36d5c2U, 0x3d744da13c9098c2U, 0xbd3805a23d6588e6U,
  0xbd11ad07bd5f0df3U, 0xbd248c33bb58aeacU, 0x3b75d8f5bd076358U, 0xbcff0fe5bb40dabdU,
  0xbd4a2ed6bd513332U, 0x3d4b46a13d3297f2U, 0xbc3a9a983c193a2cU, 0x3cca7ebf3cf8d981U,
  0x3d831b2f3d4d9e06U, 0x3d1a1283bc83985dU, 0xbd418366bc7b112dU, 0xbbf26a12bd68b449U,
  0x3b9563b1bd51364bU, 0xbc07c7da3d01f618U, 0xbcab9a3ebd06a1a9U, 0xbd0c88fc3c4e8e1aU,
  0xbd22e06e3d317fc9U, 0x3c9467903b0849cbU, 0x3c86a3673c057722U, 0x3d219833bd12674aU,
  0x3c1f29ecbd1ff9beU, 0x3d626a6e3d1c3de5U, 0x3bd4e1763d3d1359U, 0xbb9fa914bd1c4dc7U,
  0xbc270d973cda5f9cU, 0x3d256d0dbd5f37f9U, 0xbccfc4433cbca7f9U, 0xbd15bf6a3d314e18U,
  0x3d2871533d17dfdcU, 0x3d6f26743bea876bU, 0x3c1d374bbcf00a5eU, 0xbd498ad0bcea1c82U,
  0x3c9d240d3d29feeaU, 0x3c6812163d3be93eU, 0x3994762a3d46e9b6U, 0xbb8502683d1b5caaU,
  0x3cbca2e43d10b63eU, 0x3d61a81c3d15ed7cU, 0x3d167affbcb7c62aU, 0x3b9fd3d1bd504696U,
  0x3d06a8113cbbf54eU, 0xbd1979b1bc4ff702U, 0xbcdd99253d5e4145U, 0x3cd3bcd0bc04c38cU,
  0x3c46e5103d11feb8U, 0xbca3e8563b4875f0U, 0xbd1198c83c8df891U, 0xbd53e5efbc78ba8bU,
  0x3cafa237bbf2dc77U, 0xbc0379f63d36231eU, 0xbbd26af83b61aea7U, 0x3d40fcb8bceeb2dcU,
  0x3c2b598c3d49bf0cU, 0x3caba1473c0010a2U, 0xbd3f89eb3cf61eb7U, 0x3be259f3bd5ec9c4U,
  0x3d2e969f3d2e2a0cU, 0x3ceb433d3bac845aU, 0xbd0573003d593e54U, 0xbd614b1b3ccb5299U,
  0x3d13ce6a3d29c249U, 0x3c127f68bbd09ca7U, 0xbccf98c73cd9359aU, 0xbcc2410f3c5c5d8dU,
  0x3c013035bd15ead7U, 0x3d5422e9bb7543efU, 0x3ca0af9ebcb8760aU, 0x3d420fefbc8173d4U,
  0x3d30ea89bcee03d9U, 0xbd31a344bc4ed35eU, 0x3cac25e8bd111bb7U, 0x3ccf02e23d192df3U,
  0xbc91122bbd2d33b3U, 0x3cd6416dbc6a731bU, 0xbcf79c7cbd1df89eU, 0xbccb7425bca816d5U,
  0x3d85a316bcbbf49bU, 0xbc900d3bbcee6228U, 0x3d652b343c15f208U, 0x3bcadc7ebc4c8507U,
  0xbd1c4230bd58a7c5U, 0xbbc579c2bc3f4877U, 0x3d17d2393b643e4aU, 0xbd2dbc45bd5ec48aU,
  0xbb8e820abb99f154U, 0x3ccdfe403d285331U, 0xbd1d3a413c2f1792U, 0xbcbdd6b6bd43b963U,
  0xbcc69dd83c7ef2ebU, 0xbd0229553d5c318fU, 0xbce718323cbba942U, 0xbd3898623d344600U,
  0x3d05b2053d517e2aU, 0x3bb711ecbd308a31U, 0x3d0105af3cc35a69U, 0xbabe5f24bcbd0a07U,
  0xbbad8f32bd10f494U, 0xbd642d1b3ccf349bU, 0x3c823479bd4d0dd7U, 0xbafabe2bbc21d3e0U,
  0x3d455c0dbd5e15dbU, 0xbcf292b2bcbd43f0U, 0xbd887adc3b8bcd67U, 0xbcea29353bc09a62U,
  0xbb72f0a0bd41e8c4U, 0x3d0ce93ebd5f2eb6U, 0x3cae729fbceb6a68U, 0xbcd8629dbcc52b8aU,
  0xbd696a72bd2adabdU, 0xbc8074e7bc0f367eU, 0x3d2e84ddbc34152cU, 0x3db5ca6bbbd15688U,
  0x3d39f0b5bd11d197U, 0x3c4ff612bb7cddfbU, 0xbcc9a9c63d39c6f8U, 0xbd1fe901bd502981U,
  0xbd5986203cdfa0deU, 0x3c69db84baf51c1dU, 0xbd53753fbd475141U, 0x3cf8603ebd333a17U,
  0xbcb2027fbcc10fd7U, 0xbd51cf433d35e121U, 0xbcacaa333c8548d9U, 0xbccc2d31bca59360U,
  0xbd436ad53d58ae4bU, 0x3d8a550d3cb2a3c4U, 0x3b7578a73d3297d5U, 0x3d1ed193bc71d790U,
  0xbd2787c33d8dcabeU, 0xbcea07dfbd6344e5U, 0x3d00ea383c1b70d9U, 0x3d4179303bc9716bU,
  0x3d1629213d42802fU, 0xbc365bf0bd21d140U, 0x3cec35aebcc01af4U, 0x3ceead00bb96b468U,
  0xbc1210263b0d2faeU, 0x3cf49f42bc0a8ea3U, 0xbd1e18563c6d4247U, 0x3d2a14da3d1725eaU,
  0xbc23c5aabd7c99caU, 0x3d1c90b9bd226ee7U, 0x3d2a663f3c9bb8f0U, 0xb9e137783d0f4497U,
  0xbd61be3bbbb1b7e0U, 0xbd147eea3cb8279eU, 0x3d183ee63d44f7f3U, 0x3bab1e90bd0d2418U,
  0xbc89700f3c9aec02U, 0xbd3b4868bc15d0dcU, 0x3bf18cb73d7ef995U, 0x3ce944b5bbd86c31U,
  0xbca496643ce4a53eU, 0xbd02a8f43cb8df27U, 0x3c5a4552bbcbfe53U, 0x3d19d1ecbc1f219aU,
  0xbcd58a09bb0f2f9fU, 0xbc0bca11bc166444U, 0xbcc9c5cbbcb0563eU, 0xbd2b02ca3ca60633U,
  0xbd078a7f3d2a474eU, 0xbd135944bd0d3239U, 0x3ca8d1a43d3eec51U, 0x3b9c0f09bd346b04U,
  0xbd27a888bc175abfU, 0xbce05920bbc0ebf9U, 0x3d4725c1bd55053fU, 0x3cd80390bca5ae1bU,
  0x3d27b96abd495fb8U, 0x3c5e8d62bd4776b0U, 0xbd0c038f3bf05ad9U, 0x3db6b1d73d2a190cU,
  0xbd07a9ca3d265359U, 0xbd668a873cda219bU, 0xbc8fb212bcdf17a1U, 0xbd1c30f5bd05c99aU,
  0x3d18fb343bfebb8bU, 0xbcd75a77bd4b64c4U, 0xbd4c7eadb9a1007fU, 0xbcbc883bbd1e196bU,
  0xbd0c3fa5bcee1a6aU, 0xbd1583e3bcb7289aU, 0x3c4f2258bcc0fbebU, 0x3c8bdd143a877137U,
  0xbd85de653d69d7b9U, 0x3bcd95663cd6403eU, 0xbd203654bd624c8aU, 0x3d845ebdbd30e997U,
  0xbcb9ce0d3d248aeaU, 0x3d17a14ebd6d69ecU, 0x3d1049e6bd2cc78eU, 0x3d879eb03ce9de5dU,
  0xbd05f9f5bba6cb2fU, 0xbc9f3d273c2df569U, 0x3c323b7cbc59ff9eU, 0x3cd8bfc93c8074c3U,
  0x3c9a0233bd4c8a8eU, 0xbd1f5442bc9a9b23U, 0x3d2351d43d357aa6U, 0x3cc5f934bd1ac392U,
  0xbbe7f197bd08cf14U, 0x3ca7e60ebd2a76dfU, 0x3bf502913d501467U, 0x3d6c9e1ebc93fb3fU,
  0x3cd8825b3d545a46U, 0xbb71c5a13c7b4a9aU, 0x3d05b7033d565398U, 0x3ccbe4f83d5b65a3U,
  0x3c33e5cebd02ae7aU, 0x3ca11d82bd879e33U, 0xbc270b8f3c2e67a4U, 0x3c9eea043d595c1bU,
  0xbb3f9a733cc2e28eU, 0x3ae44bd3bc9bd905U, 0xbd4e369fbd5922f4U, 0xbc56ce443c3389fbU,
  0xbb8ee7f5bd383e4fU, 0x3b411689bd75e670U, 0xbd22087c3c356bb4U, 0x3c3525f93c847369U,
  0x3bd95cd4bc223780U, 0x3ce5f4ab3d326be8U, 0xbd801fad3b9ef9b2U, 0xbd468f14bbbebc2eU,
  0xbbd3d4f03d3144b6U, 0xbc8a5e05bd28b83aU, 0x3ce51e543d0b86bcU, 0x3c91abaebd85e9acU,
  0xbcd7fb5a3cbbef1eU, 0x3ae17bb8bca4ee03U, 0x3d0f6afa3d041907U, 0xbc8d17e93a9a113aU,
  0x3c85f7c0bc8277ccU, 0x3a1d6c45bca55ca5U, 0x3cdaed73bd188dbcU, 0x3d586577bc08cdf5U,
  0xbd0ea74abd431bf4U, 0x3c94cb53bc9b4b60U, 0x3d538f093cbcd008U, 0xbd072f303d69cb17U,
  0xbd3dbb3fbcae4927U, 0xbd17bb7a3d4fc5b9U, 0xbd30db393d098553U, 0xbbd09f1abc3de0b0U,
  0xbc8e20523d4b850dU, 0xbcc99a4ebb8dee50U, 0x3d3405023cd919afU, 0xbd108e4e3b909430U,
  0xbd550b013cba1a1aU, 0x3bf4a1e3bbd7e1d2U, 0xbca920713c1e5cdeU, 0x3d5dda423c8ac3d7U,
  0x3d167c7d3cec308cU, 0xbc4d5f6cbd572a97U, 0x3cad4a803c071076U, 0x3d4898403d3a73cdU,
  0xbc706f64bc521871U, 0x3cd7da283d272999U, 0x3d3047ee3cee37c3U, 0x3cc55e823cbdc09eU,
  0x3cb88b443c954c68U, 0xbadbf6e9babbf17dU, 0xbd19b55f3ca499a5U, 0xbb00dcf0bb995f55U,
  0xbcf51786bd0108cfU, 0x3c51f1b43c82081bU, 0xba7311dfbcb9843cU, 0xbcebbe68bbb7b823U,
  0xbcd612673d1d243eU, 0x3c7acbbe3c528cecU, 0xbd72192c3d2eafdaU, 0x3c81136bbccf35b8U,
  0x3c7afe58bd62dd71U, 0xbc90ddaebc82d2beU, 0x3bac5a32bd1a2f0eU, 0xbd543adeb98cb3cdU,
  0x3cc957febd09ef4bU, 0x3d65379bbd26544eU, 0xbd814806bce11052U, 0x3b4d44803cdd1828U,
  0xbb37e4b6bc8b7c0aU, 0xbbe9b5a0bcb71da7U, 0xbd6c9642bb3454d0U, 0x3c5d07b7bd69de7dU,
  0xbc8369fc3c136c47U, 0x3c0b58ed3c62c2d9U, 0xbc9a9e43bca8eac5U, 0x3ca0ce283c522a47U,
  0x3d46a7623c11ea50U, 0xbc633be43ca7f6f2U, 0xbd2eff08391d1141U, 0x3d84c3413d1e5ba0U,
  0xbc23ead73ca99e5fU, 0xbcc32fabbcc4fe0bU, 0x3d72201dbd379319U, 0xb9bb2c913b819f66U,
  0xbd87d63e3cc471baU, 0xbd29115e3bb6446dU, 0x3ce6e3003d055fa4U, 0x3d15a9e3bd29b506U,
  0xbd6bbc1abcca6b45U, 0x3d6a5dd3bd020172U, 0x3d6cb68d3d6324f4U, 0x3aaff0223d31b72fU,
  0xbd76f2db3d6e4587U, 0x3cfd678cbd32b71bU, 0x3d4a0e43bc8490f1U, 0xbcc6d4d13c1ce3e0U,
  0x3bc4b4093d059014U, 0x3d3f5df03d14926cU, 0xbd6d4752bcb70b0bU, 0x3d0e33e4bce35569U,
  0x3d4268a23c4a68d4U, 0x3c6aa4a43d6d9cf1U, 0x3d3ab6c03d117dadU, 0x3d447bf5bce48065U,
  0xbb112de0bc970251U, 0xbbb97348bd43333eU, 0xbc254d7f3c7ab034U, 0xbbb2cc1f3d2194f0U,
  0xbd12519ebc640ce5U, 0x3c23a3c93c65c103U, 0xbcc6c714bcf88881U, 0x3d0b372fbcaf2d2eU,
  0x3ca04f0d3cc46f97U, 0xbd07092fbd08fd3bU, 0xbd8faa30bd0afed0U, 0xbb3a668dbcd78012U,
  0x3d5e08193b6e2efaU, 0x3d44942cbd5498c1U, 0x3b4bcbe13c0d05f6U, 0x3c3befb4bd3cf2c5U,
  0xbd429102bd11c9ceU, 0xbc84f684bc1bbe6dU, 0xbd6dd045bcab7b9aU, 0x3cd384293d51a8eaU,
  0xbd45c36dbc2cb277U, 0x3d1a84bcbc0e1ec1U, 0xbd2e2910bc0ec0f3U, 0x3d0aca473c335adcU,
  0x3c1d673dbd606258U, 0xbc8d5a5c3c4420c2U, 0xbcbc7f903c99f947U, 0xbcd1ce62bd4ed2a2U,
  0x3d7259c73d6c5845U, 0x3b0a0049bd2d4edfU, 0xbd04162abd0e4df9U, 0x3c47c298bb6d7402U,
  0xbd5cb13cbd254506U, 0xbc82d2503b6633b9U, 0x3d6bb902bc324cbeU, 0xba0817e7bd676148U,
  0xbd941a39bc9bd680U, 0xbc7d69ad3cd8899cU, 0xbc67480bbd16ac88U, 0x3d8a661bbd3b56c9U,
  0xbd875d30ba834e06U, 0x3d5a30b4bd5780f8U, 0x3c6334b1bc3dcac5U, 0xbd668d583cc93c8eU,
  0x3c9840e6bb89bed0U, 0xbcb6bc9abbaae562U, 0xbcb3a26dbc126d42U, 0xbcdd57fc3cabea6eU,
  0x3c758ce0bc33875fU, 0x3d49b51cbc09c88aU, 0xbcdead47bce8f581U, 0xbd301dcabcc78200U,
  0x3c5169f0bd0f30f2U, 0x3d36f2d53d679a45U, 0xbd364378bc925fb7U, 0x3cdee417bd75060eU,
  0x3d4fb6883d6645c7U, 0xbd2862673d5a1d30U, 0xbd00e253bd676730U, 0x3ba5e6953d5890b2U,
  0xbd1561ef3c8d188bU, 0xbd246da3bc0b950aU, 0x3d3669413cf1d5a5U, 0x3d4224cebd0146aeU,
  0xbbc8cff63b3b34c5U, 0x3d082accbc9ef34bU, 0xbd3502b63d29580bU, 0x3d41d80b3ca024c3U,
  0x3d5f1cda3d218312U, 0xbd41b1b6bcaab877U, 0xbd0712363c934512U, 0xbbc232843c811777U,
  0x3c81e23fbc43eae5U, 0xbd5ebe64bd761fc5U, 0x3cca0ddbbd0d19acU, 0x3d286ccebd4ae7e2U,
  0xbd0254533bd986c1U, 0xbd08af033c8862d5U, 0x3c9b44243d08bec2U, 0xbcd8aa163d438bbeU,
  0x3cc21e6ebc133275U, 0x3bdcf59ebc8f6bb8U, 0xbd2133df3cdc45eaU, 0x3d80e6183d35a7e6U,
  0x3ceb2c4ebd517c9eU, 0x3d0a6de8bd66395fU, 0x3cd0f635bd59bdcfU, 0x3c1b6b72bcdd9edeU,
  0x3d231d62bca28786U, 0x3ca4d2fdbd59d939U, 0xbd13d9d93d18396aU, 0xbd81d82cbd855362U,
  0x3cd7c6d63d1a9f3bU, 0x3d361da9bd12187cU, 0x3d5d36ac3d08f3a7U, 0x3d0275efbd2edc3dU,
  0x3cd4c65bbca95a50U, 0x3d4a0017bcde8ddbU, 0x3d586e87bc80d482U, 0xb93231a9bd56e94fU,
  0x3d28da753d0f6ffcU, 0x3c10033bbcd66b18U, 0x3d06ed2f3d0fff26U, 0x3d41b489bad20393U,
  0x3cd879f2bccb0e38U, 0xbd4e37013ced14e4U, 0xbbed3167bd50a1adU, 0xbd4d6032bd23a8f2U,
  0xbca4ae31bd1466e0U, 0xbd297fd4bcb5d337U, 0xbc0d704cbc9ead97U, 0xbd703423bd078f7bU,
  0x3cef7be83b0d8614U, 0x3cc1786cbcde4700U, 0xbd5260363d76bd20U, 0xbcff63413c3e4080U,
  0x3c4ca0773c968142U, 0x3d5ff1d53d1a549fU, 0x3d0bc30ebcb0167bU, 0x3d72cf1a3d5ba6fbU,
  0x3cb93871bc8c5da3U, 0xbb4ca03b3c8bd7eaU, 0xbb3fc91dbd3a7737U, 0x3d74ca863c7294f3U,
  0xbd30b70cbd20034dU, 0x3d445c383d4519f7U, 0xbc7750cbbd0ba527U, 0xbd06dd64bc958160U,
  0xbcc0cbe4bd43b474U, 0xbd0a1d4abd46d4ddU, 0x3c21f90fbc7f8796U, 0x3c8e0b393cf02d41U,
  0x3c9bc26e3c20c123U, 0xbd533858bc9610fbU, 0x3d3d6148bd617ad2U, 0x3ca5d3af3d0cc1bcU,
  0xbd5e89f5bcb085c2U, 0xb9b9af13bb98e7afU, 0xbd8972463b5a6808U, 0xbd75bb203d20b4d5U,
  0xbd129cf3bce2db5bU, 0xbd238505bbe47303U, 0x3d4ad6cbbd31c7e0U, 0xbd4d56133d27bd18U,
  0x3cd44d28bbed366bU, 0x3c6ae956bcd14c11U, 0x3c1ca67a3d3798a3U, 0x3c9975333ca0414eU,
  0x3c8e921d3b67dbceU, 0xbce130eabc5cb0baU, 0x3d5230f13d297319U, 0xbd10fe50bca90453U,
  0x3c6c02e4bc506009U, 0xbbff6234bd5e380fU, 0xbcaeb307bd2346abU, 0x3c11e0c03c494f99U,
  0xbd017d13bc194579U, 0x3d653e143c9e45c0U, 0x3cad901d3d0c2433U, 0x3d16ee553b199311U,
  0xbd253770bcc9f12fU, 0x3d4f992b3c746dfaU, 0xbd30ec943cd27a62U, 0xbd24690a3d416ee3U,
  0xbbce232abce52d89U, 0xbc493a1b3bfbcb3dU, 0xbc56c446bbd7349bU, 0x3d8c107d3c18aa53U,
  0xbd31ac493c936932U, 0xbca6f5113cc4dae2U, 0x3d49e6d4bcc00742U, 0x3d0231793d297e6dU,
  0xbd235bf4bd4c4b89U, 0x3ccc179bbc9eec54U, 0x3d17bc9c3bbca154U, 0xbd2f4e20bcf93d76U,
  0xbd43771c3cf118e6U, 0x3b960eafbcf99ce1U, 0x3d00f096bd40f2c3U, 0xbcc5d1dcbd047e1cU,
  0xbd25181c3d424aa4U, 0x3caca0653d4337e2U, 0x3cce2561bcddaddaU, 0xbd6946793d1fa060U,
  0xbcf7ec623cd57f69U, 0x3b1234203d074196U, 0xba578f69bd47a8a2U, 0x3cbe45eebd074bc8U,
  0xbb900edfbc79e8aaU, 0xbd59382abd804bd4U, 0x3d0dce20bcc5f3dfU, 0x3d606e9b3c2b719aU,
  0xbd18ecbcbcf1f010U, 0xbcef73483d2f242bU, 0x3c311e7ebb4dce51U, 0x3d327952bd04f851U,
  0xbd1f5ceebc95faebU, 0xbc37a18ebc9492e3U, 0x3cf631b4bc92f9d0U, 0x3d0dde48b9a542aaU,
  0x3d07eaa43ce8f8eaU, 0xbd0aa87a3d4ed4f5U, 0x3d10f5d03d26bf1dU, 0xbc787ca2bcc98315U,
  0x3d04bdd2bd3986d0U, 0x3d045d25bd0e72b8U, 0xbc1b24043ce6b8f9U, 0x3d851b513d5881ceU,
  0xbb6976bd3ce6e40bU, 0x3d42ee03bd2f2f23U, 0xbd1d1944bc1db87eU, 0x3cd59fa1bc6dc3fbU,
  0x3d53aebdbca88cc2U, 0x3ccbae173c214d01U, 0x3d53f8a2bd5a2e72U, 0xbcd1af62bc0fd613U,
  0xbc946132bcc35997U, 0x3c634b3dbcd29eccU, 0x3d620a64bd0821b1U, 0x3d4885173d24955cU,
  0x3a30dff3bd6eeccaU, 0x3d3ac52a3beb7437U, 0x3cf333413d0fa7beU, 0xbc9102a0bd25e75dU,
  0xbc29779f3c63e9cbU, 0xbbcb8d623c024bebU, 0xbb8def273d6292a6U, 0x3cd238243d45cdaaU,
  0x3cf0347ebd462267U, 0xbd086758bcbccd6cU, 0x3d87de5bbcb3cff8U, 0x3bf8cfbbbcd50eb2U,
  0xbd4590fb3d4e42e3U, 0xbd91e84c3d07820fU, 0x3cc86a2b3d445409U, 0xbc51a395bce09b2fU,
  0xbb3a0f043cd7d2a9U, 0x3c182416bca8bda4U, 0x3c8169a03c858a63U, 0x3c994f7bbd7772efU,
  0x3d2b7d43bc6a3ed4U, 0x3d2cc95bbaaa2a38U, 0xbd22d0303d5da5baU, 0x3c9bbdacbcfaa182U,
  0xbd6a851fbc6bae21U, 0xbd594d9d3ccb0d8fU, 0xbb6a4ed83d0aa98bU, 0xbd5a99873cfcd45eU,
  0x3d5487cfbbb56ed1U, 0xbd5c48f33d5c0f49U, 0xbca8ee9bbb2e5ee1U, 0x3d305911bc91f823U,
  0x3bf54867bd0706b1U, 0x3ccb7194bb78a569U, 0x3cb56fe6bd2ad241U, 0x3bfa5c7b3be83f94U,
  0xbd27c9d9bd58ce05U, 0xbd568a3ebd1eae1bU, 0x3bcffe713b310448U, 0xbca44b60bd5b2572U,
  0xbcc40f1ebd0f8eb7U, 0xbc456d413d0b246eU, 0x3d300438bb8e6eb2U, 0x3c5ca140b8e03435U,
  0xbc58f511bd425dd1U, 0xbd49bd483cc8b40eU, 0xbcb4874cbd18e02bU, 0x3c17329abbee2918U,
  0xbcdafb2dbc34f3c7U, 0x3d1bfcd13c29cd6fU, 0xbd08b47b3cfe30a8U, 0xbc0aa986bcc13238U,
  0xbcffd97bbc87e26bU, 0x3d5565953cfd5843U, 0x3c3e30a63d19e3b8U, 0xbbb192adbd719783U,
  0xbc9ca0fcbd2134fdU, 0xbca9ad883d02bf58U, 0x3d809132bc4b8c47U, 0x3b2d51a13d308711U,
  0x3d3186d4bc37d6c8U, 0x3da40e563c6defe2U, 0xbcecb548bc46a83bU, 0x3a8c79363c2cb9a7U,
  0x3d2b6c583d3263a4U, 0x3cd71b353d044f72U, 0x3caf2a0b3d51f8a4U, 0x3d8b300bbd3717e4U,
  0xbcd4d8d43cf76fabU, 0xbd705c34bcc67bceU, 0x3d4738ea3d577051U, 0xbc0582c0bc4333f3U,
  0xbd06a18b3c8e5836U, 0x3cbe5634bc9221d9U, 0xbb9c8a9b3d66ecadU, 0xbd22e43a3b85007bU,
  0xbcfc0959bcee7d92U, 0x3c811141bbf09390U, 0xbc8a6e453bf25d8bU, 0xbce7dafa3c87b419U,
  0xbb82a72bbcb1e471U, 0xbca54fff3d7b263fU, 0x3d515e3c3d24236aU, 0x3d483114bd549031U,
  0x3be701dcbd5bd583U, 0x3cb8d9593cf978b1U, 0xbcf62d91bcb5ced8U, 0xbc7b5544bc3ad0beU,
  0xbca889653d437afdU, 0xbd1e93c73d502fe9U, 0xbcf6bfa6bb923ea6U, 0x3c306f3e3b84672eU,
  0xbcaaaea93d1fdabfU, 0xbd15e05c3d6a46ddU, 0x3ce723ef3cb0def1U, 0xbbe899813cf2d93bU,
  0x3d1792523d1b29ebU, 0xbd954314bd25b303U, 0x3d178ee63cd76d81U, 0x3cd72c013d4a6430U,
  0x3ce1ac103d36b48cU, 0xbc893e88bc683b54U, 0x3d1e5ddbbcc06c99U, 0xbcaebccdbd69399eU,
  0xbd4a61f6bd275e86U, 0x3cd21b19bd40a306U, 0x3d8d745abba9b401U, 0x3d5256f1bcbd49ccU,
  0xbb8305b13c214870U, 0x3d7c323dbca77115U, 0xbc0d89b9bd04c5d1U, 0xbd1f44e33d4f3007U,
  0xbcac82203d3b89c0U, 0xbc0b9b79bc2f84f2U, 0x3c027055bd508c69U, 0x3cc157ce3c984a69U,
  0xbc759a0fbbc05c14U, 0xbd0685b33d3f4754U, 0x3c4f38a6bd09de78U, 0xba428e533ccc97aaU,
  0xbb36f8d8bd277a56U, 0x3d3b00be3ced16d7U, 0x3d99faedbcb10b65U, 0x3d3342263d973ec7U,
  0x3d636c31bd48fd6dU, 0x3d182d7d3ba502b6U, 0x3cbe3ea03d2584c1U, 0x3d90006dbc1f8c6bU,
  0x3d2bb98dbb35bb95U, 0xbcfecf1139d4d14bU, 0xbc68fa953d327e0bU, 0xbd500f863cca8154U,
  0x3b955342bc15c0eeU, 0xbd39677fbd3e024eU, 0xbaac880a3d73c939U, 0xbca2f7683d49abb7U,
  0xbd53c9c73cdd2f47U, 0xbd1acfbbbd2b1372U, 0xbcb94cb63d5117adU, 0xbcad929ebd2ecc1eU,
  0xbd85f629bc66349eU, 0xbbb11b5b3d81d16eU, 0xbc596018bd45cc37U, 0xbd722b31bc4bda24U,
  0x3cc540263b885d4cU, 0xbd7637993d2c75d5U, 0x3d2016cf3d37919cU, 0x3cbe08413c348a58U,
  0x3c9f9df23cd0621cU, 0x3d1daea33cf7c92cU, 0x3c4c1c963cc973b9U, 0xbd6d3117bca75091U,
  0xbd4e80c83d6ac930U, 0xbd58a4cabb647875U, 0x3d09eda4bd62e64fU, 0x3c9180b33cfd4a00U,
  0xbb95a978bc64836fU, 0x3d01f166bc6edda7U, 0x3cfe543abcbb28c8U, 0x3d325432bce77c5bU,
  0xbc919b753c574f8bU, 0xbb38cc1abd1c0bbdU, 0x3d431133bcf1c22fU, 0x3d037f6e3d4af4b9U,
  0x3b5124d8bb29998dU, 0x3a40783fbd116731U, 0xbcfe84b2bd1d9fb2U, 0x3d7c368bbd4f2d96U,
  0xbcdb7d4cbd4ac682U, 0x3d1214ff3cea68baU, 0xbcb28ebdbd3ab5bcU, 0x3c94f0203c23f14aU,
  0xbd2a8fe53d0f8e85U, 0xbd2e05a83c2d8296U, 0xbd353e783c49e7dbU, 0xbcb81278bd54c112U,
  0x3b23c2f93d4f9098U, 0x3cf9130c3d355fcdU, 0xbd2d1ebf3d71ddb0U, 0xbd21fc703d26eabdU,
  0x3b72ed923aacff95U, 0x3d03e4a7bcfc00d3U, 0xbd01a2c2bd40603cU, 0x3ccaf8a23c4cc32eU,
  0x3cc30f8cbca6d93bU, 0xbce274d03ce724c9U, 0xbc0c34a03d433853U, 0x3cd79c88bcbd3e3bU,
  0x3b31bc13bc866ef7U, 0xbd49d84e3ca1761bU, 0x3cf3203abd18da5dU, 0x3cfe3951bc0d3197U,
  0xbd60b2f0bcaae1d9U, 0x3c89cfba3d41ba03U, 0x3d69fdd8bd158c68U, 0xbd6682463d383d31U,
  0xbc9c04e73d4767fbU, 0xbd2d6633bc98dfcbU, 0xbd7abf893b1b6000U, 0xbd17ffd03c1b7799U,
  0xbd02a27fbd43a3d9U, 0xbc7b39393933e442U, 0x3d79c2fe3d664417U, 0x3d68322fbc9a1ec7U,
  0xbd859f213d047432U, 0xbd60a91b3d1e9059U, 0x3d75cc4fbd6a5abaU, 0x3c503d65bc932327U,
  0xbcef41efbce88ef8U, 0x3d3ab092bd1e1ed5U, 0xbd5f3830bc4d9483U, 0xbd4458e73ca2c17bU,
  0xbd2aaa903ceeece0U, 0xbd00ad5a3b0585ffU, 0xbd0f33a3bc760f60U, 0x3d5308cbbcd6f1e2U,
  0x3c9d1c3f3ccbacdfU, 0xbd1899bdbc8aecf0U, 0xbd38bd0cbcc5515eU, 0x3bcfd18dbbd0cab2U,
  0x3cb59a253cf99446U, 0xbd092c0f3d09c15fU, 0x3d18cb113b84dc53U, 0xbc6cc6c63d486334U,
  0xbd692fa23ba556afU, 0x3bfcecc6bda329c6U, 0x3c7c08dbbbcb01cfU, 0xbce0409ebc8f52afU,
  0xbc5c4a523d348555U, 0xbb6a05583c49b9d2U, 0x3d0657dabc97667aU, 0xbb205546bd1480d3U,
  0xbd1bda473c01fff9U, 0xbd708009bc5760d2U, 0xbd1be58b3cc1df1dU, 0x3cc3ae0bbcc0ecb2U,
  0x3d11c29b3a41ee4eU, 0x3ab26f2b3c5c92b4U, 0xbc8ca6483c7dcb2cU, 0xbca7e4853cb7921eU,
  0x3d2c0bcb3cfd702dU, 0xbc8549d73ce7097bU, 0x3ca63f00bc943460U, 0xbc8b9588bcc87e68U,
  0xbd1b6d0fbb7f781dU, 0xbc99d7543d17803cU, 0x3d6834b2bd65576bU, 0x3b124beebc934ba1U,
  0xbce6a2bfbc567ccdU, 0x3b8c66e63d5bddd0U, 0xbc96eb98bb645b46U, 0xbd4d84d4bcf75c4bU,
  0xbd62e2f53d09fcb0U, 0x3c9cb8443c1e1378U, 0xbd2d9e1bbd0e233cU, 0x3cbb67983d33e1e1U,
  0x3b5fff27bcebaa17U, 0xbcd41deb3d12ce92U, 0xbd2609193d3c4d36U, 0xbc867498bcd3e3d7U,
  0xbd551f1a3d40f5f4U, 0x3d50ecd4bd430fffU, 0x3d4f71b33c35f0f3U, 0x3d39b6c33d65806bU,
  0x3d35aa9fbd3a416fU, 0xbd2213fd3ca44a79U, 0xbc8bcedb3d0daf3cU, 0x3d376763bd0b9c46U,
  0x3d4a2d2e3cb6714fU, 0x3d28f8f4bd2f8581U, 0xbbf1bbdb3b37f363U, 0x3cd71a8f3d4f9bc0U,
  0x3d1c631cbcf8cfd6U, 0xbceb29533d72863cU, 0x3ce0a7fa3cbcffdcU, 0xb9966775bd0fa72fU,
  0xbd537537bc4a23d0U, 0xbd0686a93d011514U, 0xb9854ed0bc853086U, 0xbb621affbb99006cU,
  0xbbedfcdebb665ffcU, 0x3d1a473d3c9e338fU, 0xbce49520bd5d88f9U, 0x3cbfe5d6bd4bcefdU,
  0xbc8a48ddb9b5fad0U, 0x3d42aa423d452539U, 0xbc5345a3bd65b8b5U, 0xbcef0d403cddfc5cU,
  0xbd1ea29a3c9b75d6U, 0xbac5425fb6b1e46cU, 0x3c4c06b33c33e04bU, 0xbcc8a539bc5cc437U,
  0x3c688d4dbc18ec58U, 0xbd5eb96dbd3151cfU, 0xbd035e183c947e3eU, 0x3b76ce943d0d694eU,
  0x3d21242e3c59fa14U, 0x3d0fd54ebc992dafU, 0xbc646f033d31cfebU, 0x3d208fd63d6adbe6U,
  0xbd2d9490bcab8d73U, 0xbbd471be3c78d4d9U, 0x3d0755a03cad438cU, 0xbd0fd2c43ce5697dU,
  0xbd1881963c831f78U, 0x3bca6b03bd6dc760U, 0xbd4214ed3abdaeb6U, 0x3cd1d28b3d0833c3U,
  0x3cb223bf3d3ad437U, 0x3b44650cbd174511U, 0xbd6b35d73d531b8dU, 0x3d23029d3d0b4240U,
  0xbcc677233d55e633U, 0xbd6c87b1bc189303U, 0xbd4246573b555230U, 0x3c89002ebc2c9dc0U,
  0x3d01f0233ce62b83U, 0x3d10e10abd18dea5U, 0x3c397cd53d630f50U, 0x3949285cbbc8fc3bU,
  0xbd009f383d468f92U, 0xbce0690b3d58b58cU, 0x3c8520633bf025dcU, 0xb8b343a0bd536947U,
  0x3d33c126bce5e75bU, 0xbcd21063bd12f87fU, 0x3cc29bb53c9cab1fU, 0xbcb4b7a13d6b8678U,
  0x3d1c3c703c49e6bdU, 0x3b34f1803c90db6dU, 0x3ce2a69f3d1daefeU, 0x3cdde1ffbd1e1109U,
  0xbba1c446bd0ee84fU, 0xbd377f9339b330e4U, 0xbbae54133d3551d8U, 0x3d3d3b833ced54e7U,
  0x3d45b7e4bc3b5456U, 0x3c234f9ebd19cc1cU, 0xbd1c1f19bd46865cU, 0xbc9a39d2bd2f2c63U,
  0x3c609b11bd2bbce3U, 0xbd442329bc962027U, 0xbd37b44bbd374285U, 0x3c066d8d3c1afa07U,
  0xbb3f9f31bd660d72U, 0xbaa32ac23cf9e75cU, 0xbcfe17553ccffe0bU, 0xbca6c84cbd5569a3U,
  0xbb0562b3bc723266U, 0xbc5a1fc63cc39073U, 0xbd3af5093b9effa9U, 0xbd171332bcdbd167U,
  0x3d21b3be3b91bccdU, 0x3d689493bc5d2223U, 0xbcae6a6fbcacd50cU, 0xbcdd6b753d6861f8U,
  0xbc10345abca44ba5U, 0x3bd7f476bc55904fU, 0x3c91dd9dbbc93bcaU, 0xbc9b22e5bc99abd3U,
  0x3c7b2882bb6c34ebU, 0x3d1ca5883c929ec2U, 0xbd5e238b3c6f552eU, 0x3d42901bbc027e28U,
  0x3d18ee723ce1844aU, 0xbd2d66b93d54286dU, 0xbb9320f3bd5a7a4aU, 0x3ca0f2d23cc31093U,
  0xbc06b91f3ce6c784U, 0x3c928e033c7716aeU, 0xbd6d3b20bc15ecbeU, 0xbb4cae0abd181ff7U,
  0x3cc6c594bd3eb65aU, 0xbcad4b9dbd2ec63dU, 0x3d0e5131bc6d7786U, 0xbc668826bd4e7b37U,
  0xbcabbf4cbc46f06eU, 0x3d2eb88bbc1945e0U, 0x3d2d1f03bc1896e3U, 0xbb0da0ffbc99a5d4U,
  0x3c5874643d5e9c75U, 0xbc1032c03d53ee79U, 0xbd185c3e3ce91ed0U, 0x3d4522af3d1f8324U,
  0xbd03b4213cfd58bfU, 0xbcfc75323c96e08dU, 0x3d4cc257bc2c4cdeU, 0xbbd7be6dbc964868U,
  0x3bd0e58cbd6289e2U, 0xbd279e08bd46f228U, 0xbcbb7f37bc615c64U, 0x3c60c753bcdbb32cU,
  0x3cbaa2babc17eb1fU, 0xbcbfcb633c6f60a1U, 0x3b51ceedbbe30f39U, 0xbd1daff2bd0bfba2U,
  0x3d07ace73d64ae46U, 0x3cf296dd3d072693U, 0x3ca3d631bd17f0c3U, 0x3c552ddb3d603654U,
  0x3d4416c43d450986U, 0x3ccfb2e63c9e48f1U, 0xbd444087bd47d753U, 0xbc6ca293bd207c8cU,
  0xbce6913d3c8175a4U, 0x3ce5c0ff3d13467bU, 0xbd6b7edfbccea3d2U, 0xbcba6e61bb1caafeU,
  0xbd2c9da0bcfee9f4U, 0x3d483ebabd60baf9U, 0x3c641de83ba4f418U, 0x3c1cb7cfbc6b9de8U,
  0x3c8e0f40bd54d769U, 0x3d6453a0bd25ee98U, 0x3c8fcaf9bd5c2f1bU, 0xbd227f3a3a6c177dU,
  0xbd3a2862bc765d9dU, 0xbcfceaf43d11f722U, 0x3c50da253cbf6a2eU, 0x3c378202bc8e93e4U,
  0xbd0cf7a73ce03c0bU, 0x3d51a8013d23592bU, 0x3b0d27bc3c7b7e8dU, 0x3d1abc13bd020953U,
  0xbd303a76bd3effb3U, 0x3d15f1533d6550f6U, 0x3d4071f0bc747640U, 0x3cf6304cbcf8910eU,
  0xbb0c2d6bbcf08831U, 0x3d11bfd93cfc2acdU, 0x3c69c7c93c102737U, 0xbcac24053d1b1f77U,
  0xbd112f49bd347342U, 0x3cc44a743b579f89U, 0x3cc9b9f63d1397b0U, 0x3d51d0553ccf379aU,
  0xbcb97f663d568116U, 0xbd623c18bcaaa70dU, 0xbd4df4d43be37533U, 0xbc0e4e763c3ca318U,
  0xbd6cb29e3c88f6c5U, 0x3d20ebd6bafb6957U, 0x3cb6574abd30f69bU, 0x3d1513e6bd2e878bU,
  0x3d51066cbd23e3f5U, 0xbcaf0f173d3a17a6U, 0x3c99ad433d46c147U, 0x3c026cbb3d04d1bdU,
  0x3bd97a903b74d1b7U, 0x3cc2180d3d4a6743U, 0x3c2d54093d54d2b2U, 0x3ca180e43c606ed4U,
  0xbd3f655c3d2face0U, 0x3d23c039bd00826fU, 0x3b963885bc95455bU, 0xbcb8dfad3d3555e9U,
  0xbd68e44d3bafba25U, 0xbcf47776bb84d35bU, 0xbc22d85cbc987f74U, 0x3b54d19ebc947bbfU,
  0xbc44da803d3d5204U, 0xbccca4a73d4d64b8U, 0xbcc4059b3c82f1b3U, 0xbd06f21d3b472a6fU,
  0xbc458055bd30fb16U, 0xbd178afc3d4e306cU, 0x3c00c62e3d5206a5U, 0xbcb547743d50d912U,
  0xbbbfe519bcae7772U, 0x3ced82ae3c80c2c8U, 0xbd00e5e83cfd5abaU, 0xbc55e9aabb691dd3U,
  0x3b2bef68bce1f81aU, 0x3cfff7b1bc9327a1U, 0xbccea84a3c3d808aU, 0x3d138d633d0a19edU,
  0xbd43f2dfbd4e3067U, 0xbc6f5b14bcf876d1U, 0xbbeb8947bcf31a89U, 0xbc3016a5bd614291U,
  0x3b8b4e2cbcc4f8ecU, 0xbbd7d998bd32cbe9U, 0xbbe57965bd0c35d2U, 0x3cb8632d3b629e95U,
  0x3c001f91bd362295U, 0x3d2ccb733cc6c726U, 0xbd4557453d4c3d40U, 0xbc21042bbd332915U,
  0x3cdcf57e3c33452bU, 0xbd1c91e3bc4e967fU, 0xbd27805c3c73b763U, 0xbcb889693c3a9172U,
  0xbd5f417abd2935dbU, 0xbd2caaa5bc565137U, 0x3d4a84a5bb1cc188U, 0x3d632a1c3d20a552U,
  0x3ca583b33cb1fecfU, 0x3cc75a273d2047c2U, 0xbc9ddd95bd5cc73bU, 0x3d60b7a1bc8e8894U,
  0xbc5354aabceb247eU, 0x3d4f77b9bc6a7172U, 0x3d6731a0bd540982U, 0x3cb7f1a83d2e1f34U,
  0xbcc8bfabbc064e0bU, 0xbd07a07a3a435eb0U, 0xbba29930bc8c7ab6U, 0xbca353f3bcdc4296U,
  0xbc6281323d15fcf7U, 0x3cac4e9ebb7f7221U, 0xbd48d9edbd32dd86U, 0xbcfb376ebc9b6541U,
  0xbd17f3fa3bbd4b1bU, 0xbc7576bcbcd33483U, 0xbd3d98afbc0465e6U, 0xbd44e77bbb9bfd69U,
  0x3d529bda3ba38f5dU, 0x3d0a6636bd07d1aeU, 0xbd4d3db2bd2b31cdU, 0x3cac476bbb1f9ef7U,
  0x3cc2988a3c8d6006U, 0x3cf4861c3d07abcaU, 0x3d5cf8823c3dabacU, 0x3cb283243cbc000bU,
  0xbc9d225b3c2fa256U, 0xbc243c2fbba80d4eU, 0xbd679d353d634f6dU, 0x3d3076dbbc01f7ddU,
  0x3d4cc0f0bc366b65U, 0xbd4fb10b3d44017fU, 0xbd578d513cf61ca1U, 0xbb93a942bd43ea6bU,
  0x3cb105a33cec352dU, 0x3d0c9b213d717aa5U, 0x3c2667cabd3642b3U, 0x3b1273cc3d0a0704U,
  0xbd308511bd4b5245U, 0xbd6359f93d24d1e1U, 0x3d210290bbff3d88U, 0xbd6174323c991cd2U,
  0xbcb3955dbbf088dbU, 0xbd0fa53e3d71781eU, 0x3c8ec917bd54ba9aU, 0x3d4e8554bc9398d0U,
  0xbd1a1096bd5af2a9U, 0xbc0bf8e7ba44b204U, 0x3d2ad1c9bc00dac9U, 0x3caa69623c2e7380U,
  0xbc0de73c3d11fe7eU, 0xbd34c48e3c6ddfcaU, 0xbc22819b3a14a318U, 0x3c74489fbcab536cU,
  0x3d2c3b33bbf78073U, 0xb943cc3cbc9d2eedU, 0x3d0b2cbabb0cb98eU, 0xbd17d943bc1e4c3bU,
  0x3aa068893d1b6edaU, 0x3cb8313cbc9ea733U, 0x3cd7d7083c90e47bU, 0xbaf3dbb9bd5d41b3U,
  0xbcd0bfaf3cf4255fU, 0x3d42d7243db6204eU, 0xbd32cbfd3d222a00U, 0xbd85e39f3d0ad8ceU,
  0xbad46a88bd473562U, 0xbc9a83583cd7773dU, 0x3d1069543cc56556U, 0x3d0a1b6e3d250f6cU,
  0x3ca4160fbd3b9243U, 0x3ca8e75e3d296033U, 0xbd34b3273b730c33U, 0xbb94db283d3cb6d0U,
  0xbd85c9fb3c4ab2b0U, 0x3cb19e4c3d1cf00eU, 0xbb9920853c14afc6U, 0x3ca59afebd63581cU,
  0xbd6320dcbca1e324U, 0xbd0301ddbd1f39fbU, 0xbd4cb450bd794954U, 0xbd199f3fbc85708eU,
  0x3c66b174bcfb3bd7U, 0x3c76e2e1bd8df76fU, 0x3c0027e13d4b2b0fU, 0x3da2f9cabd1b6683U,
  0xbcc6777fbcf89676U, 0xb9cc1b47bd0665c4U, 0xbcfebf883d0ff49dU, 0x3d1d08df3d0483d1U,
  0xbc878e9ebd4b410bU, 0x3c9acb873c071a01U, 0xbc25a9eebd589403U, 0x3b3b5ae13d52a370U,
  0xbd38e0c5bd689b6aU, 0xbce8b5bb3d072c67U, 0x3d98a87bbd652991U, 0x3d71cd693d5adee9U,
  0xbd6481123bdfb029U, 0x3d0db9d1bd8bc74bU, 0xbd7d0f983cd00554U, 0xbc5aa8e9bd37f409U,
  0xbc3e4a10bc4963c6U, 0x3da065eb3c002501U, 0xbc3aa1e4bb7b30acU, 0xbd8137dcbda35f7fU,
  0xbd11b44e3d3c8a52U, 0xbd38f5033ca5ac54U, 0xbd03ce2d3d545e4fU, 0x3cefa2b63d447b7dU,
  0xbd4d4b603d494a66U, 0x3d661a87bc1eb188U, 0xbd2cdf3e3d3427fcU, 0xbd6f41453cb687a8U,
  0xbd099dfa3bb635c3U, 0x3d656ddebd479e08U, 0xbd2067e13c128536U, 0x3d284b04bc92b8c8U,
  0x3ce63dbbbd4e3045U, 0xbc8399aa3c40ab8bU, 0xbc601cbfbc9cd041U, 0x3d4e517cbd37a819U,
  0x3c75778e3c7ec465U, 0xbbb278cbbc441ea7U, 0x3d360c973d800c74U, 0xbcb2c39ebd54bfefU,
  0xbd282d90bbd392b4U, 0x3d81ac72bd4209afU, 0xbd2a937cbc9be8adU, 0x3b0d71443cb15d33U,
  0x3c439921bcaae7b3U, 0xbd024bb13ad8d84eU, 0xbd149ab03b73bd43U, 0x3c6ad7fe3d33148eU,
  0x3d0bffdfbc25f2b0U, 0x3b871dd83ced8822U, 0x3c1205723cf0aea1U, 0x3d4950d8bcaf624eU,
  0xbc14917a3c19b204U, 0x3cac659dbcd9fe9fU, 0x3c243ee93c8c0a0dU, 0x3cb30dc0bd1613b6U,
  0xbd76d2223c8ae9d5U, 0x3d533e0ebd352b0fU, 0x3c0577dc3cf2fa29U, 0x3d8035b0bc9c9612U,
  0x3c2597893d1234b4U, 0xbc6f6debbd8bb2feU, 0xbc413ebbbd059888U, 0x3d0a1186bb97d808U,
  0xbd309e653d3cfceaU, 0xbcabfc7bbbf465c6U, 0xbd7c6651bd67c238U, 0x3cb55a153d03ca74U,
  0xbd0711173cf1e133U, 0x3d304f3bbd0b27d6U, 0x3ce8da41bd3d8ef3U, 0xbcf50e0ebd149513U,
  0xbd51e7743d4202eeU, 0x3bc759a9bd81e73cU, 0xbcecb512bce2dd35U, 0x3ad5bb4a3b255729U,
  0x3c663796bc772677U, 0x3d84826bbd19b5c8U, 0xbd390db0bc8e46d4U, 0xbd7933253cada83aU,
  0xbd4d37473d37f22aU, 0xbd04f4fcbd35172aU, 0x3d03145cbcd6de52U, 0xbbc7d03a3d0f92b2U,
  0xbd4c339e3cec85d8U, 0x3cbcd431bc51b21eU, 0x3d3e8488bd253bebU, 0x3d6dfddf3d7e8a61U,
  0xbcb043f4bcd1b982U, 0x3d33c26a3c5e09f7U, 0xbc17b3b43b7b681fU, 0x3d34eb60bd221b09U,
  0x3d7492e73d16fd11U, 0xbcd94a65bd1f65e8U, 0xbd93a7de3d506555U, 0xbc91e098bc59b516U,
  0x3d2a3ffa3c5e3dabU, 0x3d5d33023ce03581U, 0x3d1c3150bcd09901U, 0xbbb44863bc32ce55U,
  0x3cdba0c4bd6ba1e5U, 0x3d322aa6bd39c988U, 0x3d2246e43c0e6e7dU, 0xbcb88cfebcb57837U,
  0xbd4382f83d4f852bU, 0xbd4d85643d0a745eU, 0xbc593e48bc8c6e57U, 0x3d6dd25d3ccc9661U,
  0xbd2ce6633c3655b7U, 0xbd68f3223b660a2eU, 0x3c9d6f373d681e2fU, 0x3c8ce570bd1af2ccU,
  0x3cb0caa73d2b23b5U, 0x3d216a36bd1b0bbdU, 0xbcc3f3253d5653b3U, 0x3c8a4cb8bd1a31ecU,
  0x3c3db4463c70cbc0U, 0x3cc9bf07bd4bc931U, 0xbd3ae9673cde9886U, 0x3d8b1d733d171b73U,
  0x3d2017963d4406cfU, 0xbd7a3444bd61d606U, 0x3b6f0785bd7b0741U, 0x3d29dd0dbd6379f1U,
  0xbd513afbbd957d51U, 0xbcc83461bd6aab39U, 0xbd3271a0bd0ce1f8U, 0xbd1646b93dac7c16U,
  0xbd6026cebc0a2da8U, 0x3d29ee19bd246838U, 0x3d7e3dbcbc938cf3U, 0x3b5340823c78b89bU,
  0xbd884fbdbc1c3a18U, 0xbd0bc6f2bc8e5fa7U, 0xbb2358613b89cfa6U, 0xbd56341b3c86a84bU,
  0x3cfbcec6bb2a1b4fU, 0xbbf66d2ebbed2411U, 0xbd2792ddbd134caeU, 0xbc8ac6f43b980850U,
  0x3d06d7e3bc619384U, 0xbca29a50bd0cf15cU, 0xbd26bf9d3c35d05bU, 0xbd2da3ad3cf4a74bU,
  0xbbae60e5bd5c1f15U, 0xbb1992543d00e5d8U, 0xbc8697b63bb684baU, 0x3d1d80be3d4a9863U,
  0xbd19e48dbd3e8987U, 0xbccb98b7bd030cc6U, 0xbcec57653c8eb739U, 0xbc5480403c9879b9U,
  0x3c066e62bd2437bdU, 0x3ce253f83a660fd2U, 0xbd874ad3bcbfe137U, 0xbcbdcde63d3cf1b1U,
  0x3c499a543c86f9faU, 0xbc4da783bd49b9edU, 0x3c9ebfe23c304faaU, 0xbb84e0af3d60fb82U,
  0x3c87bbe23cde6a16U, 0x3cbac6323bb31fa3U, 0xbd7a17aebd0c3b50U, 0x3bd893d1bab89812U,
  0xb75e7a573d57a996U, 0xbc876cca3cc76ac7U, 0xbd67ee043cbca030U, 0x3d17d6683be85cb7U,
  0x3b98c58bbd233699U, 0x3cf665e83cb5b12bU, 0x3c4936f13d45f844U, 0xbd50f9ba3d1d79a7U,
  0x3cdce947bd08ed1cU, 0x3c64c645bcc4ce7bU, 0x39aca0693cba5865U, 0xbc768cb6bd41cfacU,
  0xbd1d4c113c15310bU, 0x391fb576bc3718d9U, 0xbbd6cfb4b8124b9bU, 0x3d1ac7aebbf0a974U,
  0xbcac0ec63d49198eU, 0xbd4a72febd846a34U, 0xbd23f4163cc8270eU, 0x3c6834733d376b81U,
  0x3d07252a3cf258fdU, 0xbc0a346dbd3c3806U, 0xbd2f3fe5bd343664U, 0xbd873e173d10c167U,
  0xbc8b00b03ca3ee14U, 0x3ce41b1abc7596cfU, 0x3d6f63cb3bb8b75cU, 0x3d0af0eb3d1adb21U,
  0x3c9004e63d03b8f9U, 0xbac8b8dc3d60bcdeU, 0x3cffcca3bd0d23cbU, 0x3cde1222bcaa02ccU,
  0x3a9397ac3d835395U, 0xbbbf4d6a3bcd1ac3U, 0xbd25dc213c534c8bU, 0x3c9742263cc7c184U,
  0x3c3469c73d3cb9eeU, 0x3c18701c3d42c513U, 0xbd08879e3c0fe388U, 0xbc0a42d03d24b156U,
  0x3cd20d913d0c42f6U, 0xbcf6112f3d195510U, 0xbbf9497b3cc11fd9U, 0xbc1f15513d204d26U,
  0xbcd6bc6b3c2d8b18U, 0x3d8f725f3b0f855dU, 0xbd08a303bcdbcb41U, 0xbcf60769bcf94551U,
  0x3d45a3653d1951d7U, 0xbd132bc93d24810eU, 0x3b5392253befa46dU, 0xbd30b8bebd57dea8U,
  0x3aa3c7a6bc98c51eU, 0xbc830dd1bc30f3b7U, 0xbc7ac9aabcb21d9aU, 0xbba85d4a3c7ef3e1U,
  0xbd3cdce63c988fa6U, 0x3caae45c3c14a716U, 0x3c2b2d60bd358c49U, 0x3c7e5250bc0c68ddU,
  0xbd1d04183d02b802U, 0xbb94ce44bcf7d339U, 0xbd0e6e9a3d61c82dU, 0x3cbf4b90bd726111U,
  0x3c196e57bcc0a535U, 0xbd0899b8bd04a36aU, 0xbbdf23ed3d00035bU, 0xbc24c0df3cf9c423U,
  0x3cd07fdabcd4ca81U, 0x3d81c3763bf37f5bU, 0x3cd5b28dbc7c37f6U, 0x3ccb2e77bd30bb22U,
  0xbd0bd13b3c0cb319U, 0x3d0c4075bcc8d513U, 0x3d2c3b273c8cc4ecU, 0x3b97e1113d5949d8U,
  0x3d8ca900bcd8bd26U, 0xbc45fdf53d05c50dU, 0xbd2e026a3c3dd6e5U, 0x3d3a22b43ba48ce2U,
  0xbd40387d3bee7b7aU, 0xbcdc225a3c5c0819U, 0xbc8a46d33c2db3aaU, 0x3b512af4bb3bb66dU,
  0xbd6e83ad3cef38a5U, 0x3c39b7e63d076595U, 0x3d83ec72bd49f35eU, 0x3c7fb762bc39ae28U,
  0xbcf2d232bd477c61U, 0xbce2573f3d0e0bb3U, 0xbd40f5dc3bf73aaaU, 0xbd2f0a123cba3535U,
  0x3d68f3ad3da7dfdfU, 0x3d8caddb3c670052U, 0x3d07ad71bd27747fU, 0x3c52cbfbbd167186U,
  0x3cb89b39bc3d6766U, 0xbd2043943d0aa6daU, 0xbba09a2e3cdadadeU, 0x3c9b14403cc795abU,
  0x3ce8b1ca3d3bbb9dU, 0xbca3500fbd455b35U, 0xbd0b8ec13cd994b9U, 0xbc959cd5bd0d8015U,
  0xbc1cbee3bcedac6bU, 0x3cd7c9bebd6662c6U, 0xbc47e6d1bbe3f84fU, 0x3d2017853b7c5da0U,
  0xbce4dc63bce754a3U, 0x3b1aa4363b23e7b7U, 0xbd743447bcbcaf60U, 0x3b807adbbbe7080bU,
  0x3cf076a0bbc376bfU, 0xbca23d0b3c8cae07U, 0xbcfb6420bc37f3e4U, 0x3cd554fabc59383fU,
  0xbd4e1364bc82e7b6U, 0xbd5ed3af3d20fe41U, 0xbd0e15783d2cc15eU, 0xbd3df573bd178631U,
  0xbbc2e3eebd1a191bU, 0x3d033abcbccd80ddU, 0xb91755193c55ce2dU, 0x3ce6d0803bd76f44U,
  0x3b8de61f3d0f44daU, 0xbc1bb3f33cc5d3caU, 0xbcc3a789bd3b57acU, 0x3d29dd56bd3ea2c6U,
  0x3d16d6d3bccee9a0U, 0xbd475478bd3c5e94U, 0x3d5d91f8bc0cc868U, 0x3d3fdd4e3b08d952U,
  0x3bfe507c3d4aab1dU, 0x3cd076b23d06e6beU, 0xbb768ecabd64460eU, 0x3c49b9203cb993bfU,
  0x3d35d7743cdef1dbU, 0x3c38b2cfbba54fd1U, 0x3c8f6abd3d257d9fU, 0xbbc42c45bccd4d10U,
  0x3d2c5b3f3c9e97acU, 0xbca375c03bc1c9c4U, 0xbd0ed11a3d200117U, 0x3c2b027ebae2be43U,
  0xbd48b5debd2c3b62U, 0xbca15c873d582da7U, 0x3b99cc76bba4f544U, 0xbc2eb0bbbc93f10eU,
  0x3c8c3482bd3c9f0cU, 0xbd4ea427bcf8cacbU, 0x3c54d834bce526beU, 0x3b83630b3d006ab2U,
  0x3ccfb51c3c82453dU, 0x3c7ac17abd3dfd92U, 0xbcd1fd653c43a1b0U, 0x3c4963283d1a8be7U,
  0xbccd15ba3d1c5172U, 0x3c088962bc9e374cU, 0x3c9cea873cbb3fd5U, 0x3d039408bd343a51U,
  0xbb28ffb83d51c5f0U, 0xbbd9edc1bd027dd0U, 0x3cf55f373d2b2b14U, 0x3b466033bca918d9U,
  0x3d415fba3c0ee6e6U, 0xbccbd89e3aab918cU, 0xbc9a8939bcfc4e2bU, 0x3d5e0bb13ceef26dU,
  0xbcb20f0e3d27ef6aU, 0x3c84dd4d3a4ab4a7U, 0xbd80731e3d0eef94U, 0xbcbc359bbcc7a65fU,
  0x3d064dc73d23fac8U, 0xbd00b7413d1b234cU, 0x3cd398283cb075b3U, 0xbd6031d6bd1ae48eU,
  0xbbd856953d2b8f23U, 0xbd27982b3d2821aeU, 0xbd14acb8bd50f1c0U, 0xbccfd6bd3bc6bd2cU,
  0x3d628be5bd2ac34aU, 0xbd44254f3c86f9f1U, 0x3d45c86fbce19576U, 0xbd2f54aebc49ba48U,
  0xbd0a52bbbd53226fU, 0xbcf149623d2d6398U, 0x3d59531d3d5a5aa6U, 0xbca8706c3d65fb22U,
  0xbd13227b3d332b2fU, 0xbd484f713d657de3U, 0x3ce0642b3c6ed769U, 0x3d51763c3d182cbbU,
  0xbc191404bd52f275U, 0xbc49dbf1baa9e692U, 0xb9b7ac4a3c030e40U, 0x3ce41455bc6ec7c6U,
  0xbcdf9178bcba5a2eU, 0x3b1b0f49bd66b89aU, 0xbcd09ebf3cad2c7dU, 0xbd43bd6dbc0694d1U,
  0xbc0668b9bd46a199U, 0xbd236da23d010c70U, 0x3c6dfbfc3cac05c4U, 0x3be479f1bc324666U,
  0xbba738cfbd18debbU, 0xbd14688fbca6fe51U, 0x3d5c63a5bd6add83U, 0x3d5984163d2557c5U,
  0x3bce2e2c3cb85eaaU, 0xbcdcdd3cbd0ee206U, 0xbc9cbbe6bd45d2b0U, 0xbae3ed253ce29871U,
  0xbd4c7cd7bc1fbecaU, 0xbd6a8005bd4c119aU, 0xbd3119c33d2c23c4U, 0xbd2a83cd3a89fe5aU,
  0x3ccf94253d78b017U, 0xbc93b748bd378541U, 0x3ccfa901bd247d63U, 0x3c9098f93c88160bU,
  0x3c8f5038bbb70f80U, 0xbb83dbecbc6edc8bU, 0x3b9223e13cd45814U, 0xbcc0fd713cd1be12U,
  0x3d376b303cfce9d2U, 0x3afa88993d10cd77U, 0xbc24fd06bd481714U, 0x3d168aaf3d16bdf4U,
  0xbd0390c63cce420bU, 0x3caf430b3c027524U, 0xbd00bf42bd188da3U, 0x3c75c19f3d29451dU,
  0x3b94ea6dbd4443b9U, 0x3b9431983bd6b0b1U, 0x3d5beb5cbd4fbdb1U, 0xbb90c3d33d6f52f4U,
  0xbd1584ecbd25b316U, 0xbd90cc45bd35954dU, 0x3cff4071bc2378b9U, 0x3c8118053cbc302fU,
  0x3a5663213d65425dU, 0x3caf9e8fbd125901U, 0xbd3b34653cf77afaU, 0x3cf934b03d2423c3U,
  0xbd1f23c83cae70eeU, 0xbc27ffb5bcac9995U, 0x3d474b77bd071da4U, 0x3b3a74aa3d3b54f5U,
  0x3d43742fba5484d1U, 0x3c2313efbcfe2febU, 0x3aac2c393c91eb26U, 0x3d4bb2693cc67247U,
  0x3bc77b0dbcef4272U, 0xbd60339fbd450e8aU, 0x3ca445433c5e1076U, 0x3c85fabdbbd6b767U,
  0xbc92345bbc126c55U, 0x3d3275433aa6cec2U, 0xbd088e70bcb58f17U, 0x3d5569743c1e2c3eU,
  0xbd777816bd1c43dbU, 0x3d185444bc0aab11U, 0x3d1abfabbc6b1a41U, 0xba639d913c802f91U,
  0xba82fe9fbd26dc24U, 0xbd51a40ebd22177aU, 0xbcd830263d2ee1a2U, 0x3d3d1f4cbc18b0c8U,
  0xbd20077a3c812776U, 0x3cfeff5a3cd4bb17U, 0x3d1700f43c6e4ccaU, 0xbcc02d403d36d9c7U,
  0xbba691e0ba254bcfU, 0xbd15a1e93c2148c1U, 0xba6739523d02a4d8U, 0x3af619e8bc7e8323U,
  0x3d2a1d843d2038b1U, 0xbacf1e323b87f450U, 0xbcc280b2bce64ba8U, 0x3d718522baa328adU,
  0xbd3517c33afe7675U, 0xbd41aa253d239b3cU, 0xbcf8e152bc5ee0feU, 0xbd3a20a33d6c4addU,
  0xbd76c56dbc3c6e46U, 0x3d3c831abc46fa43U, 0x3d53b2c33b556282U, 0xbd5db0cbbd44e8a9U,
  0xbc0e909f3d526852U, 0xbd4145efbd0eaec7U, 0xbd2ca7b33d21dbacU, 0x3cd1a9173d0f1a78U,
  0x3c8fdc42bd3d161bU, 0x3d0565a93cb140ceU, 0x3d15d3873d167061U, 0x3c62c0abbd3944fcU,
  0xbc7eabe43d0c306dU, 0x3d01d0153d4cfcf9U, 0x3bd8f9503d4b4557U, 0xbd600c04bbef6ae2U,
  0xbb72ffc03b42e413U, 0x3d6d5a6dbd02fb95U, 0xbd3e74173d077f21U, 0xbd7b1bbd3ced494eU,
  0xbc184eddbd0b437eU, 0xbb1e5c78bc725a02U, 0x3d24e5e5bb8effd1U, 0xbd2dc73839911a5fU,
  0x3ced870e3d7250f9U, 0xbc8ae8a7bbe53656U, 0xbd62722c3d130187U, 0xba2f9a6b3cd8f085U,
  0x3d050ae03bb48305U, 0xbd59aba93cb04f40U, 0xbd19e2a13c25c336U, 0xbcb4a93fbca8f898U,
  0xbd002048bd3dc722U, 0x3c6f32b0bd046e1dU, 0x3d4ba6b43cd7e53fU, 0xbcf34e793cb3ce9cU,
  0x3c8098cd3ca00dbfU, 0x3d4177553c9aa58cU, 0x3d15ad39bcaf0863U, 0xbd4185a73c1d2abcU,
  0xbc34023cbca90ee3U, 0x3b80d5e63c3e2f1bU, 0xbd85ac473d1271d3U, 0xbd610d2ebb8f1a80U,
  0x3d2ace2dbd477558U, 0x3d16019d3d883618U, 0x3d38db123d679c77U, 0x3d414aef3d4c7125U,
  0x3b3fdeecbcf3d666U, 0x3d1071663d6382c5U, 0xbc89befa3d4773fcU, 0x3c292a953bd1b4e0U,
  0xbc4418dc3c9f66f8U, 0xbca02568bcb405a8U, 0x3d3175cb3c590330U, 0x3ce56e33bd490b54U,
  0xbbfdeb153d267580U, 0xbc7b9d04bd12e58cU, 0xbc09a778bcf0336cU, 0x3d4041ec3c97b4c8U,
  0xbc813e1ebce1ce8eU, 0xbd5df12b3cc2ca9dU, 0x3d2e19ef3d285307U, 0xbd0141e6bcb548b6U,
  0xbd22f202bd2e13e2U, 0x3d2f08a3bb9f10eaU, 0xbbc54e44bd34607bU, 0x3d0e2ad2bc26d430U,
  0x3d4d77aabce08f6cU, 0x3c03c55dbd5332afU, 0xbca9f2c53d5c8f1aU, 0x3b35785dbccd9a4cU,
  0xbceb2810bd6ac368U, 0xbca796623d5319a6U, 0x3d5ac4ea3d178849U, 0xbb958a2ebd2f666dU,
  0xbcc416033d1225a4U, 0xbc41f1063d042aa4U, 0xbc32b05fbd4c5689U, 0xba0def9e3c73f4c1U,
  0x3cf66f58bcf490dbU, 0x3d17eb703d1a0054U, 0x3d491ca83d008db4U, 0x3ccfa6a0bc6dd8bcU,
  0xbd175e61bb99579dU, 0xbd211d523c39f22dU, 0xbcc74befbd319826U, 0x3cb3f87dbbeca7a5U,
  0x3d4485e73c8dc767U, 0xbc949c833b0283e8U, 0xbbecdb52bbf5e085U, 0x3d5896a5bd1a59b8U,
  0x3d19e82bbb1bcf6eU, 0x3c7fc66c3ccb3e2eU, 0xbc71ccd8bd08c79cU, 0x3ceb40fb3d023f42U,
  0x3d0f1fd03c89100fU, 0x3d3ae3eb3cd028c8U, 0x3cdd94773cf989bbU, 0xbbc1877abad4f2cbU,
  0x3d362a643be4e3e1U, 0x3cf253fabcc2695dU, 0x3cc0d2f43d2f0255U, 0xbd0025503d628400U,
  0x3d086329bc549cf4U, 0xbc5653793d92b525U, 0x3b03c9ac3d6012d7U, 0x3d4e4302bd55f354U,
  0xbce922923d18eeaeU, 0xbd871650bd48a086U, 0xbd19fbcc3c3982e3U, 0x3bdfdc7b39e74828U,
  0xbd45fd283d04e110U, 0xbd39f024bc224c6bU, 0x3c96f6d4bbb4b395U, 0xbcd266203beb432dU,
  0x3d23c4a53d2d7aebU, 0x3d8be4953dadc218U, 0x3cee24873cabd1c4U, 0x3ce84adb3d5e60bfU,
  0x3c7b87723cf25444U, 0xbd54dfdebc962f98U, 0x3d1503c73d66822cU, 0x3b11de8abd44930eU,
  0xbca1712abd36ff0fU, 0xbc2f7e58356a4000U, 0xbbf5865f3d08e1fbU, 0xbcfaa76c3cfef93dU,
  0x3b83441fbd1bb165U, 0xbc2591f7bbd4a32dU, 0x3d2e35823ce9e2e2U, 0xbd05bd033d50f1c0U,
  0xbc92eef53aa5d095U, 0xbd0c8639bb958bf8U, 0xbaf9daafbd5cfc9fU, 0x3cddfd0438bc12d9U,
  0xbd166a14bd40fd71U, 0xbc47a2fcbd077362U, 0x3cb154c83cc830b5U, 0xbce96efd3c9de970U,
  0xbd41c919bc98d36fU, 0xbd2f6959bd430d3cU, 0xbd3c00243c849fb8U, 0xbd41c44b3c3abd46U,
  0x3ce0ffbabd2831dcU, 0xbc91f6043d530520U, 0xbc9d394ebd5836b9U, 0xbc2c83863b5592f8U,
  0xbce2676dbd159365U, 0xbd174a813d2a09a5U, 0xbc9124fdbd079739U, 0x3d4915a6bd7bbc16U,
  0x3d30722f3c4ac5d8U, 0x3ce35a5b3d533ebbU, 0xbd3cf386bad2dbfbU, 0x3c83812cbcb3401fU,
  0x3beef2dc3d0229f9U, 0xbd55b3343d1b0b8bU, 0x3c0aa5f63d5b1fc3U, 0xbd10bf9a3c9e9449U,
  0x3cd6ff443d0daeaeU, 0xbc946ce1bd1306faU, 0x3a947152bcb0f7ebU, 0x3bd8d946bd2465a2U,
  0xbd376f8e3c07dd8aU, 0xbb67112c3d427d13U, 0xbd397d27bcdc29c3U, 0xbd291b483c90be9fU,
  0x3bbcf3073cba6f6dU, 0x3d29f8453d03fdabU, 0x3bf855a5bba7ccd1U, 0xbb66eee83b071cdeU,
  0x3bb2de3cbc908545U, 0x3cccf2ae3c16b165U, 0xbd0d9a95bc189f1eU, 0x3da5367f3cfee069U,
  0xbb78ef4f3d6a7099U, 0x3cb16ed73d226e49U, 0xbd4c3a60bd1813adU, 0xbd301534bcebf4acU,
  0x3bbfc5ce3c49bb08U, 0x3c9489f3ba87dc78U, 0x3bb28d313d41dbddU, 0x3d016a943d0fe745U,
  0xbc88dd68bd1536b7U, 0x3cc9c24d3d48e1b0U, 0xbd0e1f1c3b9f662bU, 0xbd4a6a8c3d375e69U,
  0xbd44ef613cf73a48U, 0x3c65d2efbceddc23U, 0xbccc97973ceefc17U, 0xbbd1e7123d2e35e1U,
  0x3d0ea0fa3d48cb60U, 0xbd65b9233cde4963U, 0x3d0a5912bd5b0d2bU, 0xbcc213ff3d317660U,
  0x3d1015103bcd45cbU, 0x3c52fe1dbc9571efU, 0xbc49f6323d09d37cU, 0x3d83b7763bb34580U,
  0xbbd516303d0678aeU, 0x3d3cccfebccaf9ddU, 0x3d4db4013c209c48U, 0x3d58e15c3acec7e1U,
  0xbd507d303c59bdeeU, 0x3c29fe10bd1d1a7bU, 0x3d170050bd67f193U, 0x3d57ff64bcaad284U,
  0xbce314dc3d131c9aU, 0xbd71ca36bce1cfcaU, 0x3c39e18b3d23075dU, 0xbd6cc31dbd85a640U,
  0xbc82b0d33d58d687U, 0x3d3949593d292bb0U, 0xbd70c58f3c9d8b05U, 0xbd3f73b5bc90e388U,
  0xbd1e5e8f3ad66925U, 0x3beecd333cb76e22U, 0xbd7d52f1bcd482e7U, 0xbd61789339411f7bU,
  0xbd5e50b73cec9c72U, 0x3d19064a3c17c3b8U, 0x3d5cd3d3bb32b815U, 0xbc2927c3bd475e32U,
  0x3b641d883cf3a019U, 0x3d3cd4a53ce3a091U, 0x3c8147833c89b84cU, 0xbc90e6d1bcc91407U,
  0x3d5b98fd3d39ae52U, 0x3d29ecdfbc21d213U, 0x3ca740c6bc29b1faU, 0x3d11ef0dbd31a67aU,
  0x3d4676863c6b1e82U, 0x3d62e1153c082ef9U, 0x3d3853983d373550U, 0x3d3d0216bd1b7f62U,
  0x3d8fc4ab3b30c8caU, 0x3cc1afe53ca71e01U, 0xbd2be9ab3ce557b6U, 0xbb0d461a3d4faf6bU,
  0x3cf81ff9bcf6db34U, 0xbdaae6e8bbf855a4U, 0x3d4c69f03c824426U, 0xbcc30633bd3ee3bcU,
  0x3d3879d5bd41f3afU, 0x3d276f17bd5d4170U, 0x3d44df7d3cdd7e08U, 0x3d22a6573c435f17U,
  0xbc8fe6a0bc6d84a9U, 0x3cf97ff5bd268244U, 0xbd2d24b6bc1944caU, 0x3d1b38ffbbb356acU,
  0x3d0fb64ebc2dc1feU, 0xbd3f49c1bba540d1U, 0x3b72f7b9bc9ac990U, 0x3d21560cbd5ac5a7U,
  0xbcb942873d1216daU, 0x3c851a8b3d39f719U, 0x3bc1e67cbcb1a995U, 0x3d2578643b0aed4cU,
  0x3c8f266ebce59363U, 0x3cd1ab023bde1e7fU, 0xbcbc133a3c0d383fU, 0x3b16a4e33d059d1bU,
  0x3c5b5ad7bc250431U, 0x3d589d34bd48176eU, 0xbcf3187fbd083b67U, 0xbcee6e873b97ece9U,
  0xbd500c47bcb439c2U, 0xbc7aa38abd1bc638U, 0x3d00d6a4397fb76bU, 0x3b65eb863ca22668U,
  0xbcd30f293d150d37U, 0xbca80fc43cc9674dU, 0xbd17e2f5bbbe4f03U, 0x3d516effbc4fd68bU,
  0xbce8ddaabccf6095U, 0xbd86006f3cb0191cU, 0x3b99648abbf830b1U, 0xbcf59ac7bd2ed7b6U,
  0xbd75922ebc63938cU, 0xbd445addbd19d19aU, 0xbc9c0742bc7432b1U, 0x3d397fe23cc2a810U,
  0xbcf0a2153d391a34U, 0xbd50be66bd438de7U, 0x3cabccbbbd13f4cbU, 0xbcd89f683c4001a4U,
  0x39ccc2963b1d612fU, 0x3d80bfeebbf6d94eU, 0xbcebc616bd11b5c7U, 0xbd25170dbc76613eU,
  0xbd1631e2bd48d6b3U, 0xbb931308bd74c987U, 0xbd032a0dbd45069bU, 0x3c995727bb401c29U,
  0x3d9b439bbcefc3b2U, 0x3d4a4cfc3c3d24e8U, 0xbce8f01b3c67578eU, 0xbd74628d3bdc3edbU,
  0xbcfea5133c60a496U, 0x3c46ad713d1a8b5dU, 0xbd20e9743c68e399U, 0xbd1bca3c3cb52cc3U,
  0x3d5fde623d0ba22aU, 0x3d6545cbbcb129cdU, 0x3c204796bcb12881U, 0xbd6a74a4bcc4b9d8U,
  0xbcf34caf3d06d892U, 0x3d0c98fbbc931761U, 0x3c4f40573c622694U, 0xbd4a6f503d270d67U,
  0xbd16a7453bf4a632U, 0xbd5a65f9bc129499U, 0x3d5229d43d36e7b5U, 0xbbf64f59bcc9fda6U,
  0xbb114c31bbbff5c3U, 0x3c734df83cf7e707U, 0x3d15ac10bd3582feU, 0xbcfce339bd438b54U,
  0x3b8b3ef23d6ab4aaU, 0xb92ac547bd0771b5U, 0x3d68a229bb89d54aU, 0xbc0ed0103a4a93f1U,
  0xbc9994233c294180U, 0xbd0fc7f83c326552U, 0xbb7604f9bd493ea9U, 0xbd0641183d1c2ebbU,
  0xbd2efe64bd17faa7U, 0x3d088ee8bc6d827eU, 0xbc8dd857bd394042U, 0xbd3245903b13cdd1U,
  0xbd47ef873d256ba5U, 0x3c7147dc3d2b13deU, 0x3d03ec7e3d4b378dU, 0xbc25aa35bc3be31cU,
  0xbd63dd34bce24f8dU, 0xbd9b73e8bcc55a4dU, 0xbc0e2218bc4336fcU, 0xbcf18d403cf83b86U,
  0x3d325984bd562017U, 0xbccb75fdbc8157dfU, 0x3d84551d3b96afbaU, 0xbc4272e3bd312bf2U,
  0x3c6e46b5bc133bf9U, 0xbc81bca63c0ac37fU, 0xbc78335b3bdf7264U, 0xbd2ca532bd2fea6aU,
  0xbcd884aa3c2b8f17U, 0x3cdbd62c3c85275dU, 0x3d0935323cb1ca9aU, 0x3c437e1abd57d42bU,
  0xbd087f033c86f7beU, 0x3cc984edbd0f4a1eU, 0x3c9df78dbd0791beU, 0x3c9c71853bfc9431U,
  0x3d34958cbd618eecU, 0x3c8950b83cda1c2cU, 0xbd035b97bc18cb1cU, 0x3c859baa3c25decaU,
  0x3d5aeb55bb9153f7U, 0xbdaa72c0ba94ad5aU, 0x3d3cab97bd1e5c72U, 0x3c776d51bd68126cU,
  0x3d115c60bd22c9d6U, 0x3cf13665bcf1f1ccU, 0x3b1052cf3d0d1c73U, 0x3d07926f3c279514U,
  0xbb0f11663c8ff139U, 0x3d6dd490bcf10082U, 0x3c9b5af6bcda5a5bU, 0xbb42098bbd4c5335U,
  0xbd1578edbcb21866U, 0x3b3359c6bc88a9b4U, 0x3bdbb53c3cc13019U, 0xbd2c10f93c37e0d7U,
  0x3c10390abd08b1feU, 0x3bee726abd3b9713U, 0xbd70ea253b226705U, 0xbd1b2d9b3d283524U,
  0xbd47333d3d41c1b6U, 0xbd3285fbbb824a6cU, 0xbd1b68173d7717c8U, 0xbd422773bd08d587U,
  0x3c00b81bbd53e828U, 0xba868354bd1e21c5U, 0xbcea7d6ebb835ca8U, 0xbcc87bbbbca1956aU,
  0x3d0f418d3c065666U, 0x3d0cf2dcbd80d5e0U, 0x3d32a7cbbd2aed5aU, 0xbd329c903cd484a5U,
  0xbd013578bd37af90U, 0xbd128c393da8ffdfU, 0xbc90ecfc3d2763a7U, 0x3d458b80bd1f0f3dU,
  0xbc9681643d0c923fU, 0xbce23e74bbb01afaU, 0xbcd444313baa3243U, 0xbc07381f3d3f7735U,
  0x3d02a54fbd34c9daU, 0xbc2312bbbc2ffe9dU, 0x3d8d618b3d50d3f0U, 0xbc4e0342bd6a9df2U,
  0xbbd1ba20bd077134U, 0x3c847d343d302954U, 0xba3695c23cf9c799U, 0x3d6800933d60dfffU,
  0xbcabcdd0bc5d219bU, 0x3da6a859bc9e54bdU, 0xbcb97e8d3d16555fU, 0xbd114680bb91cfa1U,
  0xbd4692fbbd2adf75U, 0x3d321e773b9819d4U, 0xbd33c0afbb0faa6bU, 0xbbd0685abd6a605eU,
  0xbcefb2debd4f916dU, 0x3c539c273d869cbbU, 0xbb96784bbd304464U, 0x3d4b7a24bd3bd555U,
  0xbd149a363c015290U, 0xbbc3c9813ce214ecU, 0x3ce4edde3d6ec15dU, 0x3d0752e43d546e68U,
  0x3d5bb9f03d0be630U, 0x3c8c2c583d23d9f5U, 0xbc63e8bd3d558c01U, 0xbd0f834fbc87ebf7U,
  0xbd274eb83a73e0ebU, 0x3d1ef6b73dc35608U, 0x3cdd9d6fbca34271U, 0xba3f28a03d5f9310U,
  0x3be580603d1db842U, 0xbc0e10b63d2560d9U, 0xbcd65c5cbb3ec29eU, 0x3cb76ee63d277b63U,
  0x3c099c043d3b21a8U, 0x3ccaf0253b27cbf3U, 0x3d1268273d7380c8U, 0x3c6ea4dfbd5d8294U,
  0x3bf143363b58577bU, 0xbcf7c0303d3a5df7U, 0x3b9cb3e3bd41f3f8U, 0xbc343d453d35ae13U,
  0xbc7bc5873d77b8ecU, 0xbc90884f3d1b4ed8U, 0x3c819d98bd29f53fU, 0x3d031384bd06270cU,
  0xbc27a6923d0f0d30U, 0x3c8cb532bc4fd73fU, 0xbd4ad3243d1a9db8U, 0xbad98f733cf55789U,
  0xbd7a47df3cfd82aeU, 0x3d3feef43cf3937eU, 0x3cf03a52b94fd8d6U, 0x3d1d644f3d603299U,
  0x3d5c690d3c4552f4U, 0x3cf96f2f3d2c4943U, 0xbc4ccc9abc82b90cU, 0xbc8948043b53aef2U,
  0x3cde4011bd0b5e0aU, 0x3d3a988bbc55689eU, 0x3c94aca23d04b458U, 0xbd2dc6de3cc4a55aU,
  0xbd4337a5bc81a9cbU, 0xbd72a38fbd2baa25U, 0xbcf7d6e33cb4e179U, 0x3ca738b73d44cab9U,
  0x3b7699a7bc7d0645U, 0x3d377a693b23dd4bU, 0x3d3ce6b5bbd97331U, 0xbcb5863f3c763e92U,
  0x3d0d4adebd723a47U, 0x3ca405febd0cc042U, 0xbd144fd6bb16db58U, 0x3d285b39bb0d57f5U,
  0x3c8cb65dbc3e41e7U, 0x3d1b2ba93c89c147U, 0x3d67221bbb51a26eU, 0x3d864f783d35383cU,
  0xbd7fb654bbe6ed97U, 0x3c7c7756bd66070bU, 0xbcf5840cbd0da843U, 0xbd34600b3d4caf62U,
  0xbd1f386e3d2ededcU, 0x3b392fa53c354e32U, 0x3d5b091bbc09e021U, 0xbd394587bd270ecdU,
  0xbb9160703d497772U, 0x3c97e09d3da50dbcU, 0x3ce7be513c8d7cdeU, 0xbd06bc4bbd28195fU,
  0xbc8b1d863cf46f55U, 0x3bea431dbce04c6aU, 0xbd2ae2223c462900U, 0xbd317b1a3d8a7490U,
  0xbc551b64bd51cfa6U, 0xbcd8f4c0bd3d04eeU, 0xbc90fe1f3cd102baU, 0xbd1dd494bc70576aU,
  0x3cf46d8b3cb22bc7U, 0x3c5eec4f3d1f8e69U, 0x3d76c94c3c14608bU, 0x3cbcd8593d4fe1c1U,
  0x3d4764e53c882c0bU, 0xbc3ef76dbd6781f8U, 0xbc87060c3cfba62cU, 0x3c3ad73abcf68fc4U,
  0x3d493593bc2448efU, 0xbd0d086abd049d09U, 0xbc9e367ebcc80ba2U, 0x3cca7a603c9104d6U,
  0x3d33733cbc06a649U, 0x3ca843b13c90d1c2U, 0xbd30d7573d3779bdU, 0x3ba390de3d2c48afU,
  0xb910a89abc3c5887U, 0x3ba777b4bc817845U, 0xbc6bc09dbd0e3a10U, 0x3b878f5a3d257a11U,
  0xbd099447bd220b41U, 0xbcbdd8783cb0062fU, 0x3cd1a994bd033a50U, 0x3d7aeb273d1d7262U,
  0x3d60e0f8bce8e54dU, 0x3cb40bc43cf5f132U, 0xbd3752313c85839aU, 0xbacb4c513cf4262fU,
  0x3cb900883d8105aeU, 0x3d82725bbc8dfbb1U, 0xba2488423d2b8b41U, 0xbd11a5693cd07b73U,
  0x3d166605bc0178afU, 0x3d219cf3bce22aacU, 0xbd65ffa63c895cf0U, 0xbb25a311bb298b9bU,
  0xbd2a26d3bd108c40U, 0xbd2e0d743c0ecc99U, 0x3d2ecc1ebcc58740U, 0x3c5cab08bd28ecbeU,
  0xbb68a273b97003e7U, 0x3b760d39bc294223U, 0x3aa3b115bd5d06a1U, 0xbbd43f3d3d2873d0U,
  0x3c6b3b0dbb764e09U, 0x3d49d642bd552e43U, 0xbd6083343cca0184U, 0x3c04b54bbd41edc4U,
  0xbc3f584bbd156bdbU, 0x3ce2727a3b98f39eU, 0xbb90a6703bdb3611U, 0x3ad2fcc6bc2de762U,
  0xbbd0e789bc3c7276U, 0xbc0068d4bc9ce114U, 0x3bcc845fbc7d21a8U, 0x3d08fe8ebb9e11a5U,
  0x3b4300e0bd26562cU, 0xbbc1caefbd214d96U, 0x3ca99d51bbd1f2acU, 0xbd3b5230bd2f6ea6U,
  0xbd54d7223cdebe21U, 0x3c72b0df3d26d1f1U, 0x3aa82557bb8bb2beU, 0xbb864278bcb76493U,
  0x3c944d163c9dbb83U, 0xbd8c84b13d5dc23aU, 0x3c452756bc4fbf11U, 0xbc79c71c3d1eca53U,
  0xbd3d8b353b028d5aU, 0x3d7055ab3d20725eU, 0x3cea39c7bcc428d1U, 0xbd3c19453d49e4f8U,
  0x3cf8d4013a1114f7U, 0xbcf89592bbfb5acaU, 0x3ba150edbb28dccfU, 0xbd394c7ebd16c1e4U,
  0xbb9c740b3d3dbee7U, 0x3c5836b53b89f462U, 0x3d5e5e103d3d8f4eU, 0xbd44e2f33d49e9aaU,
  0x3c4c781a3b83c191U, 0xbcbc9fc33d3fbc85U, 0xbc11eb16bcfea760U, 0x3d3ddbeebd2acd88U,
  0xbd2ef4923d59c47bU, 0x3c8e34a8bd841cafU, 0x3d1bdff3bcc4c410U, 0x3d22101ebc9b2adbU,
  0x3c8b5504bc5c3357U, 0x3d2f18c3bd2cd38aU, 0xbbf76c3fbcb4ad1fU, 0x3cb8d9d0bce8204aU,
  0xbd3f559ebbea5d70U, 0xbcd609fdbd229260U, 0xbd15e97fbc0a6319U, 0xbd06bdc4bc547b73U,
  0xbc745ef23b621083U, 0xbd73e7343d5e0908U, 0xbd2835933ae25ceaU, 0xbc387100bd541eb8U,
  0xbd4e86cebc4d5828U, 0xbd602107bd1a1376U, 0x3ccb7275baef5775U, 0xbd5bcb233cddae48U,
  0xbcfca20dbb27d823U, 0x3d4510473d6f01e4U, 0xbd65b23fbb847e17U, 0xbcf2434f3a18e90eU,
  0xbc8469dabd209d3dU, 0x3d119f433c97ba45U, 0x3c9b624d3cd6a325U, 0x3d7546d43cf1073bU,
  0x3d199c813c89d85bU, 0x3c59b3273d3ac736U, 0xbd6027473d68b2b6U, 0xbc1157ce3d0d4e25U,
  0x3d010b603d6e501fU, 0x3d71d84d3c301206U, 0xbb2afcae3cb30559U, 0xbcb5303bbd198cdaU,
  0x3d42e018bcc07230U, 0x3d303d9dbce43411U, 0xbb70b185bd69be50U, 0x3cb11d17bcd48ff6U,
  0xbd4d9a1bbccefd86U, 0xbd5d7d843c2c4735U, 0x3d2665ff3d2ef345U, 0xbc84e14e3cb2ee5cU,
  0x3c66716b3d61caedU, 0xbd1ed4623d0024dcU, 0x3ca6a9fc3d11df2eU, 0x3d3cbb753d5f2d42U,
  0x3abaa28e3cdae180U, 0x3d61f34ebd05c92fU, 0x3cea86bcbd2d4518U, 0xbd7d952fbcc74484U,
  0x3c36935c3c0167d5U, 0xbd260f1c3bec920aU, 0xbd4ae7c5bcc5cf6cU, 0xbc1a26003ce59007U,
  0xbd6956a43c1824b2U, 0x3d4821013d088228U, 0x3d4337603c29ce5cU, 0x3d81f239bcd41e2dU,
  0x3d097ea8bd16760fU, 0xbd1978ae3d00948bU, 0xbd0863003c60d9b8U, 0x3c557046bd6ba837U,
  0xbd345c223cf5417eU, 0xbc1880013c33d7a4U, 0xb98edfd0bd67a29aU, 0xbce0e2993c00fccdU,
  0xbc67479e3cdee908U, 0x3c6fc3c6bbf68f6cU, 0xbd2f8aaa3d5210a3U, 0x3cb3667cbbb21f42U,
  0x3c95427d3c040859U, 0xbd047c3c3d93438eU, 0x3d2e95cd3ca7f348U, 0x3d5d4ef13d300eecU,
  0x3d0bcc6f3d5c90aaU, 0x3c0914dd3cf88c64U, 0x3d0e8de03d5d9b01U, 0xbc3ba9fcbd0cddccU,
  0x3cf640f43d1e837fU, 0x3d087a193d13a5cfU, 0xbcd16a25bcb6f8acU, 0xbd0c732cbcdea9acU,
  0x3b30c0e1bd0df159U, 0xbd55ab563d6dd396U, 0xbd13827ebc80e238U, 0x3c52b8dcbc4a56c5U,
  0xbc6fce3f3d2fe237U, 0x3d3d15c43d4bf21eU, 0x3bbe8491bc628ce3U, 0xbd5a4e72bbd86c8bU,
  0x3bf396523d4bae06U, 0xbd0e3e93bd5d6988U, 0x3be9e15e3d350938U, 0xbcf05cc8bd480cfdU,
  0x3bc43f7e3cb95635U, 0xbd284200bd7a79ccU, 0x3d29ad6dbc77f7e0U, 0x3b1039483d2ecf68U,
  0xbd7249a23d550675U, 0xbba489aebc0b3ed4U, 0xbd50e1fa3cc7b605U, 0xbd37f2cc3cb5ca03U,
  0xbd015ce53d066a51U, 0x3d45a4bababd45e2U, 0x3bef1710bcec6a2fU, 0xbd0065ebbc71e722U,
  0x3cf30aa7bc0df44fU, 0xbd52c62fbd801c47U, 0xb98e43ee3d6a16eeU, 0xbce8e35c3ccab3a6U,
  0x3c1436f93c944cdaU, 0xbc5450d5bd14dc33U, 0x3cf34ecb3d6c3d9cU, 0x3b507fadbd6ae16aU,
  0x3cd21a423bd095bfU, 0x3d2fa7fe3c1a2737U, 0x3c85c4fd3c5cba9dU, 0x3d6ee0b43d5d1781U,
  0xbcb404923d16f1c3U, 0xbd81b3f8bd17ae78U, 0xbbb9ecd43d29d5fcU, 0x3cc6fa04bd5fc3f4U,
  0xbc9c553fbd26b07bU, 0xbadece9b39b3ee01U, 0xbc9487783cf8f7ebU, 0xbaf4d4673d531b17U,
  0x3d5abc9bbd2fe3c7U, 0xbd0f8fa4bd0c501aU, 0x3bb17af0bcd7a564U, 0x3d29eb39bc87efa6U,
  0xbb6ec808bc832376U, 0x3cc228283d1a4d80U, 0xbd049073bb86a99fU, 0x3c9831b13c8b5c6fU,
  0x3d2931443d2c6efcU, 0x3d2be98bbcb63f41U, 0xbd5815943d51aed0U, 0x3c8710c6bb1f662aU,
  0xbd20d013bd11247fU, 0x3a5a95f93d17bbf3U, 0xba5b8476bcd91c3dU, 0x3d104f253d23b845U,
  0xbd14a1c3bd01e197U, 0x3d6677dbbc80d119U, 0xbd4d2366bd261602U, 0xbd7da24f3b40c95bU,
  0x3d57b059bc43b528U, 0x3c263770bd53f5daU, 0x3c0a5b083d01e881U, 0x3c7f11343c9bf2b0U,
  0x3c6627393c63080aU, 0x3d21ceabbd8c97eaU, 0x3c2b64afbc6f9aefU, 0x3c890916bd55873dU,
  0xbd89e1703c3eddb8U, 0x3c845e82bd8550fdU, 0x3c18120fbce2c66eU, 0x3d2d5e0f3d504170U,
  0xbc67819b3caadcf3U, 0xbd35799c3cafcccfU, 0x3ce1a888bcd6ff64U, 0xbd59c2603c01bbccU,
  0x3ca2adeabcc531c6U, 0x3c6c8a513a9b74f6U, 0x3d54df573d6c378fU, 0x3d19482cbc5684bdU,
  0x3cdbad8b3d53f791U, 0xbc0eb1d23d651e25U, 0xbceef9113d6fe520U, 0x3d700540bb44acecU,
  0xbbba82aebcafbbc1U, 0xbd0605983cbb224eU, 0xbc1c3072bc372b90U, 0xbc40326cbcc041bfU,
  0xbd31a9bbbc31013fU, 0x3d65e5353c12284bU, 0xbd4fcd9fbc72b2a4U, 0xbc1335f33c0e45b3U,
  0x3d19529cbc50cadeU, 0x3d0eea14bd9000e4U, 0x3d19a1cc3c644be3U, 0x3ae3ab013d26f5e7U,
  0x3d18cc6d3bd3f927U, 0xbd4731e8bd677605U, 0x3d96e8debc69484dU, 0xbcce8f563d90f936U,
  0x3cdeb94dbcb787d2U, 0xbcc844b6bd0ea1c6U, 0xbcfce00b3caa459eU, 0x3d8899e3bc7e6637U,
  0xbd409d423cf66a0bU, 0xbc4b10edbcff8fd7U, 0x3c1d91913c375e8aU, 0x3d849d02bcfbfa08U,
  0x3cceda3a3d13f044U, 0x3bdf3fb53b5b1277U, 0xbc68c617bd2b364fU, 0xbbd24c78bb274a28U,
  0x3d13ac10bd5650a8U, 0x3ca212e93c742ac9U, 0xbd0d2b353d00e5bfU, 0x3c9648633bef13f6U,
  0xbcefbc65bcb0853eU, 0x3b9ce936bca36fc5U, 0xbd317a2f3c1f638fU, 0x3a90215cbc61c6abU,
  0xbc5efc0bbcbb4eefU, 0xbd4b8329bcea0d6aU, 0x3d141e403d126172U, 0xbc4dc5013d4f7af4U,
  0xbcc706bbbd389dedU, 0x3c56b5703d30ae88U, 0xbb7fbf22bd116e8bU, 0x3d2979f9bd651472U,
  0x3cef4152bd0afba5U, 0xbc829aedbc9e1a78U, 0x3cff329fbd21b626U, 0xbd397fe0bc5ee694U,
  0xbc4849243ac67c38U, 0xbc6f3876bb67cfc4U, 0xbc98c0a5bd65ff72U, 0x3ce5190dbc3b8022U,
  0xbcaae2c13b023059U, 0x3a7c0bca3d488a1bU, 0x3d186296bd03287fU, 0x3d2f972dbcec2f01U,
  0xbd0cf6c6bca5c78fU, 0x3d5dceb7bd1dba8aU, 0xbcfec4e63d303aecU, 0x3d40a0163d40e52eU,
  0xbd94a6903c1e7f0eU, 0x3be59377bd064550U, 0xbc161f60bc8cf4b1U, 0x3c982af5bd71af19U,
  0x3d334919bd0b95bfU, 0x3cc11215bd1201bfU, 0x3c8c8d123c694336U, 0xbcab4846b9d6ee9cU,
  0xb9320b62bc834fd0U, 0x3d51fe923c4eaad7U, 0xbcb5d9babd34c1d3U, 0xbc0d6bf4bd0da04dU,
  0x3d38c5efbd50e8e5U, 0x3cb12753bd3e651bU, 0x3d54b02a3d2daa7dU, 0xbbe00b173d5c477bU,
  0x3d3d22e93cfd202bU, 0xbd69c072bcd81401U, 0xbcbdc0ffbc27eac4U, 0x3d9b6a133d0b1a7dU,
  0x3d0538ca3d74dcf5U, 0x3c0a3cd03d82cfd1U, 0x3c1c1a373d3c1a8fU, 0x3c835cb43d401ae7U,
  0x3c9e7c3a3ceeb7f5U, 0xbd2367dc3894f436U, 0xbbabb470bbbcb772U, 0x3b8dde7a3d738a18U,
  0xbd0591603cca9433U, 0x3d46440a3bf4ca0eU, 0xbd2e826ebd5daf09U, 0xbd1049edbc8909b7U,
  0xbb18130b3cbc532aU, 0xbd2dee1fbd3c8017U, 0xbd2e179d3bd674e2U, 0x3cfde223bd3777f1U,
  0x3d18a6a83d4f4a1dU, 0xbd62d1653bfb2398U, 0x3d3e6fae3d1e702dU, 0xbcda23ccbd51e8d7U,
  0x3b9c70eabcf0bf44U, 0x3d03bd8cbd0d4246U, 0x3cf5a8a6bd53ddceU, 0x3cce43e23d2e1d7dU,
  0xbcfa3e8dbd226f6bU, 0xbd1a016d3d38c370U, 0xbc900d8d3d11e066U, 0xbbe5bb75bd47528bU,
  0xbd1b654d3c8f7530U, 0xbc843d86bc921c53U, 0x398c56523cf1a071U, 0xbc28a81d3d4a709eU,
  0x3d059932bc24ccd3U, 0xbcdae7e33d623dc5U, 0x3c90442537b63bc9U, 0x3d985e9a3bb9ebfdU,
  0xbc911f55bcea64b8U, 0x3caeb22d39aaf0dfU, 0x3d8948513cfc0e9dU, 0x3d29f2513d047a7bU,
  0xbd2e8659bd6d374bU, 0x3d54b6513c962089U, 0xbd0e1f7b3caffb41U, 0xbd69b41ebd6b7a1fU,
  0xbbd077edbce7f133U, 0x3c8e62dcbccc7f3bU, 0xbcf1446c3d344174U, 0xbc73a0a73c85a7e7U,
  0x3d53da72bd672b1eU, 0x3b9b8342bce5a916U, 0x3d2aafd2bca11572U, 0xbd2379e53d5bb405U,
  0xba4c2bcc3d149a61U, 0x3c65d3d5bd6aff10U, 0x3c9059b83cdd1383U, 0xbd685f1b3cd2d998U,
  0xbd213bd63b52d608U, 0x3cd79c9e3caa9572U, 0xbbdf8500bc90105aU, 0x3d8cff553cfd8c93U,
  0xbd6576c13b484a8eU, 0x3c9fcdbf3d38f369U, 0x3cf750e63d0b5ea8U, 0xbbe3ca113cdee64dU,
  0x3d3c73893d0b58baU, 0xbd2f0663bc579badU, 0x3cdbcac7bcbb6687U, 0x3cd94ebbbc108dd3U,
  0x3c9f7411bc122f0bU, 0x3cd98bab3d39b4d2U, 0xbcaf72c93c402325U, 0xbcd42b6d3d1e304aU,
  0xbc09a050bc8b20abU, 0x3c4042d63b20ab8fU, 0xbd5a01e73c49b505U, 0x3c5b58a63c570dd0U,
  0xbd51942cbb55fefbU, 0xbd5139c33c7f2a47U, 0x3d39896e3bf0941aU, 0x3bc932783c1e4288U,
  0xbd64f6713cb3fc5bU, 0x3b93db11bd35f692U, 0x3d7e38703c7647c4U, 0x3d4905fbbd44656cU,
  0xbd1138e4bd295d3aU, 0xbcbef3e1bc9fed47U, 0xbd27c00fbba471daU, 0x3d8b0122bd0f7d64U,
  0xbd68f09b3d251cfdU, 0x3bb7e7a43beec2e8U, 0xbd0996c23d248932U, 0x3d14635c3ac375ddU,
  0x3c6ab13dba0d8eb5U, 0x3d195d04bd17b254U, 0xbb035ab13c6b2104U, 0x3d2288283d0ecb29U,
  0xbd5919f5bd617c90U, 0x3d37daa53cc60059U, 0x3c1c7638bd1441d5U, 0x3c7b3560bca1dd13U,
  0xbd70f8d33bd9da3cU, 0xbcea60bbbd44ee38U, 0xbb8962bf3cf9377eU, 0x3cf70e24bcd7d9e6U,
  0xbcd1435a3d6b88dcU, 0x3d4116973cc4947bU, 0x3d20de67bc1a3607U, 0x3d83afb9bd12bf16U,
  0x3d65ccc03d20ca0aU, 0x3b651d7b3d36a47bU, 0xbcee2bf6bbdf6f07U, 0x3b698ad53d634cf9U,
  0x3c5c0cf93c8cdb8cU, 0xbd65eb7cbd114bc2U, 0xbd1b460c3cdcb9cdU, 0x3c13c9f63b0eacf9U,
  0xbd0ded55bc62cd9fU, 0x3d227b463ca687dbU, 0xbb1363af3d5d7ee0U, 0x3cac73223c82ae87U,
  0xbc35d43dbcf2c479U, 0xbc02094bbc93cbf8U, 0x3d3b8818bd05ece4U, 0x3d236a45bd5e82c8U,
  0x3c98b6e83d1e339cU, 0xbd22abbdbc8b0afaU, 0x3d38380bbd0d06e1U, 0xbd36d49f3d74df98U,
  0x3d02c6d53bb49e98U, 0xbc0c22fabd146564U, 0xbd0655b7bc5f446fU, 0x3bc9bd853cca2496U,
  0xbc4baecc3d2dcb56U, 0x3a27af78bd1d4799U, 0x3d79a8cf3c03f583U, 0x3d1968af3b4ec4a0U,
  0xbc9a93df3d02e729U, 0xbc2931dfbc2a1098U, 0x3d24afd9bd1a624bU, 0x3c9af0f83d462160U,
  0xbc3fd42fbc9152b8U, 0xbd1e76c53bcccbbaU, 0x3a9f36e13ccd2906U, 0x3d6b202ebd13a4dcU,
  0xbcdc7df4bd65d943U, 0x3d378ca0bd460cbdU, 0xbbd3f5afbd134db9U, 0x3c8dbf8dbca9a3d5U,
  0xbd94ebf53d366a60U, 0x3c700ea73cde3a7cU, 0x3c438e65bc3e89bcU, 0x3d421c913d1cf843U,
  0x3d0634ebbd139a5cU, 0x3c3059bdba905132U, 0xbcdf2d3abd68c03eU, 0x3d9645ae3aed061fU,
  0x3ba48700bc87b74bU, 0x3d4b81a93c1fe20bU, 0x3d2cd71fbd070b73U, 0x3cf6f3203c11aa6eU,
  0xbd86a952bca04260U, 0x3da44a60bcaefad1U, 0xbd53300d3d805a61U, 0x3bb7372a3cbd9677U,
  0x3c4e9e1cbd4b1152U, 0x3cd3c8e2bcbf7375U, 0xbcadaf11bca5ee84U, 0xbc3bd43c3c2ebc80U,
  0xbc94afebbd23db70U, 0xbc2758a93c9d6e11U, 0xbbb69e193d363ea6U, 0xbd3ad372bc0bec40U,
  0xbc1b1f613ad341bfU, 0x3cc4ee323d24df86U, 0x3d5d4d41bd3a3911U, 0x3d1e66173bd756aeU,
  0x3d485dccbd13e439U, 0xbc5cc080bce8fdf1U, 0x3d44c9273c51e8f9U, 0xbcfc04833d458b7dU,
  0xbd955ea3bd2caba9U, 0x3bfa13673d09ae45U, 0xbba3a4363d5d69d8U, 0xbd20ea4c3d06afaeU,
  0x3c6f6e6fbd1f6f8cU, 0x3c8fedfabc1bc8ecU, 0x3d45569a3ca32a49U, 0x3cfac6bfbd6c1c04U,
  0xbd1683443d682f68U, 0x3d238f7a3c4c5636U, 0x3cc46fa93d50416dU, 0x3cdbf6d5bd13db65U,
  0xbc651fd8bd51d28cU, 0xbd37fabfbccb5384U, 0x3d654840bd34ce42U, 0x3d1a592ebd70b856U,
  0xbc48497a3cf397cbU, 0x3d9038793d16aacbU, 0x3d114f343cd38bb4U, 0x3c6143f23d147f08U,
  0x3d0cc0febd0649c6U, 0x3cabada03d2e85bdU, 0xbc5c7a7bbd04e6a9U, 0x3d24310b3ca4994bU,
  0xbc8948113c49934cU, 0xbc7a820f3d1fd95bU, 0x3d170cdbbd6498f4U, 0x3d1ad026bccd9886U,
  0x3d235f6bbd249f6aU, 0xbd10aa4b3d0afedaU, 0xbd14dd373d4f9a66U, 0x3d1199843c8a28bdU,
  0xbc451a323d45f754U, 0x39670aacbc87a177U, 0x3d61a40bbd1e5c64U, 0x3d8750c2bd594be6U,
  0x3cc1dfc03d63a213U, 0xbd8298a73d0c7caaU, 0xbd495f5e3c5e09a5U, 0x3d7775efbba24420U,
  0xbbb3f4143d09c8a6U, 0x3a907a48bd4801c2U, 0x3d07a2593cb3f013U, 0x3c8333933c4eee21U,
  0xbd469683bd1ab185U, 0xbca5b9fc3c1b4ce7U, 0xbd05118a3d404830U, 0x3cf9a6f23d6637b2U,
  0xbd179be93c34f7f4U, 0xbc89f1fabda3cdd5U, 0xbc99e595bd79c088U, 0x3c86270ebcdb42edU,
  0xbd81464a3d166d68U, 0x3ac6d992bd5e3ab0U, 0xbd33f91a39cdc766U, 0xbc862bd03baf0263U,
  0xbb981ce1bcf9ebcbU, 0x3d0281923d41d27cU, 0xbd1dfafd3cee4ccfU, 0x3c8d6309bb1276d9U,
  0x3c8fbca03bc9cf3cU, 0x3cc320ee3d189bb6U, 0xbd229cf13d547fe9U, 0x3d692f2cbcf060daU,
  0xbcd1f9463c3f40a2U, 0x3c9456dd3d219c28U, 0x3c648902bd113132U, 0xbd05a26e3cdfe0b4U,
  0x3ca883473d53f6f8U, 0xbbf8188b3d3a4c63U, 0xbcac4c78bb28aec5U, 0x3d0842513cc0b5c7U,
  0x3c9e80afbd276269U, 0xbc5c01a7bdaa90c9U, 0xbd00abde3cfdacb6U, 0x3c4fbeccbcd144e2U,
  0xbd7f24bdbc538d26U, 0x3d5920563d14feecU, 0xbc68adf13c8aae84U, 0x3d0fe040bc5e115fU,
  0x3d3e8a453b011405U, 0x3d624fd3bbef8234U, 0x3cc560773d1792bfU, 0x3af937b8bd2dc9ceU,
  0xbd09cb22bcc17bbeU, 0xbc6327113d3078d8U, 0xbced68163d49101bU, 0x3d16e9c6bca6ebfbU,
  0x3cd9d7753cd80e19U, 0xbd4b7ba8bcfe2b09U, 0xbd3a5a913d1f9642U, 0x3d20ded0bbb6b128U,
  0xbb0b4b04bc8b0e42U, 0xbd486ef4bd51df2cU, 0xbc3625303c6793a3U, 0x3d74c0cfbcdc3eacU,
  0x3a9ff48e3b39f1bbU, 0xbd61c92d3cd89a6dU, 0xbc8ecdaa3d46abefU, 0xbd4e756cbd3a44c9U,
  0xbc437ac63d24218fU, 0x3d45aab3bd5fbaf2U, 0xbc3b0f343d45d385U, 0xbc0dbb5abd3d77f7U,
  0xbc994e853c1edd16U, 0x3cb63079bd3f77e0U, 0xbd28d3093d1db214U, 0xbd85e48d3ce44da8U,
  0x3c762468bd3cbd30U, 0x3d70c678bd0ad949U, 0xbd4fc69bbd4548bbU, 0xbd0d9bb03c4c1569U,
  0x3d2cbba6bd1ae09aU, 0x3d1e47febd52b926U, 0xbd5d40043b2b2a6eU, 0x3d3c42f83d22c7c1U,
  0xbc1cad26bd540c64U, 0xbb5a0b3dbcaddb14U, 0xbd51cb0dbbdfbcaeU, 0xbd389fc0bd0e4701U,
  0x3bb7b7193bc85a35U, 0xbd8fc690bc879399U, 0x3bc7c8373c9b8554U, 0x3cb8eb453d3fc0ceU,
  0xbcc073c93cd57191U, 0xbd119500bc7e2fc2U, 0x3d2daf9dbc4fe98eU, 0xbc5abc743c9ff59eU,
  0x3c9d80e03d08acb1U, 0xbd369d4b3cd24f38U, 0x3d2b0d5a3cb4cb68U, 0xbb06090ebd59a690U,
  0x3c8d96c23d147225U, 0x3c89d684bc2d5fa9U, 0xbccb233dbd157eecU, 0x3d6448ecbd119a99U,
  0x3cfb36c13c8ad224U, 0x3bcb43ad3d1080c5U, 0x3ce5e06ebd548721U, 0xbcd97aaabbdba547U,
  0x3bdd2a7a3a5bb1beU, 0x3b96d36fbca26742U, 0x3d1ab538bd52e740U, 0x3c91521cbd4ee0bcU,
  0x3d0ac2ae3aae6798U, 0xbcc736563d426ecfU, 0xbd9006dfbb6aa342U, 0x3d3d1d9a3cae67d1U,
  0xbd4abbd83c94e0aaU, 0xbd656c37bd101be9U, 0xbcf2375bbd626feeU, 0xbc2be132bcdd065bU,
  0x3d4a58d8bc85573dU, 0xbd181d873c7ecfd7U, 0xbca778a73bd9e3c9U, 0x3d3d3db4bd5c6c7bU,
  0x3cd38e19bd030812U, 0xbacaeff63d0877caU, 0xbd4a9d9abd15e619U, 0xbd12c0653caa7b02U,
  0x3d2844eebccde70cU, 0x3d012853bce8ba13U, 0x3c306d333c2204b4U, 0x3c1a674b3baf719dU,
  0x3c5a607a3ce9b8adU, 0xbcd555dabcb16de4U, 0xbcb78611bc83bc99U, 0xbbbc34fd3c644d44U,
  0xbc29c3f63c86e38cU, 0x3d61f6c8bd142fd9U, 0x3c89188abcb0b3d6U, 0xbcad23cbbd66c600U,
  0x3c6313603cb8c4d0U, 0xbd63d3afbd0cbda8U, 0x3cd69b74baab87bcU, 0xbd211a193d50a408U,
  0xbb4a24993b6566d2U, 0xbd50172abd553e47U, 0xbd08f17c3c9bbe71U, 0x3c9e7ad13d0cbc1fU,
  0xbca4968c3d39ea19U, 0x3c90f4a3bc3c3719U, 0x3d2cd216bd0c62b0U, 0x3c013a15bc78d92bU,
  0x3c5ad8f3bce4ca7dU, 0xbd0d96903d340d46U, 0xbd26df413cf2029bU, 0xbcd77b67bcade672U,
  0xbbb70648bc0b844dU, 0x3d5340823d540779U, 0xbd427ffebcdb702aU, 0xbc8487c0bd32acdeU,
  0x3ce30d48bd09caebU, 0xbcdba80bbd093d8dU, 0x3c185e18bd190276U, 0x3d0ee2cebc820637U,
  0x3cfc92e03cce0ed6U, 0x3d0b937e3ccae0f1U, 0xbbc71a203d7158d9U, 0xbd176e313b79a12aU,
  0xbd29365cbc64e634U, 0xbae7008d3c0e0421U, 0xbd326418bd35be31U, 0x3d3b0829bd6a21aeU,
  0x3cac9f00bbefe7c0U, 0xbd364d94bceb8085U, 0x3cc80f81bcaba3ddU, 0xbd2f3fdcbb4a1f14U,
  0x3cc431ffbcf11e32U, 0x3d06826d3d591243U, 0x3d0b1640bd0e8877U, 0x3d03b5b0bcf79011U,
  0xbd621c233d4c0effU, 0x3ce147cb3d219f8fU, 0x3c0d1618bd23a826U, 0x3d03608fbd2405d4U,
  0x3d555713bd57528bU, 0xbd1ddaf53d2e4fbcU, 0xbb36e69bbcae3767U, 0xbcbc322fbd63151bU,
  0x3c0983653c87c885U, 0xbce0a269bcf0eaf1U, 0xbd121845bd5dc757U, 0x3c264dd83ca7a5beU,
  0xbcc6ba1fbc94f948U, 0xbcad3fbf3c9bf078U, 0x3d1c96aebcf541cfU, 0xbcc9a25abca81266U,
  0xbbfc3a8bbb932b1dU, 0x3bf0dc91bce7d1caU, 0x3d25b79abd348ca4U, 0x3d5f5b283cb57c18U,
  0x3d1866d23c00691eU, 0xbd7baef83d6a516aU, 0xbc5387803d174815U, 0xbd3b97613d1d9d95U,
  0x3d14a2e8bb1bcc03U, 0xbd2579403d57ba90U, 0xbba6727a3af1262fU, 0xbc3c3ce1bd3ca4f1U,
  0xbcc6694cbcd99019U, 0xbd728370bc72f6a0U, 0x3d782aefbd0dde6eU, 0x3d093c68bd4cd435U,
  0xbd7515b0bd035e25U, 0x3c9b48a33d039623U, 0x3cd6abce3b98c87bU, 0x3d5aaecfbcd9968dU,
  0x3d14a26f3d246eb0U, 0xbd4edd42bcaaf34cU, 0x3b7f48c43d1979a2U, 0xbd6a3cc5bca47739U,
  0xbcede978bc491705U, 0xbd0744ebbd2b6856U, 0x3d025029bd1fe71cU, 0x3d08d6a2bca9ddb7U,
  0xbc8c20383cf8f1d1U, 0x3da05d7dbd333896U, 0x3d01ca573b1f2dcdU, 0x3d48ed46bd137a11U,
  0x3b04f2c5bd2ed23bU, 0x3d59c88c3ad8334fU, 0x3d4e721b3c9b6062U, 0x399c056e3bc21ad9U,
  0x3d539d43bc3cfc96U, 0x3d0919debbf62f45U, 0xbd1ca8e6bd788d2fU, 0xbc96a5973cb72612U,
  0x3d5604743cc4848fU, 0xbbd8ad30bccef9d9U, 0xbca11fef3cb8e95eU, 0x3c34620c3cd1c95aU,
  0x3b404b75bd42b24fU, 0x3c46dc04bcd142a8U, 0xbcb7ede03c304bc3U, 0x3bdf99d63d11c6c6U,
  0x3c2985d8bd69b1a9U, 0xbd27bf6b3cd2c113U, 0x3d292db33c8770a5U, 0x3cf93cfbbbb2c967U,
  0x3b960d0b3d146c52U, 0x3c2c522d3d24e19dU, 0x3cc5de683d498e1bU, 0xbbcf17b9bd4e27f0U,
  0x39d663b8bd1acd09U, 0xbcf319813d0af0c2U, 0xbd73a6db3d00761cU, 0xbd056ad23b85fd48U,
  0x3d4c59953d2c9d13U, 0x3d86e0d4bd692422U, 0x3cb52bba3d27194dU, 0xbcb61a023ce3e170U,
  0xbd1152613d0d81f1U, 0x3c2201333c46ee36U, 0x3d1da9353a280c60U, 0xbd6fcbbd3c2e4e16U,
  0xbcc98d623d17499eU, 0x39728cb93c6e75fbU, 0xbd55c831bce368a5U, 0xbd12fbdcbc60c9e4U,
  0xbc9990b0bd13e0bbU, 0x3d24817d3d7f81f8U, 0xbd2e147abcd33a63U, 0x3d0273b6bd5ad814U,
  0x3c7598d2bc3ad1d1U, 0xbc6382a83be70b4aU, 0xbd08ccbd3d2d22e7U, 0xbd2401c63cce8837U,
  0x3d114e9a3d2e93f4U, 0x3d39cbe6bc7d537aU, 0x3c1707433d4a4535U, 0x3d662b133b925111U,
  0xbd4d917b3d1d2c0cU, 0xbd62ffd8bb4f0cafU, 0xbd2a6da4bb864ecfU, 0xbd05ff343c226ad9U,
  0x3cda9b0bbd14fa6fU, 0xbdad576a3c281504U, 0xbc1069c73d60ad37U, 0x3cccf03abd04654bU,
  0xbc9c3151bcceabcaU, 0xbd466e0fbbdcbd2dU, 0x3d76a7b13d4680feU, 0xbc6d6e83bcf6b6afU,
  0xbcc6b29fbd5adeccU, 0x3ccf05b13d2fb30fU, 0x3d3968d9bbec78dfU, 0x3d9a8798bc326e04U,
  0x3d47691bbbbd86a3U, 0x3cde35acbd338204U, 0x3cf19da13d69baa6U, 0xbb3be4d93d0eaed8U,
  0xb9f06bf23ace23e7U, 0x3cbf3c1f3c708619U, 0x3cc035e4ba5f2d5fU, 0xbd001df93c278f9aU,
  0x3d1e46233c26ec39U, 0xbb1542dbbd35aa48U, 0x3be055933d422806U, 0xbc49a9ee3d8549a0U,
  0x3d6c04d03cf14889U, 0xbd33020f3ca94193U, 0x3ccd8b573cd8539cU, 0xbc288f323d4fb333U,
  0x3c851104bb8b134eU, 0x3d1dbe48bd6c010aU, 0xbc39d733bbbc1664U, 0x3dba23bbbc2ed2f0U,
  0xbd1ca2003d04fb90U, 0x3d67d0d8bd1f3613U, 0xbba9fde53d03d4a5U, 0xbd143edfbc535068U,
  0x3d2540b0bcadfd57U, 0xbcfe559e3d0b2bdaU, 0xbd457312bd24dea7U, 0xbd12f547bd3b8cabU,
  0x3d37f23b3d2fc1a8U, 0x3d2f1261bd6d4197U, 0x3bded4b63ce337efU, 0xbd2111f0bd2b9f9eU,
  0xbc76399dbd6556baU, 0xbcab827f3dbe0b13U, 0xbd232a0dbcb7eb86U, 0x3d191c633d545b32U,
  0x3d2a5e83bbbe6b63U, 0x3d474f893d604374U, 0xbd9d33d13c93a376U, 0xbd3c3fab3d6a9ddaU,
  0xba618f633cefbfb6U, 0x3d1e258c3cbda5a2U, 0x3d0a58e73d222dfdU, 0xbcca31173cb9dea8U,
  0x3c21023dbc853549U, 0xbd557cf8bb54c05cU, 0xbd07ffe0bc604373U, 0xbcf01198bb84c970U,
  0xbcb3d4003d47ab53U, 0xbd89b2633d07dfb3U, 0x3c8c672cbd2924e8U, 0xbd3849d6bd59d0b2U,
  0xbbf465173d11c21cU, 0x3babe592bb522554U, 0x3d36c3233ccfcc5cU, 0xbb71db17bd0cddd9U,
  0x3ae8bc2bbd252252U, 0x3d809536bc3c50b6U, 0x3ca236d2bc514606U, 0x3c784709bd0f96ceU,
  0x3c8fcf563bb0e571U, 0x3ae2da5e3c6200bfU, 0xbc6bc0a43d26b228U, 0xbd3319a83d5f4137U,
  0x3d18da643d583024U, 0xbc9e62ccbd3faed7U, 0xbc702c413b31ae1aU, 0xbd1f83e53c210ae3U,
  0x3bbb21b8bc131a53U, 0xbb9a12a8bcc358c0U, 0x3d259046bbf71385U, 0xbcb1c7b5bcefaf09U,
  0x3d84cae5bbf5de75U, 0x3d3fee483a538275U, 0xbc32ba523d0d01aeU, 0x3bf663f43cbb54e2U,
  0xbd44eed03cfdb0b2U, 0xbd01ce733c9ee39bU, 0xbd443af33d3e58c9U, 0x3cb4e6393c9f4129U,
  0x3d2111213d0c25a3U, 0xbc76fcf83ce3ae07U, 0xbd18f10dbd4370c8U, 0xbd6b022fbd0a5376U,
  0x3cb25f7e3d4849aeU, 0xbd369df8bc7b93aeU, 0xbd37e007bd136919U, 0x3d0085bd3cde0e88U,
  0x3d0f221b3cfc49e0U, 0xbcfe6dd7bd5f3ed6U, 0x3ca5e55ebc2477ecU, 0x3cbe2049bd2c5e67U,
  0x3d91d976ba4fca1dU, 0x3c209f603d4af59dU, 0xbd483849bcd50847U, 0xbd1d0bb6bd159fe7U,
  0xbd574472bb03c7e7U, 0xbcdc736bbd4f17a5U, 0xbd114e293ca0b26bU, 0xbd3957173ced68c5U,
  0x3d1a726fbcf1b6a2U, 0xbbaabffbbd75587dU, 0x3d1fce133d46e88fU, 0xbcdae70f3c675153U,
  0x3d4f9d7e3d54878aU, 0xbcc7abdb3c54858eU, 0xbc4875efbd7e9b91U, 0xbd76f0193aa432e9U,
  0xb8d035ec3d1798c6U, 0xbcea4ac6bc194edeU, 0xbb56015abd1c37e0U, 0x3c8f9418bd96240cU,
  0xbd1b27cc3d19a8deU, 0x3d2861b7bca8b78cU, 0x3c94b8f0bc8cc3c9U, 0xbab68fa03ca75b7cU,
  0x3c885cd2bb99eb3cU, 0x3ccc831a3c81b3b2U, 0xbd2de4383bb22145U, 0x3c587fab3c33cb14U,
  0xbd2797a4bd12aa29U, 0x3da9dc063d39ce38U, 0xbc0140823d07fc8dU, 0xbc235dda3c372d50U,
  0x3cb04f343c0253f8U, 0xbd517991bd3d6bb6U, 0xbcfa9e4ebd014a7aU, 0x3d0dc4b53d630254U,
  0x3cbb93023ae6f6a4U, 0xbd3f004c3d27a047U, 0xbac01eee3d52434aU, 0xbc4fd8f9ba860dd4U,
  0xbc3b95d4bcf78c15U, 0x3c1022173c931652U, 0x3ce7d674ba944b16U, 0xbce0bef1bbbc8daeU,
  0xbd1133043b68dbc8U, 0xbb386333bbbff255U, 0xbb700e993cd290eeU, 0x3d66aeca3b64e9deU,
  0xbcb6e1243c04074eU, 0x3c9cda4b3bbf0f9bU, 0xbdaeba5c3d232649U, 0xbcef047abd13c340U,
  0x3c5e91ad3b983270U, 0xbd8b5bd13bfd88d9U, 0xbd5c42cb3d198e27U, 0x3d1ffbd1bc7494b3U,
  0x3ce2abaa3d5da95eU, 0x3cd57879bd61ef99U, 0x3b4ea234bd64f4b6U, 0xbc038d643d4d5064U,
  0xbc79b203ba319fc3U, 0xbd075b833d9f2fdcU, 0xbd23edb2bd222183U, 0xbd7e4c63bd1af91cU,
  0x3d6b00c6bcd19b1eU, 0x3cb0b2f6bce094baU, 0x3ca8ec1e3d5dc84eU, 0x3cd7db9a3cf48d3dU,
  0x3c3db064bcf89f8dU, 0xbd461cd3bcb65215U, 0x3d0079263d239810U, 0xbbfc79e6baef3dbbU,
  0xbc67c3863cbca1b7U, 0x3d4518593bbd7479U, 0xbcb948f43d1cb9fdU, 0xbcbea369bbd28ef1U,
  0xbcdf55e2bce08eaeU, 0xbba117653d27a702U, 0xbbd8ee6fbcf0d6aaU, 0xbd24a709bc6b7bdaU,
  0xbc241a523c4a9e7cU, 0xbd58ba39bd06313eU, 0x3cb9485dbd1a0734U, 0xbb06857c3cdba5e2U,
  0x3d0ea985bc091ad2U, 0xbc0df5aa3d317097U, 0x3c517f13bd6994d9U, 0x3d1b4ba43ca5b016U,
  0xbcf197613c2e226aU, 0x3d11b9be3d382f64U, 0x3cc29eadbc0f6209U, 0x3cc0c33d3c5bbbbbU,
  0x3d1b1f123d1bcadeU, 0x3d233a483d4a4d17U, 0xbb1d5d33bd2d676aU, 0xbd43fa6f3d22845eU,
  0x3c85c8643ca175b1U, 0xbd147998bd57351aU, 0xbd8d11023bf0a3bbU, 0x3bfdc9f5bc8b6297U,
  0xbc924a763b78244dU, 0x3ccaa0e23c96ef47U, 0x3c6220cb3cbeb682U, 0x3d482b54bd117fd6U,
  0xbd55a6e53cac9597U, 0x3cddae6d3c3bd2a1U, 0x3ca3f8cbbcfa8ad5U, 0x3c3c4c40bc4ce414U,
  0xbd1bf787bd0f46edU, 0xbcfbbbeb3a9fb155U, 0xbd79bebfbce008a6U, 0x3d1b76793d83aff7U,
  0x3d709da9bd129929U, 0xbd3998f93d4b4cf7U, 0x3d3836bfbcbb1af9U, 0xbd25450d3b8ffb03U,
  0x3a00e928bc814b3fU, 0xbd383238bbd379d3U, 0x3d48fb3a3c6e7268U, 0xbd67e35f3ca742a5U,
  0x3d3be7dabd242753U, 0xbd8c04083d2ce253U, 0xbc69f83d3bafe479U, 0xbbc44a493beab38dU,
  0x3cc478ad3d01dc9dU, 0xbc2fb0c73cd850bfU, 0xbc4f38edbb060f75U, 0x3ca6f2563c645c03U,
  0xbc98eabfbd6d25daU, 0xbc0270c7bb283865U, 0xbd452e0b3d4ad2f7U, 0x3c984a7fbd4b25a0U,
  0xbd01b19b3cb10141U, 0xbc0872a938d5cfafU, 0xbd66ce533b0cf31bU, 0xbd5a6d913d165c61U,
  0x3c5aabe6bb1548c2U, 0x3d2aa4fb3d27bc48U, 0x3b980177bc931177U, 0x3c64e760baca31f8U,
  0x3b2a08a6bd205f01U, 0x3c70a1ce3a9369deU, 0xbcfa4ccabd27a940U, 0xbc6ecafbbca1447aU,
  0xbd3c7fc9bc6211fbU, 0x39be7191bd15352cU, 0xbc84f63e3d3efb0fU, 0xbbdf91fd3cf8f871U,
  0x3d0cc43f3c3ef334U, 0x3d916d99bce1f3d2U, 0xbcb958c1bd0868b2U, 0xbc9cde993d4afd3bU,
  0x3cafdf00bc2c18e9U, 0xbd566a5a3ae99bd6U, 0x3c46565ebcbf696bU, 0x3cfb6ce23c2b0657U,
  0x3d81a98e3cdb0737U, 0xbcfd89f4bc3e22beU, 0x3c14ad0c3d68df87U, 0xbd1d874bbce99fc0U,
  0xbd4e22d33d3d6ea0U, 0xbc81f6bebd272f97U, 0x3c1c7a0f3c8a652bU, 0x3d558bb1bd77c783U,
  0xbd3e3a473be1f95dU, 0xbd602ba3bc89a6aeU, 0xbd605ca3bc873d86U, 0x3cbb74ae3d667997U,
  0x3d67ba253af84276U, 0x3d478380bdc54bccU, 0xbd8a581d3d37b8d0U, 0x3b2da9273bbcbf47U,
  0x3ce76f6b3d01785bU, 0x3ba88ebc3b81cd4dU, 0x3d3539bfbd22791bU, 0xbd0a57083d8194f4U,
  0x3c4051ad3ce2e448U, 0xbd69464f3c799ff3U, 0xbbaeef7bbd373c8cU, 0xbbd9570cbcb1388eU,
  0x3d228a63bad5db72U, 0x3d0a57863c8bdcdaU, 0xbd2962183cf30afeU, 0x3d3d42783d15aa4aU,
  0xbbff147dbbbc40f3U, 0xbd58a9493c86939cU, 0x3cbfbc803c80d6b7U, 0xbd308f433d347207U,
  0xbb446255bbe28e13U, 0x3c950847bcf5deefU, 0x3d4730993d299b8fU, 0xbb82c501bd4e6a69U,
  0xbcbd2dcbbcbb329aU, 0xbcaf0bb2bd79ea15U, 0x3c12f5d63d6cd642U, 0xbcb0753ebc3b0ea5U,
  0xbcdf66943c479a5aU, 0x3d31f8a0bce5ddfbU, 0xbcfca8ef3cd85f0dU, 0xbd1aac81bc422dd6U,
  0xbc8a3418bc3e7537U, 0x3d5b17a4bd04e089U, 0xbcaf14bdbc1890a6U, 0x3ca7cdaa3cd70887U,
  0xbb68a2dcbc982831U, 0xbc196a47bc918aecU, 0xbc9a09a4bd6a5b71U, 0x3d21ddf23d63b6afU,
  0x3d266a5b3c45d1b4U, 0xbc95d78c3d040992U, 0xbce63502bd2bd136U, 0xbd3343463c85f1c3U,
  0x3c73b05cbd6d591fU, 0x3cbd0cb73d357eceU, 0xbcd859f8bb64c558U, 0xbc9fb06cbc6e0c58U,
  0xbcd7a9d9bc918adcU, 0xbc211722bd79db02U, 0xbb4f761bbd4e893cU, 0xbb5400d1bd2ecf6aU,
  0x3d0750dabd0f92e3U, 0x3be404953d2c707eU, 0xbbf3c9e1bd3c342aU, 0x3bf2fa6d3d5d094bU,
  0x3cd0715bbd681e1eU, 0x3c8d0ae13c090005U, 0x3d34daf2bd4c270fU, 0xbcb9e5cc3ca5c47fU,
  0xbd6f56bb3bf06d05U, 0xbc03400cbd07c747U, 0xbc99dd20bd2e86eeU, 0x3c3793183d691f4dU,
  0x3d40b4733cc04d88U, 0xbd9b1cc5bd0bddffU, 0x3d55b9c63d585e8fU, 0xbd1e820e3c1d7d95U,
  0xbd619542bcfe6b3eU, 0x3ccf07c83cf8f5e2U, 0xbd2c1f84bc007126U, 0x3d2a4fb5bd3f56f4U,
  0xbcc1aacf3c68b887U, 0x3b629cd83aa9f5beU, 0xbc3832db3d40d4e8U, 0x3b5567ebbd151851U,
  0x3c9565793cb640d7U, 0x3d69d18bbc66d98dU, 0xbce0153b3b0d1673U, 0x3d4124dbbcf61511U,
  0xbcc4b094bbcd9560U, 0x3d0a5e15bbc77492U, 0x3d2e7125bc9a85cdU, 0xbd17debfbcaf9ce2U,
  0xbcf63f78bccc6d41U, 0xbc9a8d9dbc89f709U, 0x3ac2fd7c3d421364U, 0x3d83a3b33d2eb016U,
  0x3d272bbb3d27d56cU, 0xbcca20253d47999aU, 0xbd2f2de9bd00c687U, 0x3d7431053d47630dU,
  0x3cdee7823d1dcd15U, 0x3cd1e853bd79ecfbU, 0x3982bbc53d2552eaU, 0xbd0fe451bd66c751U,
  0x3d557c5bbbc58103U, 0x3d4d484b3d5680deU, 0xbd0caba4bcad9ae9U, 0xbd1eab153d618b5fU,
  0x3d098a0abd47a2beU, 0x3cb06c053bb2f9c1U, 0xbd14aa783b0800acU, 0x3d21db693d442f6fU,
  0xbd319045bd02945cU, 0x3ade4f2cbd49627eU, 0x391d2c3c3baf40b7U, 0xbcfd892f3cfa9371U,
  0xbd06fe7bbd1d66c7U, 0x3ba674cfbd1c4ae5U, 0x3cfa866a3d2a808dU, 0xbad5d8b1bd6986f4U,
  0xbd03d5513cc84611U, 0xbcce89403cf5cb70U, 0x3d569189bc18d0bdU, 0x3cc70d83bd4f3825U,
  0x3c804479bd5700beU, 0xbd6cc3e7bd68e326U, 0xbc8674cc3cb59894U, 0xbd24fd753ce914b7U,
  0xbd2b48643d3f9060U, 0xbc3585c1bd34819aU, 0x3ce4efafbd15f917U, 0x3cecf02c3cd38d17U,
  0xbbe0ae163c84b6e6U, 0x3d02a8c03c82f5faU, 0xbbe585343c85c8a3U, 0xbd3095c43caf0201U,
  0xbd63ee713d36202fU, 0x3d1914b63d12765cU, 0x3cd13b06bc150015U, 0x3c49ba0cbd2c282aU,
  0x3c8790cc3d175aaeU, 0xbca522a43caa53a6U, 0xbcdbb547bcc322c5U, 0xbd08b5a83d10162aU,
  0xbd419e5abce66195U, 0x3d50e7aabd27ffa9U, 0x3d1cc9c0bd2240e9U, 0xbbe87e983d0de026U,
  0xbc8edb00bd2b5d36U, 0x3d1e34e83cb43527U, 0x3d2a7bb2bd165a53U, 0xbcbc9fac3caddcaaU,
  0xbccd74f9bc6b8f02U, 0x3ce0eabebd5948aaU, 0xbd1a87ca3cb6db84U, 0x3cfb6420bbda0bdeU,
  0xbc1a71653d63d42eU, 0x3cb4f6edbc08c4daU, 0x3cb0cb80bccc09a8U, 0xbc96f8c23c69a6a5U,
  0xbd6c09703c9d9ba5U, 0x3d31db573d4e9116U, 0xbd00cbf3bc627930U, 0x3d539f4a3d0aeee7U,
  0x3d7edddd3c903bacU, 0x3ce8cbc1bc8ab072U, 0xbae772213d441a28U, 0xbd0098a53d1eff72U,
  0xbd6b2f563c258d22U, 0x3cb932d23c8fc86dU, 0x3d288af43ccb1f8dU, 0xbd6df02c3ca0eda4U,
  0x3d29b316bcd0f64bU, 0xbd0878d3bc2b34deU, 0xbc36a117bc7f00b2U, 0x3c17dd3c3c9f8deaU,
  0x3c9eb1853d169eb5U, 0x3c91aa743c8818feU, 0xbc57fb433d03b327U, 0xbb8d877b3cb8dbe7U,
  0xbd63ba7a3cbf73e8U, 0xbd4ace2dbbad50a3U, 0x3ba3d607bd4d76c4U, 0xbd2e57863d12ebf9U,
  0x3c4eeef7bd4fd183U, 0x3a930e95bd20b08bU, 0xbc1107e33d1b5bf6U, 0x3c53264a3c112ecaU,
  0xbd459c5abd148566U, 0x3ceda59abd70bb21U, 0xbc6986c73d2259d4U, 0xbd60c5bcbcc65975U,
  0x3d10f96a3d2cd18fU, 0xbd304d673cc83223U, 0x3d686512bc99033bU, 0x3c629cd23cb0598eU,
  0x3cab53dcbbc2b6f7U, 0x3d4d8dca3d7514d4U, 0xbb87b8a1bd5505a2U, 0x3d465c543d0ec5cdU,
  0x3d134b843d2e30feU, 0x3d47bcccbcb0d033U, 0xbd4e57323c8edda1U, 0x3bd49d003d2bd56fU,
  0xbca44da03cf6ede3U, 0x3c41853b3d1fcee9U, 0xbc214df43d5ae5baU, 0x3c1ec4393d84020eU,
  0xbd4ef2513d207b08U, 0xbd0da60f3d88a0ffU, 0x3cd1674bbd5297e8U, 0xbb9a244d3d4b3fc6U,
  0x3ce2a2d5bcb7b852U, 0xbd2e4e8d3d19dd2cU, 0xbc9c4d5bbd12585fU, 0xbd14b938bca09f10U,
  0xbd374da23cd029afU, 0x3d928226bc0d0ea2U, 0x3cc894a83d28df62U, 0x3d3e8a19bcd5f1ddU,
  0xbc62bcfebcdc2c79U, 0x3c7148393d54414dU, 0xbc06b46bbd587558U, 0xbbd2cf2abd260105U,
  0xbcab5657bd3912e5U, 0x3bf61d3c3cbb3ab7U, 0xbc81522e3c6b2e79U, 0x3c4e2d4dbb66020bU,
  0xbcd57ae83c4dd093U, 0x3c6c4d0abd6d66ceU, 0x3c2e8be2bd5de271U, 0xbca9c4ddbc603a42U,
  0xbd0ef7613d15aa91U, 0xbb5a8fa3bbc6f263U, 0xbd3c5976bd3d2e0bU, 0x3d1a41a53d3a8325U,
  0xbd675c9e3c362568U, 0xbd52c2063c99f84fU, 0x3d23bb9d3d547529U, 0xbd71d088bc1ff12bU,
  0xbca9c07bbd3ba5cbU, 0xbd8ef92bbd18d7efU, 0x3cea42c3bd369956U, 0xbd5ad160bd6d1909U,
  0xbd4f60ec3cafbe8dU, 0xbd2f564e3d03f5acU, 0x3cbea2013c27927aU, 0x3d41a413bca1eb3aU,
  0xbcbb5b79bceaa415U, 0xbd1d0676bcb1699aU, 0xbd5cf302bbca6498U, 0x3a592bf83d1e5dd6U,
  0x3c4c5b953bb9507fU, 0xbd3edc44bd2c6593U, 0xbd03202cbd14f9afU, 0xbd1d55463b99e3efU,
  0x3d64423e3cb86a35U, 0xbd109705bc46301aU, 0x3d2c8b1a3d05d318U, 0x3d2eb385bc531d79U,
  0x3d8d25423cd3b703U, 0x3c8185afbcb825d5U, 0x3d6089913d0917e8U, 0xbd53b10ebd0ee3a8U,
  0xbc5e7c5bbd3065a1U, 0xbbff79413c87a8baU, 0xbd2d39d8bd4080a7U, 0x3d69bff8bd30b33cU,
  0xbc2a08a2bd3eb700U, 0xbd0587ef3ca02f7aU, 0xbbe5ac27bb830589U, 0x3c059a24bcbafdc8U,
  0x3d114c47bd165e61U, 0x3c9937cfbb066827U, 0x3d34342bbd4550c7U, 0x3c19f6d53d2bba3aU,
  0xbd025b943d3916c1U, 0x3da949acbd59ad7cU, 0x3cb06315bd54f26bU, 0x3c51f673bc1f2140U,
  0xbd2f3630bd428f1fU, 0x3c17b7193d24d48cU, 0x3bf588623c188f62U, 0xbd4ab9bd3d1efdd5U,
  0xbd2a9f43bd0b193dU, 0x3d2b15babbc911abU, 0xbcdd28123cfaf6c1U, 0x3cd47ba63d5cffaeU,
  0xbd5054b43c8f49aaU, 0xbd1684353d6997c5U, 0x3c4e55483d492602U, 0x3ca1a60bbcc21bfcU,
  0xba02bce63a4d953fU, 0xbd3a0828bd6f5ed8U, 0xbcfcc885bd1b94ddU, 0x3d0c307bbd635bbfU,
  0x3d6b5872bb3afda0U, 0xbd6a8d09bd2feac0U, 0xbd46dca4ba26b816U, 0x3d08a44a3cc70b23U,
  0x3ca59083bd249d61U, 0xbcb3e4f93d5ac169U, 0xbd25245d3d42ed85U, 0x3cfc1b34bd6b73fdU,
  0x3d46a3be3cc952faU, 0x3c87e8b03d488e66U, 0xbc46f33cbd398621U, 0x3c20a26a3d4b4c40U,
  0xbd66c6a73b9d054bU, 0x3ce48ea4bce96b79U, 0xbd4e4cacbd54b284U, 0xbb69f0ef3bc63d98U,
  0x3ca0ff93bcfa02a4U, 0xbc72e54abcf08917U, 0x3cf2291bbd24c6e1U, 0xbd45e06dbccd0f58U,
  0x3c5e28c5bd1999c7U, 0x3cac99893d413e41U, 0xbcbcccaabca0a12aU, 0xbce247b33d18d81cU,
  0xbd22361f3bc6612fU, 0xbca326363cc8d590U, 0xbc9f70bd3d419477U, 0xbd1145ba3c3bb455U,
  0x3bc1e8263d1b7f42U, 0xbd0067bc3d29ef2eU, 0x3ceec5973d039400U, 0xbd2ddc41bc50d713U,
  0xbcc2c5fabd5af85dU, 0xbd4222b53d249edeU, 0xbd1da3183d12a103U, 0x3d30cb303ba9e9cbU,
  0xbcd3cf46bd60c284U, 0x3d5be22abd1ca41cU, 0xbcce96c63c4fd672U, 0xbbd63615bd55215fU,
  0x3cb589f43cf5b2daU, 0x3b598bd3bd0c3f4dU, 0x3c7123203c95d905U, 0x3c6757a53cb428bbU,
  0xbd5240173d4d4d8dU, 0x3cb9a972bd286c19U, 0x38f818e03d686967U, 0x3b9b30443a91f6ecU,
  0xbd1bb7d7bc4360a2U, 0x39a45f5d3cf92601U, 0x3d1b4492bb21aebdU, 0x3d6c7665bcebb343U,
  0x3d1103453c1bb1deU, 0x3b2116dabcee2e35U, 0xbc61973ebceae1b7U, 0x3c4d96023c5e281aU,
  0x3d06cf36bc74ae87U, 0xbd1a982a3baa54a8U, 0xbccd79ba3cdc3c36U, 0xbd4a2eb73d483dc0U,
  0xbbf3bb693d223b1dU, 0xbc7ef1cdbd1eaba3U, 0x3b17f6273d341b9aU, 0xbca1e28abb52a935U,
  0xbd0c64acbd417ea5U, 0x3cca5a143d43a617U, 0xbd46f9a9bd6460adU, 0xbd27fd23bcba5bdcU,
  0x3cee22a9bd65730aU, 0xbd03d3223cbdd362U, 0x3c9829d1bce78d3aU, 0x3d56ae58bd67efdfU,
  0xbc1e37083cab0d92U, 0x3bc579713d11533eU, 0xbbd42cacbc2f1266U, 0x3cb2dda33cded84fU,
  0x3d008fb23d61314fU, 0x3c36a864bc9109f7U, 0xbce196943c84b9d9U, 0xbd157496bd3bd34dU,
  0xbc7cc7ef3caf10acU, 0x3ccf73a6bd452508U, 0x3d4e52b63c94891bU, 0x3d4df2493d3f9a78U,
  0xbd16617f3d5db2edU, 0xbd06ab213d391b75U, 0xbd669c9dbc81dd89U, 0x3bdb491e3c624909U,
  0xbd038590bcfd90acU, 0x3ca805bbbd054fedU, 0xbc23bb28bbda67d8U, 0x3b0c22bfbc891bd9U,
  0xbd3dcc833ce9f131U, 0xbcb4096d3c071abaU, 0x3d3101fdbd478520U, 0x3c741ab83c6f22a3U,
  0xbb0c23e33c973a00U, 0xbab32a313c3f8422U, 0x3d0b30eabc9da4b3U, 0x3d2c5d433d1840b4U,
  0xbd15499d3d040709U, 0x3ca9025a3ce4b70fU, 0x3d5e58343d56f908U, 0xbb867edb3c9d156eU,
  0x3d591e1d38d447f3U, 0x3d59c0d1bcb4a962U, 0xbc33cb643af99917U, 0x3cf110ffbd566067U,
  0xbca1bea1bb573398U, 0x3cd999c4bd0863b6U, 0xbc75f4ef3a286db9U, 0x3d4f0c1d3ccf0450U,
  0x3b7640193d5007d1U, 0x3c821a62bd4336a7U, 0x3d244d11bc436f65U, 0x3cad335c3c7511eaU,
