
/**
  ******************************************************************************
  * @file    cnn_data.c
  * @author  AST Embedded Analytics Research Platform
  * @date    Thu May  5 08:18:22 2022
  * @brief   AI Tool Automatic Code Generator for Embedded NN computing
  ******************************************************************************
  * @attention
  *
  * Copyright (c) 2021 STMicroelectronics.
  * All rights reserved.
  *
  * This software is licensed under terms that can be found in the LICENSE file
  * in the root directory of this software component.
  * If no LICENSE file comes with this software, it is provided AS-IS.
  ******************************************************************************
  */
#include "cnn_data.h"
#include "ai_platform_interface.h"

AI_API_DECLARE_BEGIN

AI_ALIGNED(32)
const ai_u64 s_cnn_cnn_weights_array_u64[ 46187 ] = {
  0xbbe88e133dcef11eU, 0x3c9c50073cd29d19U, 0x3d54ba053dbd5aafU, 0x3d0ec54fbce2b49aU,
  0xbd7c4858bdb3b732U, 0x3dc97baa3c395b10U, 0x3cdbf94abd61323bU, 0x3dc608653cdf50cfU,
  0xba48b2f83d6c947dU, 0x3d969f93bde2f6f5U, 0xbad5a6a8bc1604efU, 0xbd9256533c5bb829U,
  0x3d8f5d693dafcb74U, 0x3d10be6b3cc8df4cU, 0x3d55d8ef3cf1d9e2U, 0x3dda8aaabd5c9226U,
  0xbd9bb12a3ab47cb9U, 0x3d07f398bcc993c9U, 0x3d993df5bbf85fe2U, 0xbc6a6e653c30d03cU,
  0xbdaaf19ebd7cc826U, 0x3c091833bd2e09a0U, 0x3c85b9ad3ddc963eU, 0xba4023f73d325eecU,
  0x3b26824e3d347b5dU, 0x3c71558dbd0dcbf2U, 0x3d3fc2c2bd703b29U, 0xbd0533ff3c7c4558U,
  0x3cc75c00bd1c4a43U, 0xbd447d89bd7e7e19U, 0x3ccbb9f8bda7ac45U, 0xbd2da2a7bca523dbU,
  0xbdef89283d2ecd67U, 0xbd0905da3cd5cddbU, 0x3d8b885ebd94a95cU, 0xbc990c93bddaa281U,
  0x3d23800dbd4f37f1U, 0xbcdff12ebb10eddbU, 0x3d1912babd2361aeU, 0xbdd3195fbde1fc5fU,
  0x3d0bb79d3d691bceU, 0xbd8b149c3d9e31aaU, 0x3d9c4adabd4ec9aeU, 0x3c4d86903d3dcc66U,
  0xbdbf90723dbfb6faU, 0x3d43d70fbd7a5114U, 0x3d6388bfbd83afd7U, 0x3d4520e43d961ff7U,
  0x3db9d2ac3d2877b3U, 0x3a79866f3c19b81aU, 0x3d8ca60fbdb150a0U, 0x3cb0553e3c6cbf32U,
  0xbc28292abd0f1270U, 0x3daed96e3d4b2523U, 0xbd7544efbc36c5feU, 0x3cbd6fd33cbc0232U,
  0xbc3531c8bd981873U, 0x3ca9a2e23d94abf2U, 0x3d3f1bf83d9e3595U, 0x3db2689e3d2196eeU,
  0xbdbda0e1bd13aee7U, 0x3d9351e6bdbe6c2cU, 0x3db574a13c2bc67bU, 0x3c9bb32c3d270e29U,
  0xbdef2a97bda93972U, 0xbdb0fa553dfd40feU, 0xbe0ef19c3cfb3cadU, 0x3de1e6e4bcafd539U,
  0x3da5b29f3d8aa12eU, 0xbd8efc65bd89cec7U, 0xbb31870e3df8e062U, 0xbe0cf963bcae3684U,
  0x3e08e7343c2cbb81U, 0x3cc3c2df3d13fcc7U, 0xbdabc22ebe1ffa21U, 0xbe084058bc957373U,
  0x3d1b78233e308254U, 0x3c6e60a4bdeb4043U, 0x3ca975d23c949bb0U, 0xbdd0a09e3d0975cfU,
  0xbde1cfd83d421563U, 0x3df0d8c43bf87f20U, 0x3dc69860be0d143bU, 0x3d9c321abdd9d02aU,
  0x3ca15bc13d16598dU, 0xbe046ec2bd23a685U, 0x3da9f7d53e2444aeU, 0xbe0f62e7bdfe77a2U,
  0xbc9356493d516114U, 0xbc14c8c13deb137eU, 0x3e1c93e7be22548bU, 0xbcbe73cebe046691U,
  0xbc6291a53d3b7ef1U, 0xbd9c83653e592b0cU, 0xbdb199783e10df92U, 0x3e1a51dbbe3a8b9aU,
  0x3ded94bfbe179acdU, 0xbe1a7fcbbd00ff2fU, 0xbd80b72d3e391f7eU, 0x3d0ebe9b3c8aec1eU,
  0xbd34aa9abdb60c20U, 0x3d0d31c7bcda4134U, 0xbe05b2493d75f3cdU, 0xbb689fcabdb1d300U,
  0x3d16f2743e40be22U, 0xbe48e075bdf697a9U, 0x3de656f8bcc63530U, 0xbda406733e0b12c5U,
  0xbd15eb98be3ed49bU, 0x3df365c03e329821U, 0xbe1c299cbd8b14c8U, 0x3ce77ec4bc914654U,
  0xbd45a9893d866b50U, 0xbc922ed33e25ec49U, 0xbdc906f3bdae238bU, 0x3cf157c23db50141U,
  0xbddedde7bdae5c1eU, 0x3bdeb80fbdbf272dU, 0xbdb673653dfe165cU, 0xbd8128b0bdfd9b14U,
  0x3d4c47a13cda7a04U, 0xbdc0de733c862a38U, 0xbd5fbfc03c5317fbU, 0x3d9caa1c3e02edfeU,
  0x3c5f25fdbd78a8f3U, 0xbcaa3f513e1b4a5cU, 0xbd2de609bd2eb7c5U, 0x3daac40abd8c3482U,
  0x3d7b555cbca2ef55U, 0xbd1c8687bdd03421U, 0xbd6ecccebcd8a6c1U, 0xbd08e6adbd24b43cU,
  0x3bf8bf9f3d7b7e2eU, 0x3d8e124bba90118fU, 0x3d6aeebdbda98727U, 0x3d35d1ff3ddcea77U,
  0xbe069abcbd23f013U, 0x3dc47e453d37f62dU, 0xbdc061123dc91d39U, 0x3cd58f153d1555ceU,
  0xbbacc17dbb42f42aU, 0xbcf0aca6bca2419aU, 0x3da503cfbda1ce2bU, 0xbcb1f3ae3d0723cbU,
  0x3bb513dabd271e3fU, 0x3dc3da37bd54a574U, 0x3da0fd093d91807aU, 0x3da93b2ebd44906eU,
  0x3d7bf6313cfbd4ccU, 0xbd933c8bbcb8d900U, 0x3d9d0db9bdf9a529U, 0xbb8084183df8b10dU,
  0xbdb86e5e3d98e0beU, 0xbd435225bd89edffU, 0x3d66ebe43d644533U, 0xbd61a98ebe065473U,
  0x3d6d3393bd198dbeU, 0xbe069c45bd481067U, 0x3ddab9233d4bc0fbU, 0xbb052b3a3d94e974U,
  0xbcd760d3bd4cd655U, 0x3dc0f7593c9c767eU, 0x3c78f497bd17b9b8U, 0x3d5bb9603d6e1bf8U,
  0x3c28507a3da0252dU, 0x3d7c3d7a3d42e871U, 0xbc801654bc92f177U, 0xbd0968e03d8fd964U,
  0xbd17c46e3c2523ecU, 0x3d7721ae3d151d6bU, 0x3d0a518bbdacd49eU, 0xbc28b121bbe58c00U,
  0x3d3a2f4a3ce9ceebU, 0xbc144ee5bd92fcbfU, 0x3d4d1bcc3db55c84U, 0x3e3eaa08bd8b70baU,
  0xbda711f43d3af5acU, 0xbc2baaa1bd55c1e1U, 0xbdc503b03d5b6b5dU, 0x3d510dd1be0c8ee9U,
  0x3e06cc753b81c36bU, 0xbe20eb803cbc6a28U, 0xbd4d623c3c9565c9U, 0xbc65f7833dfca337U,
  0x3a965c6abd83b8c3U, 0x3e118cf9bd8f6ba4U, 0xbe00edd8bc7cd022U, 0x3dd178c23d828ef4U,
  0xbc76d2783d5b3d4bU, 0x3d1a98253d999c4aU, 0x3dd6c2043def0e55U, 0x3d131a5dbd111899U,
  0x3dafcf0b3dafb6b7U, 0xbde6b09abdb9202dU, 0x3a82fb8ebdaa8ab7U, 0xbd93fd43bdbb231cU,
  0xbdc2aed3bd02f5faU, 0xbd5798ac3bba4f2cU, 0x3d5fbfef3d9f43ecU, 0xbd20e603bd6fce3fU,
  0x3d313cd63db5557eU, 0xbdc3538cbde89982U, 0x3e1bbc98bd2af08eU, 0x3d1e2c2cbdf5bcb6U,
  0x3d61d5503b25aeb9U, 0xbdc921f43e19bca1U, 0xbd9dc46cbd1680b2U, 0x3d939581bdb9b375U,
  0xbc0cbfa6bc28b5d9U, 0xbde11bf8bc17b3f8U, 0xbd5130b03e1a5acaU, 0x3dcfbb9dbce26836U,
  0x3d9bd9c73cc58a54U, 0x3dad7d103d0e671cU, 0x3d10b2e5bdc117ecU, 0xbd6534ba3dab2481U,
  0xbd91e3033c98feafU, 0x3d9b018b3c3f268aU, 0x3d4ebe44bd8c654aU, 0xbd18edbc3dac40c7U,
  0x3db8dccebcc6d860U, 0x3c390ccebcb1fd4eU, 0xbb9e29a23d549731U, 0x3d897785bd19ff2cU,
  0xbdb7d70c3d40898cU, 0xbd5e7fe83e0521c0U, 0x3cbc525dbe4dc2afU, 0x3d871c473dd3c830U,
  0xbe4dc193bcdff098U, 0x3e0de3ef3d531508U, 0xbceef4bd3d0fa27eU, 0xbd3de7c3be4639adU,
  0x3d4bf0cb3e23e843U, 0xbe359a2dbd1eeb9cU, 0xbb5acd9d3d3f858cU, 0xbdd706df3e105e2cU,
  0xbcfdb673be091077U, 0x3d27c3613de7c30fU, 0x3d9ed2b0bdd7da2bU, 0x3d987d9f3d5ad28cU,
  0xbdb8ae1e3dac814aU, 0x3d883319bda3a608U, 0xba8ade92bd0702d8U, 0x3d9ca5603d1504bdU,
  0xbdba2ef13dd96b8bU, 0xbdd51de33d905869U, 0xbda8d4e83ca6f1c3U, 0x3d90b2843d4aa189U,
  0x3caf3c4cbd118bd2U, 0x3bc4e04ebbf82bedU, 0xbc5ebceebcfe20b4U, 0x3d94b6493d30611bU,
  0x3cf6f9a03dafa4dfU, 0x3cd84c9cbd35fba9U, 0x3da102ae3d899ab8U, 0x3d87c894bce8c179U,
  0xbd1238e63d0dc107U, 0x3d84298fbd135e81U, 0x3d4f2c613dbd2e0aU, 0xbd68ecd8bd361d18U,
  0x3da71901bd601fcfU, 0xbd1a87013d1e455fU, 0xbe01e0cdbcf94f55U, 0xbbe12a523d4d4ffeU,
  0x3d5c1662bb8639a0U, 0xbd62d760bd11ec02U, 0x3e06b59dbcd701ebU, 0x3cad94543db9240dU,
  0x3d25782dbd75696fU, 0x3e12b8a03dcd1917U, 0xbda65d87be055697U, 0x3d85b8cebcf763c1U,
  0xbda219383ca0a7e4U, 0xbd9123e9bdad5e80U, 0x3da7b04f3d1b8e56U, 0x3d4ae5c63cf49a7eU,
  0x3d2e5438ba026c43U, 0xbd8e223dbc23ab91U, 0xbdce65f53cbfa016U, 0xbd6426e4bd6a74b6U,
  0xbd8d43613d8a80e7U, 0xbd6781ed3ccd4669U, 0x3d7541473db8ed35U, 0x3d8ede5d3db00299U,
  0x3d4ec9283e29f4c9U, 0xbd8603bdbe09552fU, 0xbdcb73973c83eaa0U, 0xbddac9a2bd9d865cU,
  0x3d380df53c843b1eU, 0x3cf241fa3d6251a9U, 0xbdb7c341bdd50fd5U, 0x3d928d763c90ffa9U,
  0xbe0648e0bd93683bU, 0x3e11021f3ca324b4U, 0xbcaa43d63d34b795U, 0x3dc981fcbd4eee9cU,
  0x3d2d7ff03da304b4U, 0xbe0b2aaebdb9e06fU, 0x3d72b546bdcf5c9fU, 0xbd44c9c33d6dda9dU,
  0xbb182865b80a9f41U, 0xb71990e8bc0b9357U, 0xb889f0ea360874e0U, 0x3d11ce2ebaa7610cU,
  0xbb58240e3c3d3cfcU, 0x3ba1da7bb9ee0e22U, 0x3bd88b9036b272c0U, 0xbb6e0ecd3c22820cU,
  0xbb0d6e793d2494e1U, 0x3595e6fc392746efU, 0xb8dc4cb23c28062dU, 0xbb4f8efabb0952d3U,
  0xbd3152aabc98a2d6U, 0xbd42fdc6bd1534adU, 0xba8ae2f73c8e09dbU, 0xbc970941bcb582e0U,
  0x3d0960a13d2fbc6fU, 0xbcc8ea743d31e346U, 0x3cb6307b3c17173dU, 0xbd152911bd31635fU,
  0x3ce6244d3d865be8U, 0xbc92fad93d150f91U, 0xbd2fcf153d112c8aU, 0x3d471fa9bd5c80b2U,
  0x3d6399ebba988016U, 0x3d3f10f9bd3515d2U, 0xbce42453bcc8b157U, 0x3d5ac7923c8bb19fU,
  0xbcd96c233c61267cU, 0xbc79fae23c80258aU, 0x3cba62103d617f51U, 0xbbab62a2bcd5af5dU,
  0x3c8b48dbbd49907dU, 0x3c4c869e3cf0cbf7U, 0x3d6b6ca03ca50991U, 0x3d3974eb3c73e99dU,
  0xbd377a89bd581d2bU, 0xbcee438c3d5ff6e6U, 0xbb31de95bca720e7U, 0x3cf94d593d3990bdU,
  0x3c55fbf73d783106U, 0xbd13d485bc11175fU, 0x3bde2c7e3d1e67b6U, 0x3c6aab3dbd1a3c04U,
  0xbbe9384fbc780e91U, 0x3c630471397e1906U, 0xbd1b9ef2bd1ae8b2U, 0xbd0b1aa4bd37ed01U,
  0xbcf71172bc4ae695U, 0x3d0d7e2dbd27004cU, 0xbcd0bdc43d338e92U, 0x3d7a4e633d45b5f1U,
  0xbd679ad6bc98e96eU, 0xbc58ddc1bd87801cU, 0x3d5391bcbb90d7d2U, 0x3d3e5cb83cde6e38U,
  0xbb464eedbbcf16f6U, 0x3ba7760abd0ba9eeU, 0xbbb51d9dbcc4f733U, 0xbd1577a83d3aa8c1U,
  0xbc6ec340bca0e422U, 0x3bf97f47bbdce1d3U, 0xbd51ec47bc44e0d9U, 0xbd7158c6bd5e97c8U,
  0xbd5ac6eaba93c646U, 0x3cc788f1bcc1e891U, 0xbd7419413d5e44c1U, 0x3ce42976bc9f3ce8U,
  0x3d573621bcfc7bcbU, 0xbcefba853c3c18a9U, 0x3ba1a7dcbd0023d0U, 0x3c897831bd2f88abU,
  0xbcec007abc733201U, 0xbcbc815abd7edc01U, 0xbc9f907ebce7b398U, 0xbd6c0e3b3d7cc7efU,
  0xbd39d36fbcf4e704U, 0xbd2c33623be498baU, 0xbc6fe673bd041885U, 0xbd47045c3b9dc866U,
  0xbbcff4643d29b927U, 0xbd00bcde3daaa7f5U, 0xbd4bbdb6bcaa5de7U, 0xbd7f4b193bc82905U,
  0x3cd2f056bcb122fbU, 0xbc32be3a3cbbfa5aU, 0x3d41ac93bd257685U, 0xbd5177d0bd71a3baU,
  0x3c322ad0ba769ff5U, 0xbc12197f3d4a0735U, 0x3d192145bc8ed97bU, 0xbcb233843bc6a3cbU,
  0x3d1b773cbd370ab6U, 0x3cceaeebbd15ea9cU, 0xbcf73f453c67f13cU, 0xbd3065b3bcbd4febU,
  0x3d3eac55bc2bb529U, 0x3cb0968d3a19ba1aU, 0x3be25c323c3fcdb6U, 0xbca68851bd23e3ffU,
  0xbd45d60dbc3d1a65U, 0x3a652b673d23afbbU, 0x3d15d78ebc4bc1ccU, 0x3d748ad7bd1680b0U,
  0x3d5add17bb8d237aU, 0xbd0fabdf3cdc7769U, 0xbd2cb822bc2961aeU, 0x3c8fbe423d4333d1U,
  0xb996e1ab3d1e96adU, 0x3bc0c19f3ce5e373U, 0x3bcd04dabca1b6b7U, 0xbc38f6273d486740U,
  0xbbec6cc13cc11bc2U, 0x3c761d94bd82f551U, 0x3d0f37e53c877637U, 0xbd3997dbbd055d69U,
  0x3d1710073c7d2b01U, 0x3d17831e3d148e16U, 0xbd751669bd0b3fe6U, 0xbd25381bbd094856U,
  0xbbe6e8633cfe8473U, 0x3c8d05b3bd369117U, 0xbc90d16a3c77c9d5U, 0xbbf94565bd0a5cc5U,
  0xbd016d15bd413790U, 0x3d5b1d4dbd041774U, 0xbd63ce913d0bdc0eU, 0xbca89d263cecc7b7U,
  0xbc11e3dabd5a7f26U, 0xbd41592abbff0f19U, 0x3d3531123ce2cdeaU, 0x3b1d9b383c20f0c5U,
  0x3d53bc96bd51fd65U, 0xbc9cf2c5bd36a297U, 0x3be7117fbc7bd1baU, 0xbd9d57003b46186eU,
  0x3cfbae9cbd10a422U, 0x3c13455fbbc9b819U, 0x3c04f4a5bbd16ffaU, 0x3d32e900bda0343eU,
  0xbd4decb1bcaf16bcU, 0x3ba75f663d64d8bdU, 0x3b2e86ae3d462b56U, 0x3b4d84cf3a4a4c7dU,
  0x3cafcf03bd6effcfU, 0x3cac92353ce92291U, 0x3c9348e4bcebffd8U, 0x3d13092fbaaa2bbbU,
  0x3c0700e4bc785f2fU, 0xbcb6c27bbbde0146U, 0x3d59e3c6bcae5de7U, 0x388bea563d289407U,
  0x3d325d443c701f59U, 0x3c99d8ddbccba688U, 0x3cfda50b3d5f0261U, 0x3c4885ea3d6a3e56U,
  0xbd073b15bd594175U, 0xbd04ad073d261eaeU, 0xbcaa1aa63b36a2eaU, 0x3d07de2e3d6089a9U,
  0x3d374d7abcc46551U, 0xb981c0a03b5b45beU, 0xbd13afec3c849d79U, 0x3c11dd28bd72b460U,
  0x3a4666dfbc355935U, 0x3bd94a2b3d3f5ab4U, 0xbd1eed2d3d02f248U, 0xbc389b4ebd715cb1U,
  0x3cc25301bc0f7639U, 0xbd1282003d2a44f8U, 0xbd1deeaf3d23f548U, 0x3d6d15f9bbbf50edU,
  0x3d52c49b3cef40a6U, 0xbd1bf7013b97acc9U, 0x3c8593563cbd84a7U, 0x3d319831bd124cfbU,
  0xbd48b10e3ca9f1c0U, 0xbd18de07bd243106U, 0xbd576198bd03a1e2U, 0x3d16b0a03c889c8cU,
  0xbc9eb3cc3d2bb974U, 0x3cc047a73d497c2cU, 0xbd5f357fbd2dcd6cU, 0xbc98c5f7bbd72176U,
  0x3cb46e13bb931832U, 0x3d079e80bcda93fbU, 0x3cbf899bbd36b9acU, 0x3cd4a40abc9734caU,
  0x3cb0e4f03cd1f98eU, 0x3b7225533d5ed65aU, 0xbcb99d11bc992c18U, 0x3c82639b3b96acfcU,
  0x3cdaa76b3d248667U, 0x3c825b9f3c4bea4dU, 0xbcdb550a3d670d83U, 0xbb83844cbce0df06U,
  0x3d3cdaecbc8c8940U, 0x3d187b3abd428d30U, 0x3bf31f163cdbac58U, 0xbcf9f182bd6f6398U,
  0x3c9540ac3d438572U, 0xbcecead33d981ef9U, 0xbc24367d3d35ed54U, 0xbcc44f99bd3d1a50U,
  0xbd6c67e03d3c08adU, 0xbd164d3a3bc522ffU, 0x3d5541203bbff579U, 0x3b531b133c820097U,
  0x3cdc435a3d50f278U, 0x3d01dc7e3a3ad899U, 0x3c7a599e3d80d46aU, 0x3c9be1f33d3a0781U,
  0x3d1b4fb5bd1d4149U, 0x3cfb26d6bcfd66dfU, 0x3cd83d5c3ce2496bU, 0x3c7ba731bcb9d28cU,
  0x3d49f45d3cd8df4bU, 0x3ce830e5bd0c28f1U, 0x3bd308f83c8e6ed6U, 0x3c659034bce0d5d9U,
  0x390bee40bce6ca86U, 0xbcb30dcb3d057b86U, 0xb9a18dfebc9260adU, 0x3d4e817fbc9133e8U,
  0xbc0cb0ea3d1975a0U, 0x3d4cd6babd368812U, 0x3b9939743d41afc9U, 0x3ca15ad7bcd97897U,
  0xbd6870e63c2ac7f2U, 0x3d36b9d83d1937e1U, 0xbc7934a0bd10e658U, 0x3cb98fb43d50b02eU,
  0x3cb6293abd4440a8U, 0xbaa5add5bd734d0aU, 0xbd3b2d4ebd5eee3bU, 0x3cbab80cbc1f4efeU,
  0xbd179c52bd421794U, 0xbd26f3cb3bfc1fdfU, 0x3b8f282c3cd20604U, 0xbd4b6ffdbcd95536U,
  0xbd1b9ff8bd01b5d4U, 0x3cce02ccbd6165eeU, 0xbd5d1ee3bd4528a3U, 0xbd160d0ebd908734U,
  0x3d1483103ccf0a2cU, 0x3d103fb7bb4dea7fU, 0xbc26cfbb3cf4cb47U, 0xbd0fd0603cbce7dcU,
  0x3cbc5741bd7de6f0U, 0xbd08b7793cb7264cU, 0x3d51fad3bcda37cbU, 0xbb64c2fe3d2f94d4U,
  0x3bd1e9ca3c1c6927U, 0xbccd96543ca7b126U, 0xbc6ecd793cd7fcbfU, 0xbd3af052bbfdaabdU,
  0xbcbd4c773d593354U, 0xbd760407bd1599b3U, 0x3d3b1c853d2c3036U, 0xbc943c3fbd1888c1U,
  0xbd6163f9bc0a2ba1U, 0x3c0d81c03d771d86U, 0xbd6532213ca51415U, 0xbd18fbbcbd446d80U,
  0xbb5fcd58bcd04d8bU, 0xbd42f0ccbd01f99bU, 0xbc9f52603d54e80dU, 0xbd12ca4e3c79b277U,
  0x3d760f943cf09109U, 0xbd536631bc480d71U, 0x3ce051783c37de5fU, 0xbd3a7eb23d09b9fcU,
  0x3d48adf03d021e33U, 0xbd652c33bd0f8bf2U, 0xbca99d46bc3210dbU, 0xbce979223c12368cU,
  0xbca6298e3d6d462eU, 0xbd0b50b13d17fe82U, 0x3d507e153c4e78dbU, 0x3d1fca4ebb277095U,
  0x3d1f86253d78f347U, 0xbd155db7bc6b919fU, 0xbd5abdae3c141c37U, 0xbc35844d3ce812efU,
  0x3d17ac0d3d20bfe2U, 0x3d474dfb3bce8173U, 0x3d6b24203d357c13U, 0x3ca737c13be78b9bU,
  0x3d5cbc773cc9b143U, 0xbca55b093d784c81U, 0x3c479f03bcb77c2fU, 0x3c5e57ecbc0a59f9U,
  0x3b43b8493d16dbf2U, 0xbc1ab05abd5b8947U, 0xbcfd827e3c2aababU, 0x3d4611f93cc2bcd6U,
  0xbbf393f6bca70e46U, 0xbd292aa43d46471bU, 0x3bf456c13c37fc0cU, 0x3ca96e433c84a71bU,
  0x3d034a073d48ae49U, 0x3c82146c3d440304U, 0x3bf39ab8bd46b3dfU, 0xbd321018bd88bc53U,
  0xbd2eba02ba6901a8U, 0x3ca1199cbd885ea6U, 0xbc45885d3d6efbbbU, 0xbd457e7abc775349U,
  0x3b975d38bd2d9bfdU, 0x3bde8c953c59b933U, 0xbcd257b1bd449c5cU, 0xbc916bea3d3138eeU,
  0x3d0c006b3a0524c0U, 0xbd2133823d60b8f1U, 0xbd3ee9dc3cb6bc68U, 0x3bc9d232bd43cce3U,
  0x3d26fe6d3b28843eU, 0xbd316cf8bd1ffe41U, 0xbd667df5bcccc3eaU, 0xbcddb0b2bd1e22a2U,
  0xb98afcb03d189b03U, 0x3d12a859bba75513U, 0xbd193651bd48fbd2U, 0x3d464a4b3d198282U,
  0x3d5e474abd32b927U, 0x3c797b733ce78cb9U, 0xbd44e3f03d0a7607U, 0xbd1e40153d3e0a02U,
  0xbd5a092c3d4b9786U, 0xbc72f9e5bcb1bc99U, 0xbd64d7edbd41d8b3U, 0xbd52124ebcb45f83U,
  0x3d0833983d18d069U, 0x3ccd7ec9bbcd70c2U, 0x3d5bb5763c84be73U, 0xbc725993bcd01ce1U,
  0xbbc3b4483d0203b8U, 0xbcff0ac53c9b7fe3U, 0x3c34a1f3bb92f82aU, 0x3d8dcdeabcdf3897U,
  0x3caed157bc9b5499U, 0xbd5507c63cfe1ee3U, 0xbb48b7d83ce9c79aU, 0xbb31420f3d764554U,
  0x3cf5eecbbd1eb353U, 0x3d083fe23d141697U, 0xbb98ee8f3c303027U, 0xbbebc2b7bbd9f682U,
  0xbcb1c4f9bcd33deaU, 0xbcff1fdcbcda0b32U, 0x3d0d54cfbbd54f15U, 0xbc8d3dfc3ce50a6eU,
  0xbd38305c3d64df09U, 0x3d0978c03ce8feefU, 0xbba34c2e3d577394U, 0x3cbb5bc13c0fea1dU,
  0xbcac9a20bd38bfbfU, 0xbca46db13c9acb53U, 0xbd3c3b14bc9d257bU, 0xbb877250bb75920dU,
  0xbcda8dac3d3270bdU, 0x3d0de6283cbe2751U, 0xbd450f21bcea7950U, 0x3d20f7333ce84655U,
  0xbd84ba533d227f0aU, 0x3c8974c9bd028347U, 0x3d2af76b3b94e6abU, 0xbc43fc93bd295b9bU,
  0x3d1b63ef3b8bacd1U, 0x3ace2b62bd2383f7U, 0x3c8c12a53ca8bb6dU, 0xbd42e21dbce10c35U,
  0x3d523cbc3d195137U, 0x3d3b82c93d81f82aU, 0xbd076c46bba82f15U, 0x3c1b4c19bd097175U,
  0xbcc07d78bbbb09baU, 0x3ba833303d457134U, 0xbc8aa8f9bd0bb950U, 0xbc8e61d3bd19cda4U,
  0x3d3a0d453c9b2bd1U, 0x3d11a195bc8b5852U, 0x3d11892e3d485d34U, 0xbc43bffabc8c8514U,
  0xbc9ada793cb38435U, 0x3d3673d4bc3e2f77U, 0x3ade598f3d5276d7U, 0x3c3282e63d3e5a43U,
  0x3c8c3a663c64616bU, 0xbd63b7603d331da3U, 0x3ad9c211bcff415bU, 0xbd0fd1d03d26666eU,
  0x3c6fe7e13c776a35U, 0xbcb6ae79bd11939fU, 0x387956ec3ca1acdeU, 0xbd68be623cdc8442U,
  0xbacc002f3bab8be4U, 0xbd5ce653bd05fc50U, 0xbc5a94e1bd52a030U, 0x3da215ab3c0c7b95U,
  0xbd4fd9e4bd60c565U, 0x3d0d3fc73c836b37U, 0x3c4269bdbcdd5955U, 0x3bfe46113d2eb6f3U,
  0xbc56c1453d43b974U, 0xbd82e5f83cc79b3cU, 0x3caf2d36bb4bb291U, 0xbd3bb6a9bd1d8d9aU,
  0x3d0192ed3c9701d2U, 0xbd10fda0bd512a4eU, 0x3c07eb8abc65f6e3U, 0xbd7ee7323cf5c08eU,
  0xbcdadc99bcca4ee3U, 0xbca48ee33cf3fcf1U, 0xbd5f16cdbd505f73U, 0xbcf3b9773d3394e5U,
  0x3bc810343d282cbfU, 0xbbac0c4d3d7a40f6U, 0x3d475ce7bd46d445U, 0x3d103bd43d05572cU,
  0xbd151667bd0cc5f3U, 0xbcfbcde83a84f80bU, 0x3cafa425bd0d5914U, 0x3ce97eaabd3be8d7U,
  0x3cc5ac35bc819f44U, 0x3d20361d3cf18f0aU, 0x3cdda4f83d194c99U, 0xbc7552bfbcb44fc8U,
  0x3d0b88453d36295fU, 0x3d097b753d88ebf5U, 0xbcd8bc18bcc786e1U, 0x3c26b11b3d324f03U,
  0x3d235ad23c678ab5U, 0xbd26f4983b432bb5U, 0xbc7ffd313d1772f5U, 0xbc6a83c1bc6f98e0U,
  0xbccf6d363cc5272eU, 0xbd47c1dbbcb5c6b2U, 0x3d4e9c443d604b0eU, 0x3c6610b23c7c88afU,
  0xbd6442903ce3027dU, 0xbd41d235bc7f1908U, 0xbd4e3ff53cdd1fe6U, 0xbd00d5943d4e7679U,
  0x3cda74ee3c0c6f46U, 0xbc7bec19bd139acfU, 0xbcb722cabd34ef31U, 0xbd07cb4abc89e711U,
  0xbcb1ca0f3d5a15d4U, 0x3d2395fb3babce60U, 0x3bef45b5bd3b941fU, 0x3c1dfe13bd215c18U,
  0x3d4a245ebc28ee6aU, 0x3d125e1b3b2ba8ccU, 0xbba08b58bc8c95e1U, 0xbc96b4cbbc1ae551U,
  0xbd0c7a00bc2a43ceU, 0xbd1dca213d3dafc5U, 0xbd4c82a03d2f29dbU, 0x3d8272723d0d1d2fU,
  0x3d00a828bc528756U, 0x3a1f6820bd424305U, 0xbd42fca0bd3d29b4U, 0xbd5b821f3d5f9aa4U,
  0x3ce0767cbcf350a1U, 0x3bf057063d81646bU, 0xbd0c2417bd6dd5b9U, 0x3d29bed83d50c7e3U,
  0xbd643b2fbd3c24dbU, 0x3ccfaf483cc284e5U, 0xbd23326d3a06354dU, 0xbd7a1011bc9f7d81U,
  0x3c5ce86d3d05d3b2U, 0xbd2d941f3c5c7432U, 0xbd16a721bcde1840U, 0xbce80b8abd59808eU,
  0x3c87ebfe3d59d3d2U, 0x3d3a8c323d7eeee0U, 0x3d476d543d4b3f84U, 0xb948af053c9e2ad2U,
  0x3cd986d23bb6002cU, 0x3a7b3ef0bd4531bfU, 0xbcf1f1fdbd221eefU, 0xbd1731a1bbbd70d9U,
  0xbd4833cabd1fefc7U, 0xbcf65aea3d2f6d24U, 0x3c812bc7bcb51c0cU, 0x3c9b95253d1e59acU,
  0x3d09569b3bbe8ac3U, 0xbd2323f23c817bddU, 0x3cdcdff23d277bf6U, 0xbd3b774dbd14c3f6U,
  0x3ce9307abd6b0144U, 0x3c734399bd356a91U, 0xbd26b62fbd2dae09U, 0x3d3333d53d4fe014U,
  0xbccd08c13c33a69cU, 0xbc91c98dbc708108U, 0xbc2b93ef3d8679ffU, 0xbd15a9ed3c2ce8c5U,
  0x3d5d7e743d3bbd51U, 0x3bcc081dbd5f4fe2U, 0x3c15e6a23c50c738U, 0xbc79d5e4bc9aadadU,
  0xbbe4b4de3cf0a22fU, 0xbc8d6c16bd2beb00U, 0x3be7a123bb829d01U, 0x3d847801bbfdbfd9U,
  0x3d3a3877bc460355U, 0xbd696a4dbd4c6b20U, 0xbbea1b943cce1f27U, 0xbb467a5abb7394cbU,
  0x3cac05b73c9c8da0U, 0x3d192f403d102fdaU, 0x3d1481533ce0bef0U, 0x3cd1f11d3c565807U,
  0xbcefa98ebd2c2785U, 0xbd1316b53cbbd713U, 0x3b435bb9bd45f7c3U, 0x3d918fa53c92445aU,
  0x3d174a7f3d11097bU, 0x3c8f9f0dbd5ccd7eU, 0xbcfd9f6c3d5a5b01U, 0xbd5bc0a7bc6d5927U,
  0x3d489d22bc7c0816U, 0xba603123bd0ddcb6U, 0xbd112e953d394dc7U, 0xbd28aff1bd1e174bU,
  0x3c5444efbd6f1cb4U, 0xbc5ec8733c44569aU, 0xbbaeb077bbd5dc82U, 0xbcd74bbfbce1be8aU,
  0xbd0b08dd39bfd97aU, 0xbd1e9a5d382bd6e4U, 0x3d4525333ca8b0e2U, 0xbd0abe08bd0c869fU,
  0xbd47a890bd3b7ff4U, 0xbd3d76b53cd980e4U, 0xbd51e8f33c07c05eU, 0xbd28b8dd3baf86d6U,
  0x3cba4f3f3d1e74b1U, 0xbb80c6993c586cf9U, 0x3bec35373cdcb8efU, 0x3d33a19abcf7aa7cU,
  0xbd5fd7edbc40144fU, 0x3d5480c43b049395U, 0x3cedd3203d24fc81U, 0x3b0a2e4d3d287bbfU,
  0x3cde61153d69e801U, 0x3d40088d3d6cbb83U, 0xbc885508bd413303U, 0xbd126601bd405385U,
  0x3c113eaa3c8bd6deU, 0xbd4a78e7bccbed6aU, 0x3cb650223d0090f5U, 0x3d074425bd0fd2e0U,
  0xbd18f86cbcc410fbU, 0x3cc52637bcbca61fU, 0x3ca253d63b8e0b7eU, 0x3ca4cd1c3cde0849U,
  0x3d4a9c2d3d0e5163U, 0xb83977343d1a4722U, 0x3d207dc53d29ebecU, 0x3d8818ecbd4a526dU,
  0x3d1b8bfabd3de77cU, 0xbce6e9e0bd7888e6U, 0x3ce2d5893a16f50cU, 0x3d7bec873bde2498U,
  0xbd322ec9bd32eebbU, 0xbd4b0ceebcd66d49U, 0xbb9a0cfb3c290e91U, 0x3b2d262ebc7cad48U,
  0x3aec9967bcc41dbbU, 0x3c8f20adbd2efd69U, 0x3d371450bd0fb5d3U, 0x3cd5cde7bcc49994U,
  0x3c9c904fbb9bd724U, 0x3d5363f33b3dcdf1U, 0x3d49cd01bd2399ddU, 0x3d23701f3d267e61U,
  0x3cc52bb3bd1c1f70U, 0x3b8e5d653cdfcd0cU, 0x3a8aabf9bc883485U, 0xbd2d014d3bf88cb9U,
  0xbd14d3adbd0cbbe2U, 0xbbb18b54bd121d1eU, 0x3d1da14dbd45de35U, 0x3d11adb0bc6bc7caU,
  0x3bf8b381bcb6dc33U, 0xbd4af21ebcf36243U, 0x3cfb1da3bbcf1a33U, 0xbce262cd3d64884dU,
  0xbbb001643b9a7ca8U, 0xbd008deb3d058e39U, 0xbcfdd6443c4f8dcaU, 0xbd210e2d3d27e988U,
  0xbcb2b8d13d1b15d0U, 0xbd4a8387bd4bbb24U, 0x3cac0d01bd72d82eU, 0x3bfab51ebd6f50d4U,
  0xbd34484bbc022e8fU, 0x3c093b4dbc1a1d2fU, 0x3bdee1503c468166U, 0xbca6c911bc85499aU,
  0x3bff7cf83c44ffb1U, 0x3b40fa2e3af19933U, 0xbc03a9423c886a1aU, 0x3cb06425bc492b81U,
  0xbcde50d83caf811bU, 0x3d4360dc3d4abe6fU, 0xbd65da3dbd7aec83U, 0xbcf5d4b83b426156U,
  0xbd245bfabaa55ef1U, 0xbcd0c0663a525449U, 0xbc82ec863d074ff3U, 0x3c839cd1bb1a3b63U,
  0x3d0facc0bc1fec42U, 0xbcf722943d01834bU, 0xbcf24df5bcc7f62fU, 0x3ce8a7203d443c84U,
  0xbcf02575bd0bbca4U, 0xbce19eb7bbfce68dU, 0x3d0da56abc431316U, 0x3d33b02ebd5282eaU,
  0x3d48f3643d061774U, 0x3c74743f3d59e5fcU, 0x3ce8a81abc716d62U, 0xbd170a963c64c8c7U,
  0x3caaef8e3c892773U, 0x3cdb988b3c0735b0U, 0x3d09bdf5bd034be5U, 0x3d388aecbce77accU,
  0xbd1ad52abcbfdad6U, 0x3d3913f2bd7243eaU, 0x3cbbe49f3d4380e0U, 0xbb06e61cbcb64d98U,
  0xbcf1a99cbb6a6cc1U, 0xbd492a4b3ca9ba11U, 0x3c825b92bd3e7ea5U, 0xbd3e97d23d3f898eU,
  0xbcd9bc9e3bbc95fbU, 0xbd1ff469bd3336f4U, 0x3bf5ab30bd25832bU, 0x3bf4a9cdbcd275afU,
  0x3cc99d633c428a14U, 0xbcc7cc813b2249f4U, 0xbd38d4953c7f961eU, 0xbb88f2b6bd569f1dU,
  0xbd5cfbfdbc83d3b5U, 0x3ca9fa2ebd0ebdfeU, 0xbbe4eccc3d15f453U, 0xbcb12136bd06cb58U,
  0xbd283011bd35b00eU, 0x3d3b7697bc29e478U, 0xbb9012dd3ce10c87U, 0x3cb849503c02dddbU,
  0x3c09777ebd1ecc42U, 0x3c37868ebd280e74U, 0x3c60d3663c40c774U, 0xbd3accac39b19566U,
  0xbd29bf66bc938f9cU, 0xbcd2aedbbb3e36afU, 0xbca8c3eabd172b7cU, 0x3d416622bd4c7e46U,
  0x3bd3bc023d217765U, 0x3d47430dbc60b5e1U, 0x3cce7607bd0348a3U, 0x3b774712bd4c35f1U,
  0xbd22aa2bbc9e2f05U, 0x3d486a73bd61d610U, 0xbd6f9260bd51b4caU, 0xbc993b803d44f656U,
  0xbd2257cdbd28ece1U, 0xbccffc5d3c8a0db3U, 0xbd3902e63ce93764U, 0x3b9486a0bac8149fU,
  0xbb944b5abc5545e7U, 0xbc855b823ba82296U, 0x3c11cee53ac6c784U, 0x3c0741babd352c0eU,
  0x3d389cc5bc37593fU, 0x3d31093e3d562a84U, 0x3d0f97393d3f1362U, 0xbba4d560bcd713a4U,
  0xbc3b4bba3d49ba79U, 0x3d11a9d8bd250ff2U, 0xbc3b114fbc4cd152U, 0x3cf92a33bcc114baU,
  0xbd243dc73cbcfbadU, 0x3a7024fe3cfa602dU, 0x3cf958503c4e05bbU, 0x3d1f48ffbd3ae5ccU,
  0x3c3cd6e13d0c88beU, 0x3cf7edd0bd3337efU, 0x3d1b1d063d15ced2U, 0xbb50063d3c79d6d3U,
  0xbd21db1f3be28177U, 0xbc3060b53d113f4dU, 0xbd352cdd3cba8fa6U, 0xbd3f19ef3d0af814U,
  0xbd2feb6e3cd5ab1dU, 0xbc07c122bd5e131cU, 0xbc5059f43cb6ce7cU, 0x3cf9fe5fbcce5704U,
  0xbcdfd39c3b37abccU, 0xbd6a9753bd65c2efU, 0xbd0338c43d072460U, 0xbc31df57bc327a89U,
  0x3d04a0bebd20555aU, 0xbc8780a43d398b48U, 0xbcaf841bbbf59bf4U, 0x3beeeba2bc600d63U,
  0x3bab18363c7e3df3U, 0x3cf56ec1babdf990U, 0xbc3faed73d55c4f9U, 0xbd1ad7e9bb73e09fU,
  0xbd2af55e3d594f87U, 0x3ca08c6d3c1d7b0dU, 0x3d175fc93c3ee0e6U, 0x3bc8ec51bd1d4a93U,
  0x3d154602bc81c245U, 0xbd32306dbd4abfe2U, 0x3c6f7b7abb7370caU, 0x3cbeecf03cff0b28U,
  0x3cade98d3c9a1e74U, 0x3d0e8d74bc13c243U, 0xbd499e2dbd45fcebU, 0xbd459e85bbf69b8fU,
  0xbd0c7d663b763903U, 0x3ce209af3c8abbf2U, 0xbc7f2932bd38f322U, 0xbc8fe5c63c91b1c9U,
  0x3d26b7993cde1e76U, 0x3d73adfb3d0d3794U, 0xbcaa3855bd03cc1fU, 0xbcc7827ebcb89d5fU,
  0x3d17e642bcee26edU, 0x3cac2bc43d090f1aU, 0xbc8ad3c6bd2a9f16U, 0x3d3c2dd7bcf3d690U,
  0xbd67948ebc715711U, 0x3cd4d3d33ca2964eU, 0xbca9b0febd0a1ad2U, 0xbbfc7769bb245259U,
  0xbb0931a03c5de93eU, 0xbd18e5883ca059acU, 0x3ccaaf50bc411be0U, 0xbbf3a9f0bb21661dU,
  0xbd6ebd293b6cea08U, 0xbd00e8083d54838cU, 0xbd53ae9e3c27aea0U, 0xbcd981f1bd1f6c5cU,
  0xbb92f2b3bce45195U, 0x3cb259e33bd5afe2U, 0x3d73ad3cbd29c339U, 0x3c4e88edbce3b5e1U,
  0x3cf336763d574862U, 0xbc5a315ebc305e7fU, 0xbd0a07ef3bb927abU, 0x3b1a36cfbc4c5272U,
  0x3c87f4dbbd4dbeb1U, 0xbce510823cfca235U, 0xbd0b40493c77ec4fU, 0x3d532b92bd6d8e69U,
  0xbd436137bd10ce1bU, 0xbd23844dbca515a3U, 0xbcdc00cebd194d18U, 0x3cdd546c3d23b81fU,
  0xbadf8151bd24c7cfU, 0x3c80fd183d52336eU, 0x3c2f9f1d3c6d9367U, 0xbc3aea743abbc37aU,
  0x3d042382bcbff2e3U, 0x3c79ba44bb06203eU, 0x3ceaed8abb79d3d0U, 0xbc997b69bd239808U,
  0xbc0ee01c3b98964eU, 0xbd4dbc9ebced4024U, 0xbd082a0cbd0e76e1U, 0x3d669abebcbe4511U,
  0x3d635715bcd531c1U, 0xbd2637bbbd1f28d5U, 0xbd2458553cd0e8bcU, 0xbd2e457dbcbcdbb9U,
  0x3d12b03d39b7081cU, 0x3d447e7d3cb58840U, 0xbc206f13bd61297bU, 0xbd3b86aebd0664baU,
  0xbcba741a3c905848U, 0x3d18fe4c3d4fb7c3U, 0x3c0aa2c33cceff63U, 0x3b161944bd21f3ccU,
  0x3d3f1762bd62ef5dU, 0xbcc3093abc148345U, 0xbd537dc5bc7604edU, 0xbc52f1ce3d0e5d31U,
  0xbc9a85953d962cbdU, 0x3d136de5bd30e4caU, 0xbd484e9fbcfe02c7U, 0xbd5a95d43cd94bd3U,
  0xbcd27f19bd3908b2U, 0x3ce97ddfbc84c4e8U, 0xbc9ae004bcea7d44U, 0xbc386b1bbd052eb7U,
  0xbbb08f3abce060e3U, 0x3bc930ebbc5131deU, 0xbd5e45d5bd01848eU, 0xbcb0e2533c8993ceU,
  0xbc4ca22dbb86dfa4U, 0xbcc1bf66bd5b091fU, 0x3d4130523cc8c766U, 0x3ce98a353d31f79fU,
  0xba071f453cba06beU, 0x3cd18057bd05caeeU, 0x3bf6799f3c30a3beU, 0x3cd43ffcbd17e0ecU,
  0x3d5e9edc3c9f5b12U, 0xbb25191e3c76a280U, 0xbc446c65bd0e63deU, 0xbd5d2c64bc92a7efU,
  0xbd0c8dc6bbda3d35U, 0x3d5434293cdbc0c0U, 0xbd428eac3d031fc9U, 0xbd5d3f61bd4e655eU,
  0x3d1be6f53cf4c1acU, 0x3d419a8dbc8efb8aU, 0x3c54b0d73cb66fecU, 0x3bae3fd03d658d34U,
  0x3d05bd4b3ba45897U, 0x3d038b2abd6e5280U, 0xbd53e5663c1f01e2U, 0x3ce4fa81bd3f91d2U,
  0x3c3e74e03d154b49U, 0x3acaa4883d047c74U, 0x3d15874dbcfbdd2cU, 0x3b513ca93d2083fdU,
  0x3ce56e6b3d2078b5U, 0x3b9279293d517734U, 0x3d49b579bc0f974dU, 0x3d5d6479bccb6543U,
  0x3cad1479bd0b4597U, 0xbad407d1bd5ecc65U, 0xbbdaef43bce29ff5U, 0xbd1b9eb9bcb9189dU,
  0xbd0466d03c598703U, 0xbc113a31bc21c293U, 0x3d40360e3cb81db2U, 0x3d4b15843c1eb9feU,
  0xbb5126bebd1fcbceU, 0x3d2b9697bd0d7ba6U, 0xbd3ab88cbcfa2f9bU, 0x3ca92e043d1b54d6U,
  0x3cd5918e3d587828U, 0xbd3097393c37f57aU, 0xbcc8cbaa3d33ba8aU, 0xbc93bbad39b434b3U,
  0xbd488f92bb2a1aa3U, 0xbb895227bd5e77ceU, 0x3c5451eb3d29e652U, 0x3b875d82bc974a7eU,
  0x3d01c4d1bd0129ceU, 0x3bcc31c0bc8fe768U, 0x3c1aad1cbae25a3cU, 0x3d6a382d3b0462a3U,
  0xbd6489db3d3cdd64U, 0x3d1e27613d16d5e3U, 0x3d192fcf3cdcd193U, 0xbd245b3f3c13f0c4U,
  0x3c8168e53d6b1e49U, 0x3d50be56bd0d662dU, 0x3d5cc90f3cd6ff5aU, 0x3d18a0103c3038d6U,
  0xbd5251c63d6fa3b6U, 0xbd0e3a61bc9abeadU, 0x3d411c82bd5c77d9U, 0x3d3c66c53d526063U,
  0x3c1139f73cad3bfdU, 0x3d2f56e9bd75107fU, 0xbd1454d13d5ac40eU, 0x3bc47095bd44c0e0U,
  0x3ca5506dbcb4822eU, 0xbb34342f3d5405edU, 0x3d2298573d16e1e3U, 0xbc6e72043cfad5f7U,
  0xbc2aa3d5bccf2eeaU, 0x3d092a3ebcd26160U, 0xbc41052bbc52b187U, 0x3bc6b0373cef1795U,
  0xba4761f5bbea934bU, 0xb9d727993c524ea4U, 0x3d619251bcbe7b2aU, 0x3d45815dbc6c1fbbU,
  0xbd25b6b3bc00c469U, 0x3d665688bbe8e75eU, 0xbb2bb8fa3c805957U, 0x3cf2df0e3cde2bd2U,
  0x3be4a1c83d15bf50U, 0xbbe4611ebc5e6be9U, 0x3c5953b4bc4ea99bU, 0xbd4de9a2bd2f2d79U,
  0x3bc91e68bc91b31dU, 0x3c6178ef3cd248b3U, 0xbc729ca8bc783e68U, 0x3cce9ab2bd64752cU,
  0x3d1b4287bc7ba2c4U, 0x3d6659be3b23190cU, 0xbd589e11bd29a350U, 0xbd2a23143d4fadb7U,
  0xbd6f9c913d4bc107U, 0x3cb3a2debd7928a4U, 0x3c1f5718bcaf748cU, 0xbc8e0890bc8f55c6U,
  0x3ce66e983cf91dbfU, 0xbd5f870fbd21045bU, 0x3c85cdd9bca60032U, 0xba96a3f8b986ec43U,
  0x3ce7b8e03c392271U, 0x3c97c2093cb4ac4bU, 0x3b8ac0613cf1fd89U, 0xbd60b59f3d0fbb53U,
  0xbc3fdce8bc75e488U, 0xbd27db80bc8547d7U, 0xbd7038e4bc945661U, 0xbcaf11d33ccbcfd1U,
  0x3d5835863c74eb4fU, 0xbce437a9bc446ab5U, 0xbd341b60bd161831U, 0xbd7761383c9230b8U,
  0x3d1e64f8bbed3433U, 0x3d0e22be3c9bdd67U, 0x3c17b937bcaea4d2U, 0xbd2756623d74b994U,
  0xbc7cbe3c3d35d98bU, 0x3c32a2153ca7ffe7U, 0x3c870b75bc3327a8U, 0xbcc9f0e23d1c107cU,
  0x3d4b0c553d5cf048U, 0xbcb6376ebcc6ef01U, 0xbd0eca9bbcd9c947U, 0x3c890d6d3c6dd758U,
  0x3d6f10583d9130a3U, 0xbd2031bf3ca947f1U, 0x3cd739de3d23f21fU, 0xbccf18da3a2887ecU,
  0xbcb4e217bd157a3eU, 0x3bbbc9953d3300c9U, 0x3c105cad3ce00f40U, 0x3d62f02f3af544a2U,
  0xbd13be273d360d2eU, 0x3c3f20d1bc70f220U, 0xbca155623d490e4fU, 0xbc83019b3b81b546U,
  0xbcc96f10bccebcd9U, 0xbbfa27473d2045e1U, 0x3cbab6babcf38fc3U, 0x3ceb07433bc370ebU,
  0xbd4c5c9bbbe54f07U, 0xbd0289f2bd2273c0U, 0x3d365cce3cc2af13U, 0x3cc29b48bd28a757U,
  0x3c414d01bd1c33a9U, 0xbd029a103cb9e353U, 0x3d00b3673cbace58U, 0xbd0c7d10bc5ba626U,
  0xbd46a691bcba0689U, 0xbd741faebcb07426U, 0x3c96a593bd7380b4U, 0xbd2808d5bba20efeU,
  0x3d25e0b93cabace8U, 0xbd466eed3c3c885aU, 0x3d50eaeabd1b773eU, 0xbd5f9bd0bd2baf2aU,
  0xbc4d78f3bcdc4b82U, 0xbb02221e3b0ce640U, 0xbcd0a3253c90d9c0U, 0x3d96d38dbcbaaec7U,
  0xbd02f8f6bcfbfe9cU, 0xbd3874493d60105aU, 0xbc0a120ebc10d588U, 0x3cba8a973b1d05c5U,
  0x39b141a6bc5219dbU, 0x3cff92ffbd621f28U, 0xbc75dfb83cd77cf4U, 0x3d9019e93ca51daeU,
  0xbc2c74e93d1a907dU, 0x3b9378e8bc626645U, 0x3cf3e5843d1f495cU, 0xbc8c0bddbcac3aa3U,
  0x3ca5ca1dbd82d8a4U, 0xbd4931b43ce047a4U, 0xbbac86f0bcfdea18U, 0xbcc534053d36315eU,
  0xbd24fa7f3a3ad73cU, 0x3bea764fbc2d4116U, 0x3d1eedfa3d5819a4U, 0x3d310ea4bd38db42U,
  0xbc7240503c15d7bfU, 0xbd0186093bfdea92U, 0xbcd543c93d4bdd82U, 0xbcac039cbd52106eU,
  0x3c507d09bd0ad50eU, 0x3caa7169bd278597U, 0xbbbb5eb1ba4c2436U, 0xbd7730c83cd980feU,
  0x3ce477d73d219043U, 0x3d61bcd9bcb30d68U, 0x3d48cf7abd4f4fbbU, 0x3d0544aabd151f49U,
  0x3b98096cbca68077U, 0x3d133d593d13499eU, 0xbc8380d43d49dbbaU, 0xbceec798bb4fd46cU,
  0x3c9c11523c0986d0U, 0x3d32f771bc2494b1U, 0x3a414ad23d01428eU, 0xbc6b5833bd8d20c0U,
  0xbd1ba170bd58684eU, 0xbd02a60cbd5cc811U, 0xba239f3f3d2ff0eaU, 0x3d343264bd4f6563U,
  0xbc893a69bc95c017U, 0x3c88f92dbca366b3U, 0xbca9bb81bd3eb223U, 0x3d52bc15bca4c70bU,
  0x3c9344f3bb4bfb3fU, 0x3cd25aa9bd46b59cU, 0x3d1e14783ca2a859U, 0x3d2a5ddb3baf93f7U,
  0xbb2ca4923d22cf4bU, 0x3bb8efb83d3a7edbU, 0x3d24f16abb8b0328U, 0xbd1d79d6bc880775U,
  0xbc35dc153d0a27feU, 0xbc4ad53d3c28cedaU, 0x3d32059ebb6687f3U, 0x3d52b2c93d5e46e4U,
  0x3d676f15bd28b7d9U, 0xbd48211f3c8f747aU, 0x3d4926c63d811b8cU, 0xbcd19709bb4106e2U,
  0xbd3a9127bd6ba7c4U, 0xbd2e3acb3bba7d80U, 0x3c5b70053d559eb5U, 0x3d6a1b3e3d542385U,
  0x3c9aac05bc5b20e8U, 0xbbe2d9be3cff8652U, 0x3b6ae609bcad6f6aU, 0xbbaf657b3c97e3f3U,
  0x3d309236bd25c5b2U, 0xbd6b907ebcfdc38dU, 0x3cc3c250bd1feb92U, 0xbd59f9d9bc26952cU,
  0xbba2777b3cbfb963U, 0xbcd4efb53cb699cbU, 0xbceb6e76bbfbcf8aU, 0xbc58f6fbbd3df283U,
  0x3bf6dff93d0c2936U, 0xbd400a9a3d5f3bf8U, 0xbb81ec98bc877ff1U, 0x3c92b4a7bcbbccaaU,
  0x3cd83e4a3d00e93eU, 0x3bc0a3313d19b512U, 0x3ab7a79b3c9f7fcbU, 0x3bd422aa3d5b9335U,
  0x3d2298e5bd083108U, 0x3d46f9e7bc052505U, 0x3cecb466bd0f892dU, 0xbd340b193d2a3784U,
  0x3d6076d1bd085735U, 0xbcbf6c28bcd54de3U, 0x3cc74d2b3995a663U, 0xbd44e62dbcd6f775U,
  0xbd341b963d453e33U, 0xbd3da3493d4cf854U, 0x3d40c6bbbd0a3886U, 0x3d347ffcbcc83bf0U,
  0xbcebb1e1bd0524e9U, 0xbd517f29bce3a02bU, 0xbcaa76eeba561fcaU, 0xbd1c1d83bd4d6b07U,
  0x3c233a4a3c16b766U, 0x3bcb9077bc4fdf4dU, 0x3cd90b70bd607ebdU, 0xbd4ea65d3d21e834U,
  0x3c43644b3d090593U, 0xbd6185a83d186fcaU, 0xbd4bf614bd4dfa5fU, 0x3ce1fe1ebd24fca3U,
  0xbc1172733d04dfb5U, 0x3d002923ba8b25feU, 0xbd3b9312bd398335U, 0xbd17e9403d11f49eU,
  0x3c9cb1eabc188147U, 0x3cba5d5f3cd0b580U, 0x3d3e29c2bd476951U, 0x3c5574ba3a971b62U,
  0x3d0241b73d576710U, 0x3d42c548bd352e1dU, 0x3cf26b103d4c70eaU, 0x3d5c327ebc92f65aU,
  0x3c45728d3d0c73b7U, 0xbced59c23bf61756U, 0xbd55834bbb4ab360U, 0x3ccc295dbd242b32U,
  0x3d665ce1bd460b97U, 0xbd499c7fbcf2aa6bU, 0x3d013996bc55ccfaU, 0x3c80cb123d11e792U,
  0x3d44e7b1b89d9e6cU, 0xbc3ea362bd320e2aU, 0x3cdc35a5bcea3796U, 0xbc7f9ae3bd487645U,
  0x3cdbf8f8bd35c341U, 0xbcce40a3bcb2a56aU, 0xbcca54bb3ca2f8dfU, 0xbd6039693cd9a7edU,
  0x3c28d5d43cfa396aU, 0x3cab36b23d49da42U, 0xbb5c47ea3d5836a2U, 0xbc423bac3c23b28fU,
  0x3cd94b983c27ce0fU, 0x3c79884ebd2409e6U, 0x3d43a9323c8b0f70U, 0x3d5167c63d7006a7U,
  0xbb5493963c30eb3eU, 0x3cf49150bd3de1abU, 0x3c5aa8013d33eb5fU, 0xbcf66fd63c93505bU,
  0x3d5ad7ad3cd8ea85U, 0xbd3488183d6cc98cU, 0xbcd655bebc61904bU, 0xbc523923bd0867cfU,
  0xbd27d616bbaa2151U, 0xbd4f9ffd3bbb477bU, 0x3d53e039bd5952fdU, 0x3c9bf8a2bcd4f097U,
  0xbc08d5663ca13f50U, 0x3d5c57a4bc225cdbU, 0x3cc38610bcecefc2U, 0xbd220d47bd10bdc8U,
  0x3cc1b4d8bbcb0e22U, 0xbcbce4debcceff2dU, 0xbd495a35bc666ceeU, 0xbd0447b8bc07cb03U,
  0xbc4abb2e3bd188acU, 0x3c313ec3bd1f087bU, 0x3c32436ebcbafc60U, 0x3d2deeafbd6a221fU,
  0x39b185a83d27a715U, 0x3cc8d003bc010791U, 0x3d14fdef3c291dbbU, 0x3d19c1eabb424043U,
  0xbd57c4233d37ebafU, 0x3c5fb0cc3c886e80U, 0x3c7ba924bc771e67U, 0xbbfc27ac3c147d1cU,
  0x3b84bf253ae10f27U, 0x3d61a55c3c886c10U, 0xbb6b7e9c3d100ddbU, 0x3c97adb53d2b51a5U,
  0xbcfe9d50bd16fce7U, 0xbd352f32bd5119e0U, 0x3d0143ce3d30086cU, 0x3cf856d2bcd970e0U,
  0x3d18ee753d2aeda0U, 0x3c42c43b3bb9b820U, 0xbca3eb573d1bbe4aU, 0xbd33da1d3d339abaU,
  0xbd491acabd89a711U, 0x3bb0d4babd2199c4U, 0xbd3a363cbc15bffbU, 0xbcae2783bc24b6c6U,
  0x3d06c2bfbd13f265U, 0xbc71434e3d106ffcU, 0x3ca217583c8be52aU, 0x3cccfde0bc8a96ddU,
  0xbc9fcbe73cd9ef21U, 0x3d60c7f7bcb17f85U, 0x3c0703b8bd45f271U, 0xbd374f423caf85dfU,
  0x3d032fbd3c81f714U, 0x3bcdf06bbbb2df33U, 0x3cb69b47bd0c74efU, 0x3d2dc91d3bc363cfU,
  0x3c66031c3d1a8376U, 0xbc26bc2f3d57d56bU, 0x3d6c0ecc3c8e7c64U, 0x3d44f222bd356c2bU,
  0xbcc0b7eebc3ca303U, 0xbce2a7293bd7a6c7U, 0xbc8d5d293cb8b0b0U, 0xbba7337fbc2c210aU,
  0xbcb76be63d30cddbU, 0x3c2d74d8bd4ac94dU, 0x3ca2eced3d095ac4U, 0x3d5030723ce75c3cU,
  0x3c2852343c4fc8ccU, 0x3cdc660cbc90d931U, 0xbcf559da3c7b7553U, 0x3c9dee5d3d178ef1U,
  0xbd40c08a3d281e7eU, 0xbd230ce03c32ac90U, 0xbd542d1fbc3f8352U, 0x3ce00ac73b99217cU,
  0x3ceaf16bbc80675fU, 0x39f70a493d435637U, 0x3d08f62c3d46699aU, 0x3d320a43bd8ad591U,
  0x3d3f7ac63c8a4d0cU, 0x3c0cb963bcca7a66U, 0xbcec15e1bd6e7f95U, 0x3d19e2683d4d5a83U,
  0x3d32baf7bd3e824aU, 0xbb8febe5bd53e7b8U, 0xbc31a08f3be4c37eU, 0xbd6decf5bc2d88ddU,
  0xbd714bab3d52ec67U, 0x3d19175c3cb37579U, 0x3d3f13113cc0dfc8U, 0x3b9fe2503cbc7483U,
  0x3c7a3c63bcd91a48U, 0x3c92f0ab39fd7160U, 0xbd174ac4bd5303c8U, 0xbae4e17eb7e7b9f6U,
  0xbd080adabc4c0aafU, 0xbd27652f3d71b4a6U, 0xbd8bcdfc3d6577b0U, 0x3a8099b43d2f7f79U,
  0x3d24ac0f3d7c8f60U, 0xbd2a47febc554fbcU, 0x3d6f8812bc080d80U, 0xbc7764233b89e6edU,
  0xbcb1a9783c9df761U, 0xbd3665f53aeeb261U, 0xbd163c923d4d2e17U, 0x3c9a161fbd5b6c72U,
  0xbcc266513cbba86eU, 0xbc7c85f2bd42b090U, 0xbc790f4cbd36e56bU, 0xbccc78b73c8881f7U,
  0x3d2e53cbbd1bcaf7U, 0xbc1358c2bac76fbfU, 0xbcf064f83d5defe8U, 0x3c64e42dbd5d5d88U,
  0xbd23497bbd36f309U, 0x3d435a5e3c2cf6c3U, 0x3d268e1c3ccbce08U, 0x3d22494dbd62dcb6U,
  0x3d2138673cf45e2eU, 0x3d177b88bcf1ec55U, 0xbc2d685a3cb93e28U, 0xbc7467d8bb774de8U,
  0x3be98260bd32c42cU, 0x3d462cb8bce19490U, 0x3cd17dc83c8fa023U, 0x3d7234ec3c37e481U,
  0xbc81e2173cd59443U, 0x3d3a166a3d1124c9U, 0x3d20bf60bc88a2e0U, 0x3b7b7cbbbd3b0205U,
  0x3b9904af3baf89eaU, 0xbd1d33473cb74111U, 0xbc19f1c93d32d529U, 0xbcd811373c6c37e9U,
  0xbd44e2da3d0ca461U, 0xbc42abbcbd181f67U, 0xbd208acc3ce3104bU, 0xbce2eb8ebce438ddU,
  0x3c2801bfbb88ae02U, 0xbd6137573cfa05d6U, 0xbd394d8bbbc74454U, 0x3cbcd283bca4c1a8U,
  0x3c2c7e27bd42bd4aU, 0x3d475591bd174132U, 0xbd59de213d0bee42U, 0xbd6426d93d1188f5U,
  0x3b8da9953c8e705aU, 0xbd39305d3c818dcdU, 0x3d149556bd903cd2U, 0xbade6431bd13fc83U,
  0xbc870d76bd4f9d5eU, 0xbd6b5dccbd78cd01U, 0xbc0f3eedbc9bc6baU, 0x3ce6d2c73b451246U,
  0xbcd953c53d6c4b86U, 0x3b989a873d2973e5U, 0x3b9900babc857f22U, 0xbd4345f13c8723d8U,
  0xbd025618bcb7dc69U, 0xba91e9c4bd478f25U, 0x3d2522d03b31d1d4U, 0x3cd592f7bd2d452eU,
  0xbc955246bce83930U, 0x3d43673bbbc44b80U, 0xbcf79d273c507b5eU, 0xbd82aa7bbc642ef0U,
  0x3cddb0d93d26e759U, 0xbb4207f53c390a55U, 0x3c41f0083d5d3ba4U, 0xbd284c843cfbf48cU,
  0xbd49eb723d78e6f5U, 0xbb39038cbca118e1U, 0x3ce528b03b9d444eU, 0xbd3890dcbcd5c1d4U,
  0x3b5b81d13abbe5afU, 0x3d3b4306baf022aeU, 0x3cd72e7dbb0a83ecU, 0xbd3996aabcab4c9bU,
  0xbd19877bbd3e7147U, 0x3c7cf6e93d05ed49U, 0x3cc101acbc6c9aadU, 0xbb3d8179bd39a910U,
  0x3bad99163c2eb7c0U, 0xbc0419debd38eafeU, 0x3d3201a1bbb64794U, 0x3d172f6d3d65e22bU,
  0xbc2a7338bd3a401eU, 0xbcf00c513d8eed5bU, 0x3d261181bd05fb64U, 0xbcb78770bce1ba57U,
  0x3bec836cbd40e06cU, 0xbd4cfe8a3d42ee47U, 0x3c57d2143d14a441U, 0x3d2d6584bcb90490U,
  0xbda0eca2bc28f908U, 0xbd4337e23c13627bU, 0xbd52e6cfbd0bc75eU, 0xbd10a40fbc983be5U,
  0x3d5d2855bd73b7c9U, 0x3cf1d5b63cbd36f3U, 0xbd3a88e63d133502U, 0xb95bdc72bd0c7ae0U,
  0x3ce1a4d6bcbdd735U, 0x3c9fc6143d0e7c33U, 0xbc23261bbd098259U, 0xbd400f33bd5925dbU,
  0xbc41b6b03cae2a39U, 0x3c0f0c293c926af2U, 0x3d58bcbf3d33a921U, 0x3cdfcc38bd692661U,
  0xbc2ae042bc7c134eU, 0x3b6026b43ca39322U, 0x3d30b8843cf51a8dU, 0x3d2fe220bcd72275U,
  0x3c73f07d3c7e6f0cU, 0xbcc1ef71bd2d862eU, 0x3969fbea3ca07c66U, 0xbcf3c25bbd15efa0U,
  0x3d371043bd1d5cd8U, 0x3d290ca0bd447b4dU, 0xbc79f4523c9ec4d2U, 0xbd2621fbbd1424d3U,
  0x3d2fa11f3c9f3da2U, 0x3d763707bcf8b2b1U, 0xbca47c593c9dc95cU, 0xbbc1c386bd22ec21U,
  0x3c1720d9ba51bc5dU, 0x3bf6f86f3c2943afU, 0xbd1b5ddb3d43899aU, 0x3cbfa74c3c8ee790U,
  0x3d0546423c9e582aU, 0xbcc48d06bd0e794bU, 0xbc3fba7b3c2ab28dU, 0x3c525321bd6747e6U,
  0x3cf512f5bd1f58e3U, 0xbcf85ba1bd0147e8U, 0x3c3d77663d280548U, 0x3ad5d8a5bd144754U,
  0x3d475d3b3c7d3302U, 0x3a2bb39cbd687dacU, 0xbcf33b983b248aa7U, 0x3c3298fc3d460706U,
  0x3c0444f53bac9318U, 0x3cc7b5c23bd84fa7U, 0xbcc97f91bc95c8afU, 0x3d2f31983d7d4aa7U,
  0xbc10ea6a3cb5885eU, 0xbd6893d83d8c1149U, 0xbd173b2cbd4ca877U, 0xbc69cd2c3d3156dfU,
  0x3c50f2303c02c923U, 0xbd28b6513cc36d7eU, 0xbd9be41a3d0f6f47U, 0x3d2eb6343d0c4878U,
  0xbd86449c3ca070e4U, 0xbce694e5bd015457U, 0x3c594fe0bc683e1cU, 0xbd3e793e3c991bc8U,
  0x3c4fdaeebd6db7f9U, 0xbcb25a163d39785aU, 0x3d3643e33c4c4e07U, 0x3bce67d83d25bf54U,
  0x3cbeb48839c323a6U, 0x3d387ab2bd0da6daU, 0xbbb15cf0bc8ac9baU, 0x3d0ffcacbca809eeU,
  0xbd8b71d43d58c3eeU, 0xbb8413d03b85fdd2U, 0xbd0038df3c4791b4U, 0xbaf66e403c0541a5U,
  0xbc82bc4a3adf6ffaU, 0x3c34d000bc6c413aU, 0xbd0223e2bd48d0cdU, 0xbd111f673ca38424U,
  0xbc3fff373b30b0b8U, 0xbd4bfdb43d0b675fU, 0xbcdc89923a1aab2aU, 0x3cf998c53d1aa0b5U,
  0xbc8cb032bc044c1aU, 0x3d65f4093d4c5316U, 0xbd0071d4bd413dd0U, 0xbd310fb13d6d540fU,
  0x3c0025573ce3b37aU, 0x3ca5d1023d29551eU, 0xbc83e568bbdb8631U, 0xbd2f4a3e3cb61ce6U,
  0x3cf5481938f61795U, 0xbc34303c3cecb8b3U, 0xbd0a9bde3ccebf9cU, 0x3cd50fdc3c13a369U,
  0x3c70f3db3d854d2bU, 0x3cf0981bbd22f0a9U, 0xbcd354af3d62d970U, 0xbcc4a0b5bd6c8a49U,
  0xba8980a63af09d92U, 0x3d5e82243a2a18c9U, 0x3d2c21debc8ddf28U, 0x3d471920bd47ff0bU,
  0x3b8ba327bcaa22b7U, 0x3c0b7bf3bcb5c1baU, 0x3c971e74bd6e6e75U, 0x3d653331bce95f56U,
  0x3da3e1a3bc19d397U, 0xbd11ced03cce276cU, 0x3d1152803bebc2fdU, 0x3d87073f3c80c199U,
  0x3d23eef23d63bcffU, 0x3cf78525bbbee87cU, 0xbd49f104bcc825f1U, 0xbd0adce6bd1c2f80U,
  0x3c9c064c3d6a83faU, 0xbc378c88b9625ca1U, 0x3b527a83bd63f4e4U, 0xbd3b2e5fbd25ed31U,
  0xbd6cf1123d670aa5U, 0xbd421d673b079bdeU, 0x3d23d93a3d46b74cU, 0xbd15cf18bd906540U,
  0x3d1572553c12ec94U, 0xbd422cabbd2564fdU, 0x3ca450efbc54e924U, 0xbb98000c3cca5fdeU,
  0x3d371e2fbd66efa4U, 0x3d0abe413d5b97bdU, 0x3c22bad93d00c3ceU, 0xbc4779bc3c1ad660U,
  0xbb05cd0fbd173f9fU, 0x3cde79c63cf6cc7dU, 0xbd3d9e7ebd3aa139U, 0xbd8717debd47478aU,
  0xbd4c73203d0dddb3U, 0xbb78bbc63d0d05d6U, 0xbcc5c39bbd04a5cfU, 0xbd38b91b3d3c253fU,
  0xbc524ef53d361c5cU, 0xbd4bf3d3bc600619U, 0xbd511398bc6ea72bU, 0x3d065090bcaaebbdU,
  0xbcac1d473d6ca7f2U, 0xbcd5b2e2bd1ae956U, 0x3d6b0849bb46de8aU, 0xbbcb27f3bc9371f6U,
  0x3d65a735bd6070bdU, 0x3b8f31513d513f01U, 0xbbd4e2c5bd1a93afU, 0x3d30788ebd75af68U,
  0x3ce8f00a3d115763U, 0x3cc09cdcbd01947eU, 0xbd38b5f1bd6ee0d6U, 0x3b905ffa3d8263ddU,
  0x3d55dfe33c893789U, 0xbd0bd8483b8559a9U, 0x3bb6236ebc214c9eU, 0xbd5f11703d3a0291U,
  0xbc060b2c3c484dd5U, 0x3d5e6b433d38f44eU, 0xbbda657f3d3498b6U, 0x3cfc7250bd3ac83bU,
  0xbcc48cc83b942639U, 0x3d45936e3d837b6eU, 0xbc3ddba4bcf4cc1cU, 0x3a1f3ca13c92f7dbU,
  0x3d860b333d249a40U, 0xbc6e1400bd276b23U, 0x3d12a5083d7c4508U, 0x3be25775bbc87421U,
  0xbd1e6186bd4fbe24U, 0xbd1ceb073d8d2205U, 0x3c5552a7bd15cae8U, 0x3ca1755f3c5fed75U,
  0xbca82783bd22e312U, 0x3cec02a53d697a67U, 0xbd4e7d273c01b282U, 0x3cd64596bcc04b0dU,
  0xbba9566ebd1772ecU, 0x3d27c8ad3d2fffafU, 0xbcba4ece3d612cbbU, 0x3cf0a508bd8f41aaU,
  0xbd3138aa3c91b12aU, 0x3c4884d2bc91a52aU, 0x3a91cf583cc1e83bU, 0xbcb28febbcdc5eeeU,
  0xbcb041bcbd09d8eaU, 0xbd67c4af3d4d8292U, 0xbd42b5e6bca03a80U, 0x3d1a9acf3c7c1bf5U,
  0xbc665d6f3c266256U, 0xbcdb83563cf66af7U, 0x3d0ff06cbd0b3ecaU, 0x3d318377bca441e3U,
  0x3d2e4537bc6bab24U, 0xbd22966d3c5e8eccU, 0xbccfb60a3c5037fdU, 0x3d2e00d6bd571703U,
  0x3d4bb0e43b51f054U, 0x3d54b40c3d03e66bU, 0xbcbf8f0f3aea9cd7U, 0xbd702820bd5347c9U,
  0xbceee0e03cb2fcfdU, 0xbc25d778bd25cfc4U, 0x3d2269d4bd36a12cU, 0x3d48b8bfbc098064U,
  0xbd37081d3d0140c2U, 0xbc308c693d431f2eU, 0xbc9fe54dbd55b247U, 0x3b930dc3bd459fa9U,
  0x3cda8e273d4631c4U, 0xbc250ae83d265bdaU, 0x3d0b2a2e3b5a6d01U, 0xbc951fafbd86ff14U,
  0x3d16dd61bcc5a095U, 0xbce7c5643c2e2886U, 0xbcd249833d1a0a14U, 0x3d12a0853d1889ebU,
  0x3c964dbabd0ddf6bU, 0xbd0bad243ced180eU, 0x3cdc5b873d3f70eaU, 0xbd5bd5193c26cb46U,
  0x3cfbc45bbce789a9U, 0x3c8417bebd44d206U, 0xbd5993afbcb64564U, 0x3cdd548cb9c1cb7aU,
  0x3ce65056bc0baefbU, 0x3d17389d3d1c7908U, 0xbc091e103d4b41e4U, 0x3d61dffebc2cb80cU,
  0xbd4c3344bd48660bU, 0xbcd83903bd36b63dU, 0xbd2bc98abbfc476bU, 0xbc54188ebc8fe491U,
  0x3ca22e86bb9b33fcU, 0xbd21fd703d461ce2U, 0xbd33822bbd385ffeU, 0xbc1122ccbd43bde6U,
  0xbd253480bd449811U, 0x3c06cf2dbca32a6fU, 0x37692fa83d10f745U, 0x3ce9ed62b9cbe20eU,
  0xbd44f1263c71f611U, 0x3d0d606a3c1e41a6U, 0x3cc7caa63d447473U, 0xbd3ebae7bc3bdeb8U,
  0xbd0a3a093b75fdf7U, 0xbb2c78583d4d7436U, 0x3d161b4b3d3869feU, 0x3d84df17bcc3344dU,
  0x3cd3e05fbd295fd9U, 0x3c6627d83d5c32c0U, 0x3d274e333d6a6c23U, 0xbd2367cdbd5e71dcU,
  0x3d0c36f9bd255816U, 0x3ba5bda83ccbc22dU, 0x3d6d7e463d6b79efU, 0xbd0c131abc2f5a7fU,
  0x3cce6f133ce5d95aU, 0x3d2965d7bd585416U, 0x3ca26ef73d2432b8U, 0xbd1e0ba5bd8de155U,
  0xbcebcb67bcd42376U, 0xbd5244ef3c163fb4U, 0xbd63a6743b87a389U, 0x3b1e4c3f3d48e6a0U,
  0xbcc79b2e3b820fe2U, 0xbd25dd5cbd4cd6a8U, 0xbd7b172c3cdec0e2U, 0xbca1c13bbd5f1c6eU,
  0xbd68fe8dbcfc162cU, 0xbd5090843d1aa77cU, 0xbc6932343d35ca89U, 0xbda2f5fbbd3a7c61U,
  0x3947f13d3d39e860U, 0x3d1244f3bd306e3fU, 0x3b9e5858bd522633U, 0xbd3f6cc13c0f703aU,
  0xbd193820bc137e51U, 0x3d6db1a23d1023d2U, 0xbc48823d3d747099U, 0xbc9b13c7bc828c0eU,
  0x3c3b1a433d020f62U, 0xbc465fb53c8da1eeU, 0x3d5fc42e3c596f8cU, 0xbd6656d43d4b1424U,
  0x3bca5dd83ce1a4e1U, 0x3d3fcf773cc4c426U, 0xbb8c4cbe3d3c53a4U, 0x3cd4af493d04ccd1U,
  0x3d4b7e4fbd18156fU, 0x3c94ed9c3d16e2f5U, 0x3cf688883d208750U, 0x3cdef0eb3d00e491U,
  0xbcde42583a32b184U, 0x3d6c49ea3bb29944U, 0x3ccea92e3d4818f2U, 0x3c2326d13d2dba2eU,
  0xbca13f573cee0473U, 0xbd3717f33d178492U, 0x3b253c3bb9781aaaU, 0xbc8ef7cebbdebb83U,
  0xbd60ed643d5026d2U, 0x3d3051653db1788dU, 0x3cd58e7d3c3af910U, 0xbd135adc3b434e3dU,
  0x3cd20186bd3f350fU, 0xbc848cd93d5a32d3U, 0xbd3b424fbd5df2adU, 0x3d53e0f43b7ac9a0U,
  0x3c547ce13d4a2044U, 0xbbb3bb81bce241ccU, 0xbbc9ddbbbc9c9e25U, 0xbcaef795bc9a25ffU,
  0xbd6bde4dbc864436U, 0xbd3c545abd991f5bU, 0xbd1985f63bf7fd1aU, 0x3b51dcd6bc8883f5U,
  0xbc6512c5bccbebb2U, 0xbca95b7ebd79ed2dU, 0xbc341085bb666ebfU, 0x3b8f3ef93a88d451U,
  0x3c45e983bca1dcfbU, 0x3d32965f3d1290eeU, 0xbcdaddeabd688e02U, 0xbd857d273cf974f2U,
  0xbd22a047bd46f728U, 0xbd6064713cb4f893U, 0xbcb2a494bcb77da7U, 0x3bfe86a13d0b3c28U,
  0x3d22caf5bcfa0af2U, 0xbcb94b2dbd0e2b1eU, 0xbbfe5311bd5b934cU, 0xbbf6419cbd36cdccU,
  0x3cf1c01c3d1571e8U, 0x3cd1a55dbc9e0153U, 0x3c3c72643d3053d8U, 0x3b91c0ccbcc102d1U,
  0x3d59e640bd34abefU, 0x3d29e8b83d0a1bcfU, 0x3b93c128395c1090U, 0xbd5c84d9bcd070b1U,
  0x3b2e66a93d59e412U, 0xbcc685bc3c6fc434U, 0xbd2b205e3bd537a6U, 0xbd3016d13d701c2cU,
  0x3d24b4a6bc28e465U, 0xbd2bfcedbd01a802U, 0xbd3255c0bc6116a8U, 0x3d4ac545bcd776e6U,
  0xbc2d0344bcba3658U, 0xbc4bb4c33cf9e99fU, 0x3c7a73ecbcd50137U, 0xbd5fb88cbd243decU,
  0x3c9b8b72bbfdc175U, 0x3c328faabd0b5297U, 0xbd36b0eebca1f4e3U, 0x3ccfcd863d13892eU,
  0x3cd2a1c3bb9010c0U, 0xbd5963bfbd31ba75U, 0x3ceff6c83d04b33aU, 0xbd5bc6783d05f16eU,
  0xbd2e7720bd447b16U, 0xbd041deb3ca82a51U, 0xbd3c30d13d14b49dU, 0xbd90ff933c328df1U,
  0xbd27f9bf3ccc8464U, 0x3c43670c3b61038cU, 0x3d309a9b3d337b00U, 0x3d2c569bbc4da8eaU,
  0xbcc3de123d0c5487U, 0x3d3fb7003c11186fU, 0x3ce282303d1711edU, 0xbd845e25bc203f33U,
  0xbcdddac93d6f7521U, 0x3d00c28c3d02fc2dU, 0x3b17d11d3c83be9aU, 0x3c777b9d3c9ad3c3U,
  0x3d3b122dbd23c670U, 0xbd48e15d3d009ebbU, 0xbd5eb46f3d43d0e6U, 0xbc6d76fe3b489fa8U,
  0xbb7c494c3c3cbce0U, 0xbd22f69e3c969fc9U, 0xbb47171bbb8472e4U, 0xb5fb91803cccc673U,
  0xbd684ff73ca5a4e6U, 0xbd6ab52d3d399aa6U, 0xbd6f0c893d0b683cU, 0xbb26a05b3a2e4113U,
  0x3b7b34363d4f738cU, 0x3b7727773cce887cU, 0x3d0cedb43cbad8e1U, 0xbb869e38bd1af079U,
  0xbd5bf130bba614a8U, 0x3d18c7603b265e64U, 0x3d2f2a6ab9d3aef0U, 0x3d15d133bcd68eedU,
  0xbca4e0dbbc5cf96eU, 0x3b754638bd24fdddU, 0x3d0401bebc770a84U, 0x3cde04493cf8a09dU,
  0x3d455b97bcaec840U, 0x3a86c18a3b6b3138U, 0xbcc6586dbd3bdb8eU, 0xbd702da93d613c62U,
  0xb92ef0083da318a1U, 0xbcb68960b9d40152U, 0xbd3a91133bd61f1cU, 0xbcefc5423cbb6e62U,
  0x3cc75a6a3c23d746U, 0x3cea64313c5fcc0dU, 0xbd571d3fbd2c23bbU, 0x3c16e7e3bcf3a773U,
  0xbc11bbbb3d3ab09bU, 0xbc8ff484bd0ac896U, 0xbd5275a83d5d83faU, 0x3d5645213c06ff4fU,
  0xbd61a66b3c86ee5cU, 0x3cabc935bd32fedcU, 0xbd5056b83b39c3a0U, 0xbc98278cbcae7af6U,
  0x3d0e66bf3bc2604cU, 0xbd44c76f3bdb831bU, 0x3be05240bcfacfa9U, 0xbd811edbbd873b7aU,
  0x3cc3ba10bc46c8e7U, 0xbcb6eac53cf60bc0U, 0x3d704d9bbd345aecU, 0x3d05bede3d5b67fdU,
  0x3a93f4e93d10d203U, 0x3c8bc21a3c51d7b7U, 0xbd023aa93d5db69bU, 0xbd2a2a1dbcef8c25U,
  0xbc888c823cb1234fU, 0xbc8444d53cdf7693U, 0x3c9ab869bcdc3824U, 0xbd0317febd64c006U,
  0xbd0d7f68bd1aedacU, 0x3d1047b9bd29daf2U, 0x3d000f883d5d6f71U, 0xbcea8c6c3c289582U,
  0x3c25ed8dbd083127U, 0x3d5b65bcbd60091eU, 0x3cad188ebcd21394U, 0xbd586272baf0579eU,
  0xbcd3eb883ce7508bU, 0xbd49387ebd20152bU, 0x3d048d643d026559U, 0x3c47b87b3b1846d7U,
  0xbd087b593d079816U, 0xbd3f12733d18a27dU, 0xbd07d4753c6210f1U, 0xbda32dfbbccbc557U,
  0x3d5afcd83cbbd527U, 0x3b6858c83c32e4cbU, 0xbd512030bc04fe9aU, 0xbcebb5433ce06ff8U,
  0xbc225878bd49a6eaU, 0xbcf362313d25ebd4U, 0xbc76710dbd178a97U, 0xbca31aeb3c33e668U,
  0x3d1a8d283c24911dU, 0x3d2067973c1aaca5U, 0x3c5e0635bd082cc5U, 0xbceb1b1f3d89b923U,
  0xbcd96896bbf2dceeU, 0x3c7a1128bd5e930eU, 0x3d1b0885bc389a04U, 0x3d30e7d73cf4956aU,
  0x3d326f293d4f0ce0U, 0x3d670b44bd3336f4U, 0xbc9c89ab3d5097efU, 0x3d48c9863c8ca29dU,
  0x3c1c2743bd17e6e9U, 0x3c4f225c3c94d6b3U, 0xbcf43f80bd3cb6e4U, 0x3d4f98aabd55b8d0U,
  0xbd2acc9d3c29bec1U, 0x3c46c9143c3b7eaaU, 0xbc903fe23c82ae22U, 0xbabcf1f5bc15fd94U,
  0xbc6fe2d9bd35ed3aU, 0x3d5b85c1bc3f2a1dU, 0x3bb48bb33d5cddebU, 0xbcd9aa3c3c4ddad2U,
  0xbca6d4f2bc3a7472U, 0x3ceeeb583c41a133U, 0xbc16ea603c9700e7U, 0xbceb55f7bc9caff2U,
  0xbb8a8350bd7e35a1U, 0x3cb717f23cca4427U, 0x3cac39bdbcb6ab54U, 0x3b4b42b63d392e2bU,
  0xbd1204f0bb3999b4U, 0xbbebdab9bd7a8dfdU, 0xbd4257d4bc97217aU, 0x3d593bd4bcde3c12U,
  0xbc96cbfc3d1cc287U, 0xbc50efc53c379544U, 0xbb029688ba835405U, 0x3d1e62dfbd68075dU,
  0xbbc5f209bc8ca876U, 0x3d3fe902bd4d7114U, 0xbd07685dbd424724U, 0x3d714f323d00f409U,
  0x3c7ee6d83d47fd1cU, 0xbd12adff3c3f28f0U, 0x3d185aa8bc880eb6U, 0x3c362977bd354408U,
  0xbd0c989abbe7bc5cU, 0xbd2cee713d31fdc9U, 0xbd99c4023d01b73fU, 0xbc8311d9bc82a396U,
  0xbd2ee7cdbbeffee5U, 0x3d51b696bd1a2480U, 0xbd32da3d3d49603dU, 0x3ccbf6f6bcf065cbU,
  0xbd54250abcf38b71U, 0x3ccd3a44bd84c964U, 0xbd5ecfacbd0a1a34U, 0x3c19c6e5bc1743b6U,
  0xbd4fa6563d71917aU, 0x3d5c20ce3d493b7dU, 0xbd20e5da3c380537U, 0x3d691401bcaac8e2U,
  0x3d016f9c3cf0c756U, 0x3b7ac23a3d0554c5U, 0x3c63ce573d7791b4U, 0x3b919299bcb93e46U,
  0xbbcc5645bd73cf55U, 0x3d122e903cb94305U, 0x3d648530bc832aecU, 0xbd2afef8bab62d18U,
  0xbc95e2653b216a97U, 0xbd5c786cbcbd6966U, 0x3cfcb6153d05dce8U, 0xbca37cce3d2bc9ccU,
  0x3b6c1a6ebd30f27aU, 0x3cceca4fbd2bca34U, 0xbd51de34bd232b3dU, 0xbd258ae7bca6ce6cU,
  0x3c4fac953aad9606U, 0x3d44d451bc05214eU, 0x3c391d3f3be87f0bU, 0xbc21acfd3c80bc9cU,
  0x3c92c9d13c8c5111U, 0xbd4991dabc1c906aU, 0x3d468b1fbd5e93f3U, 0xbba3b5bebcdc3a29U,
  0x3d018b0dbd3752ecU, 0xbcb0da023d448239U, 0xbd288970bbd82bd4U, 0x3ce4b4aa3d62b72dU,
  0xbc88728ebca7afc5U, 0x3ca6d99d3d165928U, 0xbc24f046bc9d7df4U, 0xbc31237d3d682ba1U,
  0xbd5d5c6e3cc152fbU, 0x3c9222313d7d2b2aU, 0xba61db74bd240916U, 0xbd1d27d3bd11c475U,
  0x3c1eb93a3d020a87U, 0xbce196c03d239492U, 0xbb8574403ce92d58U, 0xbc5a42e6bd581937U,
  0x3c81e50c3cdcd5eaU, 0x3bb1fb283d66d8dfU, 0xbbb6b633bcc1f425U, 0xbd203e37bd2c88c9U,
  0xbca5a1d6bb50aba4U, 0x3d1b47993d563cb7U, 0x3c4f0250bcb3d11fU, 0xbd14abd6bd63486dU,
  0xbd48dd2ebc551ffcU, 0x3d1cb28d3c8cdabdU, 0x3d2a278dbbca8ccfU, 0xbb12e49b3cb660c3U,
  0x3d0c17ce3c15d67dU, 0x3d5298ba3ccbbeb4U, 0xbd3ca10bbd54eeb8U, 0xbbdc5040bc41125bU,
  0xbd0cd0603d094641U, 0x3ca59fbdbd46c598U, 0xbd01172a3c892a1cU, 0x3d07bf9e3b4efce9U,
  0xbd40896c3cee5502U, 0x3c84231bbc8f820aU, 0x3c89c6e0bd2fcf39U, 0xbcb1b3e53d17e325U,
  0xbb8ccf163d02191fU, 0x3d5fea933d1cbb6fU, 0x3d25ae2a3c1dc581U, 0x3d18d402bcf66da9U,
  0xbd4b7a3f3cac8a1eU, 0xbb5b18023c71f684U, 0x3d13dddbbb2a6747U, 0xbd05e53abd254725U,
  0x3d858bea3b34feaeU, 0xbcb1178abca1ec2aU, 0x3d131e35bcf9c59bU, 0x3d7f7b7b3dac9c1aU,
  0xbd55abb5bd2726bfU, 0x3c0288993ac3d87cU, 0x3d238f7c3c174b5dU, 0xbcaa0031bd63a4dbU,
  0x3bb6255b3c4e76c7U, 0x3c3a82543d49f34eU, 0x3d1c042c3c8f8611U, 0x3cdf282fbd25585dU,
  0xbd0e153bbd1fe5f3U, 0x3c47d34ebd0e31ccU, 0x3d4f7ce03d0feeeaU, 0x3c96df6ebcaa4e00U,
  0x3c051c20bd032c85U, 0xbca3cb9e3bd84c2aU, 0xbc3c0f34bd4e9e97U, 0xbd4bdd5abd444e98U,
  0xbd4d2de8bbc2fca4U, 0xbc5c6af7bd451102U, 0xbc096809bd2feaa1U, 0xbc9299bc3c515fd6U,
  0x3d0ab93a3d604c8cU, 0x3d678f793d049ce4U, 0xbd4f7b6a3d6e7ddcU, 0x3ca035f0bce8dd79U,
  0xbbf85467bc8496eeU, 0x3beaa35d3d26e029U, 0x3bcde7a4bcb51e96U, 0xbc52ae1b3bc75370U,
  0x3c4ff7babd188568U, 0x3cbf1d233bb987eeU, 0xbd8de67e3d2c3f35U, 0x3be1f8bbbcd957a9U,
  0xbc8aa0ea3c652177U, 0x3d66c604bb6cbe68U, 0x3cc75377bd49ae09U, 0x3c4956e7bd83b4a8U,
  0x3c97274bbd5dfb95U, 0x3cc11649bd17ac67U, 0x3d2855febd4dafeeU, 0xbb8f47483d4b1ac1U,
  0xbc40b40c3d158a6cU, 0x3a0cb2f7bd5f3cc2U, 0x3cad872dba6c3875U, 0x3cd00487bd1ab5d4U,
  0x3cbe829e3d4c1cdcU, 0x3d336b5a3d1fef36U, 0xbbe6fbca3d2a8ce7U, 0x3ce4941a3d2dda63U,
  0xbd1bf3a7bc86ab9eU, 0xbc949a2cbd095735U, 0x3d039ae73c31dafeU, 0xbca1ef163cc4effdU,
  0xbcb4513bbc55e114U, 0xbd41c7593cfec547U, 0x3cc710f6bd11790eU, 0xbd1662acbbdd7eadU,
  0x3c8ff1e23a9d7eb4U, 0xbcffc9f1bc43aa8aU, 0xbc8e83c0bcfedc57U, 0xbc3c45923cea1312U,
  0xbceafc58bcc56943U, 0xbc6408ed3d542bc5U, 0xbd7bb6383c12522cU, 0xbd630035bcd63e41U,
  0x3c5251453bcdc61aU, 0x3d3272573d6131d4U, 0xbb52e72b3cab728fU, 0xbd23f209bc60e58cU,
  0x3d41a2d53d1b0437U, 0x3ce214ff3c07de41U, 0xbd42876d3bf25e97U, 0x3b947bfb3d2feb96U,
  0x3d4b29edbd584f29U, 0x3d09ad2e39089b3eU, 0x3b29fab1bd0cb797U, 0xbd0f76873c814ac6U,
  0x3d08bdd53d1d678aU, 0xbb4e97383d449b08U, 0xbcee1ae53bc1e2abU, 0x3d0ef515bd7e06dfU,
  0x3c3fa018bc5201faU, 0x3bfc48f3bcbfc4e2U, 0xbd2d284a3d6f4a07U, 0xbc868745bd89c02eU,
  0xbd01ed0bbc8d36e1U, 0xbd5ec2c83d9093a1U, 0x3d398ff8bd470d46U, 0xbcb3a225bd6d7046U,
  0xbd6490433c7c47a6U, 0x3cf3d4b23b787690U, 0xbd853d12bbd760afU, 0xbd6744063c94561fU,
  0x3c026f45bc5f266aU, 0x3d4f202e3cc999dcU, 0xbc508ae3bb82738cU, 0xbd57859e3cb50e8aU,
  0x3d154f62bd77c4aaU, 0x3ca796aabd10134cU, 0x3b1c3bccbc7f30fcU, 0xbd14d8b83d00482aU,
  0x3c50799ebc887adaU, 0x3bdf4d4cbc9190b6U, 0xbca3ef793c7f45fcU, 0xbc1706393c71b406U,
  0x3cc176fcbca9bf77U, 0x3c232f5fbbe947f2U, 0xbd671d0a3cba70e8U, 0x3bdd25f8baa50012U,
  0x3cb2b950bcc0e50dU, 0xbbb3617dbd6fce88U, 0xbc15b8d2bcc4f447U, 0xbc2bda693ba9db5eU,
  0xbd6b56703ca982b7U, 0xbc3c03a73c60a5eeU, 0x39f882a2bbed79feU, 0xbc8e31bb3c9ec2f5U,
  0x3d32ef1bbd9271b4U, 0x3b4dbf093cd9ee0cU, 0x3c5bb662bbdb9df3U, 0xbd2402ea3d34e19eU,
  0x3d29b062bd18ccefU, 0x3c34c1323cbabbf1U, 0xbcded37fbcce4eefU, 0x3b2d1ba7bc60e8b9U,
  0xbc23b79cbd509698U, 0xbd3ca4453c1bbd87U, 0xbd43743f3cfa0d28U, 0xbd3308023d830cc2U,
  0xbcff3c773d1ece92U, 0xbcc60c093c561ab8U, 0x3c8cd3b5bd4bd534U, 0xbb18ebd63c91e382U,
  0xbcf627aabbda4659U, 0xbcb51d45bcf1309fU, 0xbd05a9553d3e7088U, 0xbd33b1a1bb7eda9bU,
  0x3d3bcf96ba512239U, 0xbc8027163d39d546U, 0x3bf26fd6bd0a91cfU, 0x39cfd57b3ce5447dU,
  0xbc995876bb40d3f2U, 0xbcea05f5bc0d3dfeU, 0xba67c555bd5c8de5U, 0x3b6c8cf3bd07d528U,
  0xb93859953b4660b4U, 0xbd0ae8993d64e34cU, 0x3d3eedcd3c1df5ddU, 0xbc596444bd25dadcU,
  0x3c515e043d05bdbfU, 0x3d3135ed3aafe8e0U, 0x3cfb0f103bbc9364U, 0xbd0d77ecbd5b6a17U,
  0xbca738253d4445ddU, 0x3d03b0a63d2d7c12U, 0xbcd04c4b3c19f922U, 0xbd2b93e2bb39f274U,
  0x3d6ff6bbbd16406fU, 0x3d1c5c033c432d3bU, 0xbd663f6abd4b238dU, 0x3bb72ddb3d3a888aU,
  0x3cfc94be3d6acd04U, 0xbc8317fdbcbd6c31U, 0xbd23f29fbc59345eU, 0x3d88583ebd359117U,
  0xbd68fb433bc17708U, 0x3d6ee21b3cae9df2U, 0x3d291123bbae2b8dU, 0x3c9d9edabd717974U,
  0x3d1ca519bd281a61U, 0x3bbcdab03d0599ceU, 0xbd07806fba39ef29U, 0xbbc49c83bc56a03aU,
  0xbca5c179bd448fefU, 0xbc931c1fbce3e766U, 0x3d6af39bbd60efeaU, 0x3d3506123cccd1a8U,
  0x3b8d3bf8bc8f4bebU, 0xbb279c57bc835e2eU, 0xbd19e71ebcd2f0a4U, 0xbd2a38623d3640e3U,
  0x3cfd7ad5bd670030U, 0x3d1e8e363d547e0aU, 0xbd711e1dbc5b402dU, 0xbd1779e7bcf6dd66U,
  0xbd630605bc176471U, 0xbd5c6151bac8f740U, 0xbc32718cbc8a1880U, 0xbd05a7efbd415624U,
  0xbcbedf58bd9a81c7U, 0xbcdc65293c6cfa39U, 0xbd25da5e3c206903U, 0xbd6cfc803d116548U,
  0xbd174a54bb257408U, 0xbc7fe8f4bd5d0bd6U, 0xbd55f2763cf5dc41U, 0xbb4b0aec3c63b776U,
  0x3a80b0643c181280U, 0x3bd53ce9bcf95b58U, 0xbbd47769bd0ec86aU, 0xbc66f4343ca59108U,
  0xbd5a3176bd92e77dU, 0xbccf1130bd09cd01U, 0xbd5d8649bd08ca83U, 0x3ac702a43ce848ecU,
  0xb9434c0c3c4c1beaU, 0xbb8920433cbf8a5cU, 0xbce1cb763c776cbfU, 0x3d48d323bd02797aU,
  0xba99e5b53d671cbeU, 0xbbb30ba3bd44b9f2U, 0x3d857e073d1f6048U, 0xbd3bd73f3cd67d16U,
  0x3d40845dbd84eab0U, 0x3ca3a2bd3d74bbccU, 0x3cd29970bd60f0d7U, 0xbd0c46d83cc3c680U,
  0xbc36e317bc60b399U, 0x3cc41b5cbcdde752U, 0xbd4dccdb3d52a745U, 0x3c96b3a0bd26f001U,
  0x3b82c815bc1ff96aU, 0x3d214609bd18d734U, 0x3db0c0073d0d552fU, 0x3cee18e83c82818eU,
  0xbca213c23ccd5dd1U, 0x3d4ffa2a3d4030dfU, 0xbd1c966bbd36265eU, 0xbbb78cc0bc420357U,
  0x3ced99bd3c9955f6U, 0xbb42f6d7bd3e5127U, 0xbd504effbbff6c02U, 0x3d1694f9bd6f8676U,
  0x3d22a9c13cdca068U, 0x3d40d01e3d5ef3e0U, 0x3c8588753d388217U, 0xbc6a32ce3c36c7d6U,
  0x3c9e625f3d93dc1dU, 0x3d786284bca0c40aU, 0x3cf54c07bbc455c8U, 0xbb81c2f5bd6f5094U,
  0x3d40e7683d4e597aU, 0xbb792a48bd4ca3c6U, 0x3cc7ba943d380f24U, 0x3cff168f3ba724f7U,
  0xbba7c6a93c879ff0U, 0xbd0fd081bc52891fU, 0x3d1420ae3d17707fU, 0xbce5f746bd5c718dU,
  0x3c9838fabcb66f05U, 0xbcc600b83d4ed620U, 0x3d0127d1bd7c8659U, 0xbd2819c9bb41b2dcU,
  0xbcf70a723ce737c1U, 0xbd4957b43bcd158dU, 0xbd3ea5aabbe346a7U, 0xbd8113013ccd510dU,
  0x3bdc6d3c3bb6ce6fU, 0xbd5240aeb931f8ffU, 0xbd882933bcf31970U, 0xbda8eccbbc8ba329U,
  0xb910a339bc8528a9U, 0xbd40fcf7bced0dabU, 0xbd3647253cfa7699U, 0xbcb897c2bd89d2e4U,
  0x3d05a647bd2ba7caU, 0xbcdbad79bd3f083aU, 0xbb3b96183d622b92U, 0x3d26d9983c9527f9U,
  0xba1f0aaabbc0e886U, 0xbd76073fbaf9995dU, 0xb98ffbf9bd283bdeU, 0x3cf0d952bd0c1c47U,
  0x3c39d1263a3e5366U, 0x3c27e28d3d02e296U, 0x3d30bbf2bd15c2d9U, 0xbd6ad296bc3719f4U,
  0xbd039744bd645f0eU, 0x3cacc5df3cf3d8edU, 0x3cf8a4a2bd039feaU, 0xbd01726f3bdc8f23U,
  0xbb76745c3c5e3dddU, 0xbd3af3503c826bbeU, 0xbbab42433d54e1afU, 0x3c300ad83c551a6eU,
  0x3d52d5e53cd51110U, 0x3d0a8f02ba6bdfc1U, 0xbc5345313d37dad3U, 0x3d585da0bd1c6921U,
  0xbd4d7bc7bc83b1b4U, 0xbcd50a033d17295eU, 0xbd74dc30bd0ba611U, 0x3d16d6cabc74cba4U,
  0xbc953a92bd6293deU, 0xbcec70da3d99bcaaU, 0x3d669d8e3d48ace9U, 0xbafe9c36bc9bc5c2U,
  0x3d3a66a23cea40d0U, 0x3bc0b5a23c1a2035U, 0x3b548bf23d600f4cU, 0xbc5dd56fbd484485U,
  0x3c4ca7f3bd1a3f22U, 0xbd23e771bd32f1a0U, 0x3be82c8b3bf95126U, 0xbc3dede73d31349dU,
  0xbd0291c6bd6b0792U, 0xbd61967d3cd19936U, 0xbc12574f3d18e47cU, 0xbc709d69bd9eefd9U,
  0x3d137100bd9ae615U, 0xbd217d5cbb82bbdbU, 0x3c99bf29bcae2712U, 0x3d09c71bbc9e5364U,
  0x3cfd32ab3ca993beU, 0xbc326c693c146930U, 0x3d09def73c41631cU, 0xbd6b78cabd6436a0U,
  0x3c663e2e3d141715U, 0x3d04d07c3cf7244eU, 0x3c5812bdbd34e7f5U, 0x3c83f256bd180639U,
  0xbd54e7e6bd98922dU, 0x3d42ac05bd81f6b9U, 0xbcc9cf953ca1668fU, 0xbbd0826fbc7e2eaaU,
  0xbd0624463c6d71baU, 0xbd693f71bd5b6915U, 0xbcf06e213d4ea52dU, 0x3d07f7b7bd2b54b2U,
  0xbd2d90bbbd00fccaU, 0x3d1c09dcbaab9cb0U, 0x3b9281b9bd6cb3e2U, 0x3d25887a3c47bd4bU,
  0x3d58c5d13b105b0aU, 0xbaa6590cbc05d60eU, 0x3cc94bb4bd494d87U, 0x3c883c94bd0d9651U,
  0x3d20c9ff3ca10a86U, 0xbb2c66a13bb760eaU, 0xba02d9ed3ce908ffU, 0xbd2726ecbcdf4e9fU,
  0x3c883e763d25c368U, 0x3c673a393d14fbddU, 0x3d857d44bcde38f5U, 0x3d0788c8bcbf3324U,
  0x3d4c6361bd5575e5U, 0xbb293f2fbc746ca1U, 0x3cb9b521bd71cc62U, 0x3c1992b63d64a5d2U,
  0xbd2641093d361666U, 0x3be866503d4b9e36U, 0x3d22bc363d0224f8U, 0xbc1e5337bcc64f11U,
  0xbc8662063cf3a1ccU, 0x3c95979c3cc438d4U, 0x3d0c99323d1c8b0dU, 0x3aec1468bd39b2abU,
  0xbc3679ad3c99abc3U, 0xbcedcf323cc22d76U, 0xbc95811d3caf7f32U, 0xbbd1d1efbb55272aU,
  0x3bdc276cbd28d212U, 0x3d391c203d56e969U, 0xbd09da1e3cb62ff7U, 0x3cd9655dbcb2b3d3U,
  0x3ce1fa25bc30cee0U, 0xbd5a44df3c22e1e3U, 0x3d52db81bd461f3cU, 0xbc90141cbcf37e8eU,
  0x3d8984f7bcebac85U, 0xbd05d31c3d3c096eU, 0xbbb8db80bd0d4362U, 0x3d00508a3d15c849U,
  0x3c0ae339bd107c10U, 0x3d418fa0bd12d2e7U, 0xbd4f681b3c39cc50U, 0x3c97cd3e3cdfdb10U,
  0x3b42a7b1bcd51e69U, 0x3d3fa9bdbd5e92efU, 0x3c1767c0bd21e9eeU, 0xbd69d939bc71eab6U,
  0x3c264707bc739c0cU, 0xbaf7299f3cfb0a06U, 0xbd5358b6bcb6ae16U, 0xbcd654afbd670027U,
  0xbca5bca0bd89cc40U, 0x3d5303a93c243ba3U, 0xbd77fe8cbd0fad0dU, 0xbcd66bd7bd1f365aU,
  0xbd26331fbd547a3eU, 0xbcb6d82b3d09f8a2U, 0xbca5f3f83c95ce7dU, 0xbd40f1c13c948cddU,
  0x3c9a82f2bd4f3244U, 0xbb99d652bcb55fc8U, 0x3d2efe8ebd520c4eU, 0x3c86bd323d18aafdU,
  0x3c1f0fea3c5aa3f6U, 0x3d4fcaec3c91f396U, 0x3d2c52813c15159fU, 0xbcde3b0a3b92b740U,
  0xbd5c6d6b3d1eecafU, 0xbcd3ef8a3cf26936U, 0xbb9e9bc73ceac7f6U, 0x3c8fd860bc490cdaU,
  0x3c2ad2ea3c9eb588U, 0x3bbe0a283d3383c7U, 0x3d213c933ca7db86U, 0xbcb6154bbbcaa906U,
  0xbd4e5fe63ce4dd8aU, 0x3cd31b633c8f917dU, 0x3d5037383d6544b9U, 0xb6a956e0bb9d2cb6U,
  0xbd3cf4a9bd4ae567U, 0x3d2555603d379ebaU, 0xbd17fe0fbd6708fbU, 0xbccd1d843d0b1493U,
  0x3d3777e63c662c66U, 0x3c618d683bf19340U, 0xbcecacbd3beb90e4U, 0xbcf7b9093ac1a37aU,
  0xbd5795f3ba10b20fU, 0xbd0b2acebd2c2cb5U, 0xbd39c9203d1d3dedU, 0x3b97b412bc02e058U,
  0xbd3f7c623d50917eU, 0xbcd2a1883d545129U, 0xbb9a35183d1df5c7U, 0x3cc913fbbbc17337U,
  0xbd1e58c3bd81162aU, 0x3d00f8e0bbb06abcU, 0xbc9c1827bc1711e0U, 0x3b2a078a3d78ba61U,
  0x3bb1cee7bd1ab08eU, 0xbb7d1d0b3cdfc235U, 0xbd139881ba4724f8U, 0x3c405e873cb62c33U,
  0x3cc37a92bcd15f89U, 0x3a98910a3d1edb00U, 0xbdad1b60bbf5eea3U, 0xb9dba74abcb76aeaU,
  0xbc170b353d36a49cU, 0x3cbf2ddbbd0f8357U, 0x3cd345c13c2453cdU, 0xbd636cdcbbf76b8bU,
  0x3c9313fbbd0dbdf5U, 0x3d3a587db8f824d1U, 0x3cab74b0bd2d3b0eU, 0xbcd7b22fbd007736U,
  0x3c2786303ced024aU, 0xbd54ba13bd030033U, 0x3d5c8aeabd441f5cU, 0xbbf894fb3d200923U,
  0x3d4950e7bd352163U, 0xbcf9abc4bd3e224aU, 0xbd612cc1bd66d70cU, 0xbd361cccbb79e57dU,
  0xbc04d7ebbc7bf6a1U, 0x3c38ee02bd50ae01U, 0xbc4490af3d58b636U, 0xbcccf05b3d1139b0U,
  0x3d30a3143d57760aU, 0x3d0741133d477783U, 0x3c6f2e223d083845U, 0x3c5e8300bc015583U,
  0xbc30c986bc4fb766U, 0x3c7571bd3c32bb19U, 0xbd22db9dbb7d1533U, 0x3d3c1755bcbed885U,
  0xbd1eaa733c80882dU, 0xbc0808cbbcaf108dU, 0x3cb6bf903cf07710U, 0x3c7bf401bcf0416aU,
  0x3d11fdd1bd54b0d2U, 0x3d49149b3d452834U, 0xbd4f8bb73d0c13d7U, 0xbd5b85a8bd50b50eU,
  0xbd175f67bcffa80fU, 0x3d353a6abc59ea3dU, 0x3d1133d73d470440U, 0xbd17f091bc77658bU,
  0x3d2f9c743d36d4a8U, 0x3d2497d7bc98c162U, 0xbd3bc548bcad1e42U, 0xbd17906dbd74473dU,
  0x3d4f31debd67fa1aU, 0xbc379fac3d1abe83U, 0x3d04772bbd6018ecU, 0xb9b83d5f3d3a6b46U,
  0xbd52d0c83ba7ffffU, 0x3d6eed7e3cbc5d8dU, 0xbd23ee06bd3e3539U, 0x3c5e5ab43cdb5d8aU,
  0x3d4d9ff53c366db7U, 0xbc6138c6bd1653c3U, 0xbbe222a0bbe9e28aU, 0xbcf4f587bc69a700U,
  0x3b7c6e6c3cb26cf3U, 0xbcce9f563c1c6fb8U, 0x3d2192723d38cd93U, 0xbbef7f873d3733b7U,
  0xbd6408643ca1d1d6U, 0xbd085c0abcc0e93aU, 0x3d41ac303ac1e068U, 0x3d00f7d3bcc53596U,
  0x3cd975b33d62cd4eU, 0x3d1afa063d4012e1U, 0x3d2b46d23d103e2cU, 0xbd69e644bbfc18c6U,
  0x3d2fb8a5bd6961cbU, 0xbd58ec5dbc2f042fU, 0x3d209c66bce3f11cU, 0x3d089c723bf93189U,
  0xbd22a4363ce3206fU, 0x3d67ff52bce58158U, 0x3d5f3f39bcd743aaU, 0xbd303cc03cbf89d4U,
  0xbd5073a5bd279c7cU, 0xbd19311b3d858528U, 0x3bd7c406bcc2c90eU, 0xbd13601a3d6b17fcU,
  0xbccd4511bd60a340U, 0xbc6141d3bd85fd11U, 0xbcb68b74bb885eefU, 0x3d54babbbb2c8b7bU,
  0xbd0269cfbb4c932bU, 0x3d4f8bac3d64622bU, 0x3d3ac5b53ca4004bU, 0x3c65aff83d1bd2cfU,
  0xbd4ddc17bd2a2579U, 0xbc388bda3d34bd9fU, 0xbc4b25093d1d8b34U, 0x3d4501bcbd6605b0U,
  0x3d57fc90bd3b216fU, 0xbd3006a33cd6fa63U, 0x3d062c243bdc7ac8U, 0x3c67782cbd12c23fU,
  0xbce5443b3c7e37efU, 0x3d0537ae3ba35c62U, 0x3d6d354a3d2ac361U, 0xbbeace083d51cc32U,
  0x3ceaccbd3cdd8d3dU, 0x3b969f8cbd41d80fU, 0xbb7fb59ebc0cac14U, 0xbc701b3ebd703330U,
  0x3d52651f3bdd5cf4U, 0x3d0695bd3d34723eU, 0xbc31081f3bae3f59U, 0x3ae4ad6a3d71f0f8U,
  0x3d1e5d81bd6330fcU, 0xbcabd1063d568997U, 0x3d68d835bd6218edU, 0x3a080d6bbce6456cU,
  0x3c9255a9bcb8e4daU, 0xbd36a65d3c602c37U, 0xbbad11ad3c188280U, 0x3b88ce963c47af9eU,
  0x3c5401063d0184d9U, 0xbd1f552fbc1d7a0fU, 0x3d4755e5bd2fb59fU, 0x3b674c60bd09adefU,
  0x3d333986bd58bdf0U, 0xbc90b07bbb92ff9fU, 0x3ca66871bd1aed61U, 0xbbae46703d38812eU,
  0x3c56092cbc99f379U, 0x3d591156bcf9498bU, 0x3b59bcc7bbaa8d17U, 0xbd6523f8bd042dbbU,
  0xbd6c3b863d06a416U, 0x3d48df3cbcec571bU, 0xbceb0bc13d1630f7U, 0xbd4af28cbc037587U,
  0xbd1760febca72f38U, 0x3c2165343d5e88c6U, 0x3cb9a82b3d3296b1U, 0xbd3ec9063c3a6508U,
  0xbc2a51383d591d0fU, 0xba483ff1bc4e70d4U, 0x3d1613c7ba08dafaU, 0xbd7c1e85bd214946U,
  0xbcaba6d0bd2d8466U, 0xbd23b2af3c350a60U, 0x3d685e9f3cc5d7c9U, 0x3d1e138ebd60bd9aU,
  0x3d509002ba151470U, 0xbd4b80963d69e047U, 0x3c9691873b9358f0U, 0x3cc95184bcc7080eU,
  0x3beffa3eba83eca6U, 0xbd143532bd4b895eU, 0xbd2402b0bd3926efU, 0x3ca402093d035e95U,
  0xbd251495bc4599e1U, 0x3d01eaa6bd4fe62aU, 0xbd65ef2fbb826dbcU, 0xbb62eb48bd79ac15U,
  0xbd476615bcbfde6cU, 0xbd1799ebbccc7fc0U, 0xbc6f24de3d4e53ddU, 0x3bda4686bd2c225dU,
  0xbcab2d953c4d0525U, 0xbd5b77053d163106U, 0xbd47deac3acc92cbU, 0x3c298623bd21a6cdU,
  0xbb3c671cbd62cf13U, 0x3b746107bd0c9e60U, 0xbc673e463d65f46aU, 0xbc02c1e83cb100b0U,
  0xbd2f2350bbe5d4b6U, 0x3d0215e43d023b5cU, 0xbcd8297d3d1d39f2U, 0x3d21927c3a9d34f5U,
  0xbd11a4f5bd4bb810U, 0xbcf797963cd70a8cU, 0x36f77bdb3d416b22U, 0x3bd27ed33bcb015eU,
  0xbd09bc0bbcd84a21U, 0xbd0b33c8bd0b7503U, 0xbd341f50bacb37ebU, 0xbcb42eef3d1ae0e9U,
  0xbc494c75bcbb6f3aU, 0xbc85ad18bd4f8c8eU, 0x3caec934bc978d7fU, 0xbcffa908bd03aeeeU,
  0xbca5631d3cbe95c1U, 0xbd67806cbce617f2U, 0xbd0c08bd3d028b11U, 0x3d5870ff3d4aa48eU,
  0xbc339c7bbd6a1bfaU, 0x3d1bf46dbb18161fU, 0xbd6594ca3cbd64f4U, 0x3d4448c23d018660U,
  0xbd0286203cf3c7d0U, 0xbd22eb9f3c811b8bU, 0xbd519b2cbcdb1ce8U, 0x3cb16aed3b055f2fU,
  0xbc4aaa39bd5506e5U, 0x3bb4b9fa3d286a86U, 0x3cd774ebbc9e1201U, 0x3d292a4dbbc7d552U,
  0x3d32a6e3bd165d4aU, 0xbc264488bd2aeff6U, 0xbd50fecfbd343d70U, 0x3c94f526bbd8cc8aU,
  0x3c60d2c53d0e60a6U, 0xbd278bee3c2c7a52U, 0x3c968cf4bcd4aaf0U, 0xbd1f92513c19282cU,
  0xbd3851c1bd526632U, 0xbbd299fabd23a273U, 0x3bdcd574bbce55b1U, 0x39a0b981bd60f1b3U,
  0xbd3bc436bce3eb28U, 0xbd21b8ccbd45d535U, 0xbd7765c03b9397edU, 0xbceb336f3b00ed3bU,
  0x3d366cf93d6226d2U, 0xbbdfeb10bd1a0f94U, 0xbd13818fbc68a7ffU, 0x3cd417e53d10abb3U,
  0xbc77e9b13c9dcaa4U, 0xbd5b563dbd4d0722U, 0x3d569dd6bc07aaacU, 0x3c9be18fbca5ab6bU,
  0x3d2946d63d38aae1U, 0xbd1dfc7dbd0ea124U, 0xbbafc229bc770b85U, 0x3b57e0cabd3adda5U,
  0x3b8ace8a3d2f72cbU, 0x3c9aef35bd2ee5daU, 0x3d4da51b3a09d695U, 0x3d735cf23d58e1a5U,
  0xbc15f0a73d413374U, 0x3cba06f7bbbaa919U, 0xbd3316f23d5648ebU, 0xbcfaef41bcc3be2cU,
  0x3cf7d9573d2e854dU, 0x3c29f85cbcc28586U, 0x3c3da0123ccc7a6bU, 0x3d28916b3bda9c3fU,
  0x3c6935343c4b9b71U, 0xbc85573e3abe7266U, 0xbd320f8a3d6fab38U, 0xbd0b78fbbd2bfb91U,
  0xbd1dc60c3d6963b2U, 0xbce621b13cbcf228U, 0xbd6dae70bd30f338U, 0xbc36c0243c746927U,
  0xbc971bc63cad5fc2U, 0x3ba212c1bd84c286U, 0xbc11da99bd076518U, 0x3d590d65bd11f041U,
  0xbbfe56c43ceffb64U, 0x3ccea954bba14372U, 0x3d46a889bd0d26dbU, 0x3d1b6c993d5b3310U,
  0x3cc4309eb95f24fbU, 0xbc5c0304bc17d668U, 0xbb369b1b3c02f9faU, 0xbc8fdac7bc075d54U,
  0xbd276c91bd13e2d8U, 0x3c2259eabd36611dU, 0x3c241c613d212e0bU, 0x3d530e103c182ea0U,
  0x3d231688bd63b878U, 0x3d49e839bd4d2d6fU, 0xbcfee0b83d057a6cU, 0x3b2672a93d685bb7U,
  0xbd2140283d479ca9U, 0xbcf95cc6bce02a40U, 0xbc4a908a3d5c9d83U, 0xbcb538edbd291a52U,
  0x3d22565fbcc9b7e3U, 0x3ced8ecdbd824d4eU, 0x3d31ed023b7c092dU, 0x3cf4eb043b82cfcbU,
  0xbd789f943d268b68U, 0x3d0231bdbd15f378U, 0xbc42d3a83d359e49U, 0xbd28f762bce18015U,
  0x3d3027c23d387f98U, 0xbd0ac427bd161ff4U, 0x3d6a47d6bcbe34b4U, 0xbd7b4335bcad3d14U,
  0xbd395070bd617225U, 0x3c8a1df6bd5c4322U, 0x3d5de426bd21be02U, 0x3bc874383d391e34U,
  0x3d518eacbb9957ebU, 0x3c01073b3cc9b8cdU, 0x3c8e8895bd1aa9c6U, 0x3c2bb7c03d6f99ceU,
  0x3ce7ff39bd5b28ebU, 0x3d5b61de3c40f246U, 0xbc38c9ee3d4aacfdU, 0xbd26372fbd2c9544U,
  0x3d03be6abca4286dU, 0x3b6f688c3cf4901eU, 0x3c2e31713d3e0933U, 0x3d50a37ebcde3219U,
  0xbca445d8bd2fbed6U, 0x3d1c62fcbd304f76U, 0x3ce2b6c5bd14d946U, 0xbb9a172e3d21dbf9U,
  0x3c26787d3d2b4af2U, 0x392e0fc43cbaa80fU, 0x3c75a6743c117452U, 0x3d3639f1bd452753U,
  0xbd6c80653ca66098U, 0x3c8dda493d31a12aU, 0xbc90caa2bd508f49U, 0x3d50d9d63d52ba1bU,
  0xbd5ed4643d1080afU, 0x3d0a367e3c52374cU, 0xbd5bee6abd4a6ffcU, 0x3c52fab6bcc88b2dU,
  0xbd17637cbd3a2da4U, 0x3b094fcd3d1ad7bbU, 0xbc73ebccbcb7ce46U, 0x3cba787f3d0be601U,
  0xbd30d4483d399155U, 0x3d4551ee3c98669dU, 0x3d4c9bd8bc829e31U, 0x3d709a5b3d3eea8eU,
  0x3d61e3543c46894cU, 0x3c16fd34b8a15415U, 0xbc97e2ccbc3489bcU, 0x3cd1b6ba3b3026b0U,
  0xbd2806213d1945b6U, 0xbd2d562abb0bbf89U, 0xbd2df511bc3bedfbU, 0x3d16d4f2bc116d55U,
  0xbd0570343d2cf901U, 0x3d50a3953d11ebfbU, 0xbc8a64be3d3e60bfU, 0xbc92d581bd4d676cU,
  0xbd8ee1b2bc560fb5U, 0x3d447f853c8fba8cU, 0xbc84d49a3d3c31aaU, 0x3cd3dcd5bd0239d0U,
  0x3d5cbdee3ca42833U, 0x3c4886d0bcf73c60U, 0xba61c9633d4d6485U, 0xbd8974dbbd40ef49U,
  0x3d38b2813d41a543U, 0xbc8660e6bd46aed9U, 0x3c32a8823d51bec2U, 0xbc3fd7423d22824aU,
  0xbd26982ebcac6a4bU, 0x3d55a39c3d06bc16U, 0x3d5663983d2acbe8U, 0xbc0782373d9773afU,
  0x3ca88c42bd18f902U, 0xbc22c551bc84d797U, 0xbb96ed3bbd36534eU, 0xba6a2a95bd4468efU,
  0xbcac9e5bbd1d3201U, 0x3d557602bd614d4aU, 0x3d09f5c83d68894fU, 0x3cc7eb763d4f2512U,
  0x3b62a2453b2bf4f3U, 0xbc1e380b3cc811fcU, 0x3cea0891bcbc5025U, 0x3d40b10cbcb2a82aU,
  0x3c1630093d0a845cU, 0x3d1fe7ea3be5fe51U, 0xbd228b38bd02192bU, 0xbd052f1abb030720U,
  0x3d67e83b3d38ecedU, 0xbd2c0da03d323ac0U, 0x3d054dfbbc3f70ebU, 0x3c9037dd3bb1bf75U,
  0x3d0095d2bbe080dbU, 0x3ba299b93c82eb96U, 0x3ceea9b83ca64c14U, 0xbd0478af3d62180dU,
  0xbd2cdf82baa0d53fU, 0x3cfda37bbb06adecU, 0x3bb2a1403d5123e0U, 0xbd464e5abc830473U,
  0xbc0d843b3d53f762U, 0x3cb73fa73d48f106U, 0x3b389d1d3c3b404bU, 0x3d01a470bba36fceU,
  0x3c968b043d6dfca0U, 0xbc4879323c3a2b3cU, 0xbd15a1cc3a96e3f0U, 0x3c88c3353c52dec2U,
  0xbc75b2a5bad9169fU, 0x3ce4512b3d0629b7U, 0x3a84fcfe3c11272fU, 0x3d6d60803d334221U,
  0x3ceb53c2bd15e8b2U, 0xbc4ce7943d5f0b6eU, 0xbb1e66de3d7fc8f2U, 0xbcebce87bd4dbdc2U,
  0xbb7733143cff8de8U, 0xbbb282f0bd20b68aU, 0xbbe787ecbc43916eU, 0x3c50647c3d30df93U,
  0x3c8a889b3bcf8f09U, 0x3c754b9fbc97959bU, 0xbd085300bca81e3cU, 0xbcbebc2abcb68cb1U,
  0xbcdef0b83d10d478U, 0xbc92ed76bd635e41U, 0xbc247e163d010400U, 0x3d3f3ec83d239e98U,
  0xbcc81988bd7e1abfU, 0xbd1c62a9bd3c2ea4U, 0xbd01101b3d8a585dU, 0xbb80402bbcf441daU,
  0xbd2715f7bcf6ab91U, 0xbc74e9e4bb6736cbU, 0xbc8a19acbd0b9aa9U, 0x3c95d304b9547b10U,
  0xbd3e8d333ce26d23U, 0x3d5c63dcbd728c90U, 0x3d7700b6bcb111d5U, 0x3cc7dc0bbc8f5413U,
  0x3cbc1ca43c6e46dbU, 0x3d3548f43d44e364U, 0xbd4098033cb08edfU, 0xbd373aca3d2be061U,
  0x3cb29d98bcc31180U, 0x3a93b0b1bd705c54U, 0xbcbf92b33c4a0f4eU, 0xbd8ec5d43b8686e0U,
  0x3d4650ca3d4e76a4U, 0xbd0589a4bd533a7bU, 0x3d54435cbd00776eU, 0xbd71686abd0beed5U,
  0x3a87c7e83d898536U, 0xbd1ef2f73d0fd0b7U, 0xbd200ac6bb003d60U, 0xbc813ef33cbef663U,
  0x3c40154cbd10d132U, 0x3d0754f6bc5708f6U, 0xbca3ebbcbd2497bfU, 0x3d3b8e84bcd22b45U,
  0x3d73ae13bafb1605U, 0x3ce577513c93e5deU, 0xbc55b5833cf1ae1cU, 0xbd2d5970bd57d0dcU,
  0x3b9ac158bc9ed90bU, 0x3d53ad1a3b4f845eU, 0xbd3efd4c3d167531U, 0x3c12ccb3bd70afe2U,
  0xbd03979e3cbc0f81U, 0xbc6ff8c73b4f47a4U, 0xbd64be4cbcb0d9a1U, 0x3c54411fbd4c3aa2U,
  0x3d7f8a9fbd1dbfb8U, 0xbd3a74363c4215b3U, 0x3d13b64c3bb6ce20U, 0xbd3ab16b3d2468e6U,
  0x3c8c72cebd282ca0U, 0xbcb6f81fbc4c1806U, 0x3d698a453c9945d5U, 0x3c899025bcd4fb08U,
  0x3c923fa13d4a1fadU, 0xbd0024ab3c52e881U, 0x3d31a93f3d6c9ddcU, 0xbd1857783cb29f9dU,
  0x3d4b43923cbdf46aU, 0x3d2a3272bd1474caU, 0xbd1f1676bd095c09U, 0x3d86a4c1bd14c1c2U,
  0x3d5dcf4dbd59e66bU, 0xbd2a4885bbfcf204U, 0xbb9751fb3c4e3ac8U, 0xbc7fd0f03d9dfc01U,
  0x3d09367a3d305307U, 0xbbd950d53c97046dU, 0xbd2036e33c98d02aU, 0xbd2e7de23ccf21deU,
  0x3d4ae2e83d55daa7U, 0x3d1aaee9bd5959edU, 0xbc3505753d0e5a19U, 0x3b58fe953b4e0ed7U,
  0x3d16a6adbd459107U, 0xbc0ebb2c3c2381cbU, 0xbd5c1a66bd5c7cddU, 0xbcd0e7323d611010U,
  0x3d085e8cba8022a3U, 0xbc5602f2bcc24c59U, 0x3cb8c4903d6ae92fU, 0x3cf822d63d566b4dU,
  0xbd13d6083ca94e53U, 0x3d31f5c7bd38183cU, 0xbd3a33363d1da34cU, 0xb8dd4c123c1e243cU,
  0x3d32ef81bbb3e637U, 0x3d2c29e0bcc6da3bU, 0xbd3484813bdfda97U, 0x3ccffdc43c6693a3U,
  0xbb1a3371bd2f692eU, 0xbc0adb4e3d891f0dU, 0xbd2c32f2bcf6f495U, 0xbc826132bd3da892U,
  0xbad5b10e3c597c7bU, 0x3c3e301b3c1392a9U, 0xbd21c3c93c9a1f6eU, 0xbca20fcd3c72f106U,
  0xbc91622c3d1cd6c7U, 0x3d201190bb82240dU, 0x3cdc32a33caf9f9dU, 0x3c41d1bdbd82b422U,
  0xbc5107603b88999cU, 0xbcb4f708bd28d292U, 0xbd46db143d47d9d8U, 0x3a00d085bd4dc10eU,
  0x3d549a943d665f03U, 0x3d558fb23c48d24cU, 0x3c0757dbbd02e8c5U, 0x3d181b6cbcfc5f67U,
  0xbc0fbd3cbd32bd00U, 0xbd2ba8d3bb9b6309U, 0x3d29dd053cf96d61U, 0x3ca22dcd3c9aa89bU,
  0x3cd0850fbd1694e3U, 0x3b24e033bd20bcc7U, 0x3cca44ae3d3765f9U, 0x3d38614bbd626628U,
  0xbd253a993d025760U, 0xbccce1bcbd74ab22U, 0x3ce2ae133c69e13fU, 0xbce7c60c3d2e5144U,
  0x3d8e0db63bc307a8U, 0x3d5fcd83bcb8f981U, 0xbcbbc6b03b41abf9U, 0xbd0bdbd73d17a488U,
  0x3c10673d3cf49ca9U, 0x3cd27361bd109e22U, 0xbd5899aebbb6daf6U, 0x3c45364fbcee0dfaU,
  0x3d01e67d3d4b3b8cU, 0xbcb065c6bc5e9fbdU, 0x3da165fcbd266c9cU, 0xbcc3fd4b3d336e1aU,
  0x3ce8f56f3cbd3588U, 0x3cec1e853c527782U, 0xbbe4b043bd8b2fc4U, 0x3b7dbd8d3d3183d1U,
  0x3ca9c91bbaface03U, 0xbcd07e2fbd1926aaU, 0x3ce83e74ba5544eeU, 0xbd21e359bd18bd42U,
  0xbc2abc0fbbe7cac4U, 0x3d579217bd4f68c7U, 0x3c6bbff5bd4ae1fbU, 0x3a70f5003c8a7e4aU,
  0x3d0271c23cffb274U, 0xbd1875bc3b64bcd7U, 0x3d3711a1bb46b383U, 0x3d1e28733d7db0d7U,
  0xbb7005ddbd4705adU, 0x3d125daa3d4d9f18U, 0xbcf55468bd33dfb3U, 0x3d2024553cc9ef81U,
  0x3d2b5ce93c8bd1fbU, 0x3d1e20cabb104b75U, 0xbbd055eabcac7ca2U, 0xbcefbc8bbc3efdd6U,
  0xbcb922dbbd3ef947U, 0x3cb60e4d3cb99075U, 0x3cc4f63c3d502174U, 0x3d0a6417bd60e8ccU,
  0xbd2cc65a3c823ca2U, 0xbd295e4fbc3d4c8eU, 0x3c75c9e6bd0abf3aU, 0x3ad418e5bc170432U,
  0x3d285b41bd4b2808U, 0xbd685ab4bd409974U, 0x3d44bce03d55466fU, 0xba0e8705bb0effd2U,
  0x395567c43bffdec6U, 0x3d5e08123c5aebedU, 0xbce52b933c474484U, 0xbb2bbf9e3c298afeU,
  0xbbee79cd3c27c64dU, 0x3d533b39bd414e1fU, 0x3d3fc832bd372dffU, 0x3bcea72dbcbf41e1U,
  0x3d5751a63c74515aU, 0xbd5775c9bbac151aU, 0x3c2be0463d4ce00eU, 0x3d31a289bbfc3cbeU,
  0xbd12bc453c501ac6U, 0xbc04cbd33d0e433aU, 0xbd5b3ae8bca5158eU, 0xbc850d803bb17f25U,
  0xbd24c839bcdef4f6U, 0xbcd9a5cd3ccaad98U, 0xbbe465b7bcc6dd7cU, 0x3ce710fabd21794eU,
  0x3c0d354ebc93bd7cU, 0xbd640af3bd0b29f7U, 0x3d312d4e3a104caeU, 0xbce7603b3d8ba8e7U,
  0x3bc2e2d1bd8dfa36U, 0x3c0a6ff9bc175fa1U, 0x3b5ab6cd3d17cb71U, 0xbcda33193d3b1e74U,
  0x3ca88bff3d91e531U, 0xbd1177833d23b803U, 0xbcad7f20bd1e4dccU, 0x3be53ee53d15d1e8U,
  0xbceae611bcd10201U, 0x3d1294613d1e62bfU, 0xbc60c231bbfa1e39U, 0xbca15345bab8b0faU,
  0xba342c673cd06dcdU, 0xbd010382bc8ad57fU, 0x3c4acc95bd779ce1U, 0xbcad2985bd39b55cU,
  0xbd231f19bd3119fcU, 0x3d4f78d33d8f3663U, 0x3d47e64fbd4bfb19U, 0xbb815d03bd1bb223U,
  0xbc1c568abcc3f286U, 0xbcfd94623ce3c188U, 0xba1ed2103c934db7U, 0xbd4c15153cd408ebU,
  0x3c0a418c3c8155caU, 0x3d4ec5a23c48c0e5U, 0x3cfd8ed0bd409717U, 0x3d6b9d7c3c8482d5U,
  0xbc9421d0bd5341d8U, 0x3cf5c236bd0abf33U, 0xbd8018a43d54ec9fU, 0xbd0492533cbdcce9U,
  0xb9966a78bb894035U, 0xbc52f1103ccbbb40U, 0xb995c2e6bd2c55eaU, 0xbcf59b0b3d035c08U,
  0x3a0742e4bc106416U, 0xbc8761903d3c9977U, 0xbc8287cd3d4781fcU, 0xbd108aa1bd89c037U,
  0xbd138b203d3e4ec3U, 0xbd2bb408bda92163U, 0xbc114be03d71799bU, 0xbc169f69bd3417e5U,
  0x3cd50e3b3ccc091aU, 0xbce16e60bd328b53U, 0x3c94764c3d0bbe66U, 0x3ccddd923cb60cf5U,
  0x3d390c443b43e18dU, 0xbd2be20e3c06a2dcU, 0xbd31df84bac63930U, 0xbba33985bc8d8e2dU,
  0xbcc9746fbd5361e2U, 0x3c8664813ce6a389U, 0x3ce8778a3cc3ffa7U, 0x3d031754bb9f88a5U,
  0xbd2bb85cbd0f0ca8U, 0xbc7337163c6e32d8U, 0x3d0f3eb1bcf8ca28U, 0xbd7793dbbc927bc2U,
  0xbc38e9123d646ef4U, 0x3bd10994bd6477c3U, 0x3cdb6437bd4ce2d3U, 0xbcac1ae6bc16dbfcU,
  0xbc8aba9f3ce1de38U, 0xbd3ea2ae3d8831c8U, 0x3cdf72213d5c982eU, 0x3d0c0bef3d5ac4e0U,
  0x3d208a40bd328526U, 0x3c9805c4bd062f82U, 0x3d4c9862bb18a5abU, 0xbc81a85ebd2e9618U,
  0xbd489642bd48f718U, 0xbd0f74363c82659dU, 0x3d2eb9763d577e83U, 0xbca7ff133d153ec4U,
  0x3c1b1b3dbd320935U, 0xbc973d93bd1d3d88U, 0x3d192492bcff4772U, 0xbd4d38853d2fea6eU,
  0x3c64eb9d3d4523f4U, 0x3cee5460bc9fc3f9U, 0xbd2768333cd851adU, 0x3d1ffb50bc1772d0U,
  0xba0020b83d3ae2a6U, 0x3cde81febc5456efU, 0xbcc6870a3d43e2bcU, 0x3d511859bad4865aU,
  0x3d4befd2bcbdcfc4U, 0xbca3c44b3d2c0ceaU, 0xbc0f9449bd4b2fb9U, 0x3bfdb1933ce3917cU,
  0xbd15935ebcc7265eU, 0x3cb91ec8bd06191cU, 0x3c5ecf393d083e42U, 0x3d3f503bbd6ba98aU,
  0x3c886d413b4fea3aU, 0xba9c3be53d23fa9eU, 0x3c3e6b26bb2c7879U, 0xbd299eb13cf56e4fU,
  0x3b83d343bd45580dU, 0xbc8a3ff53cd06096U, 0x3d1f127fbc9eb7c1U, 0xbd1a5478bba6ed28U,
  0x3d3b0c40bc6d8401U, 0xbd037ad1bd0b555fU, 0x3d4e06283c56c743U, 0xbd1ac780bcb4d9d1U,
  0xbd013c61bc9c834cU, 0xbc1b9d273d5970b1U, 0x3d5f0e26bd252c8bU, 0xbcc4cbea3cf6d280U,
  0xbd20a97dbc70a408U, 0xbcf8a3b63ce741b2U, 0xbd2faee43d24c4d3U, 0x3b0f0eafbca16ae6U,
  0xbceae59c3d6dfbcbU, 0x3d40ead63cc8ed7dU, 0x3d309df53cc835aeU, 0xbd5b9ff03d0b5c47U,
  0xbd733e8b3d873e48U, 0xbd1e1bd23d5bbe90U, 0x3c5ca0be3b7722efU, 0x3b8d3c00bd42cd64U,
  0x3d434446bcd3cbd6U, 0xbc4ba753bcdd05c7U, 0xbc9cd5fcbc08d889U, 0xbd4b27cdbcc6f49dU,
  0xbd4e1663bbe981c4U, 0xbc746889bb668f2aU, 0xbab6bfba3cc6fd53U, 0x3c8e4ceb3d01d6b4U,
  0x3d139180bcf3b9b5U, 0xbd1fc411bd5fd521U, 0x3d645eb93cbcee00U, 0x3b2beb68bc3a693cU,
  0xba98723a3d663e80U, 0x3d0cd5b63d0599f5U, 0x3d356dc3ba9b3f6eU, 0x3cae55d03d0f3d4fU,
  0xbd4de5c13ba0fb30U, 0x3befc02dbd1b3459U, 0x3ca926b7bd42a17dU, 0x3c3de19a3b732b2dU,
  0xbd2e79ffbd6ee010U, 0xbcd13d57bd0a92a0U, 0x3cb65ca4bcb860abU, 0x3c2682c23c9f4626U,
  0xbc19463c3ba7e57eU, 0x3cc2024fbcf5d4b0U, 0x3cc17a1cbcf562aaU, 0xbd1534553ce1eb3bU,
  0x3bcda9ac3b2e033dU, 0x3d3dd181bd72078dU, 0xbd88544ebbfccd9aU, 0x3c65decbbd48e6d8U,
  0xbbc1dd5ebc57f699U, 0xbc99702bbce7d2dcU, 0xbc44f2fabc32bec1U, 0xbce1c4a6bd3ee027U,
  0xbb8fc6babd078589U, 0xbd48c7dc3d66ba83U, 0xbd0a8b973d7caeaaU, 0x3d2fd12cbcfcd483U,
  0xbd63fc993b41c362U, 0xbd16b520bc9ed0f3U, 0x3c9ed6d83caa32e1U, 0xbd44eceebd3f02d9U,
  0xbaf960783d162efdU, 0xbcb166143cd7d975U, 0x3cf432b23d1909f7U, 0xbcea2f673d127f95U,
  0xbb9a8ea3bd6b77ceU, 0xbd5f355abac5ec73U, 0x3ce4790a3bc50248U, 0xbca20266bc6850a8U,
  0xbc015801bd4c66c3U, 0xbb05d7e03cc15e08U, 0x3c878556bcc58e20U, 0xbd3b1292bc69a080U,
  0x3d0fcdd63d366617U, 0xbcdc5923bc5662e8U, 0x3ce2e0f33d312ba6U, 0xbbd931c8bc64db15U,
  0xbcf4f87dbd3b4382U, 0xbc085dc13cb111d5U, 0x3c0d71393c1da32dU, 0x3b6d15173d59181fU,
  0xbc8975693c887474U, 0x3d67bea6bcfb0ef5U, 0xbd657c38bb20553bU, 0xbd1392f4bd47e4abU,
  0xbd25a1c53d63cb4cU, 0xbd0f1ffd3c92eef3U, 0xbc5f2e94bcb78d86U, 0xbbfde483bd62946cU,
  0x3d3b1735bd309998U, 0xbd684b093cb18bd8U, 0xbc3f62f23d3289d3U, 0xbd6534413d278e1bU,
  0x3d32cca3bd411c3eU, 0xbd70a4b73d10c349U, 0x3ca0ce113c2cf559U, 0x3d0e76063c09c34cU,
  0xbd16b9443d11a732U, 0x3cda87aebbd65596U, 0x3d397b9fbd6c8ebbU, 0xbc7e1a993c1f6473U,
  0xbd3cab3fbd32ce5dU, 0x3c703636bd6fe70cU, 0x3cf3d3db3d5ccee6U, 0x3cf3402d3d4cd027U,
  0xbd18288b3d2a56e7U, 0x3cc54a44bd4a4868U, 0x3cc068e33d229e90U, 0x3bca735cbd3d8c40U,
  0x3d06875cbc5a4d70U, 0xbd050ea73cb9cb5cU, 0xbc234a4abbcf6f5fU, 0x3c985f89bd68869cU,
  0x3d413ceabc214713U, 0x3cef529e3d02514cU, 0xbd1c8be8bbd06f41U, 0xbd35b8d23c0908d7U,
  0xbd4926aebd1cd9eeU, 0xbc26c73b3d037be8U, 0xbc49de103c35b237U, 0xbd544aeb3d6785c8U,
  0x3d098c80bd2d3c98U, 0x3d67c9433d1ed1f5U, 0xbaf05d4c3b6d3eb4U, 0x3d38ba80bcee57c4U,
  0x3d6163b1bcdc6e48U, 0x3cb6f105bd11292aU, 0x3cb9fad63d501d01U, 0xbcb9515a3d078d2bU,
  0x3d6a96dbbb1087c4U, 0x3cb4fbdf3c51015bU, 0x3d473ce43d4c3c9aU, 0x3d1ebe64bd3c07e8U,
  0x3c965d96baba71f6U, 0xbca2ce23bc081c11U, 0x39e186873d67aa99U, 0xbd527779bd15afe0U,
  0xbd64c751bd3c6790U, 0x3d3948a63cfdd039U, 0x3d82331d3cd2836fU, 0xbc588ff4bc0e53f4U,
  0xbc3a64dcbbb80a35U, 0x3d3a97913d0519c0U, 0xbc08a7dcbc24a403U, 0x3cfc6347bd640cafU,
  0x3bce61d23d55b6e6U, 0x3d2f92f8bcf25d16U, 0xbd4dbd723caf111dU, 0xbd13d35f3c1cf6c2U,
  0xbd2956edbc40eef8U, 0x3d51515dbd34f465U, 0x3cac24d8bca7db89U, 0xbc420d503c284b1aU,
  0xbd19195abd08dc1aU, 0xbb06cc59bc516749U, 0x3d542497bd4682cdU, 0x3cceec1ebc38acf3U,
  0xbcc8ce073bb18bd4U, 0x3d48c06dbce17e14U, 0x3d59ad9fbd12636eU, 0x3d2b5d483c137645U,
  0xbd094b3fbc485b91U, 0x3d1eeef8bd5802f0U, 0x3bd3beb13d0bc3b9U, 0x3d19450ebd38d5efU,
  0xbc3cab5cbcac2e83U, 0x3d406991bc63428aU, 0xbd72dc27bc6bffd1U, 0x3c30606bbc49d62aU,
  0xbd34ac24bcf9d1b3U, 0xbcd682cdbd2a438dU, 0x3d3bb08dbb1d98fdU, 0xbd0e3393bd8342e9U,
  0xbc889fb83d10622fU, 0xbcb5beb6bd668380U, 0xbd63f9613c1ea8cdU, 0x3bf72e25bd226f3bU,
  0x3b80c1793d6ec92bU, 0xbd1516993c77ac8eU, 0x3d16ffc33d46ce07U, 0xbcfe147b3d4e8426U,
  0x3bc675a4bbb3b04eU, 0x3d4587b63bce0e82U, 0xbc541c88bd74fbc1U, 0xbd321a1b3d0ade7dU,
  0x3c23304ebd6fa0b4U, 0x3d5e2893bb89c3e0U, 0xbd625162bc8f914dU, 0x3d4a18febd26cfabU,
  0xbcc395bfbccc0199U, 0x3d139bbabcbda192U, 0xbc7f7ea23c431736U, 0xbca65263bd527c93U,
  0xbd66eb2e3d70d61dU, 0xbd3d5641bd0db4e8U, 0xbc19d71f3d1025f3U, 0x3d572305bd117f92U,
  0xbd25981e3c89c6edU, 0x3cf574efbcd15e80U, 0x3d84928f3d2038a1U, 0x3d0e50a43caf8a0eU,
  0x3d4a25ccbcd3d57aU, 0xbc00b3fb3d5c9e3eU, 0x3d3369083c7d98f4U, 0x3c5ceed33ce2ca6bU,
  0xbc3a3457bd493f59U, 0xbd09f1a23cdb8001U, 0xbd0cf72a3c09240aU, 0x3c8f95a4bd6614e5U,
  0x3d416f2a3d3aba8eU, 0x3c597d65bd44db24U, 0x3c061e963c5ac047U, 0xbd262daebc17f114U,
  0x3cd6ade53c9be714U, 0x3d084b72bc27c3b3U, 0xbb8f7a2cbd5a30adU, 0x3c69119abd2be110U,
  0xbd3827bebd12c832U, 0xbd408824bcc3a4a6U, 0xbd33b5553c8f043cU, 0xbd260891bd429facU,
  0x3ca12b99bcbe087dU, 0xbd373759bd2f97d2U, 0x3a1cab7c3c37dbe5U, 0xbd6febdc3c84620fU,
  0x3b46a2a23d5e7214U, 0x3d168b92bd184848U, 0xbb670f653cc93c2eU, 0x3c1707d3bb1cc74fU,
  0xbd06345fbc5fb570U, 0x3d5b2d69bd3fb161U, 0x3d3848883cbbfe7eU, 0x3d5335ba3c650549U,
  0xbd4275bc3d4c0197U, 0xbba4aa243c9f98a1U, 0x3cf8053ebbba723eU, 0xbd2236e1bc2e8d3bU,
  0xbd3bfc883b311de9U, 0xbd5d6f4ebc14df2fU, 0xbc9539613cf3e86fU, 0xbcfcc823bb1ca68cU,
  0x3bab16173cce17a9U, 0xbc884d4fba92aca4U, 0x3d22a806bc7eee5bU, 0x3d06bc43bce92ce9U,
  0xbc9c6dc0bd47bf19U, 0x3cd251f0bd5eeba7U, 0x3ba66f463bc765a5U, 0xbc8621bdbd184e5aU,
  0x3d02d8733ca2be89U, 0xbcd1086fbccdc236U, 0xbd222fcabd255f16U, 0xbd43b8533d4d71e9U,
  0xbd4db1b0bc9048f2U, 0x3d588f193ca39236U, 0xbcd962d8bd14d7c4U, 0xbd2398a43c1ad515U,
  0xbbbb117b3bf70fe9U, 0xbc25ebc23c9360eaU, 0xbd13f4debc9cee5dU, 0x3d40eaedbd0d6c54U,
  0xbc8dd37e3d18cfb9U, 0xbd3ae6533bcb613dU, 0xbb2fb3fcbd209a40U, 0x3d44c3003cc13aefU,
  0x3d210afabca9e769U, 0xbc929d233ce29692U, 0x3d234f5abd1dc7a4U, 0xbb41aadabd179587U,
  0x3c9b06f73d222110U, 0xbd0a5baebb99aae5U, 0xbd3dea683cb89adeU, 0x3c449931bcb9983cU,
  0x3a991101bd190458U, 0x3cdda153bd36c3d7U, 0x3d17296f3cedf256U, 0xbcea42e23c88291cU,
  0xbcb72974bd01ae7bU, 0xbd5d4e78bc8b71b6U, 0x3cec8031bcc2a7a2U, 0xbbc3060a3cb66f2cU,
  0xbd2b998d3cd5d92aU, 0x3c6d4a2cbd382af3U, 0xbcf5ee49b9012165U, 0x3d3beb113bd4dc66U,
  0xbd0c99ad3c9d8ef3U, 0xbd31bad83c0eb4b5U, 0x3d0c205d3ce690f2U, 0x3cadeb7c3c657c54U,
  0x3d4a3697bc6a8a36U, 0xbd36d2adbd015c0bU, 0xbd13c1b13cad14f3U, 0x3d05125f3d59d4b3U,
  0xbc4e6b02bcc36e76U, 0x3d3bab343b2ffee5U, 0xbd0ddc293cc1358bU, 0xbc442e2c3d178970U,
  0x3d316dc73d5dc0e2U, 0xbd2d6ed33cda7ac4U, 0xbd38d73c3d44a8aaU, 0x3d023afe3be18d16U,
  0xbd4875053d571f6aU, 0x3c397d963c86e1c1U, 0x3c5061ba3c509d3dU, 0xbd30d8f6bd42f844U,
  0xbc073f88bd262f84U, 0xbc87ad86bb8c796aU, 0x3d51b156bd443adeU, 0x3bf8c3ebbd17ae37U,
  0x3c93ad0e3bf6d39cU, 0xbcc75d6b3d1b6b74U, 0xbca7b4f23d0a2a4bU, 0x3bfa69ca3d247888U,
  0x3d2f776bbcd8307aU, 0xbcf7bdc73d5ec218U, 0xb94c1ed43cc83c78U, 0xbd693f37bd5ffb9cU,
  0xbd0bcc20bcd1955aU, 0x3d28a5953c829011U, 0xbcde0cdf3bbcb0baU, 0x3d39bf74bcc2be21U,
  0xbd543e9dbd62934fU, 0xbd1f9921bcdf0b37U, 0xbcc2e0c8bb68e9faU, 0x3ca663113d4897efU,
  0x3d1c9ccd38db9b45U, 0x3d0eebaa3c958d2cU, 0xbd32ff9c3c132a92U, 0x3d3707af3ccbf47eU,
  0xba2912633ca6b37dU, 0xbc82a9e13b6694d9U, 0x3d38f20d3d56774aU, 0xbd020f73bc594fc9U,
  0xbd4cc7a43d0e7a39U, 0x3d17a879bd0d29cfU, 0xbd05d24ebbdd61fbU, 0x3cb480c4bd1f706eU,
  0x3d2bcf6c3c08f1ddU, 0xbd65c1eebd6f2071U, 0xbd15001bbc913f16U, 0xbc3c9a113bda2f0cU,
  0xbb9eab08bc4cde25U, 0xbbe6a6c6bd5943c5U, 0x3ce8098fbd46fdc8U, 0x3c8da96cbd60fdc6U,
  0xba470b863c869507U, 0x3b560cc6bc668adcU, 0x3d2cb78ebd454e23U, 0xbd015c23bd5bb22cU,
  0xbd36db0bbd695cc5U, 0xbce3edb93d475cc2U, 0xbceace7fbc96b66cU, 0xbcf73735bd3023c8U,
  0x3cf2c934bca835fbU, 0xbc4751483bcc7af4U, 0xbd693cbdbc739d44U, 0x3b5b1cd1bc77bb08U,
  0x3d686a453c0a150eU, 0x3d03dc8539e4c26cU, 0xbd40fc743b52df5dU, 0x3d4ec18fbcc79650U,
  0xbb1e0dde3ba416f1U, 0xbd2c23f83d0c0acbU, 0xbcf6803fbcd0bd3aU, 0xbcf57fba3bc78adbU,
  0xbd54e3e3bc0e5949U, 0xbc8685a4bd3cf1a3U, 0xbad5a5ebbd16a2baU, 0xbab142003b6da2bbU,
  0xbcd76483bd04787aU, 0x3caa579ebb9a94fdU, 0xbc586939bd686428U, 0xbd072be63c7f6749U,
  0x3d3e4b59bd626e5cU, 0x3d1d87fcbd21e59aU, 0xbd24eafa3d52f8c0U, 0x3c83e25c3d1cc2d2U,
  0x3cbeadb4bd2ee5baU, 0x3d0b2c18bcefb818U, 0x3d573ba1bcf58fccU, 0x3d2d0bf83d21c4e9U,
  0x3d1d04d43c26622cU, 0x3d180f733af4957eU, 0x3ce80a96bca13431U, 0x3cfba0dfbcf11645U,
  0xbd53f71abcb671baU, 0xbbb03a0ebd2f1f5bU, 0x3afcfa3dbd108631U, 0xbd2bf6ae3d070846U,
  0xbb3126783c154ad4U, 0x3d255c8ebd476f36U, 0x3bc1b2123d1d6728U, 0x3c2ae2823d2263e3U,
  0x3d2e0fc33ca195a5U, 0xbd2b00a5bd549ff7U, 0xbcbd3e33bd0d0c55U, 0x3d3f206d3c6cc40dU,
  0xbcdbbe71bd43cad8U, 0x3ce1b48f3d2c56fdU, 0x3be2adb4bc59e607U, 0x3d5d52823c1bcee1U,
  0xbd097079bd5b21b7U, 0x3ccd408fbd128c96U, 0x3c72ef333d4aff0cU, 0x3bf7bc733c51ecf4U,
  0xbd6326a5bd1a6123U, 0xbc91b290bd5cc823U, 0xbcee29b4bcb40be4U, 0xbccc05c63d13638cU,
  0x3cd10b23bd21df97U, 0x3cd16940bac0f751U, 0xbc06de4e3c89530dU, 0x3d4679eebd141373U,
  0x3d545bc13b988264U, 0xbcbb491dbbf94b7aU, 0x3c084a803c937436U, 0x3b0b28943c494203U,
  0xbcf13c843d655650U, 0xbd6287ebbd4ef71cU, 0x3c38cc633ca0c59cU, 0x3d4f77633ca0c048U,
  0x3c405c25bcd803e6U, 0xbd2a2615bd0d872fU, 0xbcb1b193bccaae42U, 0xbd3c07703b70c9c5U,
  0x3d6571a0bcdc5fb8U, 0x3cf8efe4bd6783c0U, 0xbca089d1bd0fa4aeU, 0xbd6ec1debd3ea0a4U,
  0x3d5b4a343d1e5127U, 0xbbf8f45b3d005345U, 0x3c93c2b8bbd4d8bcU, 0x3d506232bd21f68eU,
  0xbaa79e91bcc0af13U, 0xbc05dd983d5e24a8U, 0x3d45c0fdbd55f60aU, 0x3cc2932cbd63c746U,
  0x3d401a623d545541U, 0xbd0362fd3c9c7213U, 0x3d43efcdbd403948U, 0xbd57e2463d0c5512U,
  0x3d2937d7bd25898dU, 0xbd227a853d02dceeU, 0x3cbd0eab3bc0217aU, 0xbd5084243c5ac5e4U,
  0xbd13fae03d396d6cU, 0x3d55945f3ce2b2bcU, 0x3d33506dbd1e99aaU, 0x3af7ada5bbf1f5fcU,
  0x3caf77febccc7f3bU, 0xbca26d47bd4cb590U, 0xbc1150fbbbfed55eU, 0xbb293642bd5f6d21U,
  0xbd054eb03d372fb8U, 0x3d42118dbd4182f4U, 0x3cc544c23a584dd1U, 0xbd507e4f3d4e2736U,
  0x3d3edb29bd5a446bU, 0x3d1237a93d661c21U, 0xbd6cec213cf64e30U, 0x3c28d12cbd04ca39U,
  0x3d07b075bc8b1f1bU, 0xbd1b42c9bd32b072U, 0x3cca941fbcec2d5eU, 0xbd5bd38f3d582de0U,
  0xbd519b2c3c069b76U, 0xbca89823bbe62ecbU, 0xb9c99aaabc397acfU, 0xbc7f24b73ce15d2bU,
  0xbc2093d5bd30d25fU, 0x3d1e4f973c847f5dU, 0xbc2a1e803d5bff0fU, 0x3cf72503bd3421c9U,
  0x3cd7c810bc8cf4abU, 0x3d09e3413d3a4edaU, 0x3d1f421fbce829eaU, 0xbb32c12e3c289297U,
  0xbd0d807ebb18430cU, 0xbcbd5297bd3a08f2U, 0xbd55b89abd1f4ceeU, 0xbd23c0933cafc0faU,
  0x3c5bc1483a93486fU, 0x3baaf358bcdec3d1U, 0xbd65655ebc11af2eU, 0x3d66c4803d51197aU,
  0x3c5039a13bf7e1edU, 0xbbe437e03b73d50cU, 0x3ad23fb0bc8040ceU, 0x3d0ce777bcb8ed95U,
  0xbb4a5e60bc0be548U, 0xbc9f9c803cd6483dU, 0x3ce21d25bd3b8e66U, 0x3b5cb261bcd0a30bU,
  0x3d5b4b943c39d869U, 0xbbdebc743ca0b990U, 0x3d45b06bbd00b654U, 0x3c157345bbde5b6eU,
  0xbd38efacbd016786U, 0xbd3977b8bd0172daU, 0x3c9e23e63d37f4adU, 0x3cfe18d93d464ed4U,
  0x3d2326f8bc4871f6U, 0x3cb2bf69bd37e32cU, 0xbbb443d4bcc2653bU, 0xbd5dd9103c45c52fU,
  0xbcd5d4293d54daa4U, 0xbc1b786f3d3657a5U, 0x3ca8d1803d4e8a3aU, 0xbd0b48dbbd66ffb8U,
  0x3d0502693d15567eU, 0x3bcf2e093aff80a7U, 0xbce3241d3be5c9c5U, 0xbd30ee253cc2b98aU,
  0xbd550a663c7e69e5U, 0x3ce224053c89e198U, 0xbc21a637bba6a65bU, 0xbc9cefad3cca78e6U,
  0x3c84f7f7bcb2c285U, 0xbd559a68bb1c982cU, 0xbd600f393cff96f6U, 0xbd15a94abc7fdc15U,
  0x3c4ad500bd2f2fdfU, 0x3d297708bd595186U, 0x3d27b380bc08b897U, 0x3c3934b3bbbea04fU,
  0xbc608baa3c9f6c66U, 0x3d2b43683c2f3224U, 0x3cbdb152bd1e1d76U, 0xbd4a7fec3c220a1eU,
  0xbcd27f903d635157U, 0xbb3be9873be2faa8U, 0x3b270a7c3d257551U, 0x3cf458003cf6e79cU,
  0x3d191d0b3c71b0bbU, 0xbd14aa81bd072a75U, 0xbcd59efabc75c93cU, 0xbce1f55cbd17662bU,
  0x3d0b2b493d251115U, 0x3bb159a8bd46856aU, 0x3d2d5e793cdae6c9U, 0x3cb6b0c93d26cb16U,
  0xbad1df18bc676ffeU, 0xbcd67679bd2a421eU, 0xbd0a8b67bd5d8f07U, 0xbb97bed4bc82b674U,
  0xbd5cfcd8bceecc43U, 0x3cd5b0a5bcd28d49U, 0xbd4983dcbd2c28f5U, 0xbd12065e3c3426eaU,
  0xbcbbbf6abd17163bU, 0x3d455b1fbacf59e7U, 0x3c79d04abc0bb7c6U, 0xbcef93bbbcbbd3c5U,
  0x3cb84f8dbcb67c12U, 0x3d10ac7dba503c00U, 0x3d253bcbbcfe2a4dU, 0xbcd224fb3b9effbbU,
  0xbcc4dbe83b983805U, 0x3d53a8703d559c31U, 0x3d09a4a83d688b45U, 0xbd798a85bc172d35U,
  0x3d5da5b03d0821b3U, 0xbc5b82d53c7d0ee8U, 0x3d185ed83d655644U, 0x3bbbca273a18aefaU,
  0x3cd7f1e2bd1056efU, 0x3c36e5973d40a42cU, 0xbc6541a53c1ee29fU, 0xbb7cf197bc538e86U,
  0xbd1b52bd3bc25c68U, 0x3ca58c313c7d3eb1U, 0xbc154902bb46228fU, 0x3d3f0c43bd29c210U,
  0x3c88fb263d56cc2fU, 0x3d412dcebce66626U, 0x3d11398d3c40f3e2U, 0x3d7405fa3c0f7fe6U,
  0xbd0ef2ba3d48fedeU, 0x3ca450013ca3ff9eU, 0x3d18614e3d52edd9U, 0x3d2b85733bdfe990U,
  0x3b611f263b40fb54U, 0xbc84252b3cee9860U, 0x3d05aa4a3d6e00c3U, 0xbcf29ba8bcb1a30bU,
  0xbd4dbb53bc9ea0f1U, 0xbd24434c3d36c7c2U, 0xbbf9f040bd67cd5aU, 0x3c1b97dcbcd8a64dU,
  0x3d6ca71e3b6b6850U, 0xbbfe954fbd0c3f39U, 0xbd0f4ed6bc8796aeU, 0x3d20d04d3d0b58b5U,
  0xbd44561bbcb30f37U, 0x3d43dba4bc20a843U, 0x3cfc4bc8bc7c6c3fU, 0xbcd2d4a1bb1db0eeU,
  0x3cfb97a93d36bf55U, 0x3c1477873cc8a5a1U, 0x3c3472fdbd59cb4cU, 0x3ce57c403d1c7c43U,
  0x3c8ffe24bbf76886U, 0xbce384433d0f0b1dU, 0x3d54a0c8bd668131U, 0xbcfc0008bbed36f9U,
  0xbd66481dbc24a088U, 0xbd62b23dbccf112dU, 0x3c1498a2bce1ec01U, 0x3c879f3abbae063cU,
  0x3cd5b15c3beecab7U, 0xbb53734ebc4f0323U, 0xbd0eab30bd64d9d7U, 0xbcaca235bd015461U,
  0xbcedfee4bd78557bU, 0x3d0a6c39bc30b94cU, 0xbd10285d3d0297e6U, 0xbca238693b141383U,
  0xbc9d28babcdac8d6U, 0xbd4b1e29bd21d07eU, 0x3c9060ebbd1ff1f7U, 0xbcaec50d3d244864U,
  0x3d2ac657bd20a37eU, 0xbbffcac6bd26f9dcU, 0xbcb2a1cabd320bfcU, 0x3a09d1a33cb9bae1U,
  0xbd91c85b3cd91502U, 0xbc6e32ff3c3e7c98U, 0xbd13098f3cb1de7cU, 0x3bc0d2f83c6d387dU,
  0x3bb07b3abba0f536U, 0x3d070850bca68acbU, 0xbd6dc947bc6c0cf1U, 0x3bae886abd3f62b1U,
  0xbcc7ed7cbca745a6U, 0xba8beee8bd153193U, 0x3ce985733d501a0fU, 0x3b3afc823d2abf0fU,
  0x3b03de833ccf9672U, 0xbcebd2283d524c47U, 0x3d518aed3d1b31d9U, 0x3c2f4e1dbd06e2c8U,
  0x3d368dd5bc95ad34U, 0xbd0cf2b63d522eebU, 0xbcb98519bc8c665eU, 0xbca362f23c64164fU,
  0xbb9e5f5cbc276ac7U, 0xbd1a2e30b9b3f129U, 0x3cc9b30a3cf362ccU, 0x3d16283eb9d7d541U,
  0x3d8815dbbd6cb79eU, 0xbcfe54d9bcfd71d3U, 0x3b214d663ced280eU, 0xbd28cb203bba6bbfU,
  0xbcaeb0d2bd1b54efU, 0x3d2fb8683d0a91e1U, 0x3cb0944b3d1cfa02U, 0x3cbbececbd543465U,
  0xbd5335323d020fd4U, 0xbd57d57a3c289c73U, 0x3d5f2244bca48325U, 0xbd6bbb84bc3292e3U,
  0x3ca5337dbd53b1d4U, 0x3d4363c8bbd15506U, 0x3cbb2bf93d0072cbU, 0xbb73ec82bcae09d3U,
  0x3cb1214b3c197816U, 0xbd591c193c8b7238U, 0xbb15e9f13c94baceU, 0x3d340cee3c2ff1a8U,
  0xbd0ae8e9bd3b5d92U, 0xbce130e8bd233192U, 0x3d4e89e7bd248564U, 0xbd17a6433cc77832U,
  0x3d56ce563c694d68U, 0xbc77e4203c76b1e2U, 0x3d61ecb5bca9d5a4U, 0x3d7ac8443cc9ce67U,
  0x3d39b148bd444c4aU, 0xbcf29982bd2c80b8U, 0x3c2afeaf3d091b7cU, 0xbd4678ecbd21ec55U,
  0x3d64859f3d067d6eU, 0xbd3447963ceb74c9U, 0xbd2e0a2ebcc5ba24U, 0xbd2c8da13d15f10bU,
  0x3cab5d233d80eaacU, 0xbd5ee08cba9c6d0dU, 0xbc3fce1e3d30d59aU, 0x3b8bec933a8a26c6U,
  0x3c92d0753ce75b03U, 0x3d62820e3d7cca73U, 0xbc285d503d610ac6U, 0xbcb70ae53cb15aa8U,
  0xbd5f2f23bd10129cU, 0xbb9d9a873c96e4c9U, 0x3cbb2d58bd02a2f1U, 0x3d3efdbe3d519496U,
  0x3c15adfe3adbced5U, 0xbd16506a3bb361d6U, 0x3d5dc007bc59f103U, 0xbd5ea6f73d80a0b2U,
  0xbcfb4815bd556289U, 0xbcb971b03cc6b6fdU, 0xbcb33111bd626ae2U, 0x3d28a47ebd5834a8U,
  0xbcfba97abc27e2cbU, 0xbacf30a13c99539aU, 0xbd0d9eb43a88bfc6U, 0x3d0528573d150ebaU,
  0xbcc75886bdb22de6U, 0x3d39041cbcbc69d2U, 0xbc336181bd63bd98U, 0xbd4489103d88dfecU,
  0x3c16d183bc57cf1fU, 0x3c5944093d0f1c4aU, 0x3ce5923ebd253b1bU, 0x3d59e0373b742949U,
  0x3a91a95cbc91e394U, 0x3c7eea323d3e2854U, 0xbb96439b3cf3ea6dU, 0xbb4daa293d06f177U,
  0x3d0d233f3d3416b6U, 0xbd3efe213be1dd72U, 0xbd361db9bd09f583U, 0xbc376645b876010aU,
  0xbd57c5a5bcd158e8U, 0xbc592f403bec9ab7U, 0xbcd50ff4bcaeeeb6U, 0xbd1132783c13f6ffU,
  0x3d47b0383cfe32feU, 0x3d083171bd0933aeU, 0x3caa42ebbd35106eU, 0xbd8f94c8bb290cd4U,
  0x3c7c9138bcad1f1eU, 0xbd4df193bb80933cU, 0x3cd644e13c58d550U, 0x3cf3ed413d47854bU,
  0xbca16b1ebd328820U, 0x3c2a22d8bcf883a4U, 0x3cf7d31f3d3c945bU, 0x3c45bcb53cd4954bU,
  0xbaa5d743bc578ac2U, 0xbd55afc53d6037e5U, 0x3c0e3018bd139609U, 0xbc7818663b753210U,
  0x3b8382c03d4d507eU, 0xbcdcd8a2bc7a8d34U, 0x3ad388bdbd0b6be6U, 0xbd07f2e6bda10210U,
  0xbd5974d53ce03c1dU, 0x3cb68a573bda5dddU, 0xbd06aa843d17a924U, 0x3c48bc78bd647e42U,
  0xbd394043bc8c47a1U, 0xbc604cfb3bd63fa0U, 0xbd0bfc2cbc164361U, 0x3bf8788e3d1e1ceeU,
  0x3cc76bb73bc2f9a0U, 0xbd3ca430bd00f083U, 0x3d24d77abc18fec4U, 0x3c7b9e20bc16f1d6U,
  0xbb68d36f3d2ea171U, 0xbd12008a3d74c1a4U, 0xbd5ab64b3d00d60bU, 0x3d618d393cc0ef30U,
  0xbd53e7c53b02c8f2U, 0xbca169f03d52d129U, 0xbcd4d6b2bd5b7062U, 0x3c846aa3bcb85aa5U,
  0x3c38d409bcf8c9a2U, 0xb97eb7afbc152cbcU, 0xbd369f75bc35d375U, 0x3af340ebbb7e331fU,
  0xbd3a60e8bcc85880U, 0x3cefeb97bd74e64aU, 0xbd0f64d3bcda722fU, 0xbc8ab033bd437aa3U,
  0x3ba87931bcda43d8U, 0x3ae008ba3d397b36U, 0xbc8de4fbba62d470U, 0xbd070fc1bd65d57cU,
  0x3d44f27f3d1c9c9bU, 0x3d27de11bc977521U, 0x3d287af03ce1e122U, 0xbcf1380a3d5cf198U,
  0xbd36e16b3c7babb3U, 0x3d428cbdbc754f66U, 0x3bb4e1f83d0f9570U, 0xbcf74e493d2ed289U,
  0xbd4e05763b6bc7adU, 0x3d17435f3ce81358U, 0xbcb66941bcffcd4fU, 0xbce99d62bd1bc922U,
  0x3b4d8bfbbcb942e0U, 0xbc9ccebabbb4a8ffU, 0xbd2d79abbcd451caU, 0xbce57c8fbc2ca04bU,
  0x3d5713c0bcd02d2bU, 0x3bc0c7423d2c8f19U, 0xbd5d9732bc61a265U, 0xbd4f87c4bd1597fdU,
  0x3d56c41a3cdddefbU, 0xbc57f4ac3b16a64aU, 0x3c8a34e6bd61e661U, 0xbb627ae6bd2f01deU,
  0xbd42a75dbc1f0bd2U, 0xbbe8c01bbd1b42faU, 0xbc657a173a84e865U, 0xbd3bb3d6bd32895dU,
  0xbca101e4bd1a35e8U, 0x3d54f434bb209616U, 0xbcc59f7cbb1cfc6fU, 0x3c29e283bd798a32U,
  0xbd2a21cb3d2f6ea0U, 0x3ca910e2bd26afccU, 0x3ca0c90ebd17f5dbU, 0xbc8370323d22875cU,
  0x3c02d5b3bcbc9b59U, 0xbd52f527bc5f5411U, 0xbd0b7e06bc75f7cfU, 0xbc9dc69e3cbbf198U,
  0x3ae9b30dbc964aa7U, 0x3d0c88a0bcb15282U, 0x3d36bfaebba18778U, 0xbcd0b661bcbd8392U,
  0xbb6fd9a6bc947299U, 0x3cb35dfe3d58fa6eU, 0xbd232c3dba44cd34U, 0xbc123e153d44ee62U,
  0x3c0e7951bd3741b0U, 0xbd2f1b5b3acfcbf4U, 0x3d1ac49ebcc6424bU, 0x3d1f4abb3cc7fa7fU,
  0xbb4a32bc3b55ba2fU, 0xbd4a5b82bd127de7U, 0xbd3fbc24bd6857cbU, 0x3a85ace5bd2e8cf4U,
  0x3ca9007cbceb462bU, 0x3d5069a1bc1d4eb4U, 0xbd55bad53d0a69dcU, 0x3cfe51fbbc5645ebU,
  0xbcd6a6523ccc7145U, 0xbc37ce383d5a431aU, 0x3d4da4f1bd14a325U, 0xbd02bc5fbd5ed5ccU,
  0xbc9481a83c8d71e3U, 0x3d237c01bd6110a6U, 0xbd31f26e3d2b11cfU, 0xbccd9c953c87ff28U,
  0x3a4463debc269765U, 0xbd1ff0c0ba5004f6U, 0x3c7ff651bd44b758U, 0xbd6de48bbc7c2491U,
  0x3d4b3085bc811e81U, 0xbb6ba8553d0166d4U, 0xbd059ffc3d2e47d3U, 0x3d6eaf9fbd49f5f0U,
  0xba80255b3c537f49U, 0xbba021793d1071e6U, 0x3c89eb31bcafc7a3U, 0x3cc1859f3ccdb9b4U,
  0x3c53ae2f3cd21d11U, 0x3a7ab8e1bcfc90b8U, 0xbd1e45babb87b2b9U, 0xbd4e29c53ca8aa7aU,
  0x3cfb1731bd64b0d5U, 0xbd55b6963d309290U, 0xbcc4c7693c32dd53U, 0x3d5d7c7a3ce31b35U,
  0xbd4e3749bd1c6b71U, 0xbd190affbd720fe9U, 0xbd61f4e33c8c33a3U, 0x3b11f55e3d4ecb74U,
  0x3ce5345dbd4c0a63U, 0x3cf3ad1fbc78a9e6U, 0x3d0eb3ca3d404b0bU, 0x3ce160d1bd136946U,
  0xbd4656e3bc9bde16U, 0x3d5618d13ce0febeU, 0xbd4f54cf3cfcfb25U, 0xbcdaadb93c888666U,
  0xbbc03feabd6370b4U, 0xbd6ccf1cbd07be46U, 0x3d0bb078bcb15454U, 0x3d4f43bd3c50dc43U,
  0xbd56ef023aa0e6a1U, 0xbcb6e8d63d689f95U, 0x3d1d8d35bcd6dc3cU, 0xbd382a3bbd344584U,
  0xbc97ac5f3ca1ddbcU, 0xbcbc2e38bd2b2b9bU, 0xbd26dabcbb8ed96dU, 0xbd0f58b93ce8c56fU,
  0x3cd26f873d322d9bU, 0x3d400e1f3d22c8b1U, 0x3c8c0eaaba104073U, 0x3d1573d8bd2257e1U,
  0x3c86904abd5d89a6U, 0x3ca7d268bd224251U, 0x3cbbe568bd64855bU, 0x3a0100cc3cc450b0U,
  0x3d45c167bca45bc2U, 0x3c02e093bd06f7f9U, 0xbd3aca4b3d57b771U, 0x3d6868fdbced4125U,
  0xbb808c90bb2b3179U, 0xbd20a2843c9b25d6U, 0xbcd6453e3d5174cdU, 0x3c97e5da3cf10035U,
  0xbd4dd669bce42db4U, 0xbd55df6abceac580U, 0xbd54b757bd63e2aaU, 0xbcad080b3d492aa5U,
  0x39e1fb5f3d08fe1cU, 0xbd132a6fbc99ffc7U, 0x3d44c7c2bc482346U, 0x3c10c58cbca3947fU,
  0xbbb96f40bd2e4a6aU, 0xbcfe2ba1bd25e658U, 0x3d2c01f6bc422c02U, 0x3ccab76ebbcfe941U,
  0xbd4c189bbca7359fU, 0x3cb5fd57bd2aa46bU, 0x3b5dca08bd2bf084U, 0x3c51119f3d2564cfU,
  0x3c691b8a3b939381U, 0xbd44552abd1a7589U, 0xbd433550bd2327d2U, 0x3b7febdebcddabfcU,
  0xbcf7bb65bcb7a3ccU, 0x3ce00f2d3c85180fU, 0x3d4d8bdd3d1db5cdU, 0x3d38c34d3c1aef02U,
  0xbcf7f3653d2fde01U, 0x3ce4f63ebc8d8c71U, 0x3cb290873d54bdb1U, 0xbc91928abc9d189fU,
  0xbc0cf9e83cfa8b2dU, 0xbcf94a613d49ae4aU, 0x3bc17fd83cf00c73U, 0xbcfcc3bd3c58c196U,
  0x3d3fbf523c490959U, 0x3cd6f2913d4b10e1U, 0xbd078cc03d01c421U, 0xbd5f67f8bd5e2c07U,
  0x3d2aa44dbc67530dU, 0xbbec0a383d615a75U, 0x3b36bbe33d2dbeafU, 0xbd561e9fbc694c3eU,
  0x3c8c2f59bd90c146U, 0xbc3e360d3d22a054U, 0x3cc4df5cbd463c52U, 0xbd0f0367bcb9a76bU,
  0xbd0e1d983d6a879fU, 0xbbde21a03d052962U, 0xbd32c60ebd3b341bU, 0xbd7a7e7b3d3aee41U,
  0x3cc8e42b3a0816b2U, 0xbd06234cbbfe62b7U, 0x3bb4bcfe3cf72bdfU, 0xbd34d155bcc080efU,
  0x3c39685cbd2447a0U, 0x3d4366d93c346f54U, 0xbd29e63f3d43f065U, 0xbb99449c3d2af48fU,
  0x3ce0c9143d2ad964U, 0x3cd742e8bc28a014U, 0x3c894ebd3c15ce0fU, 0xbd6abcb23d65332dU,
  0xbd3235433cb2b24aU, 0xbc4bb1d03cca10d0U, 0x3cd3da1fbce73f1eU, 0x3ca1dbcbbba35b71U,
  0xbcf516b6bd61eba3U, 0xbcf9bc743ccef46bU, 0xbd0b6dabbd22c121U, 0xbd20dcb33d4ea8d8U,
  0xbd511a7fbc2bce2cU, 0xbcbe114cbcad9115U, 0xbb8018663d35e482U, 0x3cc024ea3d248922U,
  0xbd171d243d366eadU, 0xbc4e46fcbc48b0c1U, 0x3d4501763a9fbd30U, 0x3d0e83b0bce573f1U,
  0x3d3917793cc43c0aU, 0xbd40ce5fbd50aed8U, 0xbcba5883bd66847dU, 0xbd22448c3b59a217U,
  0x3d4491183c4176d7U, 0x3c2aa2463c653bcdU, 0x3b8e0033bce7937cU, 0xbd4c2e52bd0bf148U,
  0x3b34fe3f3d137306U, 0x3c122b0a3cbd82a6U, 0x3c36ef5dbcf050afU, 0x3d3309393d457cabU,
  0xbd7faf933c36f4faU, 0xbd49a0bb3c996fd2U, 0x3d6653f5bd4e12a1U, 0x3ba5bbfe3bc5e77fU,
  0x3ce23c72bcee890dU, 0xbd4ea7bd3cd94f21U, 0xbd6c3b9ebd01a7bfU, 0xbcf2f33f3cd4a7beU,
  0x3d47f8943c1e908cU, 0xbba433643d33e96eU, 0xbc98f01fbd517127U, 0xbd59a774bd3cf98bU,
  0x3d206255bd82565bU, 0xbd5cdfad3d455259U, 0xbc90aac6bc666f4cU, 0x3c56a7d1bce49277U,
  0x3c1976b4bd295516U, 0xbc4b490ebb279811U, 0xbd578f8f3cbc433fU, 0xbd1108423bf3e603U,
  0xbc883b713c193465U, 0xbc4114ecbd1ce82fU, 0xbd3563bb3bb1cd26U, 0xbd0cf56a3c07769bU,
  0x3c4bea7abd42a1d9U, 0x3d59f4cc3d180670U, 0x3ccb164cbc0e15e3U, 0x3d5a8c733d34b3acU,
  0x3b21a834bc6a1acaU, 0x3c21dd71bcd34cb4U, 0xbd1a92c3bbd0cc79U, 0xbd4e72c4bcb21ec2U,
  0xbcd260a13c95d7ddU, 0xbd1f778d3beb04e5U, 0x3ca681d6bba7a330U, 0xbc2fae9cba2cd252U,
  0x3cc6a4503b81a7baU, 0x3b9f2599bd3219e8U, 0x3b77a673bc7d0b59U, 0x3d5a3889bc295c30U,
  0xbc9943663d53cb18U, 0xbcd13cd1bd3601ecU, 0x3caa08be3d31caf6U, 0x3b1c9242bc9dadffU,
  0xbd5e7b383c0dd3d6U, 0x3c605b35bba1578dU, 0x3cd2991bbd45ca97U, 0x3a7071cfbd20ca0aU,
  0xbd3f1f44bb763039U, 0x3d47bb1d3d60deccU, 0xbd065f2cbc4a6665U, 0x3d51cdc3bd3657a2U,
  0x3d0d876e3d13f2bbU, 0x3d73ac50bd0cd2ccU, 0xbc1bd2ae3ce3494fU, 0xbd3440ca3d2bf557U,
  0xbd4803743d3252cfU, 0x3ca47bc13d434d2bU, 0xbc188ed23cfba8f3U, 0x3cc2418a3b1a5e61U,
  0xbd2287c7bd0203e5U, 0x3d0760e93cc58446U, 0xbd2669b53cbb74c5U, 0xbd53193fbc7d0c3bU,
  0xbc6d3299bd124dd4U, 0xbd3d17b8bcf597d0U, 0xbd10633cbb3038aeU, 0xba01d136bd60ba6fU,
  0x3b11fc323d525a96U, 0x3b0868203ca91c34U, 0x3d6107cebcf3fb93U, 0x3d154f783c9f0d63U,
  0x3d3bc7b53cb90d48U, 0xbd48f65a3d50dab1U, 0x3c9f93fdbd73f2faU, 0xbc79af5d3c685b78U,
  0x3cd0ea463ce16c2dU, 0xbcb283c4bd057894U, 0xbc800f263af624e7U, 0x3c2ae552bd0c676eU,
  0x3d69cac73ce1ee00U, 0x3b5f2f9cbd5a4220U, 0xbd1213943d31c53eU, 0x3d688e40bd60c43cU,
  0xbb1cd1c03d3b9c16U, 0x3d1dc0e9bcc1dd8aU, 0xbcf14104bbda4590U, 0x3d3af6a1bd2713dfU,
  0xba3a90613cfcf25dU, 0xbc66221bbd1ae7a5U, 0xbd4d8988bbf1bc7dU, 0xbcd3c6933d09545bU,
  0xbd2bd37bbcdaabd1U, 0x3d28df333c4a83ecU, 0x3d2bc7bcbca503d3U, 0xbd3fd8b1bd01b12cU,
  0x3caa44be3c5adab5U, 0xbbf0c137bd15b711U, 0xbcc126c43b6b7348U, 0xbd6afada3d54f258U,
  0xbd1983c4bca458aeU, 0xbc3e8be93d261236U, 0x3bdc84f23d4a67d0U, 0xbce7000fbba00d9cU,
  0x3d48053b3ad6d0c2U, 0xbc56d1183ce7962dU, 0xbd0e621a3d4e574fU, 0xbd0c91e9bbadc3f6U,
  0x3d2b4ec8bcc95e89U, 0xbc92cd63bd4dd4aeU, 0xbd6520853cb1b841U, 0x3d50ec123d364eb3U,
  0xbca0bf11bc9a8fd0U, 0x3ae289ca3cf06bc2U, 0xbcfab30a3d02715fU, 0x3cc946c0bc9da0d8U,
  0x3d5c9580bd5565a5U, 0x3d18530fbb41e4c3U, 0xbd19fe1fbd1022f0U, 0xbd4432833c832b46U,
  0xbd60a74bbc9113b6U, 0x3d0fb3e4bd13802bU, 0xbbacde7bbd5c82b6U, 0x3d1a469e3d59d5d9U,
  0xbd4eb8c3bc68505dU, 0xbd6beae43bf10d65U, 0xbd3d50c4bd07826bU, 0x3d0cb06dbd1d5577U,
  0xbc447ee03cec7a4eU, 0xbd28008bbd0c3848U, 0x3d52bde0bcc1e542U, 0x3d23ef71bd2bc9d6U,
  0x3cd063ba3d3f1557U, 0xbce8b28e3d2080aeU, 0xbd263e263c754e5aU, 0xbd46818e3d03abb8U,
  0x3ca004193bbb3e9eU, 0x3d6c6d69bc55c925U, 0x3d14df38bcfc7343U, 0x3c81a54b3b69ef75U,
  0xbc6cc2da3cd072c9U, 0x3cae97d93d651695U, 0x3cf9ed5abd0bdb59U, 0xbd58c5e7bb638e57U,
  0x3d1a4b1fbd1b68eeU, 0x3cde7ff4bd506c9fU, 0xbb857ac1bc52673fU, 0xbbb9d38dbd4df01eU,
  0xbc5589a7bd4462fbU, 0x3c143ae1bd59c371U, 0xbd4b2d7a3d52bc4eU, 0xbd13494d3b4e1533U,
  0x3c1f5dbabca92815U, 0x3c87ee1cbd621a61U, 0x3a70cc6b3d661891U, 0xbc429ff83d3fde2cU,
  0xbc7b2c0fbcfc9571U, 0x3d35f1f63b3a4680U, 0xbd2811dabd74636eU, 0x3d2602bf3a95629bU,
  0xbb2214ea3d83e075U, 0x3c7e27e0bbe3fb69U, 0xbca4caf5bd3c7c92U, 0x3d1323edbd71c2b6U,
  0x3c321f7ebd4c2048U, 0x3d2fddd2bce7af47U, 0xbc30d2063d51b24dU, 0x3d2354f63d606dc3U,
  0xbcddd786bcced1a6U, 0xbcffca583d369245U, 0xbc7d2da13d1efc05U, 0x3b27a1e03cdae7c3U,
  0x3c8d6d1e3bdb3392U, 0xbd1ac5773c134f38U, 0x3b49b946bc8d309eU, 0x3cd22d1b3c03cb6eU,
  0xbd11b224bcb17218U, 0x3ca87be0bcbf7cf4U, 0xbd1648223c4d23afU, 0xbd03c95d3d4e291aU,
  0x3d8d22a43d542a7eU, 0x3d5d6df73c074f97U, 0x3d3d894c3d51b76cU, 0xbce0007fbcfbc0b8U,
  0xbc9920533cb22559U, 0x3beffa02bbdc6983U, 0x3d08f0173cd6f727U, 0x3d058efa3bd8d037U,
  0x3d1e9752bc8c70f3U, 0xbd1ac8d83b7ff3aeU, 0x3c4c15f0bcbb1daeU, 0x3d55ec113b5c8feaU,
  0xbd202f1b3d4f0386U, 0xbd29be63bcf79dcdU, 0x3d2cc7d73cb6d1a1U, 0x3d30d1c4bbf55e56U,
  0x3c267d183b5170b9U, 0x3d17ea083d342dd7U, 0x3d2203fc3c3c12cdU, 0xbcf86b083d32eb29U,
  0x3d2a3c7b3b40264aU, 0xbd153689bd37e5a3U, 0xbd387888bcc847e0U, 0xbca642ec3d2b7d69U,
  0xbd21ee973d09674dU, 0xbc7fa30d3ccee58eU, 0x3cfd714abb7e26ecU, 0x3b4122e3bd34933eU,
  0xbd1ae06f3c546929U, 0x3c80e7cdbd2f64f4U, 0x3d48f9cc3d33c811U, 0x3d6c2571bb9d2921U,
  0xbd33eca53c6efb77U, 0xbd3d912abb967014U, 0xbd3b5f8f3bc7e083U, 0x3b00b0843c0a127cU,
  0xbd47e2a1bc93c431U, 0x3c0fcc9c3d50c98eU, 0xbd17cec6bb907031U, 0x3d5def1ebce0de1aU,
  0x3a72fa513c900514U, 0xbd0dd6333cac07b0U, 0xbcfeb4aa3c86d0eaU, 0x3c973ae2bd720a02U,
  0xbcbb508a3c897f64U, 0xbd15c30f3c5c842eU, 0xbd4aa0d63d039ef0U, 0xbaf19d7eb9fde762U,
  0x3d3f0061bbf2af09U, 0xbd3f5e1bbcd6adf9U, 0x3d31299bbcce039cU, 0x3d17a9bb3d303fe8U,
  0xbd5f5a6dbab9a21aU, 0x3c8df3613c8c5538U, 0xbd6069d53d1792b6U, 0x3cc60b27bd585276U,
