
/**
  ******************************************************************************
  * @file    cnn_data.c
  * @author  AST Embedded Analytics Research Platform
  * @date    Thu Apr 21 12:38:16 2022
  * @brief   AI Tool Automatic Code Generator for Embedded NN computing
  ******************************************************************************
  * @attention
  *
  * Copyright (c) 2021 STMicroelectronics.
  * All rights reserved.
  *
  * This software is licensed under terms that can be found in the LICENSE file
  * in the root directory of this software component.
  * If no LICENSE file comes with this software, it is provided AS-IS.
  ******************************************************************************
  */
#include "cnn_data.h"
#include "ai_platform_interface.h"

AI_API_DECLARE_BEGIN

AI_ALIGNED(32)
const ai_u64 s_cnn_cnn_weights_array_u64[ 31435 ] = {
  0xbd200062bd8dedfeU, 0xbd1188c63d81e5c8U, 0x3e57d337bd2f5b0eU, 0x3e59c5a83d837954U,
  0x3dc67bad3e581c87U, 0xbd879650bd1f9a16U, 0x3e30b736bb712868U, 0xbc2688933de8c5cdU,
  0xbda4ce643d56ba85U, 0x3dd32f803dc9a23fU, 0x3d9b6489bda64730U, 0x3e02c96e3e0cf579U,
  0xbd348657bdb7c6f3U, 0xbb8766eabb216045U, 0xbc2cf71cbd9ae6f1U, 0x3e0eed9c3dc413a0U,
  0x3dc7eea33db7385dU, 0x3d981d42bd7b35bfU, 0x3d83d1803e3e6322U, 0xbd83c5c93d00b269U,
  0x3e0fa161bd930821U, 0x3db85ba43d17d954U, 0xba543047bdce1f27U, 0x3e1602673e323385U,
  0x3da1f9a43df20984U, 0x3de3e3783d196abbU, 0xbd0648d83dd35383U, 0xbb2a194b3d3723aeU,
  0xbd9e089d3e39e613U, 0x3e0ca1c63e2e7316U, 0x3dc223ae3e1a61d3U, 0xbc7cc7a0bdf8b393U,
  0xbdb31f5d3e1b1ab4U, 0x3dff26af3dd55899U, 0x3db7708ebb96c12eU, 0xbdbb9fca3cca085bU,
  0x3d2360433decf4e9U, 0xb9b12bf03d39d07bU, 0x3ce78e6f3de04a67U, 0xbdb657e73da7e4c3U,
  0xbacb9f1d3ce67989U, 0x397e2a0e3d3f8f74U, 0x3c534c0a3c87f405U, 0x3d8490dcbbf2712cU,
  0x3e191dc93b9c3d68U, 0x3d59a40dbbb50114U, 0xbd39fbe1bd8a051fU, 0xbddc43e83d65511cU,
  0xbdba611f3dde3c95U, 0x3e035baebdab4ea4U, 0x3a2743e53e233b52U, 0x3cdae8553e243ee0U,
  0x3da56283bc5b0476U, 0xbd3d25d9bd25800fU, 0xbca855903bafadb9U, 0xbd31a9003d2f6da0U,
  0x3de4dda0bc663fc0U, 0x3e34d42d3e06a7d2U, 0x3db12091bdf062e3U, 0x3cf062263d58c521U,
  0xbdb241a7bc238518U, 0x3d24f9b3bd34d190U, 0x3e2ea04fbd12a3c2U, 0x3c8d7ec43e0a12dcU,
  0xbc6866ba3e13ded4U, 0xbd13bb1abca1c70bU, 0x3cef1e33bc2479a0U, 0x3d56e5febdce92d7U,
  0x3d43aeb83d1845abU, 0xbd107b56bcc58d55U, 0x3d1ada5c3dd589e7U, 0x3ddc700e3e4fb548U,
  0x3d918f18bd44775cU, 0x3ca147cebd976639U, 0xbd9e68ea3cf00f27U, 0xbda95070bd3ba72bU,
  0x3d9ee241bd9036c4U, 0x3e1e3754bd9ffb88U, 0x3ca4ad263d93335dU, 0xbcc0d7fb3e2127baU,
  0x3d8989663c1ee0f8U, 0x3d73a1263dc3ec8bU, 0xbd30ee52bd67ccf5U, 0x3cd5d6f73bfbc328U,
  0x3d4f9e913d2e3584U, 0xbd6fe1bd3d1a1344U, 0x3e0ec6bd3e3fac2fU, 0xb9c8b6b03cb211eeU,
  0xbc17150dbd4cb5d6U, 0x3de18c25bdb134d0U, 0xbd8055c5bd8d335dU, 0x3d32ab523d23678eU,
  0x3d8602bebcc8fb4fU, 0xbd3901763d79f4e9U, 0xbd6fed79bcaf2e84U, 0xbe0c2e0d3e412a58U,
  0x3db153513b63ac38U, 0xba1a6a98bd7ba787U, 0xbc064ec6bc08ef43U, 0x3dd05d883d8dc8a8U,
  0x3d8eba88bd1745c7U, 0xbd27fb0a3e33ca9fU, 0x3d9e12cb3cde15e9U, 0x3e05e13a3be34377U,
  0x3d99f5853e3bb750U, 0xbd9fc0743daf2424U, 0xbc8924b93d92ab77U, 0xbda1c1d5bd02c595U,
  0x3c9fc9ceb5e75928U, 0xb625fdef35a23b12U, 0x3c8b16ec3c3fd35bU, 0x3c9616feba3e20fdU,
  0xbb490a68b8a6f499U, 0xb6295e83bbe64174U, 0x35c32057b55a99bcU, 0x3c46a2b0bac8050eU,
  0x381c0b04bc6a45ecU, 0xbb32c9123c366b3bU, 0x3c871194baba952aU, 0xb94cd8d1b5d4b666U,
  0xbce671223c1f341cU, 0xbdafa4b53d2bdb59U, 0x3dba4763bdaa707eU, 0x3ccddfac3d2aa42eU,
  0xbc9b209abccf8e4cU, 0x3db2b95f3cb66ca8U, 0x3d01924bbd3dfe94U, 0xbd848630bd881c83U,
  0xbdb8f557bc0df846U, 0x3c40532cbd22ca19U, 0xbc268b0abd0da969U, 0xbcb6d0ccbd7a211cU,
  0xbd935863bb8ec69dU, 0x3db766ef3dae3669U, 0xbd68a099bcbd3496U, 0xbd341694bd5c0101U,
  0x3d6d9f9b3d831929U, 0x3d941308bbb911acU, 0xbcaa886e3dad2d68U, 0xbcec9acdbd2618d7U,
  0x3d33c3073c3cbc33U, 0xbc4766e6bd097a03U, 0xbdb147b8bd40d4b5U, 0xbd791e1cbd7cbe56U,
  0xbd48452a3c487706U, 0x3d5a0e493d847020U, 0xbc8ef329bc89161dU, 0xbd44c821bd1ae568U,
  0x3d5673f1bd6a2e05U, 0xbb942dd6bc95bd51U, 0xbc352aa93a857b09U, 0xbd3bf57fbca5439fU,
  0x3cde87f0bdbaa498U, 0x3c44ec383c40035cU, 0x3cc2bb1f3dece9baU, 0x3cdea893bd4013bcU,
  0xbd7477833d3a7dc3U, 0xbd590288bd05e820U, 0x3d56a5aa3d7f0f0eU, 0x3dada71c3d334b01U,
  0x3d7548563d409525U, 0x3d803e9e3d3317f9U, 0x3d4d665dbd5becd4U, 0x3cd082e0bd83c57cU,
  0xbc61a8bb3d039fafU, 0xbd9ce17bbd891772U, 0x3da78f1fbd22538aU, 0xbd0882edbd62eb12U,
  0xbd94521ebd8f2f0aU, 0xbd458a10bd818bfdU, 0x3d1d54b2bcae7068U, 0x3cd3b32dbd814702U,
  0x3cf00bac3d98ab29U, 0x3cebda273cbd6cebU, 0x3dcafddebcd1c311U, 0x3dd2e91d3d4f3ba7U,
  0xbd54a11f3db3f00aU, 0xbd1214adbc06b768U, 0xbcfd45c0bcdcca30U, 0x3d2d34b5bcb39785U,
  0xbd8b7886bd9902dfU, 0x3cf750da3d6f5d48U, 0xbd8b5de0bcdb3692U, 0x3d919facbd2cb545U,
  0x3d4aef4e3d059389U, 0x3c9067dd3d0f496dU, 0xbd63e93dbd99c3daU, 0xbccdbf7bbc930849U,
  0x3d98860b3b91eb12U, 0x3d787f673d0262f8U, 0x3dc3c418bc2858bdU, 0x3c2f890ebcfe7725U,
  0x3dc150f7bb3dd8f1U, 0xbd8da069bd3b35cfU, 0x3d62384ebd8179d6U, 0xbc95805bbd881074U,
  0x3dbb3dc63db65fcaU, 0xbc5439f1bd2f516aU, 0x3c006724bb047f08U, 0x3dcc11753d1818e2U,
  0x3d899d183d644f54U, 0xbd09096f3dc58b2eU, 0x3d995a0abb320c42U, 0xbd9f74d83da941a9U,
  0x3d455a10bd8dd976U, 0x3d120bf23d56232fU, 0xbd5fc94bbd29c45fU, 0x3d19dd373c5029e7U,
  0x3dbe7f62bd03692cU, 0x3d84675dbd86ec60U, 0xbd8d0391bcd611efU, 0xbd8b1c193c184e62U,
  0x3d98ed333d2e9298U, 0x3d633e343d8939a0U, 0xbda19197bd47bb04U, 0x3d8292c03d193688U,
  0x3baedd0ebc7bc24aU, 0x3b0ee82c3c45fd91U, 0x3dbacffe3d8f8f36U, 0xbd930f3e3d7a6693U,
  0x3d33edfebd91d614U, 0x3be024033d9e8b31U, 0xbd79e1b3bd8111c0U, 0xbc1e69bfbb3d02f3U,
  0xbdda6e15bccbdb11U, 0x3dc619413d22be8bU, 0x3db2d0413df2a6afU, 0xbd363d873d3f1827U,
  0xbd8a11ee3d84f312U, 0x3da54b6e3bb97d70U, 0xbda137643c821173U, 0xbd1676b8bd9bc205U,
  0xbd8cb0863c54b8c0U, 0x3cb0d88cbd7de7cdU, 0x3c171efdbd01701cU, 0xbd8d4784bb92388bU,
  0x3ce5b4c4bdcb1c77U, 0xbdc95215bd1102f4U, 0xbcdd0f41bc61bef3U, 0x3d90a1413d9979ecU,
  0xbd07d932bc40713eU, 0x3d7945b7bd3a3b18U, 0xbd8950813bb6d398U, 0x3d388b403d63bfdcU,
  0x3c7549483cd9da14U, 0x3dabd4fb3d832a5aU, 0xbdb14c6f3cd79c5bU, 0x3d1664923a315b8dU,
  0x3d4c355ebdd175fcU, 0xbccbb26c3d0ebef7U, 0x3cabb57dbd74239eU, 0xbdaa9b363d9b7ed9U,
  0x3d1ce6f63d0fc071U, 0xbcbb71cabce4d48bU, 0x3c4931db3d818c58U, 0xbdc5a04ebb92c21eU,
  0x3d18be233d9be989U, 0xbcc24f5d3c8d505bU, 0x3bb168f4bca4fe42U, 0xbdc946fa3d2bf132U,
  0xbda65149bdeac9b6U, 0xbd2bb7383d8c98ceU, 0x3bef93adbdea38a4U, 0x3d9221823d68dc2aU,
  0x3d0278fcbd6c6cddU, 0xbd27fb8b3c5e323fU, 0xbc83ac753cf71c84U, 0x3d9118e63db7fdceU,
  0xbdcec0ea3d99472eU, 0x3d2ceaecbdbabbbbU, 0xbdb8fbadbbbc489dU, 0x3cb5e2a8bdb52e02U,
  0x3d97997cbd0706b2U, 0xbc0e43f83d8cf0c7U, 0x3d797208bdcf0829U, 0xbdb145a03d8148a2U,
  0x3bf1553f3c9028abU, 0x3be13a043d01fc64U, 0xbca3ce4cbdbc2256U, 0xbc84fbcd3d3d3b47U,
  0x3d1ae37dbda72a08U, 0xbd718baabcd39ca9U, 0xbd091815bd6e9a14U, 0x3d972e1c3cb46ba4U,
  0xbd8f6e5bbdc3416dU, 0xbd82222038418622U, 0x3b1083cebdc1335bU, 0xbd930cd93c2b832bU,
  0xbcc803fb3d58d26eU, 0x3d1b39cabc0a88eeU, 0x3c8a8b6fbdebaf97U, 0x3d4891f3bdc38b25U,
  0x3c48f18cbdc77ed2U, 0x3c64edd2bdedf2ebU, 0xbd9d99193cf20d5fU, 0xbd703848bdd2b2a9U,
  0xbdc1b9e7bc8b140fU, 0x3d514f1cbd2a3f6fU, 0xbcadea493d836abdU, 0x3da556fe3d9a63a6U,
  0xbc2351893db3b901U, 0xbd537c9c3bf84ce8U, 0x3b8965b63d8c8a6fU, 0xbd3c56e13d8a1d72U,
  0xbc1cb1373d42ef92U, 0x3d9efee4bd993b97U, 0x3d1e31fa3d8f79abU, 0x3c9b71aa3da4b7b5U,
  0xbdc14c0dbc60ca1aU, 0x3d1fae39bc3adf2cU, 0x3bd8d982bd967c70U, 0xbd2beaefbd011291U,
  0x3d97a7bbbd0fae89U, 0xbdc73a1b3a9f0335U, 0x3b827f053d9ab08dU, 0xbc84c5e33cffc517U,
  0xbcb6c8d5bcb92895U, 0x3c99b608bd345edfU, 0xbcad55503c273c2cU, 0xbd56c77dbb22c405U,
  0xbdc0f7fbbd8f5f06U, 0xbcc661f93d10c612U, 0xbdb71022bdd49010U, 0xbd5a0c513c30ba0bU,
  0x3da5a806bd327d9eU, 0xbdd087ed3dac6ed4U, 0xbbbe1bbdbcf79233U, 0xbd3421adbd8337a3U,
  0x3d6a9bdd3d3077f8U, 0x3cc518053d35629fU, 0xbb6ffd14bddfd4c1U, 0x3d37a3343d832fafU,
  0x3d32bf9dbdaa3837U, 0x3d793ab7bca6af59U, 0xbdfaaa8abc35aabfU, 0xbd6a3ad0bd326e1cU,
  0xbda6c0633d9de003U, 0x3d973c7ebda5b458U, 0xbd258d593c6f4324U, 0xbd4342a23d9bd90aU,
  0xbd54575dbc41087aU, 0xbd1435f43dc50462U, 0xbc3ed8edbd040407U, 0x3d29e1f83d91e814U,
  0x3cf3f7bcbb79ef7fU, 0x3d197760bd96a5d9U, 0xbdaba3adbd9e2264U, 0xbba5e1823cc17cb7U,
  0xbd8353e3bd67a6fcU, 0x3d18fc673d98b46cU, 0xbdb466273d287d75U, 0x3d8bd9dabd4b54abU,
  0x3d3bafa33d6da850U, 0xbd4fb7c6bd4baf75U, 0x3d2efaf3bdab7200U, 0xbdb0356dbd7b4e52U,
  0xbd2a9287bd61d5b6U, 0xbd86e7e43d4a0c98U, 0x39cb5ce23c5291a4U, 0xbd6e65b53cafb4bbU,
  0xbdb3f9fa3c05f8d5U, 0x3d08159dbca9f888U, 0xb9acffd7bc9e8256U, 0xbdb332e83b2ce77dU,
  0xbda55a113d985731U, 0xbd1e56853ccd07cbU, 0x3c4586893d661999U, 0x3ce47eebbd051a23U,
  0xbd5d6c91bca98bd2U, 0xbd2483513da077d4U, 0xbd90f2863ce5dbf7U, 0x3d3a50b43c54cdbfU,
  0x3dc5fca9bd9dcb16U, 0xbcbcfb12bc4f423dU, 0x3d2fd0103d90c995U, 0x3d2b2f48bd60514fU,
  0xbdc218a0bd3d2b29U, 0x3bdfd86b3d85ac7aU, 0xbd804eaf3cc681b9U, 0xbc4ab201bd090aa3U,
  0x3dc0c2e6bd8eb2ceU, 0x3d153d48bd53825fU, 0x3c6c58bbbdbd0a0aU, 0x3d2aab7c3c163be2U,
  0x3d91a5a23bb39f56U, 0xbd9b3e34bc4e1d96U, 0xbd7da502bd5158cbU, 0x3b01c04dbd15d3ecU,
  0x3d504f4a3dad7157U, 0x3d83121abcf4d9d7U, 0xbbbeeb4d3d118b55U, 0x3d32acd3bca6bb0fU,
  0xbdcca389bc49b422U, 0x3cbdbf3c3d8f877bU, 0x3d94da683d21d5c8U, 0xbd8e61e73cbe9f78U,
  0xbc73aece3b4f8657U, 0xbd943f8cbda9b78bU, 0xbd9d76683d9ffa5cU, 0x3d742779bc5170c8U,
  0x3d8df0dd3cf71780U, 0xbd4835c5bc6ee6a8U, 0xbc63bd60bc9bcef1U, 0xbda06d68bd8d5a13U,
  0x3da4cd143dae8c4aU, 0xbc0bdc3ebd74c34eU, 0xbd9849d4bcdfe28bU, 0x3d8df8473db67bf0U,
  0xbbb9ea0dbd1940b5U, 0xbd05b97a3cacd563U, 0x3c50335e3b648c69U, 0xbd1ca8ad3d50e01eU,
  0xbda191d93dab8d97U, 0xbd08f65abcb58352U, 0x3d559227bd65ff29U, 0x3d44a8d53da87a25U,
  0xbcb0d45dbd8aaf76U, 0xbc42c6cf3da50bfbU, 0xbd6b1f0cbd8bcefeU, 0xbc3459e03ca0cf09U,
  0xbdbb0fb33d3bb3ecU, 0xbd36e4a03c82ffb3U, 0x3d76efca3d1aefc7U, 0xbda5c9b33da0668cU,
  0x3cce4c89bda98b51U, 0xbdb51ec9bdbe963aU, 0x3d129a643d3bbafbU, 0x3bf9a83b3ccce8cfU,
  0x3d990c4cbdc582b4U, 0xbd7cf9a4bd9163b3U, 0xbcee876c3d20fc6fU, 0x3c2faf2fbd2af9edU,
  0xbc94607f3cd235ccU, 0x3d80c9d5bce9653eU, 0xbdb3f9933c332012U, 0x3cc848b33d00e95aU,
  0x3c3299d7bc9b3f6eU, 0xbd664c333c5bf919U, 0xbdc0dbab3d43f326U, 0xbc75946fbcb826e6U,
  0x3d88e09b3d845a0bU, 0xbd0f0a60bd8d1e4cU, 0x3c474b573cca2d61U, 0x3bdc9dd93d83f65fU,
  0xbd737fd5bcc5ab4aU, 0xbc2832883c992642U, 0xbb191c5e3d400a63U, 0x3d8ab280bdbef1a5U,
  0xbd5b4695bdbd36d2U, 0x3ce7ce3b3c8eac1bU, 0xbcd37bc13c485063U, 0xbdb199d13cdaf44cU,
  0xbda21f21bcc88627U, 0xbd9842fd3c6a46c8U, 0xbdd543f03c8b6f17U, 0xbcc7f835bd70ff52U,
  0xbda8c565bc9a1a4fU, 0x3d41decabdb2d3d9U, 0x3ce62a483da0fd73U, 0xbd815d34bd8cabb3U,
  0xbd8b56773d69282eU, 0x3cf11fb7bd436c23U, 0x3ced55cb3d91aa10U, 0x3d1a870ebc91ea84U,
  0xbd90a074bd665e7eU, 0x3d09b37abdb507e3U, 0x3c0e95213d90a552U, 0xbd81fc323d4b4fa3U,
  0x3d15fb26bc695c29U, 0xbd146b393d01e25fU, 0xbd41c1d03dafdfb6U, 0x3d755e223d6760f3U,
  0x3c8c06583d3a2d16U, 0x3d66ebf4bd84f9ceU, 0x3d19a1d53d327d29U, 0xbda721f5bcbf8930U,
  0x3db74ab23d379caaU, 0x3d604dda3cf4ccc4U, 0xbd47ca77bd3d3786U, 0xbda92cc2bc275a15U,
  0xbdbbf5c93dd896c6U, 0xbd7923823dbc5f7bU, 0x3d289f4b3c74ce40U, 0x3c5ca2f4bdb22159U,
  0xbd75a4ef3d8f54d3U, 0x3d03dbdf3d1ec3b5U, 0x3d447a10bc3f5019U, 0xbd0b7af3bd482e7bU,
  0xbd0f2083bd1c1630U, 0x3db2ccee3d782d74U, 0x3dac03113c9b4ecfU, 0xbda00bfbbd6c8cd8U,
  0xbd613ae23ce00045U, 0x3d74eaaabd33b3c3U, 0x3d8a97b0bd8c6563U, 0xbcebc56ebd410c44U,
  0x3d0ea443bdaaaea5U, 0x3d08c0f83d1f398fU, 0x3d99ab1e3d246e15U, 0x3d98fcf73cc84ed8U,
  0xba5a1c9a3d425a56U, 0x3d2d13c13d7eb412U, 0x3d87c0eebbeaefc6U, 0x3c2123aebdcbcc0bU,
  0xbd4256bdbd0e8a19U, 0xbdaf94b4bd6b50c6U, 0x3d35a8dabccca8eaU, 0x3cd36a06bcb05524U,
  0xbd38ced23d993285U, 0x3da2ab79bd0d6d35U, 0xbd5990c2bdb5a0e5U, 0x3c30ce07bda9a544U,
  0xbd4db35abd1ba49aU, 0xbcc1ccbb3d3fdfacU, 0xbd40a8cd3d5ef7acU, 0x3b99f333bd29fabdU,
  0xbd8bb3493da65f7bU, 0xbd83e8e03dd64f8cU, 0xbd70cbe93d10a06eU, 0xbd8bac43bd89697cU,
  0xbd28815c3d8c784bU, 0xbce26bb7bc659b60U, 0xbd16eb433c8c1b58U, 0xbc13323bbd4097aaU,
  0xbd043d1b3c3c7f01U, 0xbd031dca3d2c2cf9U, 0xbcf396d63d7e8d39U, 0xbc3a22b8bd5e5dd8U,
  0x3b97086e3b0bdaf7U, 0xbc72d47fbcc29a5bU, 0xbd93cc013c81ca25U, 0xbd128f8ebc9e9963U,
  0x3db585553d40ff5cU, 0xbd5e42ab3c8841dbU, 0x3d057b88bd9ac686U, 0xbcd2fc00bd3a4d15U,
  0xbd909d86bb7ccfa5U, 0x3c2083713d5ac0ecU, 0x3d377375bd94266fU, 0xbda3cc5a3c5e9752U,
  0xbd32e290bcf5d071U, 0x3db8e694ba4752e8U, 0xbcfa46223dc78cb1U, 0xbda40149bd7566fbU,
  0x3dbb66d53d91d6a1U, 0x3d6376893c593959U, 0xbc6ec9e5bd916d71U, 0xbd9e7ac13daf3b06U,
  0xbd088f6c3d10e2adU, 0x3d650116bc9b520eU, 0xbd3281233d212534U, 0xbba4da3d3dad1d3bU,
  0xbcd2cf40bd68ea36U, 0x3ccfa54cbc5c7af8U, 0xbd40c3483ccd7d6fU, 0x3d5b5e75bd036124U,
  0x3da7cfd43d633d11U, 0x3b7f6656bcf9b6ceU, 0x3ca0639c3d1a7af4U, 0x3cb8581ebd3464bfU,
  0xbd6955ab3c923e77U, 0xbdbe9605bbb4dde1U, 0xbbdf68253d3ff5b3U, 0xbd312727bc4abfe9U,
  0xbda2307cbcc3a728U, 0x3ce889c8bdc41868U, 0x3d097ba73d9ffc38U, 0xbc3755a2bd529f57U,
  0x3d712e57bcf95dbbU, 0xbd2d03683d35ad82U, 0x3b17c633bd894288U, 0xbdbcbae2bca2b1b3U,
  0xbdae1836bdc6379bU, 0x3d50f279bd95b98dU, 0xbd347087bda02814U, 0x3ca5c429bd828940U,
  0xbd704f0fbd78ce5dU, 0xbd980d3b3d575fdeU, 0xbcee84953a195d4bU, 0xbd3fa4793c35a883U,
  0x3d19d2033d9857ecU, 0x3db74941bb95d78cU, 0xbc215384bdb9b81fU, 0xbba76b52bc9d92fbU,
  0x3c2fb5e4bd8b5d44U, 0xbcd0bf163c53331eU, 0xbda6d14abd2da02aU, 0x3da34488ba09126dU,
  0xbca553f2bd82f0a8U, 0x3d695b26bd695256U, 0x3b8da791bd53f363U, 0xbdcdcb263d944b4cU,
  0x3d77e1963c0af3aeU, 0xbd8567193d8c88a3U, 0xbd19b4a4bdaccf32U, 0x3d70eaf0bc8afaabU,
  0xbcb2e832bdb7db6aU, 0xbdafa5613d2e3b34U, 0x3d79d5ecbdc6fee2U, 0x3d15cea43d4f2f7fU,
  0xbce557cf3d969e87U, 0x3ced4236bd9df6dbU, 0xbd05aa3abda9d726U, 0x3dabb483bd67800dU,
  0x3c6ee260bd995692U, 0x3c1b35bdbc4dc34bU, 0x3c58996fbc9f8296U, 0x3d0bb350bddce023U,
  0xbd32f57bbce38711U, 0xbc299f3f3c25d5bfU, 0xbdc208243d1bbfdfU, 0xbd367d4cbd0a7c77U,
  0xbd53f74bbdd05a84U, 0xbcba25e9bdb77d6eU, 0xbd23ca093d8dfb6fU, 0x3d8a53623ceece78U,
  0x3d92df3a3c633c67U, 0x3d47e740bde0a4b2U, 0xbd918515bd848175U, 0x3d9243c63cb3268bU,
  0xbc0febfbbcea4c7fU, 0xbdbde120bb5479e2U, 0xbd6b3a7dbd98a2b2U, 0xbd570dfb3d938912U,
  0x3d308f40ba95f6bdU, 0x3d82c0e63d6a8985U, 0x3d85df47bd3b16c0U, 0xbcbd67a13c8de3aeU,
  0xbd9214b8bdb5e5d0U, 0xbd6460ef3d01f2b2U, 0x3d3cc09c3cd11c3aU, 0xbda425833d42ebcdU,
  0x3cb66eb53d264e40U, 0xbb9ab0e33cc6259dU, 0xbd1339a8bbf074bfU, 0x3d0b25e3baecb730U,
  0xbd86b77d3d034f2dU, 0x3bfc6442bb411c8fU, 0xbad1d6d6bddd9ee0U, 0xbd0963c7bd3db628U,
  0x3d31c5953d985c3aU, 0xbd32dc103cc320a5U, 0x3d07fcfebd82cd93U, 0x3d889f82bced1b57U,
  0x3d4cde7ebbf2f33aU, 0xbdbef611bdb74400U, 0x3d3ae363bdcf9d80U, 0xbd99cd7f3d0961daU,
  0x3c83e8cd3cb1bd0eU, 0xbd227be6bd76302eU, 0xbdade9a6bdb76875U, 0xbda98fba3d024784U,
  0x3ac48f533d72c194U, 0xbdbde8fc3d0a760aU, 0xbaf8aac0bcc6c3cdU, 0xbb1cb6f3bdebed76U,
  0xbc728b9b3d3748dfU, 0x3c19ddc5bdb28686U, 0x3d4e6ccb3d24c7e5U, 0xbcfa9b313da75ca4U,
  0x3b98853ebd4af024U, 0x3dae9eb73cf2b43eU, 0xbbbf87f4bd2a831cU, 0xbd9fca62bd8de353U,
  0x3dbef0a93dc4e0a7U, 0xbd2869643db00d0dU, 0xbc21cdb13ce29eb3U, 0xbd952e2fbdba7e6fU,
  0x3dc036ec3d982b5eU, 0x3de2b5d7bd77e6c5U, 0x3db76321bd59e10dU, 0x3c79a70abdadde5dU,
  0xbdc35e283dd7ea22U, 0x3ce93564bd98b099U, 0x3d36c259bc2f63e7U, 0x3a2c9aecbda0d560U,
  0x3dc148963d1b560bU, 0xbd7e7b7e3ce5abd2U, 0x3dac80d9bd5c0329U, 0xbd50979ebc741ddbU,
  0x3957a179bd558e32U, 0xbd49563ebca64cf4U, 0xbd5961103cf14418U, 0xbda367373d56193aU,
  0xbddb9e74bd924d8eU, 0x3ce309673c0862bfU, 0x3da8b08fbdaaac98U, 0xbe1b9ea7bd78af1cU,
  0x390bc87bbc7957d9U, 0xbdb78bc1bd2d01cbU, 0x3dacb4c3bd84d62aU, 0xbd64694abd36ada2U,
  0x3dbd930b3d236840U, 0xbcf501aa3da45565U, 0x3d9c926f3d6ea69aU, 0xbd7c0766bd806b80U,
  0xbd9cb89a3d8013d3U, 0x3daa56723d2fed0bU, 0x3dac4ecc3c30b50dU, 0x3db434533da31ba3U,
  0xbbff66d43d2bd1baU, 0xbcb29d03bd27ee94U, 0x3d4738cd3cfab5a0U, 0xbd3322133d6b8db2U,
  0xbd9c695a3da907e8U, 0x3dd60a75bc82c93bU, 0x3cf53bf1bdadb9bbU, 0x3d803659bce6b455U,
  0x3d8e5fed3daa8628U, 0xbb1df6dd3d97569aU, 0x3d8cce31bcd837d3U, 0xbb1786c5bd5010f0U,
  0xbd00d2dabd2cf88dU, 0x3d5e70eb3d83465cU, 0xbcffa9193d273b46U, 0xbd6ccdabbd8240adU,
  0x3d83194cbdb48989U, 0x3d3518903b23be88U, 0xbd724a433d4ddf78U, 0xbda88530bd89e780U,
  0x3c04117bbd8455e4U, 0xbd9f412d3d29cf6cU, 0xbd22aa473d84fd75U, 0xbc9e1e7a3da1aa08U,
  0xbd42f3393da49549U, 0x3da1c6a6390f21f5U, 0xbd2cdb4abd54889cU, 0xbd79fc43bd039767U,
  0x3d5843f2bc479769U, 0x3ab2da2d3dbd9cc3U, 0x3c3d6fed3c2de5f8U, 0x3d1c5b76bcc6557aU,
  0xbcb8636e3e17f7c9U, 0x3e054cd3bc9070bdU, 0xbceb849dbd5b4f29U, 0x3d345ba2bd3a4656U,
  0x3dad1eb6bd9743aaU, 0xbcd741ff3d9137fbU, 0xbcb20dca3cc576bbU, 0x3d02ae3bbd906694U,
  0xbd52e3e33c6b1451U, 0x3d5bfbbc3cb0ecd7U, 0x3dcf1af2bc39a554U, 0x3caa7d9b3d8a25a8U,
  0x3a1751d5bdad1f04U, 0xbd9ee7b7bcb627d8U, 0xbd2988d63aa9d9e8U, 0x3c92c032bdc6c403U,
  0xbc68a2e0bd1bcb21U, 0x3d8727bebc297a1dU, 0xbcad2985bdafdee6U, 0xbd93547a3c0ba968U,
  0xbca36f6abd98cc9aU, 0x3a845c6a3d4f1c6eU, 0x3c8f20c63d5cb81aU, 0xbdab0a013d46ae50U,
  0x3be65a143d475312U, 0x3d6fee593d9c3909U, 0x3c882ad1bd2799feU, 0xbd8300bcbc95554aU,
  0xbd9fe8bf3a8210efU, 0xbd2b85a8bde6981eU, 0x3d75628bbd50c8efU, 0xbdb1cb6839d09266U,
  0xbdae346cbca48641U, 0xbd7b9ed33d8bd7f7U, 0x3ddc64373d564a86U, 0x3c63dec43da96508U,
  0x3da8d0efbd23d14bU, 0xbdc4c438bd23837aU, 0xbb2949863d99eeedU, 0x3da6aa7c3d60503aU,
  0xbc064ffa3cdfa086U, 0x3ca633233d9fed07U, 0xbda483c43be2a811U, 0x3d7d84153da9d2caU,
  0x3db0da4bbca28f7aU, 0x3be2ecea3da542cbU, 0x3d383ee43d134348U, 0xbcc33538bda33faaU,
  0xbcdb3026bd9080caU, 0xbd23316e3d8171edU, 0x3dbf607ebd9e9ffaU, 0x3d0bbeb8bc2ce4f7U,
  0x3d1fea76bcaaa3f1U, 0xbc89a024bd52c33cU, 0x3d4f9f963d055f0aU, 0x3d708a683d768e0dU,
  0xbd9ee58dbd8df51aU, 0xbcc0d0b23da87f65U, 0x3cc981e4bd47e05aU, 0xbd0597dc3d049084U,
  0x3c26e4c63d9020f5U, 0x3daee82b3d8948c4U, 0xbd4da772bd824cbbU, 0x3ba2f1ecbbc64218U,
  0xbd8abe763d6f3907U, 0xbcabad26bdc6664fU, 0xbd6f893a3caeabedU, 0x38cad782bd7879ebU,
  0xbdaf850dbdf21585U, 0xbd92af113daa25c5U, 0x3c38c8063d7b32daU, 0x3d124a86bc27f4a6U,
  0x3d8cc1c3bd6daabdU, 0x3d429a78bd6d7caeU, 0x3dadfbbabdc5575bU, 0x3d9b2266bd815127U,
  0xbdc31c61bd0fbbd6U, 0xbd6eeacdbdcfad33U, 0xbb7730dfbcf0d151U, 0xbd31f8e7bdd58dc3U,
  0xbd9307e73c68f952U, 0xbd5c81a7bce25c90U, 0xbd160f033cf1e8daU, 0xbceeda07bd734c9cU,
  0xbce1b979bcdc73baU, 0x3d1dd224bd2dac62U, 0xbd83cfc83cf32935U, 0x3d09b1893ab066b7U,
  0x3d0a030c3d11b07eU, 0x3d9bbc383d1008f2U, 0x3d8b9c2cbd4a2b86U, 0xbc07d341bd287179U,
  0xbd933208bd009f00U, 0x3c50007fbd20dfafU, 0xbd9f82163d4cf761U, 0xbd9a367abda650d4U,
  0x3d95754e3d1bab66U, 0xbcffa4133bb20879U, 0x3daec9e23d5d2c49U, 0xbdaec418bd98537bU,
  0x3b876ebebcdc0b81U, 0xbc2ce963bd8856a1U, 0x3c5b8c71bd96b308U, 0x3d6427dc3d80e0fcU,
  0x3d81e267bdc94fdaU, 0x3d80e0e4bca978f4U, 0x3c96d94fbc1a9251U, 0xbc892a0bbc071a61U,
  0x3ca333d7bc3f192eU, 0xbc87cec23bf9be5aU, 0x3b561cf23b8f7526U, 0xbd167ba83dd24d10U,
  0x3d174a263d60404aU, 0x3bcd0b8b3d370894U, 0x3bb7fe46bd16efb3U, 0x3d3238633d2af75bU,
  0x3d9c9997bb1e479bU, 0xbd88cc68bda305dbU, 0x3c3b40a9bd20bbc6U, 0x3d5f844bbcc2ba2cU,
  0xbd4947ca3d83dd8cU, 0xbd24b443bcc04e5eU, 0x3d9498933cee2088U, 0x3cd0c5313d0e4628U,
  0xbd96756abd51e2beU, 0x3d5d8921bc3cb68cU, 0x3a89a7043d9351f1U, 0xbd422580bcdb9e39U,
  0xbcd6b41a3b50536bU, 0xbd1c64f4bdb229d7U, 0xbc14ec3abb291242U, 0xbdac5a6a3cdb2476U,
  0x3d78763fbd14d97bU, 0x3da9ddc03dababf5U, 0x3b8e3ee1bdb547bdU, 0xbd1436743db6ab89U,
  0x3d86e08cbdb1f291U, 0xbd6931c2bd80994cU, 0xbd3c98d33b9e9814U, 0xbd96468ebdb278f3U,
  0xbab5b26cbca4a362U, 0x3da134033db62c1dU, 0xbd654a23bc64878eU, 0xbd5d12ddbd049ac8U,
  0xbce36da0bd4ae97eU, 0xbd82a07b3d399ab9U, 0xbd455d393d75a0baU, 0xbd75d441bdaaf3f9U,
  0x3da7d7433d875145U, 0xbc6a3e3bbce189d2U, 0x3c0405c1bc2606dfU, 0x3d560d9bbd6b9922U,
  0xbd35b977bd7fdafdU, 0xbd64a1743daa6b4aU, 0xbccbe38d3d31429cU, 0x3d53f0763b6cfbd7U,
  0xbd07d36bbdb40c8fU, 0xbdc4fce13d0edd45U, 0x3d698a2f3d572be2U, 0xbb9a1093bd98b411U,
  0xbdaff0aa3db07692U, 0xbda4258dbde47443U, 0xbdc1b89d3d84709bU, 0x3c91336abd678a42U,
  0x3d920b69bd5b220cU, 0x3d12ab383d38076dU, 0xbdb2d0bdbda1dc64U, 0xbdaea9193d041994U,
  0x3d80e87b3ca96d1bU, 0x3b9da34c3d3d09d6U, 0x3cf90d69bcd3eb7bU, 0x3d3ce8bb3bcaa069U,
  0x3d83c03f3bf22920U, 0xbd07033b3d1c1860U, 0x3d80b07cbda392d0U, 0x3d721108bdbcb28eU,
  0xbd6ae205bdcb313dU, 0xbda041f7bdb27cdcU, 0x3c8c03383cc64677U, 0xbd2e6e823c02954aU,
  0x3c1d9cc8bd0eb412U, 0xbd9ff106bdc8b733U, 0x3b60a2e43d7ae8e3U, 0x3d8d3d04bcd6d97eU,
  0x3d0c90d63d44942fU, 0xbd69437dbdc7c358U, 0xbd800d473c92d9c0U, 0x3dafbba0bcbf2c44U,
  0xbdc3bf9abd389df7U, 0x3d8e544ebcfaa002U, 0xbc45569b3d8bc057U, 0x38ec31583d763325U,
  0xbd91fb483d3ae5f2U, 0x3d86d52bbb53b4bcU, 0xbd79458dbd2827b8U, 0x3d5430de3daec852U,
  0x3cc5c14d3d8695e1U, 0xbd9e72f83bf1997dU, 0x3d81f43fbafcf9c7U, 0x3cad9e2ebdabd1c9U,
  0x3d47a3323d27f589U, 0x3c8fb2ef3d82f85cU, 0x3c4aeec3bdc72123U, 0xbd44f618bdcf678aU,
  0x3da4cea33c5c493eU, 0xbdad5266bcee22caU, 0x3d10f54dbd702aa7U, 0x3db75df4bd3c96d3U,
  0xbdc0afe43d7a44e5U, 0xbbaac0eabdc3e138U, 0xbd4391c03dac50ecU, 0xbd6477b23d28764fU,
  0xbdb6b83d3d172a1fU, 0x3d61b388bbbe83e1U, 0xbcba9686bd504280U, 0xbd8dc500bd3b612dU,
  0xbd8d8275bd86cf30U, 0xbdc3eb95bd938144U, 0xbd030a053d4a317bU, 0x3da06f4dbbd0b249U,
  0x3c131bc33d11a68dU, 0x3d103f7abd751fa6U, 0xbddb47b6bd0869cdU, 0x3d9ee9d23ca2fd05U,
  0x3cc058e63d14922fU, 0x3d3f98fb3dab4c2bU, 0xb9a62c963d6bfcbeU, 0xbdb86764bc131332U,
  0x3d9246b33d833c53U, 0xbc3880073c971584U, 0x3d1dfc7e3d66a139U, 0xbd4318333add247dU,
  0x3c4747fdbd9c5887U, 0xbdc1c4403d8c4d64U, 0xbdd00638bce45e8eU, 0x3d209055bd6417deU,
  0xbdbd05833d3c5687U, 0xbd3f23833d9058c5U, 0x3d0b7d393bd3887cU, 0x3d31a03c3db5e947U,
  0xbd2912023c5f54e4U, 0xbd8c4bce3dafe9adU, 0x3b755617bda4c145U, 0xbdaa1ed2bd99055dU,
  0xbd6475a43d8a5d1aU, 0x3b1fda883c9deb2aU, 0x3d83411c3cc581f8U, 0x3cdae840bdac68ceU,
  0xbda23eb53cbf395fU, 0xbda2c447bd95816dU, 0xbdd7703fbdb130b2U, 0x3da65dd1bd549386U,
  0xbd739e8bbdaecfb1U, 0xbce4e7c83d9a2817U, 0x3d9fbf4fbdb47682U, 0xbd251e02bc735f59U,
  0x3d20cb6fbc73fdd5U, 0xbd47c4813d0b097eU, 0x3cea6b453d31a932U, 0xbda4ff2b3cd30bf0U,
  0xbdc6bdd4bc900216U, 0x3c50c6ec3d46ee99U, 0xbd2e78cfbda72314U, 0xbd98f08abd956498U,
  0xbb863b08bc2d0f58U, 0xbbadb3f93c79b336U, 0xbdaeace4bca5a43dU, 0xbda25caebba1def1U,
  0xbc9c0140bca14a27U, 0x3d04dfb3bda6746aU, 0xbc8eeb75bcb82342U, 0xbc891bd0bd89bcf7U,
  0xbcd7071bbd8daa85U, 0x3d90407a3d13dc65U, 0x3d7d9fb63db0cd1fU, 0x3cf5245b3d228040U,
  0xbd1980083d746bbeU, 0x3d35053b3c68d937U, 0x3dbf7903bcdf8572U, 0x3cf7f368bbb8c34eU,
  0xbca3e5713bd547beU, 0x3dada59abd907ffbU, 0xbd6d95c5bd40eda1U, 0xbd57984b3dd24549U,
  0x3d705cb9bd38f89dU, 0xbc42502b3b7402d7U, 0x3d925c4abda68988U, 0xbd9dd2a2bdb5b821U,
  0x3d6f7d34bdc16ea5U, 0x3d2f42303ca6758cU, 0x3d6fe869bd6e050fU, 0xbd62b0613cb59db3U,
  0x3d899be63d56f1aaU, 0x3d0e359b3c1f52a0U, 0xbd84dd7b3c8b08e6U, 0xbb7426883da7d046U,
  0xbc8611343d5ac934U, 0xbc9d751bbd7c49f3U, 0x3d0bba0c3d80f9c6U, 0xbd5dae683d591588U,
  0x3cdb9d063d2f16d0U, 0x3d8aa096bd0fc00cU, 0x3d8f805abd863e77U, 0xbb9d1b73bd2a12b6U,
  0xbd2fbaf03d78b72dU, 0xbd8d0d33bc26c71cU, 0xbd75f48fbb80c965U, 0x3d9e4a52bc80ce60U,
  0xbd3677623d9a3bf0U, 0x3d91c05b3d1e2d20U, 0xbd875021bbcd69a3U, 0xbc89b75e3cbc743cU,
  0x3d9d287abd76d4daU, 0xbdb463f0bd1176b8U, 0xbd7d1b6fbda8ef6fU, 0xbd9f7ac1bd196c78U,
  0x3a54ce88bc5a821bU, 0x3dc1766e3bcf988dU, 0x3cb2c1a5bd50a708U, 0x3d87ede634f1f270U,
  0xbc88c5f33cedbedaU, 0x3da76ac83aa2aa17U, 0xbcdf58e1bcfd1ed6U, 0xbd8d9af23d87f1f5U,
  0xbd6d59373be3b22eU, 0x3b5850bdbdb896d5U, 0xbd318206bca9e9a7U, 0xbd8db3e43d837494U,
  0xbd001c84bd80545eU, 0x3d873848bdf1510bU, 0xbd3054493cb22551U, 0x3d2f831c3ce58556U,
  0x3d836d77bd087eadU, 0x3d361c91bdc80457U, 0xbda016003d5a6226U, 0x3c9122e9bdb99105U,
  0xbdb225adbde222e4U, 0x3da23338bc8a624cU, 0xbc626f82bdc62bc1U, 0xbd55371a3cf0a2bfU,
  0x3da3efee3d37fec8U, 0xbc42eea93d32a79cU, 0xbdf1f21e3d981a54U, 0xbd52f17f3d1b38b4U,
  0x38c76e643c95fad2U, 0xbd467d523d8ee761U, 0x3cdd55fabd43705fU, 0x3c83ee0e3d4f1c1bU,
  0xbcc0fb8fbd5f09fbU, 0x3da7a99b3d38a861U, 0x3d9634b23d8c5504U, 0xbd782497bd912954U,
  0xbd689dae3d931956U, 0xbd2982f63cb47a7dU, 0xbce22aaf3d8d9564U, 0x3cfb47ed3d31d22fU,
  0x3bcc04a7bd1f29a3U, 0x3cae3e34bda188e8U, 0x3dbd67163ca76f59U, 0xbdb56560bd4f6453U,
  0x3da3f27e3d1d8e4cU, 0x3d84970fba5dba7bU, 0x3dc43ad9bc83819aU, 0xbd372ede3d413d1cU,
  0xbdb1c427bdb782abU, 0x3d5eeb703dbfc21fU, 0xbd92dac83cee432cU, 0xbd370cc13d820451U,
  0x3d225ccfbd487c65U, 0x3d5bcc06bc1e6844U, 0x3dc76f103dbbb5ebU, 0xbd0dbef63cfe4615U,
  0xbd9b8b3dbdbb056cU, 0xbd16c06b3d962b63U, 0x3ca6aac0bcc453f9U, 0xbccd53cc3da0175eU,
  0xbd616f5c3dad498dU, 0xbda25f423cc082b1U, 0x3d805ffabdcaccc9U, 0x3d0ed8c7bd1d5013U,
  0x3cb0fb87bd92e4e7U, 0xbce9a6f43db74232U, 0x3cc534b03db53946U, 0xbd9d21763dbdfd53U,
  0x3d869d883c01b316U, 0x3d27458a3c754be3U, 0xbb4dc2613c9f09dbU, 0x3d4ae2923d80ddf6U,
  0xbd90ee1b3d97528aU, 0xbc9569063d16489bU, 0xbd66dd723d68873eU, 0x3c1eb70abda38a81U,
  0x3da630943d0fb931U, 0x3ced46d83c93141cU, 0xbdd42672baaede96U, 0x3dcd4c363d927b3dU,
  0xbd9a77243dc9e642U, 0x3d02ae193d556f56U, 0xbd27cde73c25232fU, 0x3cb1b4f63d258b37U,
  0x3da6c82ebc3ff802U, 0xbacfef53bd0c7b00U, 0x3be3c8653d798136U, 0xbbf5ac7abc65aa7aU,
  0xbd0bae7abd77ad26U, 0xbda0482bbcd4578eU, 0x3d84f69d3d04828aU, 0x3d354f58bd1e48eaU,
  0xbd00d5ba3d920210U, 0xbc8964f0bd6ec849U, 0x39c2fec93d553d8cU, 0xbc1257673d667f81U,
  0xbc9170163d2312b6U, 0x3dc5762c3c107e70U, 0xbd2bf1d83caf3cd7U, 0xbda58655bd5199afU,
  0xbcbc9afabd908577U, 0x3d702875bd68ae0bU, 0xbc9be34a3b2efb92U, 0x3da8b71abd2f0499U,
  0x3c14dcc8bd7abfa3U, 0xbd82b47bbc649a52U, 0x3d6b9814bdaa197dU, 0x3d8ed270bd3cfbc5U,
  0x3d8cbde7bd972e08U, 0xbc607d2dbd44f652U, 0xbd8bc9343d9a6d5cU, 0xbdacee1fbda7e248U,
  0x3d2b7ae6bd14f364U, 0x3dd9aac3bdacb84dU, 0x3d731b85bc069830U, 0xbd3a3e9fbd9c6bb2U,
  0xbd962193bdb7729eU, 0xbc89073f3c25edf0U, 0x3c4c5c39bd9af156U, 0xbdb592c73d448842U,
  0xbdbcfafabd4dca87U, 0xbd6e35a0bd65695bU, 0x3dc007c9bdbc7d26U, 0x3d88cb95bde29173U,
  0xbd2a1968be046109U, 0x3d24516abce4af95U, 0xbca1a467bd14a70fU, 0x3d980453bcb404eeU,
  0xbcf0d64cbd2ca606U, 0xbd730dd6bd4a4397U, 0x3d361704bdb44da2U, 0xbd4636273d0c88b5U,
  0x3db8f0ccbd9c871fU, 0xbb7d343fbb8904f6U, 0x3d7dc185bd4492c8U, 0x3d677752bc66119dU,
  0xbc2a00783d990d15U, 0x3d1acb2ebd82c2f2U, 0x3d308dd8bd4c98b0U, 0x3ce6c16fbc919010U,
  0x3bf73422bd4e8df9U, 0x3c8a32c53cdc099eU, 0x3cba82d83d3caac4U, 0x3d7e18d1bbf8edf7U,
  0x3d8210bbbd4acf88U, 0x3a212a2d3d80546eU, 0x3c1b45c43cf53450U, 0x3d774d48bdd772f1U,
  0x3d4bb8d7bae57f98U, 0x3d819025bdba9041U, 0xbd3287c93d820048U, 0x3d2cac8bbcfad9c5U,
  0xbdbfebfd3d442840U, 0x3c75b9923cc0ceaaU, 0x3d914e9fbd602414U, 0xbd836ba6bcc1c64fU,
  0x3db0b3763d010757U, 0xbd381f7bbcd37ccaU, 0xbda0e212bd954835U, 0x3d92ed7cbd8bd944U,
  0x3d551bf5be01e67dU, 0xbd85ef0b3c2f6fa2U, 0x3dae32fa3cf3b9ebU, 0xbb6fcc9d3a4a85f4U,
  0xbc83ab3c3d9b2d26U, 0x3dbd761d3d8957bbU, 0xbc7e34f73c95d0b1U, 0x3d99538fbda04a2eU,
  0x3c71638a3d250a02U, 0x3ccd77d8bdb228a3U, 0xbaafb7d13d7fbbc4U, 0x3da84a583cf8116dU,
  0x3b6052f5bc92811eU, 0xbdc6ef95bd04bfb1U, 0x3da67d72bd89202aU, 0xbd84e7e53d249f60U,
  0x3cbb3f37bd502ee6U, 0x3d73b96ebd9735ebU, 0x3c96b429bd1df96aU, 0xbd91f23abc9b7527U,
  0xbd6c843f3db594e4U, 0xbd8d8e1bbcb6407cU, 0xbd60a8deba3c774eU, 0xbd407ec5bda7a0e0U,
  0xbd243ee33d888ba4U, 0xbd9cdaccbd700a6eU, 0xbbcd6ee03d3c8f86U, 0xbdb7cad93d20292cU,
  0x3c085548bd2c546fU, 0x3cf433a5bda8218dU, 0x3d8d6c3d3c973f32U, 0x3dbaba12bc1ee806U,
  0x3d5852e13d28c6b3U, 0xbc4dd102bdaf83d2U, 0xbdb424a7bd354d79U, 0xbd419ab53d3c7b99U,
  0xbcc67677bcb26499U, 0x3cff336cbc1ff6cbU, 0x3d7a07943d944ce7U, 0xbd38d2c4bdb463baU,
  0xbceb1387bd377e3fU, 0xbcfa6a9dbdbb1824U, 0xbd8453d33cfbbbcdU, 0x3dbda07cbd3d77beU,
  0xbda62b343d1bc261U, 0xbd84f1f93d699d8aU, 0x3d5f5171bd3e3b34U, 0xbd9467f23ce896c6U,
  0xbc28b3da3d0a7611U, 0xbc8b68383d9133f6U, 0xbdbfbe83bde5eca2U, 0x3ce67ac0bd0250a0U,
  0xbc7abb0d3bdf72faU, 0xbca1764ebd82f18dU, 0xbcedbcf9bcdff9dcU, 0xbd18c52fbdbda225U,
  0xbd010406bcdda738U, 0x3d286ca93c6ed779U, 0xbd4f5ae33d53e283U, 0x3ac3799cbaeffbb4U,
  0x3cc87fa83da37a40U, 0x3c7a332d3c723fa9U, 0x3d19e0133c2e5bb4U, 0x3cb090133d75d1a8U,
  0x3c82988a3d7fdcd7U, 0xbcd1a43dbd9b35f5U, 0xbd40b8d6bca0715fU, 0xbd16009d3d897207U,
  0x3d484378bcf7af6dU, 0x3cdb186fbd42ac58U, 0xbd81b5543b98be37U, 0xbccf6061bd93e2b7U,
  0x3cb1cd4fbc9c6532U, 0xbd6e55603d712871U, 0x3d915287bdba4a83U, 0xbd94e8c4bd17fc4fU,
  0xbd973de7bc9e9a5dU, 0x3b2a69863d7f4a14U, 0xbd1c89443bb94a70U, 0x3db54b6f3c06ed7aU,
  0x3da26aebbd0474c7U, 0xbb9d96023d6074daU, 0x3d050ceebd95dc8aU, 0x3d4b15cd3d3dbed6U,
  0x3dbd0bc1bd517c80U, 0xbdb7657abd5e51ddU, 0xbc93a59d3cf0b009U, 0x3d815c50bbdfac7eU,
  0xbd9c1b1d3df1fd0fU, 0x3bc03700bdd0438eU, 0xbd5e2b763d65073aU, 0xbcbe1ef93d9235b0U,
  0x3cfac62cbd97fa9fU, 0xbd3914843d451270U, 0xbd5e07afbd18c3e1U, 0x3db420f43d3de382U,
  0xbd117f673cafa540U, 0xbca9ffadbcf2c569U, 0xbd2aa44abd84598aU, 0x3d8274c83da265fbU,
  0x3dae3c523da5df92U, 0x3d33e1d6bdaf7efbU, 0x3d6122593cd560caU, 0x3db62e6f3d6c3554U,
  0xbdb941693d725183U, 0xbd4808b6bdab476eU, 0x3af0231ebd4d583aU, 0xbd3a475ebd363ed9U,
  0x3d818ae3bdb82a5aU, 0xbd2495ad3c33146dU, 0x3d3f0fb63d25f62eU, 0x3dab1b1dbd31b23cU,
  0xbd7e6be3bd524b5eU, 0x3d896cf1bd32bd19U, 0xbcff149e3d0f5205U, 0xbd2f4da13c81d148U,
  0xbd3dc6d43da37a2eU, 0xbd8db79a3c473c6eU, 0x3d248eb1bd208498U, 0xbdca1571bd96f52fU,
  0xbca778febcd1f817U, 0xbda1fba33d934d34U, 0x3d2f25b43c8c3004U, 0xbcdbe851bd3fbb2eU,
  0xbbc131b0bd636774U, 0xbd262190bcaf3883U, 0x3d8d3074bdbe04b3U, 0x3d1178373cc3f0e3U,
  0xbcc0295abdbfe28bU, 0x3d9a7af5bdcb1f3fU, 0xbd4ea359bd4946bbU, 0xbdc06609bcb10e4fU,
  0xbcef2b9abda06574U, 0xbd2e9474bda6672cU, 0xbca7098abd60f216U, 0x3d748737bcdb6621U,
  0x3c635e333c6a0af0U, 0x3d0eed42bd456571U, 0x3aff711dbdb312aaU, 0xbd7a0130bd7a8285U,
  0x3c65d574bcedf375U, 0xbd88935abd0b2b7aU, 0x3cc78f383c897549U, 0x3d4071d5bd150903U,
  0x3cd008c2bcebcb18U, 0x3d27c525bd83b05cU, 0xbb6161453d0b1896U, 0xbd2171ac3d32dc63U,
  0x3dc99968bd50d4a7U, 0xbdaebde23b155896U, 0xbdb7f10abd83f365U, 0x3d2430f0bdb4b967U,
  0x3d8fdd0d3c42d95cU, 0x3d1b3146bc70fbb0U, 0x3c7d5d50bdc46f99U, 0xbccb47f0bc976581U,
  0xbd9c35b3bd5f3932U, 0x3d312c68bd240657U, 0xbc51cba93d83394cU, 0xbd4327c8bd7084ffU,
  0x3d338dd73d027142U, 0x3d9cbc543bcfd4f1U, 0xbd56047ebd990c12U, 0x3bcc5e24bcbd6845U,
  0xba12a02abd18835fU, 0xbd89370bbc829a7dU, 0xbc41df843d905e26U, 0x3da70b953d4058edU,
  0x3c8d21843d9f90b4U, 0x3d96ffa2bdc78748U, 0x3c022144b9c7d1d5U, 0x3d8239b8bd06af63U,
  0xbcf9d2323d8656d9U, 0xbda21c0ebd9304e1U, 0x3c15cb09bd90ab1aU, 0xbcaee4e23cd76255U,
  0xbd2355673d1477a2U, 0xbd111848bc86ef87U, 0x3d6951ddbc4b633fU, 0xbd6bc348bc84b714U,
  0x3d100fabbc15fafaU, 0xbc0b13973d0a8a54U, 0xbda21398bd85e6feU, 0xbd7b0d3dbcfb8688U,
  0x3b78ff253c30b2b2U, 0x3d4189ab3d92e834U, 0xbd6a0cfebba0ed70U, 0xbdb555c63d18e471U,
  0xbdc102633cc4d191U, 0xbcead4403c896adeU, 0xbd8840c93d41378aU, 0x3ca2460b3d23e1aeU,
  0x3cee22f33df2d5deU, 0xbc96074fbcdc2ed6U, 0x3bd866b93d84d0efU, 0x3c1bce3e3cdcd6c5U,
  0x3da0a3633dac66f7U, 0xbd901c0e3d10992dU, 0xbd62d1d33d1a1206U, 0xbdb4b8ba3d238555U,
  0xbdace601bd920a8bU, 0xbd469e77bd33169bU, 0xbc9c6b62bd7115aaU, 0x3c088a3cbdc0ebb7U,
  0xbd3471f73d170135U, 0x3d6a37eebd27debaU, 0xbdbf884bbd4ec74dU, 0x3d22d582bd022bd0U,
  0xbd882fdfba4179eaU, 0x3d9cf7903cd18edeU, 0x3b69822ebd586c64U, 0xbda0437fbd17ad3cU,
  0x3c951a80bd4cc404U, 0xbd3c2623bc1af0faU, 0xbc65f47dbd7639bdU, 0x3d81ce8abcf0c7fdU,
  0xbb1d23653cd6af17U, 0xbbc25cc1bd52a628U, 0x3cbc3812bd4041a3U, 0x3d099b9f3d34a1a3U,
  0x3d7e66a63ddd8482U, 0xbd792a98bc0bdf1dU, 0x3dcf21eabd2bc614U, 0x3dfd13bebbd21786U,
  0xbd84ce4a3c5bd9fdU, 0xbd219b8bbd663c9dU, 0x3c83b89abc6740fdU, 0xbc75d18dbd5ad3faU,
  0xbd9429c93c155347U, 0x3d0c47bd3da61e03U, 0xbcf65ea2bd6b822aU, 0x3da432a63ccddbecU,
  0x3d655725bce87b12U, 0xbc63b498bc9730e6U, 0x3c9a577bbc8d0224U, 0x3d09043ebd8e8f10U,
  0x3bd993f73d3ebb3aU, 0x3da2db853d2910fdU, 0x3c89f709bd7ab124U, 0x3d73306cbd071b29U,
  0x3cf9a168bc64ec72U, 0xbd0650e9bdb180f9U, 0xbcd96d9e3c6cbc41U, 0x3d154d8ebd0ce27eU,
  0xbd54997a3d9d5df6U, 0xbcf7e8c73d84afa9U, 0xbd793ccd3c81ac12U, 0x3caa977d3d866097U,
  0xbc37be513d95068bU, 0x3d3a4d813c88442cU, 0x3c7c8f6d3c5148bdU, 0x3d35441cbce8cffeU,
  0xbd18be343d29f815U, 0xbd835ae5bd9693b3U, 0xbd53e8b5bd8ccbe4U, 0x3d0d369dbd943a1dU,
  0xbd30a2f53d9b6308U, 0x3d47ce5abd91ed9dU, 0xbd3f6fe53d9861c1U, 0xbc9a1fce3c6c7172U,
  0xbd4bad2b3da5a9f9U, 0xbc5ec55d3c2cb151U, 0xbcfd6fc4bdcc76acU, 0x3d62dd3ebd583582U,
  0xbd5543d9bd7f1d2cU, 0xbc4a98973d517c60U, 0x3d73b7b53d0304e7U, 0xbd55e5e93ddf8e56U,
  0xbd0944973ca29a83U, 0x3b9a9b7a3d0014a5U, 0x3db9ff713ae41cebU, 0x3d8cda1ebc337a3cU,
  0x3d1290863d3e96c2U, 0x3d4c951d3dadc2bdU, 0xbd00ffc33a74f957U, 0x3d34c7a1bdc2b4daU,
  0x3cebe0edbd0cc79aU, 0xbd2272b73c3037e8U, 0xbd67d00f3d854cfeU, 0xbcac81e0bd49425dU,
  0xbdae60e6bd9baaf5U, 0x3d0db6cf3c8d32e0U, 0xbd68c9c5bd62545eU, 0xbd30506e3c1c61d9U,
  0x3d22aeccbdcedadbU, 0x3d169cb7bd1d7aaeU, 0x3d8f409abdc8fc23U, 0xbadc5f47bd9e852bU,
  0xbd9483173ce4e72aU, 0x3d081df83d102375U, 0xbd5cdf943d8c0c9bU, 0xbd9a41e63ce0a790U,
  0x3d814a153d2b2503U, 0x3c41af253c65121cU, 0x3d26b32c3abd0ab6U, 0xbd832b57bcde07c5U,
  0xbd54c9cc3d0777a1U, 0xbd64674c3ca7f816U, 0xbd3d8f14bd98324eU, 0xbc813a90bdb5a516U,
  0xbcded70cbda69302U, 0xbc67518bbd921434U, 0x3bc209a4bda48707U, 0x3db2a2f83d9ae3dcU,
  0xbc9bd175bb441887U, 0xbda50d65bd7b48d9U, 0x3d9f59143daaf332U, 0xbcd03ca43daa2bbfU,
  0xbbe603a0bdbc9a26U, 0x3d084a743d7b464eU, 0x3d7b45f3bca81f68U, 0x3b475d44bc7fa557U,
  0xbb5495e03cc344a2U, 0xbd1475f3bdc88d92U, 0xbcbe64363d8dbba8U, 0xbda172cd3db40d4eU,
  0x3d78ae2a3d3e95bdU, 0x3cd5cbb8bcf58185U, 0x3d75724ebdcf8724U, 0x3cc01a45bc2df773U,
  0xbccd5d143d6398aeU, 0x3d8a378d3d81e556U, 0xbcf60f7a3d6eaf25U, 0x3cace0a9bc17e7c3U,
  0xbd4811c03d44306fU, 0xbdbcd5f03cd03d47U, 0xbd7716d8bb8cbce4U, 0xbc0db226bd909f1cU,
  0xbd8d98e8bd521288U, 0xbd526da83cee60a5U, 0x3d5979c0bdc1a94aU, 0x3c9118ac3dad9dcaU,
  0x3d4a18fdbcd609aeU, 0xbdc292b0bca1eb27U, 0x3cf3deb63d1249b3U, 0xbd1e976e3d4fc824U,
  0x3d06f03a3d1975c3U, 0xbd4b380fbd0edb47U, 0xbdbb48d8bbfe72e1U, 0x3d08ca093d9e2896U,
  0x3dada2f1bd8638d2U, 0x3d9ce4f93b96ad10U, 0x3d8a805f3d9c92d9U, 0x3d0c0871baacefc8U,
  0x3ce05c6fbcafb085U, 0xbd8f92513d2bc9daU, 0x3c744a6abd823e8aU, 0x3d874ae3bd4f8dc9U,
  0x3d19ffe5bccb1037U, 0xbd14493ebcf59a52U, 0x3d0c83413d3c9c28U, 0xbc3674103daad6e4U,
  0x3d4e42aa3cc12999U, 0xbd91ca95bcad6e6cU, 0x3d812d5cbdbed9caU, 0x3d713f0b3c2d873fU,
  0x3d08adf7bdb38b40U, 0x3db2ce92bca7f6c0U, 0xbddd5b373b1ecb9fU, 0xbdb86c40bd16c35cU,
  0xbd5df51c3d95119eU, 0x3ccd24323d9fa101U, 0xbd588c273d0b7c8aU, 0xbc774bed3dc02ffbU,
  0xbc8c2fff3d7d9340U, 0xbd252414bdc5956fU, 0xbda877a93c285b95U, 0xbcfd357c3dbac9bbU,
  0xbd6e2872bda37c65U, 0x3c4db0b2bc8f06d3U, 0xbdef5db7bd2fd77bU, 0xbcd5e876bc8f84a1U,
  0x3c23db39bd864e7dU, 0x3b453a2b3d9dc810U, 0xbccf3238bdc1eb58U, 0xbd0869d53caf5e25U,
  0xbd8e70d93d149985U, 0x3d1ebf81bca26266U, 0x3d83f4fc3d2f2b99U, 0xbc82e393bcceebcaU,
  0xbbe528c1bd460024U, 0x3d8e2c4ebccb697dU, 0x3d1c0923bac63afdU, 0x3d541f0bbd7208c1U,
  0xbd81ee443d954df4U, 0xbd3fdd9c3dad9f75U, 0x3da34396bcd69a12U, 0xbcd6132c3cff2095U,
  0x3d11ad1ebbd94d31U, 0x3d699f103cc54571U, 0x3d456455bb1d5d41U, 0xbd3136ffbc8b0c72U,
  0xbca195783d9fe391U, 0x3a31e34e3c170dc6U, 0x3b52a28a3d9342efU, 0x3cc4995bbd2a4211U,
  0x3c80539cbd74339dU, 0x3d5cdf923dabc43aU, 0x3d692ba23dc672daU, 0xbd29eadc3da4b861U,
  0xbdbae022bd6e5415U, 0x3daa6622bd2292f6U, 0x3c1b56ccbda1be01U, 0x3ce69d97bd3459d9U,
  0x3d30da0b3d019095U, 0xbdb7c461ba823a41U, 0xbdebccb6bd261a17U, 0x3d9e74c6bdbdc11cU,
  0x3c5793893d45fe74U, 0xbdeaf8433d7d06ceU, 0x3cfb299c3cd35821U, 0x3d4d6a643d23a7d7U,
  0xbd52606f3c820af0U, 0x3cc27e37bbbe4b03U, 0x3d30fd7e3db39c52U, 0xbceb4fad3d91f66eU,
  0x3cb31c7bb9bf67a1U, 0x3cde55e43db22699U, 0x3cd73bf6bd4e83edU, 0x3da0d8ecbdab891cU,
  0x3c46814fbd0cedf6U, 0xba04cda83d5b25a1U, 0xbd9346133d56e554U, 0x3d664aa53d344873U,
  0xbad1dd4fbd81b481U, 0xbd81f285bb2e2bf4U, 0x3d008cb63b268f72U, 0x3d2fb3fdbbcf9d64U,
  0xbc96a4f83d201d56U, 0xbc360d853da218f8U, 0xbc6597c63d152653U, 0xbda5effc3c95c6b0U,
  0x3d464cb13de08833U, 0x3c91dc003bc897b2U, 0xbd7e15d1bd982c59U, 0xbdc39a173cb46271U,
  0x3bf96f8dbdaa592aU, 0x3da75fb93da110bcU, 0x3d106893bc0ce66bU, 0x3dc37bcf3d6ca3c2U,
  0x3c10a586bdc1c36dU, 0x3dc8d39f3d2fbb77U, 0x3d5aeb5cbd84de4bU, 0x3d6d30743da3e8d3U,
  0x3d9749dabdc1b4b8U, 0xbdac8e81bd99b895U, 0x3c9a6a03bdb0dcccU, 0x3d54b0a63ca66280U,
  0x3d346c773d099889U, 0xbd167affbc21d84dU, 0xbd2d37a6bd3b4148U, 0x3d3685473d7b5e3bU,
  0xbd191150bb015be3U, 0x3cdbec1dba0d2275U, 0x3cbb5062bd476040U, 0xbd97c9503c6cfc30U,
  0xbd9bec59bdf290abU, 0xbda3c5a83d8fed86U, 0xbd9b6cbfbcc15478U, 0x3da14d5bbc58c4c0U,
  0x3d63625abc9c8932U, 0x3c98e528bd4a3812U, 0xbc32f33bbc8045adU, 0x3d40fd57bd160d1cU,
  0x3d9cc0c83d6e003fU, 0x3d5af093bd6befe4U, 0xbd24742dbd3c345aU, 0x3da91c703cfba5e6U,
  0x3d9bd684bdc27892U, 0xbdadafbe3db102d3U, 0xbd4d32d93d8afe09U, 0xb8c53d6bbdcb516bU,
  0x3da59fc23db66fdaU, 0xbd5474da3dcc68a0U, 0x3db2659a3ca70feaU, 0xbcce07d1bd5b1fa0U,
  0xbd9eeb993ca945afU, 0x3c1e1a823d429802U, 0xbdbd69e9bd60a3f9U, 0xbc2606fdbd0ac9a4U,
  0xbcac0637bda07a72U, 0x3ad2bf35bd5705f3U, 0xbdc53071bd92029cU, 0xbdbc91783c30d9abU,
  0xbd3d6ce1bda9b3d6U, 0xbcf7f9d5bcd500afU, 0xbb49d493bd11b65dU, 0x3d854a473976689dU,
  0x3d0d3a1dbd91927dU, 0xbc15f4553d41b88eU, 0xbd795d5c3c1a8e44U, 0x3d89d0dabcf72a15U,
  0x3d679d00bc5032feU, 0xbd33b80e3d9b75bdU, 0xbd8e0de2bd11af62U, 0x3c8016223c570215U,
  0x3d4b9e623da18b4fU, 0x3d90f3cf3c070369U, 0xbd93c61fbdbe363dU, 0xbd486426b8fad26eU,
  0xbda44773bd4626c3U, 0x3ce5abccbdaa8558U, 0x3d3251d73c8727dcU, 0xbd27c2b6bd544d37U,
  0x3d578fe53ca4ffe3U, 0xbd1304cdbd2e13dfU, 0x3db27f8f3c80c078U, 0xbd8b1281bdb2e3bdU,
  0xbd4951fd3d6f2807U, 0x3d2fac583d6aa226U, 0xbdad871ebd7e10b1U, 0x3c97e7e0bd1224beU,
  0x3db359d33b91303fU, 0x3d495b1fbd80ef3fU, 0x3d84c37abc884609U, 0x3d41797bbbf2f617U,
  0xbd9cdc8b3d2f7a66U, 0xbd2b1c1dbd74283cU, 0xbdb9df283c631591U, 0x3d07c5ac3d833264U,
  0xbcc2fbb4bc050cbcU, 0xbc087bb2bd6480d2U, 0x3c8d00323d062d8eU, 0x3b9f3319bcbdeb05U,
  0x3ce4df363c7c39a4U, 0x3d5f4d96bdbc02c8U, 0xbd91267dbd2e2affU, 0xbd61c02bbd3f8697U,
  0xbcbc1c36bd190df8U, 0x3c86f5b1bcb02d49U, 0x3c182b363dab4ba3U, 0xbd163be93bbe4a9fU,
  0xbd63fdb6bdaea337U, 0xbd56c9c33da7aeaaU, 0x3cf81a10bd93d38fU, 0x3d9cea1ebd9e53e2U,
  0xbc965411bce605e7U, 0x3d968685bdd8b9e9U, 0xbb89ea2f3dafb096U, 0x3d443b39bd26a64bU,
  0x3dade8413d408ae7U, 0xbd330836bcef039eU, 0x3d9565f3bd3504faU, 0x3bcc2df6bdbf97e1U,
  0x3d1e9adfbdbc396aU, 0x3dd43a803d9838a5U, 0x3d9ff1cb3d723e65U, 0x3ab9bfd7bcbc86e2U,
  0xbda3a2673da8b041U, 0xbd97a6d8bda5835dU, 0x3dcdfc333c777a62U, 0x3d7534cbbdac7942U,
  0x3d810b14bd23bcf8U, 0xbd42ca183d6aca06U, 0xbd73921c3d272c97U, 0x3dcaca053d1e11feU,
  0xbd754677bdc85072U, 0xbdc04e353d36c405U, 0xbd4a00d5bc3551a6U, 0xbda7550bbce82309U,
  0xbda92ad03d4e7abcU, 0xbd90ffe1bd31bdc6U, 0xbdbaa3a6bc239237U, 0xbd2b5b5dbd84093fU,
  0x3d5ed83d3bbf043bU, 0xbd446c99bda81f86U, 0x3d3b5ea93d0efa72U, 0xbc80ae5b3d739507U,
  0xba2ae97b3dbbb76aU, 0xbd5bdf70bd8f41bdU, 0xbd7795cd3d0d9037U, 0x3d9b42f5bdb22bf2U,
  0xbd55f1f03d3925f7U, 0x3d65de4d3d6d2491U, 0xbc8d70b13d8bc822U, 0x3c2cab163d2b5900U,
  0xbb389d293c9cd0a3U, 0x3d3ad8a9bcbaf851U, 0xbd20e48cbd628668U, 0x3da06248bd14e25aU,
  0x3db7f529bd93e15aU, 0x3ce0214fbda9b78dU, 0x3d6d6c213cd80a52U, 0x3dbdd412bd986a65U,
  0xbdae4fa8bda35cb6U, 0xbb5f8307bda6e78bU, 0xbcd2d07fbbe30707U, 0x3c242f853d80db12U,
  0x3dc39e3dbe053686U, 0xbd9802553ce72e75U, 0x3db714f4bb0707a0U, 0x3d592d31bd398c4cU,
  0xbc682b803d0588bdU, 0x3dacd9483d173163U, 0x3d579eec3d816b16U, 0xbd2980c5bd20623dU,
  0x361f67c53cbe780aU, 0xbc74f66f3c850530U, 0xbd8174563d0bcda1U, 0xbc3d375b3a5400a6U,
  0xbd8c30f0bdeaa518U, 0xbd86e60fbcae6384U, 0xbdabf2493d64f1e9U, 0xbd86a08fbd3369bdU,
  0xbd161e5f3d0e6328U, 0xbc39b8edbd6f54e9U, 0xbd787e9c3bea3313U, 0x3db697343d2b6fd4U,
  0x3d5f805bbd0036dfU, 0xbc7dfdc5bd03da3eU, 0x3d948b523ca2f842U, 0x3cdf126bbd975ba9U,
  0x3dbddb16bb929d6eU, 0xbda963debcb9b79cU, 0xbcf9c6283d899429U, 0x3c88ba1cbcbc4e99U,
  0x3d9bff203d394a4dU, 0x3d7d4a6e3daaddc7U, 0x3d89f38a3d26338fU, 0xbb9542a93d8bb11eU,
  0xbd47e7a1bd82c1e1U, 0x3bc1d8acbde3c773U, 0xbb7239bf3d7c007dU, 0xbdac112f3db0094cU,
  0x3b4a9c8cbe1f7d99U, 0xbcfe5ea2bd8939f7U, 0x3cc279ab3db077f4U, 0x3c8de0383d76a628U,
  0xbd8250f43c96d2adU, 0xbd2dcdf6bd90dde5U, 0xbcd4d06cbd107e49U, 0xbb69412cbcb3503cU,
  0x3d8bc1143d7e6c96U, 0xbc9ec0efbdcba865U, 0xbd655cdd3d049615U, 0x3da6a20dbd3de9f7U,
  0xbd880837bcc349e6U, 0x3cf3f4973da85fa8U, 0x3c077e613d8d6a49U, 0xbdaa956c3da561c2U,
  0x3dc8ed1abd82daa2U, 0x3db7dedd3d62069fU, 0xbd7cedac3d711202U, 0xbd549a793d0539c4U,
  0x3d6db9203da76702U, 0x3d2863e03ba8214cU, 0x3d9f74223d26b1daU, 0xbd6ab4143b4733b9U,
  0x3ce2104cbd6a208aU, 0xbd9e142a3d0225aeU, 0x3d1ac6513d9c384dU, 0x3d374fb9bd7e105aU,
  0xbd76861a3b140216U, 0x3d7fc8833d9c7a59U, 0x3c2f10cdbc4ee05fU, 0x3da17b6fbd7b02aaU,
  0xbd167a023cd51ab5U, 0xbda8f5d4bd6cfed2U, 0xbd80af6d3d9746e3U, 0xbc6edcd2bdb9ed47U,
  0x3d4f75b73cfc0b06U, 0x3c65263f3dbce3c6U, 0x3d987ddf3bcf1113U, 0x3d9930bfbc4a749cU,
  0xbd2d2b12bd43d241U, 0xbcd1f6c8bd505b2cU, 0xbd7cbdd8bd1dbcf4U, 0x3daddb2d3c9b7e95U,
  0x3d42d8683cab838bU, 0xbd57c437bb8eb43bU, 0x3c2e5711bd916cc8U, 0xbdc226d23b0a057fU,
  0x3da2c3f5bd987beaU, 0xbda35211bcabc4d2U, 0xbd9ce36abd35850dU, 0xbce48913bdb6e51fU,
  0x3c3ea6af3d93340aU, 0x3cfc95923c9daa73U, 0xbd30ac253d42625cU, 0x3da1b828bc4efd93U,
  0xbca26ea1ba799990U, 0xbd409cc4bd6801f1U, 0xbc81f475bd057808U, 0xbd84784d3cee027fU,
  0x3d9303bd3c54596dU, 0x3d2d358bbd87a7abU, 0xbcf73d9abd22bb4aU, 0xbc64cc7c3d80ad58U,
  0xbce6cbc4bda6d1dbU, 0x3d8438b4bd91cd39U, 0xbd3be459bcf130a6U, 0x3cf8118a3d8343c2U,
  0x3da22ab8bd219523U, 0x3bcec0b83cceaeeaU, 0x3cec92ab3bcb2c26U, 0x3c0fedccbdaa237bU,
  0x3d9d00db3d6b0c95U, 0xbd99a625bc93149aU, 0xbd686451bd78c870U, 0xbd9ed485bd89ae33U,
  0x3d6821c63d852c2fU, 0xbc88588cbd6052f2U, 0x3d996a0bbd1b341cU, 0x3d05c0133daf0817U,
  0x3d1839a33d935f54U, 0xbd97228bbdd4d192U, 0x3cf70371bd95a8bbU, 0x3d8c5395bd96ebaeU,
  0xbb56c18bbdd7d304U, 0xbc462925bd4d9560U, 0x3d9c9b6a3daf9d7cU, 0x3d344beb3dc5dc66U,
  0x3cde41103d13081aU, 0xbcb22164bd2d35c6U, 0xbd626b17bc8adb61U, 0x3ce407113d43ccddU,
  0xbc0d189ebcaa080fU, 0x3dacb69ebd8c758eU, 0x3cb67f113d2b7771U, 0xbcf392ff3da4a659U,
  0x3c3f293fbda06704U, 0xbc791863bd9da5e0U, 0x3d15ea36bd869258U, 0xbd808991bd5d58bbU,
  0x3cb4d9cd3da658dbU, 0x3d019b623da4669dU, 0x3d19288b3d01337bU, 0x3db2babf3d579854U,
  0x3da87962bd67cad3U, 0x3d96a81abbd65be9U, 0xbd3789b13daccfd5U, 0x3d7d0e8bbb25059dU,
  0xbd30f500bca5933fU, 0x3be98263bdc5a8b3U, 0xbc245db7bd53dcd9U, 0x3d86e9923aa224faU,
  0x3d869ecfbd234790U, 0x3c309aca3daa8bfaU, 0xbda99faabb4d8473U, 0xbd188415bd8c0533U,
  0x3d2e32153db2a00aU, 0xbd7a0136bda0efd0U, 0x3ce06d8bbd84c262U, 0x3d9ec2af3d8fd812U,
  0x3dbc8386bdafd265U, 0x3d686bf13d8aacf0U, 0x3d2192a6bd428cd2U, 0xbd28a1f53da0354eU,
  0x3cebb59bbc8aa521U, 0xbdbf26ebbdb4473eU, 0xbcc6f7023da6a149U, 0x3c0b3b053c5cea1aU,
  0xbc95c389bc87fbbfU, 0x3d87f7a33d40dfebU, 0xbd8e943c3dcc0082U, 0x3d87a0d9bc39d80aU,
  0xbbecf69fbd32050bU, 0x3d9e84c63d9c91abU, 0xbcedfdd53caee907U, 0xbd4740c8bcd2ea61U,
  0x3d913376bc8527d1U, 0xbcd66b7f3ca49da0U, 0x3d9f1f2dbce2bf95U, 0x3c6ce3733d610780U,
  0xbbe27ee13cbcc6f1U, 0xbb3bbecabd898e96U, 0xbd3c86693d7ad165U, 0xbd81d9a3bd183953U,
  0xbd8aa7943d25c576U, 0xbb03703ebd08c73fU, 0x3cd5f4ff3c931c53U, 0x3d2a74303da60fe0U,
  0xbd92c8a03d92af27U, 0xbcb8a3383c9f2fd8U, 0xbcc97a5f3b2e81eaU, 0xbd0dc7c63cede29bU,
  0x3d72382ebdac15adU, 0xbda90818bdb88250U, 0xbbce6cc5bcb1d580U, 0x3ca2e5ce3d980488U,
  0x3d5d7b65bdf60396U, 0xbd29218d3b3b6065U, 0xbca5a8243cb92d25U, 0x3cca91603d92108fU,
  0x3c184c433d579c2dU, 0xbd0234e43d2d64c0U, 0x3b99d30dbc50a5efU, 0xbda0fd8f3cf89802U,
  0x3dbebf0c3da6e3eaU, 0x3d229c18bcbf06ebU, 0x3d397e45bd0695b0U, 0x3cd931e23c643ac6U,
  0xbd767027bd9955f7U, 0x3dc0e0583db8044bU, 0x3c849da73d0e6500U, 0x3bc927b6bdb70ddcU,
  0x3d1da035bca421e3U, 0xbd800d463d5b1a40U, 0xbd60611a3cc1eecaU, 0xbd3bffbdbdaad769U,
  0xbd516b593da4c975U, 0xbc46004d3c9b785bU, 0x3d21c086bd7ce4e2U, 0xbd60b6043ca2ee25U,
  0x3d562d69bda70d50U, 0x3d9c0f4c3d808582U, 0x3d8f7ad03cf6fff0U, 0x3d8c61bb3d7ab948U,
  0x3c63aad5bcc36c6dU, 0x3b8cbc4e3d3347b2U, 0x3d960cdc3ca2253dU, 0x3cbdfed73d3b5c92U,
  0xbd5dd3e73db7f9c4U, 0xbcf292ffbde5565bU, 0x3d51dc283d24b291U, 0x3d1f9f97bdc673dcU,
  0xbc43f032be16d286U, 0xbdad10153d180509U, 0xbdc06f8d3c245dc2U, 0x3d7d49a03a5aae5cU,
  0x3d6d7377bc0873c5U, 0xbc609d713caab87dU, 0x3bf09d29bcf13757U, 0xbd3a33af3d03a547U,
  0x3d3a0ccb3d4af803U, 0xbc56af883d2b5621U, 0xbd016df03d531174U, 0x3d346fc8bd9bcafaU,
  0xbd5f67f93dabe83cU, 0xbd83752e3cfc5c28U, 0x3d6fbc723ceed7bdU, 0x3d6154c43a27602eU,
  0x3da09d483cd8d0e6U, 0x3db4dfa3bd88dacbU, 0xbda401b93b24a033U, 0x3d1fbefa3b78ac98U,
  0xbd868e913da47825U, 0xbc041a0cbe1cec55U, 0xbc296eb5bd8a6a9aU, 0x3b0be806bd4f8893U,
  0xbd8fd59e3d3baf1fU, 0x3cfb772b3c1e34eaU, 0x3dcce60ebd8c247eU, 0xbdae7e203d9d53a7U,
  0xbda81acabc6aa912U, 0x3d60581bbb5c830cU, 0xbcbd754b3cb5ff28U, 0x3d8a17783bc3213fU,
  0x3d4bddeabdaa9628U, 0xbdbe90a4bde20713U, 0xbd980009bc05b568U, 0xbd561d893cb014aaU,
  0x3c765db5bd3b5ff8U, 0xbd963304bc7bf92eU, 0x3be005a5bdbb7260U, 0xbced4a323d82822aU,
  0x3d840e203c650558U, 0x3d3cadd43cc0fd7cU, 0x3dcee66a3d57cd1dU, 0xbc46305cbd58e394U,
  0x3d9a1765bce831ceU, 0x3cba793a3d57b8aaU, 0xbc8c18db3d80d3c3U, 0x3d436d05bd544dacU,
  0xbce9e53e3dd3b3c9U, 0xbd63d5583d518f0bU, 0x3d9618463d81f5e2U, 0x3df43f85bd6765a0U,
  0x3ccf409dbd8aac27U, 0x3d273a393d093180U, 0x3dc82585bd9c578aU, 0xbd7925c53d692cffU,
  0x3d969aa0bd96337dU, 0xbca44448bd849d98U, 0xbdd562873da1ab78U, 0x3db24cf0bd4c5d05U,
  0x3c869db0bd6e463bU, 0x3b1a8522bdb223c5U, 0xbd6bdccf3d72f754U, 0x3c703d93bc6a7738U,
  0x3d3a5029bd42d156U, 0xbc57b7693d4b6350U, 0x3c48a1193d377f77U, 0xbd365fbfbd2fa49cU,
  0x3cb62eed3cba7ea8U, 0xbd0067d03d291a07U, 0xbcd5e5053ce47e85U, 0xbd968c753d5592f5U,
  0x3d8809473d530977U, 0xbd90ab103d8107a0U, 0x3c40d1c83db7ad26U, 0xbd94c542bd6c9490U,
  0x3c741383bd2a1b92U, 0x3dac0e663d698ad1U, 0xbd92657ebd2be7edU, 0xbd1667d03c123ba3U,
  0x3dc88fc53dc466a4U, 0x3d3d1ac4bc903aefU, 0x3d8c68ca3d9c143fU, 0x3d8f6d3dbc25e5d6U,
  0x3d8f2ab2bc841901U, 0x3d6bc6db3ca004c3U, 0x3d21562abd93c406U, 0xbd785bdabd3a33a3U,
  0x3d29dd14bd0c5b89U, 0x3d8e734e3d5cea1aU, 0x3c4dd7c63d792e3aU, 0x3c93ab653bcea810U,
  0xbca8979e3d83730eU, 0x3d79ce1bbd8de04aU, 0xbd7bae99bd06fa07U, 0xbd3b9ce63dbdacedU,
  0xbdcbd4b53cbfe2ddU, 0x3d534eabbd7e8b1fU, 0x3d3f719a3d64d782U, 0x3cb99dc8bdb4f564U,
  0xbdd291143ce44e8aU, 0x3caafc43bdacf318U, 0xbc80a0a73d101fc1U, 0x3de44895bd9772aaU,
  0xbcd11d1abd7d268dU, 0x3d8d45f6bc2c0d3bU, 0xbd54484bbd8c261dU, 0xbd91a8b63d21311cU,
  0x3bccd5e1bd08a411U, 0xbd0ae99c3da86b6cU, 0xbd8157bcbdc10bd8U, 0xbd6c30493d8a388bU,
  0x3cbf7cd4bd1b92cbU, 0x3c856033bd4b259fU, 0x3db7354cbd0fd5ecU, 0xbd062001bd974588U,
  0x3b8b764f3ceb67eaU, 0x3db36aac3bc61c09U, 0xbd91c643bc440e4aU, 0x3d51dea5bd8b523aU,
  0xbd8e7b353cd5d7a2U, 0x3b8500663dccf9e5U, 0x3d580a8bbd905ce6U, 0xbc6263b33d86cdfeU,
  0xbd166f79bd85f09bU, 0xbd5a55673cbab2a6U, 0xbd88868d3b103d07U, 0xbcddf10e3cf3f2cfU,
  0x3da26d3e3d75eee0U, 0x3d8b1dd2bd8179fdU, 0xbbc89bfd3d8e87fdU, 0xbd2c696d3cd77fafU,
  0x3d0ed6cb3d013702U, 0x3bbaf1233d5e4748U, 0xbccfcd893cbda75cU, 0xbd7b4ec1bdaed8a0U,
  0xbd42102dbd8ca0e0U, 0x3aaf8dac3d707e46U, 0x3daa6e42bca21d8eU, 0x3d907cbe3c534bbaU,
  0x3da279473d5dd12aU, 0xbd8ce4d2bceedcd8U, 0x3d137e5839ee7a36U, 0xbdb7f1443d8e9ba8U,
  0xbcbe6daa39e601f4U, 0xbc9baec8bd8940e2U, 0xbc4b6c48bd82e34dU, 0xbd02bf37bd30aa92U,
  0x3dc295a03d2376d2U, 0xbd9152a8bda4d698U, 0x3b8369b4bc81d458U, 0xbd4b52fa3d89623bU,
  0xbd499faabda949bfU, 0x3cddab28bdb34790U, 0x3bacede2bdb0befbU, 0x3d926f8c3db9d8c2U,
  0xbca8262bba9e3212U, 0x3db28331bc7b7be1U, 0xbda9f3a6bd81acccU, 0x3d44eca93d67ab6aU,
  0x3d149ce63d7a6dc0U, 0xbc938d5fbd99afe0U, 0xbdc264f6bd594430U, 0xbc6fa5b0bdc5d7acU,
  0xbbd3c73fbd9e8d53U, 0xbd7d2d78bdf35163U, 0x3d59453b3d6280a7U, 0xbcb4f76cbd71a226U,
  0xbd889b84bd648f85U, 0xbce1cd0b3d8c0a25U, 0x3c3ae6f03d8f83c2U, 0xbd96d5963d795c82U,
  0x3d24c84abc683254U, 0xbcb0e75b3c335cc3U, 0x3da4522d3bfa970bU, 0xbdb275fdbc81ba7aU,
  0xbc8e7898bda2789dU, 0xbd83c876bd7e6b62U, 0x3d5763c33d8e8130U, 0xbd75ad51bd81a44fU,
  0x3d79f84b3d53d47aU, 0xbda9eca3bcee4e29U, 0xbd8a8419bd973d35U, 0x3db81a71bd20a196U,
  0x3a25c2dbb9df2a55U, 0xbd491798bc6bdb12U, 0xbd99ec53bd2bf4b4U, 0x3c0849313c8cc3cdU,
  0x3cfa1a0a3c45f385U, 0xbd8dfcebbc8efd07U, 0x3d7ef8fc3c70e2c6U, 0x3c9cfc42bd41e366U,
  0x3d8fe774bcc3afc4U, 0xbd30ed9c3ce87300U, 0xbcaad7abbd1151c5U, 0x3c88e6173bc02feeU,
  0x3b91ccc7bd8c671cU, 0x3baa8ed83ca731daU, 0x3d9410b93aa8c8f7U, 0x3d0a47403d523ab2U,
  0x3adbccef3d1cf3d6U, 0xbd1cf9e7bcd4909aU, 0x3c8c153abb9b989bU, 0xbd298285bc95fd97U,
  0xbd5a6b6f3dc49d81U, 0x3d387a00bd9ad078U, 0x3d42c263bce4f713U, 0xbd933c1939f604acU,
  0xbaa4975bbd86dd36U, 0x3dad6ad33d21d2f4U, 0xbcc028e0bb74e0b3U, 0xbdc4511dbdb1ea4eU,
  0xbd613d4abca70369U, 0xbd0d9621bccbac4cU, 0xbda3c1b93d671103U, 0x3c12f6d63d14951dU,
  0x3d08ffa3bddd3377U, 0xbd1ea38dbd94b193U, 0xbd0fcf6abd1634c5U, 0xbda8e2b7bd215df5U,
  0x3d098141bca8da81U, 0xbda97c603dcd64f0U, 0x3c922d3bbce1adb8U, 0x3c47942bbd942543U,
  0xbdac66a53dbbdde2U, 0x3d697db13dd3e3a6U, 0xbb8935d7bbe29964U, 0xbd17d4ca3c372646U,
  0xbbb5ac68bd1c108bU, 0xbdd06b013d10641aU, 0xbc76d2b03daddf1bU, 0xbd7a8cb63d16dd0eU,
  0xbd8871fdbdb44fdaU, 0x3d587b2d3da43901U, 0x3d900488bd1533b0U, 0xbda1eb34bcb46e15U,
  0x3d00fabb3d395490U, 0x3b99e49b3cc750beU, 0x3c9169503cf38858U, 0xbcf9fdd3bd8b39f5U,
  0x3d3b9d4b3d8b1ceaU, 0xbc608661bb04d6c7U, 0xbd07629abce44397U, 0xbc077ebe3cd41b45U,
  0xbd749ae33d79b695U, 0xbdc9f75c3d9c8dbaU, 0xbd970cc63c46d690U, 0xbb903a2abcff9d25U,
  0x3da2ab153c9974cfU, 0xbd46a9183d848bafU, 0x3da14fcc3d3a1618U, 0xbdb08e98bda6caf4U,
  0x3d78b0b43d96e5d0U, 0x3d980865bdb12fd2U, 0xbd33ad00bcdddc6eU, 0x3c40bdc93d0ba782U,
  0xbdc71ebebd5ef5e1U, 0xbd57c36abd4e809bU, 0xbda2da6fbd22f1c7U, 0x3cf6974f3d21ae61U,
  0xbdae8dc0bda7e52dU, 0xbd882c9d3d6bb4f2U, 0x3db157883d116bfeU, 0xbbff048cbdb111a2U,
  0xbcc4da7e3d78734bU, 0xbbdca2873ce8537eU, 0x3ccd82a8bd166bc3U, 0x3d63d33c3cfaadacU,
  0x3d9017263d52538eU, 0xbda548dcbd69afd9U, 0xbcb368473d768481U, 0xbc8be6de3bc489f2U,
  0xbd359112bd7b60dfU, 0xbd388fef3da9f993U, 0x3a19bb5ebdd5b7b2U, 0x3d30fd9b3d399969U,
  0xbd329594bcb2e493U, 0xbd7d5bc4bd7b553aU, 0xbd490500bd40cadcU, 0x3d0aa1a33d8e611cU,
  0xbdcb7f9abd307f01U, 0xbc1c0ab7bd305d61U, 0x3dc212703a316bb8U, 0x3d85938f3cad3bb1U,
  0x3be2a8f7bdbfb9eaU, 0x3d8059b3bd3955c7U, 0x3cb6b03dbb749eefU, 0xbc64279f3cfa28c6U,
  0xbcf15f3abd690366U, 0xbaed8cf83c1840fcU, 0x3dfd471d3d6fecf4U, 0xbd80bff0bd872884U,
  0x3d8b7cab3d8f4058U, 0xbd02de69bd3a3b5bU, 0xbca904f73d1c2caaU, 0x3d19d305bd54a7afU,
  0x3b637345bd3f1d10U, 0x3c9e1afcbd471e0fU, 0xbdd9f6833be57fe4U, 0xbca999043bc6a726U,
  0xbda5ae2d3bd9e7f3U, 0x3da1f65cbcbee238U, 0x3cac4e4ebd0e6383U, 0xbd08a9ef3d3cb772U,
  0x3dcc91663cf81f00U, 0x3d93aec8bd4f82d1U, 0x3d26fb24bda4d4b4U, 0x3c1eed0f3d50f9b3U,
  0x3d718c64bdaa9a76U, 0xbd4050a73d52b958U, 0xbd6af3523da4f72bU, 0xbc6d1040bd16d42dU,
  0xbd3493353c489186U, 0xbdf32bc7bd24ced5U, 0xbd0a3b043d9e9b53U, 0x3d67ac273dafdde1U,
  0xbd9874a93cecb5a5U, 0xbd8e1f67bd953381U, 0x3cb1c00d3dc2aa9cU, 0xbd4509913db6541bU,
  0x3d9712c9bd899687U, 0xbd871ad1bdcff054U, 0xbda898e7bb0ca6f0U, 0x3b949e93bd472d71U,
  0xbd8a47c5bc9ddd10U, 0x3d0dd2e6bb9525b7U, 0x3de5e6243de434c8U, 0x3c2c1527bd05584dU,
  0xbd6bf2dbbd37c025U, 0x3c9ce7663daf19d8U, 0xbdc66635bd827ea8U, 0xbd9050a93db38328U,
  0x3d4a50ebbd1cbc8eU, 0xbc7dcb063cfbdb82U, 0x3bc707e63d4cbd7eU, 0x3c458b17bcc2b17aU,
  0x3d9898a7bd745c8bU, 0x3dcf87533b20e069U, 0x3d356d98bcfbe5b5U, 0x3c9ac7f63d1fb602U,
  0xbd41840abc4aa167U, 0x3da71ca0bdbf51bcU, 0x3db1954c3d12bd1dU, 0x3d42335c3c35515aU,
  0xbd893fec3db86282U, 0x3ce0d06a3cf49003U, 0xbd39c7cabb852b23U, 0xbd8955bcbc8899acU,
  0x3cb638383dcc979bU, 0xbcbe9e21bcef0c0eU, 0xbd9884f23cce0fa0U, 0xbcf757caba59d3aeU,
  0x3c992faf3db8563cU, 0xbc8415c4bcc7acbcU, 0xbd718f3abd785434U, 0x3d9b03c7bd78463aU,
  0x3d5626d0bcfe8342U, 0xbd8ab6993cab264eU, 0x3c7369133d513a0dU, 0x3d5df8b2bda4e66cU,
  0xbc8631543d715521U, 0x3d5260fbbd6a1211U, 0x3d13787f3c1e3279U, 0xbd513d82bdbf6a63U,
  0x3cade389bced1195U, 0x3da4dc14bd8f58d3U, 0xbc9daebc3d7f7adaU, 0x3d9073573be672e3U,
  0xbdb43f43bc9962f5U, 0xbdb504c73d05d488U, 0xbd7d6f8c3cbba098U, 0xbc96071cbcc1c69aU,
  0xbd128cf8bd760c4eU, 0x3d8b020ebda3efaaU, 0x3dbfe894bd9538b8U, 0xbd4fad25bd4113f2U,
  0x3c19e6f139858d96U, 0x3d2000c2bd6f2dcdU, 0x3db46c513dc56457U, 0x3d41ea71bd4ef175U,
  0xbd8a1ba0bba3688bU, 0xbdb1da5b3d9aaf2bU, 0xbdb6274d3d915457U, 0x3dbaa9dabd4d2788U,
  0x3d76c8fbbdc6c970U, 0xbd4dbd12bdb09aa4U, 0xbd827adc3d25db8bU, 0xbd7121c3bc57458eU,
  0xbbc3d1133d7f8094U, 0x3d893a81bcbf7cc4U, 0xbd8e43cabd40e932U, 0x3d2c1e39bcae2758U,
  0xbd85cfb2bdb22b97U, 0xbb40c34ebd74a321U, 0xbd95da73bb569765U, 0xbba2625a3daa365dU,
  0x3da5afe2bdb90fd3U, 0xbdc0de993d94e296U, 0xbd80a68bbdc26760U, 0x3be9652e3d5f8d6dU,
  0xbcfc539d3d23fedbU, 0xbd2a77193d8e35a6U, 0x3d2fb09e3d768f72U, 0x3d2bc5a63da19414U,
  0x3d247e60bccc6cfcU, 0xbd8351f43b8559a7U, 0x3d4abbbc3da2fe54U, 0xbca1d32dbc9a17bcU,
  0xbdaed662bd54c867U, 0x3da12f113b9396aaU, 0x3c5224573d16d39aU, 0xbc80fd78bd99340fU,
  0xbcd074c2bb824ab9U, 0xbd579f3d3d9493b2U, 0x3dc5286cbd509606U, 0x3dbd6b7fbcf6fa18U,
  0xbda4c0353d482cd9U, 0x3cd9c2e03bd81e17U, 0xbcf330383da9d7c0U, 0x3d0b50b03c6f06f3U,
  0x3bcccdb03d4c8c0bU, 0x3d624e233d92aa64U, 0xbd8da8973d0194c4U, 0x3db2c4b63d162f08U,
  0xbd910139bd297d91U, 0x3d8f51e0bd75a222U, 0xbd63d5d8bcc14982U, 0xbdc023953d3395c1U,
  0xbcaf58f53d0a9543U, 0xbd897db8bde753ccU, 0x3b7205213d6959cdU, 0xbc501f533c2a24ebU,
  0x3dc4634fbdf70df2U, 0x3d230d19bc181f2cU, 0x3d51a27b3c8c4cbfU, 0xbb8f66afbd9b1ba0U,
  0x3d505adc3d9aec7dU, 0xbd5437fa3d348e49U, 0xbd17f9e6bd8d7320U, 0xbbc366d93d1d31baU,
  0x3cbb0ab73c56cc6fU, 0x3dc360cebd018becU, 0x3d050ad23c2b7205U, 0x3cec8a4cbcf68b31U,
  0x3d2a8fda3db4bbb4U, 0x3d221d52bdaabd18U, 0xbb7b7fde3d18e8d6U, 0x3d4420b93d79c210U,
  0xbda0b89c3cee80e7U, 0xbd81c2bbbd947e45U, 0xbd8f77f8bb8bfdf7U, 0xbcbef315bce3e1beU,
  0xbd9309d9bd8c2cbaU, 0xbd5ff261bda32b4bU, 0xbd601c0fbc7c5349U, 0xbd5238843d1b69b4U,
  0x3d5384c5be00a3c1U, 0x3d9b18113d51bc2dU, 0xbd81f159bd135a3eU, 0xbd0a3d443d7e1ec9U,
  0x3be45973bd253490U, 0xbdb08be6bd488c78U, 0xbd8aaf36bd92b8a2U, 0x3d8bbea8bd2e9ddaU,
  0x3cafff9a3d56fe0eU, 0x3cb1fe7fbda33a09U, 0xbd08f822bd4b7329U, 0xb937bc683d1a78dbU,
  0xbd93b9dc3cc7b7c5U, 0xbbd7c70dbcc7109bU, 0x3dabb18bbce7c3d5U, 0xbd99b20fbc613b83U,
  0xbc89b64f3d6f71fcU, 0x3cc4de3a3d77be1aU, 0x3d87b5c83d406f03U, 0xbcb36895baf8690aU,
  0xbd91dcd5bced1092U, 0x3c0b7e193d3d7915U, 0x3d0cc0c23a222c6aU, 0xbd0aa0923da6f741U,
  0x3c2cb678bd619eddU, 0xbc46319abc956befU, 0x3d439912bd568845U, 0xbd228b0c3c5ea09dU,
  0x3d79f42b3d10a565U, 0x3cd0f03d3d05c67cU, 0xbd48020bbdc6b930U, 0xbd0d00f3bdb6d6acU,
  0x3d5753d63d9c7e41U, 0x3d30ca4ab8329991U, 0xbbba9ef1bc5b038aU, 0xbd31ea76bcd5cc10U,
  0x3db0d6be3d894a08U, 0xbda8e8bdbd8ff1e8U, 0xbc9fde3bbc707561U, 0x3c54421b3d45608dU,
  0x3c01f8413db4283eU, 0xbc98ac3b3d779277U, 0xbd0a317e3c3d4d4bU, 0xbd42121e3d48151bU,
  0x3c9f7fbd3d066e22U, 0xbc36390ebd86f476U, 0xbd8a2c5e3cb3a0b7U, 0x3db3072bbc424e5aU,
  0x3cfc1aa7bddb8198U, 0xbc96898f3d7678ecU, 0x3d9c723dbda84332U, 0xbcff81cdbda78b32U,
  0xbdc11985bdb4e8f5U, 0x3cfeed963d3caf5bU, 0x3dac57893d82fa4dU, 0xbd1a8314bd9aaf41U,
  0x3d8576ba3da6438fU, 0x3cee18753d84e42bU, 0xbd582e3e3da2dcfcU, 0xbd86ec043d995903U,
  0xbd039cc2bdbb8241U, 0xbbfb8d213cd672a9U, 0xbdb4e6f73cb14ab2U, 0x3ca87e363cc3408fU,
  0x3d159f2f3d2d7832U, 0x3d9e29e4bd15718bU, 0x3cd18f3f3dadf95bU, 0xbcbcf4783d660296U,
  0x3d8d49bdbd9ded71U, 0xbdb7987bbdc2b5b7U, 0x3d8b825ebd284fc9U, 0xbda899453d3a70ceU,
  0x3be67fb9bd356408U, 0xbbe83e2c3c6b912eU, 0xbd54d3313d1f60b2U, 0xbdbfd5a33c85d79eU,
  0xbd110e143d87aa31U, 0x3d8c03f4bc8a6b2aU, 0x3d254c1dbc7eb68aU, 0xbcd770a03d1ebd62U,
  0x3d543e4abcd8a1feU, 0x3c2d553cbd4d4d2fU, 0xbba3848f3da798e1U, 0xbce9edcb3dada79dU,
  0xbd4b1fc53d27d91dU, 0x3d75737e3db1b467U, 0x3d9bff1c3d4c8ee6U, 0xbd6232d33c7fce84U,
  0x3c77bb0bbdb0d002U, 0x3cb36ea83cff38f4U, 0x3d83247fbd470b94U, 0xbd753e7aba07d696U,
  0x3c47dd51bc17fe22U, 0xbd3cb3343d51cd75U, 0x3d420d00bcfdb29fU, 0x3d458bfc3d89ba0dU,
  0xbd3dfb6bbd0b8880U, 0xbdb9d8ab3d3e4702U, 0xbdc5fc8cbd791b7cU, 0x3da5152a3c54344cU,
  0x3d130250bdb7caf5U, 0x3ca005473cd12c5cU, 0xbd2558bfbdc1874dU, 0x3cf1d19abc7b942aU,
  0x3d0f9aa03cc82259U, 0xbda7f0efbdcde148U, 0x3b23d13f3c0e6249U, 0x3d71edbdbcb44b61U,
  0xbdc2a4abbda31199U, 0xbc9cd411bd9e5f7dU, 0x3d91e499bd8a08fbU, 0x3c5b4aa1bda57ac1U,
  0xbd9d166cbd024d9fU, 0xbd6d9d3c3cb5d14aU, 0x3d1d8ae1bda55feeU, 0xbd24d38e3db0967cU,
  0xbdca1f7dbd55ce80U, 0xbd86fef53b75d6fbU, 0xbd991e383dabab71U, 0xbd353786bdaaf2c3U,
  0xbd0c41dfbd209692U, 0x3d9f4badbb9fce27U, 0xbdc9ecc23cf8933fU, 0x3d9f63fbbd3c01ecU,
  0x3d3ca2b9bdc59d4dU, 0xbd3389cf3c047b62U, 0xbd4e35753c1748acU, 0xbd0119cf3c2a401aU,
  0xbc0b766f3bfa3d8bU, 0xbdac9b3bbd1404d9U, 0x3db491de3db7feffU, 0xbd8d628a3dabf087U,
  0xbd5269acbd76840eU, 0x3d208ade3dc59071U, 0x3d80edd0bda47fbfU, 0x3cf5fd9abdc2703bU,
  0x3d89a32abd0e007dU, 0x3dcc173f3c8d154eU, 0xbdc4187dbd982659U, 0x3c51483dbbf56b54U,
  0x3ca0a0d5bdc2c698U, 0xbd2e224d3d90f917U, 0xbd189b65bd0a8cf2U, 0x3d5b221bbba1a477U,
  0xbd690b7dba2bc524U, 0x3d5b89593dba7aa8U, 0x3cd0b9f03cbcca82U, 0xbc610ecbbd927fa6U,
  0xbd785fe5bd15cc6aU, 0xbbed7158bcf46dacU, 0xbd90c7643da9a4b6U, 0xbd93450f3ddb95ddU,
  0x3da1b0353d542d21U, 0x3d137360bdb76eceU, 0x3d698e563dc8afc1U, 0x3bfa73343de143f6U,
  0xbca20196bcae7b75U, 0xbd8ff8b03c03b393U, 0xbd8561bebdb3cef6U, 0x3cc03b953d7b0d41U,
  0x3dae28443d2d8070U, 0xbcc9ba003c88fdefU, 0xbd88eba4bda3c3bfU, 0xbdb72863bd8dc2c5U,
  0x3ca35b1c3d68d725U, 0x3a7596093d24a11dU, 0xbd3ccb91bd129e00U, 0x3d8b27473d9bb902U,
  0x3c71ce47bd4139f8U, 0xbd305d7ebda50526U, 0x3dc7ef583b05e619U, 0xbceabc6d3d1b2befU,
  0xbd14ba713d38f19aU, 0xbcd168403d8d3532U, 0x3d696a29bd9eac81U, 0xbd9942be3b0acf92U,
  0x3d7ddf81bd9ed43fU, 0x3d679fb93d530d3eU, 0xbcf38c643d80b075U, 0xbdbf18113d3408b7U,
  0x3d5af87cbd8fcf93U, 0x3c04107b3d749c96U, 0x3c5ef30f3d60a547U, 0xbda743183d418d90U,
  0x3d897e293d81fe17U, 0x3b6426d5bd95255fU, 0xbd587cbebd8d488eU, 0xbcd5dbdbbd4cf62cU,
  0x3cd9c5743b3ee35eU, 0xbd9b2da8bd18fb5aU, 0xbcc8d32f3cedf5c9U, 0x3ca87b943ca8c235U,
  0x3be9008bbca9ba48U, 0xbdbdded7bdb37af6U, 0xbd8329c2bd8a549eU, 0x3c0c9f263db99e51U,
  0xbd9b73bcbdb698a4U, 0xbd10547d3cf820b8U, 0xbd1e02883da8299aU, 0x3db9c3373c902673U,
  0xbd32e959bd0cf778U, 0x3b9312733d6020e7U, 0xbd9476ea3db25143U, 0xbda362b2bdaa4335U,
  0xbd339ea43bd1cdd3U, 0xbd687357bb0c1cddU, 0xbc81857c3cb27932U, 0x3d9c831f3cb89a0bU,
  0x3c1ca9c0bd566dabU, 0xbd6bc95dbd8113a5U, 0xbaa38c20bc8a720cU, 0xbd93494c3d555373U,
  0xbd6c94b1bd29f293U, 0xbd134f4bbd9cf8f0U, 0xbb6968c13ca13d7bU, 0x3d5246393b81ee86U,
  0x3da3b20b3d3d7427U, 0xbd250ca0bd905587U, 0x3a144fb83c0dc7f7U, 0x3d79d2b53db1e315U,
  0x3db9e5ad3d0d2771U, 0x3dcb74c8bcd21ee5U, 0xbcdf0f62bd236466U, 0x3d87a7debdb17961U,
  0x3d9056f53d762d48U, 0x3d2875713d90a087U, 0xbbe92e72bcab4109U, 0x3d9a2e4b3d884038U,
  0xbdb286313cb7f38aU, 0xbb5469c8bd7a8deeU, 0x3cf4640dbda5fe47U, 0x3c38c899bd52a6c4U,
  0x3d8a2b083c3eae6fU, 0xbda71248bd8f1c82U, 0xbd0090cb3c00d0acU, 0xbd30b0d43d4d8646U,
  0xbce100dbbcb0631bU, 0xbd6136523b517938U, 0xbc6df2be3d8a3eafU, 0xbd05f05bbdbd6eaeU,
  0x3db16cfb3c54888eU, 0xbc867b2c3c8da035U, 0x3ce13179bd2f1cbdU, 0xbd0fa3bc3c8aa01dU,
  0x3ca9e7843d8415e3U, 0x3d34e0f4bd888dedU, 0xbcd12aaabd92ede5U, 0xbabda02b3dc2b88dU,
  0x3d4dbc34bd8f3098U, 0xbd9cc3cf3e0707eeU, 0xbd8d1b293d84b5ecU, 0xbca4da5e3d9b7758U,
  0xbd77ad1e3ca9f9f1U, 0x3d067c5d3db9aa04U, 0xbd611eb9bc34fd82U, 0x3d80a50cbd139a87U,
  0xbd7b8f6bbdc311d3U, 0xbd95c1f6bb615d1bU, 0xbd5062303d10591fU, 0xb993ad0a3dba886cU,
  0x3da4ab173ca08834U, 0xbd710432bcd179afU, 0x3d79d21cbb369243U, 0xbda104d73da00889U,
  0xbd57800abd4dd8d4U, 0x3c1272c73da860eeU, 0xbdf17a303b698db5U, 0xbce068373d5316d1U,
  0x3d8e233bbdd4a29dU, 0xbd6ef1c3bce2c02dU, 0x3b9d65ec3dae9c46U, 0x3d87685ebd18d9c2U,
  0x3c9f519ebc780730U, 0xbd2be9c53dbe8eb3U, 0xbd75a535bd95526fU, 0x3d113aaa3cf7e506U,
  0xbd88cd113dd1644cU, 0x3da7ccdfbc2261e5U, 0x3d8212c3bd587bb1U, 0x3d68c3703d43074aU,
  0x3d7fddbabdb38c05U, 0xbd8e3ebdbd6c099eU, 0xbd8c58ce3d9db118U, 0x3c5420f9bd6d4814U,
  0xbd88c7f4bd1ed257U, 0xbd9cfd813c9dfcf0U, 0x3c939800bd345f92U, 0x3da641923a1293edU,
  0xbd8202603a4d2b82U, 0x3caf806c3dbf2053U, 0x3ce6778d3dac8d87U, 0x3d787f16bbb5b917U,
  0xbdaa0805bda559a9U, 0xbc04acefbc88b676U, 0xbd60c375bade75f6U, 0xbc3adc0c3d50060aU,
  0x3d2f1e0fbdbb87e4U, 0x3d9490c2bd9de98eU, 0x3db8a5293d0a0923U, 0xbd1b3e61bcc58a24U,
  0xbc71223ebcd11858U, 0xbc8f7f57bd8265a3U, 0x3ce0ed60bd007ad6U, 0xbbb195633c05457cU,
  0x3dae76cf3d9ae0f2U, 0xbd8c82ec3c9e5e77U, 0xbcc1db9dbb91c7a7U, 0x3da50b513cda2180U,
  0xbd8eb2a9bd793a1aU, 0x3d970c6cbd1e4c39U, 0xbca9abe83de21a30U, 0xbd5aa4983d86209eU,
  0xbd6be6443d1f2b5bU, 0xbd28f6fabd9e7d4bU, 0xbd9953edbd0aa718U, 0xbc9a9141bd2a88ebU,
  0x3ce14365bd1c78d8U, 0xbd9b46403dc2eadbU, 0x3da8ce92bc785032U, 0x3cf0c659bc8c319eU,
  0xbcfe91be3da30d97U, 0xbd5f474fbd716e07U, 0x3cae4dfd3d4e9d3fU, 0xb9c17e6f3d82f013U,
  0x3c050e24bd19849fU, 0xbc7896c93dab9901U, 0xba8860df3d8ed147U, 0xbb90c478bd887044U,
  0xbd206691bd2740aeU, 0x3d26da023d1ea96dU, 0x3d0f448a3d7469e4U, 0x3d63d1cc3d09ffb3U,
  0xbc0e1c89bd8df231U, 0xbd2b0b7d3db1ea53U, 0x3da386823d85b079U, 0x3c4158913d981aeaU,
  0x3d24313b3c3722fcU, 0xba90cecabd55d3b4U, 0xbd899049bba02ac2U, 0xbdc4f8ba3aad20cbU,
  0xbaa8fbd1bd427fbeU, 0x3da5cd0abc3e372eU, 0x3d5c6641bd00f5c3U, 0x3ca3e1473d4c351aU,
  0x3d5f20c2bc607989U, 0xbd9ab2e53cda7e45U, 0xbc26d930bce05f05U, 0xbd0aea9e3da7144fU,
  0xbd173321bcfd73bcU, 0x3d80a48dbd9bc2c2U, 0x3da167c4bdb03588U, 0x3d38ba673dbcdaf4U,
  0x3dc0b2be3c880bcdU, 0x3d0e6e95bd0170d5U, 0x3d6987ab3d8f2d46U, 0xbd8e49b4bd814797U,
  0xbd37fa593d7966caU, 0x3d00df6ebd3278c2U, 0x3d4a2029bd8cb645U, 0x3c3cfc673d1edda3U,
  0x3c8ba611bcf27cfeU, 0xbd5d35cf3d76db03U, 0x3da22be4bb5cf060U, 0x3d4d03113da190d5U,
  0xbd2affbbbdb2552eU, 0x3b7fa1d63d9ef7d7U, 0xbd9d945ebdbdcf46U, 0x3b028b36bd789e40U,
  0xbc0738d43c4cea03U, 0x3c9d7828bce93230U, 0xbd36d3fbbd31e874U, 0xbdb2af65bdbe7905U,
  0x3d0ad17b3c27a3a2U, 0xbdb6b68bbc94467eU, 0x3d40b79bbd3f5c43U, 0xbd80f107bd7e4c62U,
  0x3da3f6f83d29f933U, 0xbbaf2cd03b2e56b1U, 0x3b4e24cabcff40e9U, 0x3c432bb03d955035U,
  0x3ccb8b24bd99aeb7U, 0xbd811d243ce32495U, 0xbd02cd803c9dae12U, 0x3d9940eebdb00240U,
  0x3d4cd5e8bdc8327aU, 0xbd0e927b3ce9823eU, 0xbdaae539bd208e74U, 0xbd5e7f543db16340U,
  0x3d931066bb53eab0U, 0x3c9bda51bd6ae9a8U, 0xbd9bd2833d95bbaeU, 0xbc8502e4bc89c526U,
  0xbdba9d4d3db831eeU, 0x3d17bc02b9fe60f3U, 0xbd82b1e03d25fc9bU, 0x3db4dfddbbb65826U,
  0x3c2f4e6dbda2e028U, 0xbd03c3e0bae1c877U, 0xbc9ef45ebd958c93U, 0xbd9bea82bd27e744U,
  0xbdc1b1ccbd98cd1dU, 0x3cde094cbda365d6U, 0xbd1fa09bbd9e3e69U, 0x3b7f01fb3c104f82U,
  0x3ca70e24bd42d17aU, 0xbd834dcf3c64f305U, 0xbd96b9f8bd745ce8U, 0xbdb3b27b3d9d153fU,
  0xbbdd747d3c4f189fU, 0xbdb861ff3d8e0497U, 0xbcaa71e63cda41deU, 0x3d84b443bdaa6b52U,
  0xbc28116dbc127050U, 0xbd47237d3caf5f39U, 0x3d86c5be3db17fb4U, 0x3cbfa4e3bdc36538U,
  0x3cde8d5f3dc2dee2U, 0xbd5388b83c859c5aU, 0xbdbc9b9dbd98df46U, 0xbd6a49d7bda24f7cU,
  0xbd727f8bbcccb46fU, 0x3d42e2023c83fd33U, 0x3d230b2bbd72ac86U, 0x3d851bdcbdb6e0ccU,
  0xbc7e76a8bdb46b96U, 0x3d9a17463bfa928bU, 0x3c4651e73d9b088dU, 0x3c811efe3d79f031U,
  0x3c14225f3d209e20U, 0xbdb95b8f3d3887b2U, 0xbb82ad89bd87683fU, 0xbd13333dbdb7d3b7U,
  0xbd43291fbd9f5c92U, 0xbd7b6ff6bda1234dU, 0x3bbc9e89bd6928a4U, 0x3cb224853b23d446U,
  0xbd7ff4193da275a8U, 0x3d0ed4333ca916ceU, 0xbcdfdc61bdc40773U, 0xbcf2fb9d3d3459dbU,
  0x3d1c1a173c8d7c38U, 0xbc65f520bd32a1a2U, 0x3d93f139bc10afefU, 0x3d82187bbd85f293U,
  0xbd2e98a93d05b344U, 0x3d13eda8bd7f4a7aU, 0x3ca10dd23d6b4b06U, 0xbc16b11cbd5bc863U,
  0xbd85eb6fbcc439d2U, 0x3d61b0543c8a9200U, 0x3d8281153da903ecU, 0xbd85d6a8bd9be0b6U,
  0xbd2a87b8bd853ea5U, 0xbdbece8b3c918ed6U, 0x3d32fa8b3d055408U, 0x3daa0abebd8ae7cfU,
  0x3d4a399fbdda2277U, 0x3ca7d0533c4641e5U, 0x3da84a78bc77fbedU, 0xbdbd47343da57bd4U,
  0x3d4861a53d42e2f6U, 0x3d95ba573d8fad16U, 0x3db13d833d278a59U, 0xbadad8e43d64df77U,
  0xbd033d083db2c635U, 0x3c6892603d28b3eaU, 0xbd3779463ce4a915U, 0xbc98f9163da8ef9bU,
  0x3c758dd4bd540b74U, 0xbc89c3a23d5c3470U, 0xbd3602c03bf61ddaU, 0x3d843d8f3dafbfe8U,
  0xbc7241a13dc443daU, 0x3d9328783d08cc0cU, 0xbdb5ae3f3d8e226aU, 0x3d0193cc3c9c97f8U,
  0x3d89c465bc2385b5U, 0x3b216147bd676db4U, 0xbd4d971e3d95290cU, 0x3d75f6643d8bfd8fU,
  0xbd738c543cd6e5cdU, 0xbd2ddfac3c693a47U, 0x3da26f993d994ea8U, 0xbdd7fd11bd8149e5U,
  0xbb0500ee3d7bf8fbU, 0x3b853390bd4fd875U, 0x3d7619b33d90e0edU, 0x3b88f33b3d5d119eU,
  0xbdc350863d09933bU, 0x3c83264fbdd1098dU, 0x3c1a38c7bb879825U, 0x3d69e844bda91b0cU,
  0x3d928bce3c01cb60U, 0x3d80f7233d78c6c9U, 0xbd379163bc559a12U, 0x3ba4de963bbd2e5fU,
  0xbd593dab3d16d69aU, 0xbcba0b6a3db5a292U, 0xbdb8df853d3f1e17U, 0xbda3c392bd033791U,
  0xbc064709bdaa201fU, 0xbd4af35ebb0604f1U, 0x3cf4a6c33db22866U, 0xbb4d7615bda6a850U,
  0x3c0902bc3cdba35eU, 0xbbe698a63db8c07dU, 0x3d0bd4fa3c4917b7U, 0xbbf7b72c3d9f55f6U,
  0xbd96855bbd536193U, 0x3d3a8a17bd86f62aU, 0x3d83615b3d3ac81dU, 0x3bca09a63d8e7fc6U,
  0x3d46a9393d9a547eU, 0x3c5b8c5fbd2da63fU, 0x3db474eb3c6050cbU, 0xbdc3ef583da0f8a0U,
  0xbdbce534bc5fdb41U, 0x3d7d25acbd96ffc6U, 0x3c0c0f56bc76177fU, 0xbd5dc9ebbdcc62ddU,
  0xbd94595a3d023b9bU, 0xbd7fdd5fbb450e55U, 0x3d433bc13d4768a9U, 0xbd9a1b953b82fa38U,
  0x3d3ccf32bd4e049eU, 0xbd23681a3d7b90efU, 0xbc6bccb8bd2b343dU, 0xbcaf1ac03d734704U,
  0xbba633173d0b5af9U, 0x3d5de03f3caaaf79U, 0x3d8346adbd622455U, 0xbda8c8143d6cc6c7U,
  0x3d911d74bb310bd4U, 0x3dd93c6cbd773ce6U, 0xbdae9dea3dac9f6eU, 0x3b256c7abd41419eU,
  0xba979f183dbaa8e3U, 0xbd2b0b0abcdd79eeU, 0xbc8a01e1bdd8c7ebU, 0x3d9e506bbdb19577U,
  0x3c9bb3e8bd76bb6fU, 0xbd15e7b33da07283U, 0xbcb704de3caef993U, 0x3da224873d9d36c6U,
  0x3d840029bd9b6d14U, 0x3d952b5e3d541ad8U, 0x3cd20cb13c9161a2U, 0x3bf6a877bc0a9b62U,
  0xbd408b6ebd312d7dU, 0xbd67f4963be8e88bU, 0xbdd29130bd7fd770U, 0x3d959f963d23a69fU,
  0xbd45f1cdbcb4a8afU, 0x3da398a4bd802e34U, 0x3cb14124bbbeac7bU, 0x3d9d31a1bd345c5cU,
  0x3c9189f5b94c65ebU, 0x3c6a79a9ba83035bU, 0x3d0c11c6bc916ba6U, 0xbd3892f03d355271U,
  0x3d5bb1ec3cf69b3dU, 0xbd4920b6bd9382a0U, 0xbab490943c3daa20U, 0xbdb89590bd0fdde4U,
  0x3d9c849d3d20ed58U, 0xbc88d9b13d230fe8U, 0x3cbb9d4f3cc02a49U, 0x3dcea22f3d9b531cU,
  0x3c94fe11bd157d67U, 0xbdbb0fcd3c839ac3U, 0x3d92d37e3d728c3cU, 0xbd5466a93d0d30f8U,
  0x3d4006c1bdb67bebU, 0xbd1c634b3c726e9dU, 0xbd5fa26fbd398f01U, 0xbd317242bd6c6443U,
  0xbdc8d90e3c9166e6U, 0xbdc975d7bd161edbU, 0xbd958e543d0a48ceU, 0xbd813cf1bd9b627dU,
  0xbcd6f7f4bd8ec396U, 0xbc965fa73dc17a28U, 0x3ce4b4c5bc7ba6b8U, 0xbd871f38bda5c16dU,
  0xbb0f074a3d8cd81eU, 0xbd918886bd8a680bU, 0xbd9f479c3d1389e1U, 0x3b8cd8c33d8bd766U,
  0xbdbd9823bd64c9d4U, 0x3d9937b03d98cb7eU, 0x3b7ac5e13daebc3cU, 0xbbf7372fba1099b9U,
  0xbd2982f5bda64ce4U, 0x3ae30b1c3da7e2f1U, 0x3da73523bd96cc88U, 0xbd0becaabd10955aU,
  0x3dbcee303d3d419cU, 0xbc31428cbd28fc1dU, 0x3d105211bcbe5f0aU, 0x3d8f59b63dc3760bU,
  0xbd33e9a4bda11675U, 0x3d0e6665bdb75963U, 0x3d965b50bcc87662U, 0x3b1f6032bc2a4a92U,
  0x3d182c17bdacd0e6U, 0xbd341ac5bd12b29fU, 0x3d8202693d0d0dceU, 0xbceef4663bd37814U,
  0xbdb99d833a276798U, 0x3d53bcebbd00342aU, 0x3d6d049c3a65d87bU, 0x3d7b149cbd20a871U,
  0xbd9ca58fbcb07256U, 0x3d82f79c3a82cfddU, 0xbd9fcda03d0e49deU, 0xbd141509bd4af43dU,
  0xbcf163fabd1d644bU, 0x3d7bcc2abc038da8U, 0xbda0efb53d089909U, 0x3cd9752a3d955099U,
  0xbcafb4193da3f523U, 0xbd7ed19fbd9cc1e6U, 0x3cc33a02bd92c7b2U, 0x3dbcbc973d2ee466U,
  0x3d5855f93db9d242U, 0x3d13fe293d1d011fU, 0xbd20182e3da9a2cdU, 0xbd9ae0d33dbf9631U,
  0xbd5cadfdbb66a1f2U, 0xbdaf4e123db00adbU, 0xbcfc16eabdabf756U, 0x3af7fac83d3a876aU,
  0x3db96dbebdb71823U, 0xbc9c4d7b3ca70fb2U, 0xbbde7d9cbdb34a4fU, 0x3c4f38a63da1421aU,
  0x3ca7f7043b7d76b9U, 0xbc4d7555bd6da9c0U, 0x3d346499bdbb4b58U, 0x3c982dfbbd95b37aU,
  0x3d92df40bcc9d50eU, 0xbda4945abdb6f9baU, 0x3ceeaf7a3c5c993dU, 0x3d0dafc1bd7d0315U,
  0x3d884d00bdc14be8U, 0xbd34565abce7a71eU, 0x3d0ec5a03d55d29eU, 0x3cada0b3bcaa4805U,
  0xbcf1221dbd1c5e4dU, 0xbd7999c83dc4451cU, 0xbd5ad5b33d53b573U, 0xbdb5e28dbc57f026U,
  0xbc82c7a5bd9efd3bU, 0xbd623bbabd37199eU, 0x3c1cf8333ba92264U, 0xbd797e84bcf1b04aU,
  0xbdb0a7d2bd8e0154U, 0xbd5c4dbfbcbf80c7U, 0x3cde0f0a3d3963d9U, 0x3dbaeef1bc93a9a9U,
  0xbcb8b91ebd32a189U, 0x3dbc9191bd6f36a4U, 0xbd9060e8bd98cf39U, 0xbdadc95cbdbba409U,
  0xbdcc901abdbc1645U, 0xbc41283bbc4bfad4U, 0xbd42d68abcc1f31dU, 0x3d74de183cbc90b7U,
  0xbcc094163d5704cbU, 0xbcec6750bd76d398U, 0x3c26e671bcbaa32bU, 0x3d585eee3d1f9babU,
  0xbd8369ffbdc2c013U, 0x3d87ccff3da47216U, 0x3cefc632bce2b17eU, 0xbcc8bdc13c695067U,
  0x3c8443c3bae35c14U, 0x3d6ca6cabd736227U, 0x3d998eea3d51666dU, 0x3db824adbdab16ecU,
  0xbd1d9a253d8c3216U, 0x3d3e44dc3ca9c9dcU, 0x3d125128bda01419U, 0xbda3a86a3d5b0f0fU,
  0xbb13b5723d3a001bU, 0x3cf8c170bcb30251U, 0x3d4d68cbbd6b240dU, 0xb959f7c63d022f02U,
  0x3d8ce433bcc8477bU, 0xbd34042fbd9ba9e9U, 0xbd54b7dbbd461c15U, 0xbd8621843cf1d678U,
  0x3d6268ad3d121f17U, 0xbd07535e3ce9f285U, 0x3d92ed3ebd62634eU, 0xbdac48b9bd8a51a2U,
  0x3d276b88bcd7561bU, 0xbd8cb3f23d1e0f6bU, 0x3d3b179a3ca14f80U, 0xbd410a173a11b4f9U,
  0x3db67ec03c91d9b0U, 0xbd5b3e003d5b2828U, 0xbcb81d2b3d5d61e1U, 0xbbfc67eb3d646cefU,
  0xbbcb1b4dbd412dadU, 0x3c5d5c3b3d815742U, 0xbda9d9ac3d8d5cf8U, 0xbd6e5a6cbdbb056fU,
  0xbd36dc13bc3d2578U, 0xbd977015bcefc3eeU, 0x3d3c5402bd5331ecU, 0xbdb32a213cd1de90U,
  0xbce6adb23c5baabfU, 0xbd9606603d0d29dbU, 0x3d6456f63d692fb0U, 0x3be3cc483bd64065U,
  0x3d43ae3cbcf9bf5cU, 0xbd6eb7d1bd058499U, 0xbd15c1cbbd238508U, 0xbc3f6185bd9ad4e5U,
  0x3d9e1f85bd339358U, 0x3d1b8480bd1244f8U, 0xbd348720bda402ebU, 0x3d121ac53a84b91bU,
  0xbd5caa5d3d9e1f5fU, 0x3d625afebd5597a7U, 0x3cd7f1273a91673cU, 0x3c0afce13d9e962aU,
  0xbc85b653bd2d1ca9U, 0xbcaab888bdb372ddU, 0x3d1624403d9e206aU, 0xbcdd5041bd72ab3eU,
  0x3d803327bdb91e2aU, 0x3d66d3683d33e857U, 0x3c1bf6d5bd90735aU, 0xbda68706bce8dde4U,
  0xbd723b2abce0689fU, 0xbdab5c28bd8258d9U, 0x3d9dc0793d2c5939U, 0xb957b2713da91a5dU,
  0x3dabb4d4bda13e43U, 0x3b525a4e3d864da9U, 0xbdc174fc3d795f5bU, 0x3d9e6406bcbbd3d9U,
  0xbd43185f3d52c63aU, 0xb9132d32bd23ccf5U, 0xbdbe24c5bd564bebU, 0xbd2485383d839b92U,
  0xbd1a6b16bd1145e1U, 0xbdbc43423dc9f83fU, 0xbd4245d03daa034bU, 0xbd4d967c3c8a41b8U,
  0xbbcad10cbd613d4dU, 0x3db92d0a3d4ee075U, 0xbcea7c163bb7adf7U, 0xbc58fef63ce1caf6U,
  0xbd8fb1bebd8dc582U, 0x3dbacc8a3dade549U, 0xbc9f9276bd3591dcU, 0x3c316d953da630efU,
  0xbcd0a2d6bd492212U, 0xbc8a56873d92b43aU, 0x3c2608c93d70ccf1U, 0xbd30a8ddbd015e9bU,
  0xbda3501cbdb05bb9U, 0x3c661299bb7f9274U, 0xbdab3969bc9c7c45U, 0xbdabf4f6bd3a8bb0U,
  0x3d3025f63cee2705U, 0x3d38c154bda1ad26U, 0x3d39a9adbc8b0b39U, 0xbd9456513c164166U,
  0xbc6109353cb685d4U, 0xbccaef7c3ba52898U, 0x3d840740bcf9c4c8U, 0x3dc161a1bd0a685fU,
  0xbc803aa5bbe6f0c8U, 0x3da78f273d3db724U, 0x3bde5158bcc57cc9U, 0xbda511a03d85e6a2U,
  0xbd2cbcd03d726df8U, 0x3adc24cfbd5bc616U, 0xbd599385bdf1e8a6U, 0xbdafc033bcd6c020U,
  0x3c8fe0ba3d26e44bU, 0x3dcf234bbda624faU, 0xbcfbcaaf3caf8a62U, 0xbc054aadbb2cd045U,
  0xbd06070abda3b6efU, 0x3daeb6593b8f3d58U, 0xbcf5e1fabd39cdb6U, 0xbdb407a1bd4ae532U,
  0xbd4d39a33d736e8dU, 0xbd852142ba25e611U, 0x3c856e683cca8452U, 0x3d8f50323da1a351U,
  0xbd24a6b4bd5c93faU, 0xbda3b2cb3caf32c8U, 0xbdaeb4d03cbb5a78U, 0x3da3338a3d9ca713U,
  0x3cd1ef00bd91d983U, 0xbdb037053d10d731U, 0x3d8e4a7c3ae42878U, 0xbd352c043d68c6fbU,
  0xbd927c583dc440b1U, 0xbb60e7d43de086c3U, 0xbd29b4763d67f9eaU, 0xbdb022ea3d3669eeU,
  0xbb5598123bf68326U, 0x3c5ca1f13d8f19e6U, 0x3d79a37d3dc10263U, 0xbd158973bd5271fbU,
  0x3bd9d6b3bd38cdd4U, 0x3d07a95bbd038aa9U, 0x3db2399e3d2631daU, 0x3d6de025bcc49711U,
  0xbdcbab473da41aadU, 0x3db7fc66bdac0e46U, 0x3c9ed705bdaca375U, 0xbd395c913db3d0bbU,
  0xbd4585ffbd9ae91fU, 0x3c7a87173c40f2d4U, 0xbce47b613d4b1e56U, 0xbd5ddb97bda90318U,
  0xbd2d99e33be444aaU, 0x3d37a6c5bbe3177dU, 0xbd1272e3bdba7290U, 0x3d619b793d995c22U,
  0xbc316ef83d68cb87U, 0xbdaaed1dbd976f4fU, 0xba9444dc3cf16ffdU, 0xbd96ed533d87c4c9U,
  0x3c98c0c8bc49e6b5U, 0xbd5bd762bd32ed35U, 0x3d35ec1e3d02d9d2U, 0xbccff4333d68d20cU,
  0x3d97e0593c43c230U, 0x3d697812bdd84be6U, 0xbc7f1f36bd604783U, 0x3d5a5fb2bdaa0b6eU,
  0xbd16a259bd917d41U, 0xbd7f772fbd15abc0U, 0xbddeb134bc2e3698U, 0x3cf1b226b9e4d2e1U,
  0xbdaf37453d4f2f16U, 0xbc1293e4bc216314U, 0x3d4077843d622219U, 0x3d124979bd823218U,
  0x3d39ea163cc92a8aU, 0x3ce2ecfbbdfd8fe6U, 0xbdd1d11a3d27ab9bU, 0x3c867302bdac1789U,
  0x3d70c49c3dc75f02U, 0x3da4f6c3bbd75768U, 0x3d41d98dbdb07fe0U, 0xbda4aaafbda6a58aU,
  0xbd085cc53db63f99U, 0x3d84fd3c3d85b57cU, 0xbd765f023c733772U, 0x3d195ff3bd9e81e3U,
  0x3cab397abb4053cfU, 0xbd2cda523ce708b5U, 0xbdbf797a3da0919eU, 0xbd23380fbdb5263aU,
  0x3d0aacb1bd686e15U, 0xbd4bd46fbc02a1ecU, 0x3cb1c8dabd0ca549U, 0xbd437f10bddc809cU,
  0x3acfa71ebc4a9a92U, 0xbcf61d1f3da89f8fU, 0xbbc3e6223b03e397U, 0x3d42484c3d3f5b56U,
  0x3c68693f3d6d59c9U, 0x3d47b73c3c94581eU, 0x3d66b082bdb1d565U, 0xbd20cbb13d513c9bU,
  0x3d136402bddc8870U, 0xbd735f4ebcf58881U, 0x3cd8f20bbd74cd5aU, 0xbd282b303d985759U,
  0xbd666fb4bdadf5adU, 0x3d6ef8e3bdadb324U, 0xbdbea6183d9863a5U, 0x39ab65a3bc1af85cU,
  0x3c89b4fdbcf45685U, 0xbdbb968bbd2f12b4U, 0x3d91ec9e3d05e489U, 0xbd9706b9bd91c8f7U,
  0xbd033108bce188d3U, 0x3d8fb2203d680ab5U, 0x3d621cb0bda3fc8bU, 0xbad9e6cdbdb6264bU,
  0x3db97da1bca3093cU, 0x3d4672a3bd3736eeU, 0xbdaf1bbc3dc95150U, 0xbdb920a53dcc2591U,
  0x3d8cffaf3da14dd5U, 0xbd9775cdbd070359U, 0x3db495053bac7a96U, 0x3d646433bd4c6280U,
  0x3d0f9c47bdb7fec2U, 0xbbefb67bbdb78654U, 0xbda5a502bd385f51U, 0xbcd828a63d7c2cc3U,
  0x3d5a9f5c3d590c46U, 0x3c9e5745bdbbaccdU, 0xbdb482743daff876U, 0xbdc82d953db3125bU,
  0xbcaf6fde3be4a309U, 0x3dafa4cf3d452025U, 0xbd9ebc7bbd1aaf8eU, 0xbd9d9c123bdf6535U,
  0x3d757e6d3d0430f8U, 0xbd1618c13d935821U, 0xbda404f73c05cd20U, 0x3d1a4b613d98f47eU,
  0xbd34bcabbc3f428aU, 0xbc957639bd370d8aU, 0xbd883afabcc80aecU, 0xbc47518a3d83c316U,
  0x3a4c52883cb2b695U, 0xbda730543d1edb7bU, 0x3dacf2d63cff7330U, 0xbd919d0bbd6b8abfU,
  0x3d8cc8903d718fc0U, 0x3cb78bc53c735cc0U, 0xbcaa548e3d074bddU, 0x3d915d0abdc86c35U,
  0xbda294a03d9f1359U, 0x3db3e6bf3c979d13U, 0x3d834ec03ddcc17bU, 0x3c0509d03d0f66c8U,
  0x3beccddf3dbd84bdU, 0xbd7ae954bd539b9aU, 0xbd97200e3da999ffU, 0x3d3696e33cc8d635U,
  0x3d549c643bbf1569U, 0x3dc5227bbdae1833U, 0x3c7b8f453d8c6d7eU, 0x3bf8549dbd5b7426U,
  0x3d4b131bbd1c92ecU, 0xbd9cd8253d4e0f13U, 0xbd425d77bd25bc50U, 0x3c92a0b1bce8b1cfU,
  0xbceb8b9cbdabe4deU, 0x3da36179bdb42e88U, 0xbd812cea3c5308d4U, 0x3d9463b53c97b54eU,
  0x3dab3824bdc3fdc1U, 0x3c7b7ae33d6847b2U, 0x3d3d06aabbbd7d2dU, 0x3a2bc60dbd15144bU,
  0x3d1d50ae3c2db67cU, 0xbd97ae06bb8dc12dU, 0x3d022f4d3bc0cc32U, 0x3d8beab93db420f2U,
  0xbbd844d1bc0ef4adU, 0x3d9c02d93cca1f9aU, 0xbd0fb195bd08b6a9U, 0x3dae8802bbfe7f4bU,
  0xbaf0e7f2bd815a60U, 0xbd7bc97eb993d2c1U, 0x3a5c477ebd296e1eU, 0xbdaec887bd7b0f7dU,
  0xbd82fdbe3b7151b6U, 0xbd9e9797bd5c7efdU, 0xbd8eddf63c25cc82U, 0x3db2bcf83cb21e73U,
  0xbcc2e7773d6bd038U, 0x3dba622d3d8095e4U, 0xbd919776bdc60fafU, 0x3d87d549bdbc757cU,
  0xbc7111e8ba5b1d80U, 0x3d2c3b8ebd66990dU, 0x3d4f58d3bda80182U, 0x3d4265a03d28cfcbU,
  0x3c7edd5bbc1bb685U, 0xbc0f01cabcd8edd8U, 0x3d597937bd947aa1U, 0x3d283b3e3d7f5ab7U,
  0xbd8157683d54d544U, 0x3d967942bdbdc63eU, 0xbcd19176bd33537eU, 0x3d86f937bd4871bfU,
  0x3d104b6dbd0c81ddU, 0x3d1375263d46d831U, 0xbd5d7e6fbd6e5ea9U, 0xbd8b144abdb43d7fU,
  0x3c3bc1dcbd40da65U, 0xbd349159bd51c32aU, 0xbd7dca35bda773f0U, 0x3d96a0193da3c3c5U,
  0xbd04c72dbd0818caU, 0xbd10c7e6bd329e87U, 0x3c27d5a3bd907e11U, 0xbcaa996a3d60456eU,
  0x3da11f75bd8baf1eU, 0x3d820e2d3d04629fU, 0x3ccf18b5bd88628dU, 0x3cf517c0bdac3190U,
  0x3d8ecca9bb41acc3U, 0xbd0b154f3d4af72cU, 0x3d377ff7bd4a2719U, 0x3d64f54f3bf02e25U,
  0xbc032d01bd5f026eU, 0x3ce38fe2bd454c2dU, 0x3d82738d3c41a799U, 0xbc93a2013d96be2cU,
  0x3d898d37bd9c262cU, 0xbdc12babbd86d876U, 0x3c9f3f7abc93b48eU, 0x3ccfac2cbdc2f224U,
  0xbd74c1323d7b2bdaU, 0x3d8de1b3bdb888f8U, 0x3dc399fcbd9949d5U, 0xbd6101d3bbdbe2f0U,
  0x3b25c0533b192f47U, 0x3daf7c6d3d6408b5U, 0xbbadfd633d42f97aU, 0xbc7c232b3ca8a835U,
  0x3d3e3b9dbcecf377U, 0xbd40ae54bcefac23U, 0xbcf7d0f3bd82fe7fU, 0xbc4e626ebcd64c33U,
  0x3c784dfd3daa24deU, 0x3db93a8dbcd19d5aU, 0x3db107453d94d6a8U, 0xbd99f879bc249d75U,
  0xbcf74ca4bdc53546U, 0xbd53eebcbd88a76bU, 0x3d64395e3d26b03dU, 0xbd747e593d0688abU,
  0x3ca1890dbd08bebbU, 0x3d3af85cbd8efb48U, 0x3cb6e9b1bd8acc6eU, 0x3d290904bc95e718U,
  0x3d59a5f4bd801730U, 0xbd4fc6e03d84597fU, 0x3b17fcb4bd6de092U, 0xbcbf8033bd8851eeU,
  0xbdbeed3dbd4bfd29U, 0x3d875a13bd0c1f6aU, 0x3cd0fb253d54079eU, 0x3da7a728bd2fdeb9U,
  0x3d1ad4a03d5faefbU, 0x3c1b47ab3db80e9dU, 0x3d2c131bbda5d163U, 0x3d7cce263cdd0dafU,
  0xbb882c513d74cbd7U, 0x3d0f309bbc32ce87U, 0x3db0dad43d9e0a99U, 0xbd54f556bda61297U,
  0x3bde7008bd519ab9U, 0x3c94b987bcc293b6U, 0xbda424723c62f66cU, 0xbda6ffcfbdb578a3U,
  0x3d525321bd2da479U, 0x3cd236aabca62061U, 0x3c61f700bda7f8feU, 0x3cf2838b3c96ee54U,
  0x3d5c6c003cdc0491U, 0x3d933bfc3d2dfe2cU, 0x3cb30edf3dc45031U, 0xbd03ad7a3da39ac8U,
  0xbdb838eabc3be9c8U, 0x3ca7740d3dad8862U, 0xbd4d4d05bd340071U, 0xbdc8c075bce436f0U,
  0x3d268db63ccc4119U, 0xbc938a87bc962ae4U, 0xbc9074fe3c5ebe90U, 0xbc2976403d69e9c3U,
  0x3d67d3a4bcdb816cU, 0xbd231ad33d7d8766U, 0xbb194773bd90ed10U, 0x3d5802173ca0beecU,
  0xbd826c5e3b5ff52bU, 0xbd12f2b8bdac6f5fU, 0xbc0173f33d681e04U, 0x3d3506c8bd9166e6U,
  0x3ce70e1f3d2fb72dU, 0x3ca54ff13d74ff51U, 0xbd951038bd15b383U, 0xbd31e7e23da9dd4bU,
  0xbd37c6993d5246c7U, 0xbd8c39bd3d514f79U, 0xbdb666873d21ba0bU, 0x3db3d6143d8f9e8fU,
  0xbd28080a3b22dbf6U, 0xbd9ea4403daa7523U, 0x3d490547bc737f1dU, 0xbd81be6c3d9fb907U,
  0x3cc5ae81bdb4cc92U, 0x3d9b0d90bd3d6834U, 0x3bce582cbd89f5fdU, 0x3d16427bbd9c07a0U,
  0x3c42648abd30e2b5U, 0xbd028fe0bd5af261U, 0x3b26dae3bc37a91fU, 0xbd52ec323d57d8f4U,
  0xbdb3c273bda580e9U, 0xbd8f379ebbe766c7U, 0xbd2aeba13c2d992aU, 0xbcf17a063d97f08fU,
  0xbc904a9d3c236c66U, 0xbcf33745bd05e13fU, 0x3da10cfd3d90299bU, 0xbbe59883bc799285U,
  0x3beb06d0bc8ef5ddU, 0x3da5904b3d3b0d1eU, 0x3c7eaafbbd51a978U, 0x3dbb8dfe3da5f8d1U,
  0xbcd5a12a3d79bd0dU, 0xbd3803e43cb0f056U, 0x3d177befbd05a3ceU, 0xbd42f418bd655e2dU,
  0xbda16e0b3c4299d1U, 0xbc8798eb3c925563U, 0xbdbe9f2bbd2e6d53U, 0x3d789657bb14d5c0U,
  0x3d5eaa15bdac04c0U, 0x38af9500bdcdbc8cU, 0xbd3468f53dad3e19U, 0x3da0d8d23d965d8fU,
  0x3c81698cbd97744fU, 0xbc9469ee3d59905aU, 0x3c6819323cb37c29U, 0x3d20db33bd0d14b8U,
  0xbc9079c8bd387826U, 0x3d0a4e9dbd13173fU, 0x3d63a7bd3c99101bU, 0xbcae16943d389e49U,
  0x3cf3270aba9fb17cU, 0xbdcc171f3db7e680U, 0x3dabf198bd57cc00U, 0x3c0388bebc812721U,
  0xbd917aaebd947ba3U, 0x3a858443bc0d5fb7U, 0x3d8f7ac6bda2e52eU, 0xbd3366273c47d845U,
  0x3b3ec95bbc423e1dU, 0xbd9a8bce3c66e2b2U, 0xbbbc4ec4bd110fd6U, 0xbcab17273d60e58eU,
  0xbda824893dbad72aU, 0xbba692743d45afa7U, 0x3dc44306b9f96cefU, 0xbdb3694bbd84b154U,
  0x3cfcb8c9bd2d2504U, 0xbd7321c33d35f5f0U, 0x3d4c5acebc143a89U, 0x3c6e349fbd4e4183U,
  0x3bfd017fbd3a11e4U, 0xbc0f58e83dbea481U, 0xbd180cd03cf0684cU, 0xbd7b192f3cc488ceU,
  0x3cf356083db2867aU, 0x3bfcc723bd8ea532U, 0xbc5dc5e53d1cde00U, 0xbcdf056dbdb5ef32U,
  0x3d944cd3bd66f199U, 0xbc2852d9bd9835e7U, 0xbd0bff1f3db35a37U, 0xbd87182fbcf1d889U,
  0xbda7e016bdbdd5e8U, 0x3da37232bba124e6U, 0x3d1a34c83bcbf7d7U, 0xbd804ebf3d95b95dU,
  0xbd3bdf95bbf7bbe9U, 0x3d9ffce1bb8c6dbbU, 0x3d85512fbd74c402U, 0xbcee78453d62599fU,
  0xbd76916cbd92bb55U, 0xbd1b5965ba8afb2fU, 0xbd03d9b8bda2bad5U, 0xbd3519c7bd069afeU,
  0xbd6364493b9ce2aaU, 0xbd72fb3f3c1a5c99U, 0x3d9464e6bc1438a7U, 0xbc6ab71ebd728e9dU,
  0xbd6acdffbce7d496U, 0x3cfc0c7d3c721bfeU, 0xbd97c68bbd628089U, 0x3d2eebde3d88cc58U,
  0xbda6da003d86ee11U, 0x3c8dc65abd0e3b9eU, 0xbc943975bb0559cfU, 0xbdb3489d3db8cafeU,
  0xbd92c58abd8180eeU, 0xbd219b16ba7e3c8cU, 0x3d9b997abcb96836U, 0xbc2c48303cb5131bU,
  0xbca899013db37fffU, 0x3d1858803d1268f1U, 0x3d215153bdc65935U, 0x3d901fe43d81b9e2U,
  0x3d371da1bd9caafeU, 0xbce38fbebd50da25U, 0xbd933e163d987e05U, 0x3db5c707bdb104aaU,
  0x3d9c5ce1bdd61d75U, 0xbd1440afbb68187aU, 0x3c63c6383cb4a6cdU, 0x3d1d6e7d3d778d00U,
  0xbc8dc9a13db59ad3U, 0x3d08c1423d41fdb0U, 0x3d8e0278bd78d0d6U, 0xbd2cb4493d91dbbdU,
  0x3d24fc5fbd94a7a9U, 0x3d83c6ddbdabecbaU, 0xbcbc8fddbd50312cU, 0x3ca53ecd3ce2db62U,
  0xbd67a218bdc49dc6U, 0x3c47ff6a3c82971dU, 0xbda9161d3dc3e501U, 0x3c93ffb63b81c19cU,
  0xbd9dc06d3d0edb0eU, 0x3cb9b72e3db5e91dU, 0x3dc6483a3da0789fU, 0x3da5ecf3bc4331f5U,
  0x3b8ff5d63d0a988dU, 0xbc38b515bd0cbc9eU, 0xbc57473d3d841003U, 0xbda4cf873d128d6fU,
  0x3dacb26c3b369698U, 0xbdd60ae0bd72720fU, 0x3d33a08abd367d40U, 0x3cd4522ebd75000fU,
  0xbdb974c13c8dc42cU, 0x3d278a1ebc89fd70U, 0x3ca363383d1b6eabU, 0xbc499dccbd0b227dU,
  0xbd8d55053d993364U, 0x395bdeedbd4b6207U, 0xbd33e9483d0c5857U, 0x3d7796bebdc2a22dU,
  0xbcf5b976bd0113faU, 0x3d3c3d5bbd38f999U, 0x3cb9c89c3d1af52bU, 0x3d9a3f473d45f440U,
  0xbc8cc4043d7eab9eU, 0xbc4458edbcf7ff54U, 0xbbcaa14a3c666778U, 0xbba544a5bca1af59U,
  0xbdb5221f3d8e776bU, 0x3b2cb0833cf92b90U, 0xbd9ba89abc9afd7aU, 0x3da774adbcff7f6dU,
  0xbd62d3483d67c62bU, 0xbd8108fb3da7a37fU, 0xbd8ae23f3d990c88U, 0x3da9dd0ebdb8eceaU,
  0xbc4262bcbdba7b82U, 0x3d8a6fa3bc915a47U, 0x3d8165c93d72186dU, 0xbb9df4473d39f429U,
  0xbd0370423d192995U, 0x3dbb1a93bda434a2U, 0xbdad069c3db58633U, 0x3d09bd3bbcc4acd5U,
  0x3cca6cba3d7104e8U, 0x3c61426fbd4126d9U, 0xbd077fb93d088accU, 0xbd47e4803db0f995U,
  0xbd739fa3bd76d4e1U, 0xbbdc6b483d2f3cb3U, 0x3da608e0bdb13547U, 0x3c8e0f1b3cceca7dU,
  0xbcd1ae50bd776ff8U, 0x3c86d2233d056b31U, 0xbd846af73d91b07eU, 0x3cc8f623bdaa2d80U,
  0x3d930ea53bdccbcbU, 0xbd7227c8bda386beU, 0xbd6334f43c6040b7U, 0xbd0002c33ce236c7U,
  0xba9099afbd16a64fU, 0xbd342414bd1588e7U, 0x3d9d5caabd6b34f0U, 0x3d1a94363d0655c3U,
  0xbcd9a0ab3dbd26afU, 0x3c8741133c258ad6U, 0xbc8180f4bc0a9d43U, 0x3cb688bfbd8e06a3U,
  0xbd42c170bd286094U, 0x3bd9f5923dae7e59U, 0xbd581653bd236cccU, 0xbbdb5498bd856d91U,
  0x3d975d4b3d982512U, 0xbc7202303d8d779dU, 0x3a930e6f3d34acb4U, 0x3a8bc355bd88784fU,
  0xbcbf4f9b3ca08150U, 0x3d9ca645bd53393fU, 0xbc1e63e1bd16430cU, 0x3c1f313a3c18d939U,
  0x3d9eb675bd8a523cU, 0xbd3765b8bda98b19U, 0xbdccd5f4bcc8c800U, 0xbd90222abc6c687bU,
  0x3d8747853d8c0c76U, 0x3d10855e3b774c6fU, 0xbd5ac4acbdc1ec30U, 0x3d44b9f73ca387daU,
  0xbdcefcf53d0622f3U, 0x3da1ca70bce82e42U, 0x3cd2bad53d5f1571U, 0xbda8d2c43ce3c37aU,
  0xbd67d627bc8820f7U, 0x3d9b9cadbdbadf51U, 0x3d868159bd660409U, 0x3ba51278bd69f4a1U,
  0x3d958d6a3d2b374dU, 0xbc224bf63de06d91U, 0xbc54c6253d3f91bdU, 0xbd967d0b3db1b130U,
  0xbcaf198fbd8f5017U, 0xbdb8970f3bcd65e6U, 0xbd5174f13d90acd0U, 0xbd87b029bda3f258U,
  0xbd7dd4ff3d565b25U, 0xbd2b872abd8c2eebU, 0x3dc356443ca18469U, 0x3c59a4abbd467d06U,
  0xbd7f10a4bdade102U, 0x3cf712d23cf18477U, 0xbcee2ca43d40cfeeU, 0xbd7a14433cb313f3U,
  0xbd1d89ef3c409e39U, 0x3da38d0fbdd3e17bU, 0xbd54cab5bda2d6d6U, 0x3da38ebabd5f43afU,
  0x3ce258d23d4add98U, 0xbdb48c7c3c2f354eU, 0x3ce727053d7da9d1U, 0x3d716d0d3cb07c4aU,
  0x3da56732bdbe91fcU, 0xbd0c99a03b469fb7U, 0xbcd84c00bc79d718U, 0xbb2432173d7dbea6U,
  0xbda64ecfbd9b6481U, 0x3d7f60163c7a7d0eU, 0x3d7a39bb3db9d844U, 0xbc4c313b3b851a70U,
  0xbd7180213d772868U, 0xbd30e1a2bd857208U, 0xbd61868cbc1a12a9U, 0x3c1ca3edbc2ff65aU,
  0xbd0d1bb8bd8f65a9U, 0xbd3126b3bd5987b1U, 0x3c9f136e3d72fe56U, 0xbc89f1703d37af54U,
  0xbd19b9563a28d3d2U, 0xbd91b1033b3462eeU, 0x3d5702253bf232feU, 0xbdccb8733d5deac2U,
  0xbc612f9b3b2fd455U, 0x3da95ab5bce5ebd1U, 0xbcbfeb6d3cc01383U, 0x3bc71f6cbdd00463U,
  0x3c6baa68bcc64bc0U, 0xbdae8f9cbc50256eU, 0xbd37e9753d88e791U, 0x3d2d399f3d8c2b53U,
  0x3db15bebbd3d31e7U, 0xbc476f113d57cba1U, 0x3d0d74423d6c1954U, 0xbd35e2733d82e049U,
  0xbd8905b3bd0671c1U, 0xbcf4bb413da06d80U, 0x3d235ecc3d9178beU, 0xbcedd23f3d68c230U,
  0x3cb82d4c3cb7dceaU, 0xbcc7ea0a3d7ce629U, 0xbcb116483cd33952U, 0xbdc64c2f3a121917U,
  0x3be23929bd33ff78U, 0xbd976c6b3ca208f5U, 0xbd91955e3b1cd791U, 0x3d708a443dd48af4U,
  0xba9c3d8c3dab89d8U, 0xbd3b77b7bd94c477U, 0x3b57a4ddbda302abU, 0x3cdc62fdbd17a213U,
  0xbd7aaf7f3a19bf82U, 0xbc9de61e3c9c79c8U, 0xbbc293d73d8b456bU, 0x3d035d57bcbe7066U,
  0x3d2075b739d575d4U, 0xbda7cdb23cf6a07aU, 0x3d841f943cb9dc9bU, 0x3d90fac3bdc17350U,
  0x3d2706473d1477bbU, 0xbdd603403d483512U, 0xbda893ba3d372d83U, 0xbda30cf13d22ed5fU,
  0xbcf2df67bda37789U, 0xbd276cfabd467f53U, 0xbd628867bd4da5a5U, 0xbd47f6ef3dd3ef11U,
  0xbc7ccab5bd2cc483U, 0x3cac426bbdc9ea8aU, 0xbd9eb116ba39655aU, 0xbdb426363dc05579U,
  0xbcbcb3c8bd48b5c1U, 0xbda5ea0ebc9c698aU, 0x3d82ed30bd6fc56dU, 0xbc649693bd87b7caU,
  0xbd8fc4453d40c6edU, 0x3d221bc2bd83db89U, 0xbcb65a0f3db17b8cU, 0xbcffbf9d3d4ed2e9U,
  0xbda8134bbd74775dU, 0xbc7bd63f3dd18050U, 0x3db2abec3c82d32cU, 0xbdc345f5bcbcc0f5U,
  0xbd5eeed9bd76b2f5U, 0xbd805eaabd695304U, 0xbc1ed087bcb5eac7U, 0x3d018da03d90f28bU,
  0xbcf7fa643d954bd2U, 0xbd9dab92bda1762bU, 0x3aa9b8febba2241fU, 0x3d41a71a3db1c97fU,
  0x3da3db8ebd5661d2U, 0xbbb710d3bd2fa166U, 0xbc9d8ed8bda899cdU, 0x3db4be53bce386acU,
  0xbd6a7793bdcbaac0U, 0xbd74f8c6bd5c5f11U, 0x3d50832a3d089828U, 0xbd5630e4bcc0ce2fU,
  0xbd1c420539c514b3U, 0x3d4dd319bdc3e66aU, 0x3d47461bbd5a35cfU, 0x3d97c05b3d1abc71U,
  0xbc102b353d637420U, 0x3dbbd2afbccaf206U, 0xbd8cb1ab3ca4b003U, 0xbc6d539dbc47ff6eU,
  0x3cd0b6883d6f6c23U, 0xbd14f016bdb84231U, 0xbd3c41babca91137U, 0x3dae5bb53cbfe83bU,
  0x3c8142f93c3a2004U, 0xbdc6652cbae6c804U, 0x3ba30a2fbc6c3895U, 0xbb0c3d24bd7de695U,
  0x3c8ae5803d5abc23U, 0x3ce85e8bbd1cf51eU, 0x3da0ab7a3cbdd58eU, 0x3c2cf4cabd029a77U,
  0x3d0940f6bd90ccb7U, 0xbd2ac3c63d8a2629U, 0xbc6f91693d37739fU, 0x3dafdbe33d88574bU,
  0xbd8835f1bd73abc2U, 0xbd82245dbd0f0c89U, 0x3c9c2362bd3db4e7U, 0x3d1562fd3d0b9297U,
  0xbda0b3a8bda5c2eeU, 0x3b3e60953d1a7049U, 0x3ce7b737bd70ebf1U, 0x3ce6f5773c908849U,
  0x3c521ac33c0a6d49U, 0x3da87ab3bd93ced5U, 0xbd0621efbc0c2575U, 0xbd7d97e03d9c10c9U,
  0xbd35b5c0bd50a1c6U, 0xbb5b58603cc31b6cU, 0x3db46001bcdca8f9U, 0xbd8c22b6bd915903U,
  0xbdc53c983c04b0a9U, 0x3c9f456cbda060e0U, 0x3d243f903c48e757U, 0x3b4c7e0b3d72b615U,
  0x3d11405dbb4aad8aU, 0xbdab2b93bdad1037U, 0x3c7b77803ce6508dU, 0x3dbb6bf43d0b70e8U,
  0xbc3722a73d8a2535U, 0x3d3dfa433d3b232eU, 0x3c79f44c3d6b3d4bU, 0x3c7963ce3d11d379U,
  0xbc7699a5bdb8631bU, 0xbd648e7cbd8fdf8aU, 0xbd0c307e3cfdd486U, 0xbd72cb2b3c2b4d44U,
  0x3cb463c93d08913dU, 0x3d47424a3d9bfebdU, 0xbcefaaf1bda686e4U, 0xbdc5c4edbd0acc0bU,
  0xbd05beb53b30b109U, 0x3d224208bb949962U, 0x3cd12466bd3b98bfU, 0xbc90c5e5bd9b4d8fU,
  0xbdaaaa57bcc66a17U, 0xbd2bffc7bdbeccd0U, 0x3d28460ebd25c787U, 0xbd0af773bdb71141U,
  0x3c720412bd788e41U, 0x3d2342fd3d6348a5U, 0xbd5b627cbbb868cbU, 0xb9847b863daf8162U,
  0xbd7548b9bcf1868cU, 0x3b035df83dab15c8U, 0xbdb719f2bdc418eeU, 0xbd9235b7bd3e5cdaU,
  0x3d87bb91bc8be9daU, 0xbdc43a12bcb72797U, 0x3c5b43e43db7e3f9U, 0xbdb101d4bd834ba8U,
  0xbd85baec3d17fe9cU, 0x3d924d893d58d6e4U, 0x3d9eb343bd9879e4U, 0xbd22928dbdc211b4U,
  0xbc96b611bd9b1ed1U, 0xbd240c3c3c09a23eU, 0xbd05bc1b3d6456deU, 0xbdc7fe473b8db2deU,
  0xbd153d8abd5a8bc1U, 0xbbc078413c31fc99U, 0x3b8932693d869161U, 0x3cfe74473c85dabbU,
  0x3d9e6fcabdbba9bdU, 0x3bbdb8bfbd752ce6U, 0xbda42e3b3d5b2643U, 0xbdcdc5263d4012b0U,
  0x3bf115f83a6a41e9U, 0x3d487f16bbc6ca3eU, 0x3d77c8f03d8a32ddU, 0xbcd0d3d1bd736c63U,
  0x3c6dd0c13d3203f2U, 0x3cb9b0653bc0eab0U, 0xbdab74a6bcdc76e8U, 0xbc9000f1bd08574eU,
  0x3d07aa143c1886e6U, 0xbc87c2e43ce5a943U, 0x3d78cc71bc14a589U, 0x3d14fb22bd909205U,
  0xbcbc11403d997e27U, 0xbce538e83d235122U, 0x3dc5f30cbc0f8b91U, 0x3d5cc39c3b414169U,
  0xbd9da67cbd2abcd5U, 0xbc1c2c36bc440c22U, 0xbd390bcf3d666e57U, 0xbd1a12ab3db0939dU,
  0x3c79a30c3b45f614U, 0x3c12f2303b5cd174U, 0x3dbba3fabd8c0e97U, 0x3c5acf4bbd0326efU,
  0x3d5f5bb43d1afbb7U, 0x3ccd0cbfbd47c583U, 0xbce1b5983d27fd06U, 0x3c56ba3e3d16e388U,
  0x3cc6f4e4bbdf0ae0U, 0x3dc047373cd421b5U, 0xba8a99b83af27d8aU, 0xbd1c74c33ccf3a76U,
  0x3dae87f7bdbe2bc5U, 0x3d74861d3db224e8U, 0xbd8a4153bc3ce11aU, 0x3d11d3373d130f84U,
  0xbd5f04cc3dc048d9U, 0xbda88cf03a8f2698U, 0xbcb7039d3d468f1fU, 0x3daafd7b3c9b4746U,
  0xbdc58da6bd8d6daeU, 0x3c2a1bfc3c0f9e0bU, 0xbda9ad3cbccf1ebeU, 0xbd7ce922bcacf7f0U,
  0xbd9c3776bd781ba7U, 0xbd9617233d3faa60U, 0xbd537a213d8fbb27U, 0x3ce11a32bd9b4eebU,
  0x3d92cf223cae0d4dU, 0x3db26f34bd8483b4U, 0xbdb2ee4fbdb4f012U, 0x3da751113d230c0bU,
  0x3da3fc873cc8cb2bU, 0xbd996b6cbdbd59f1U, 0xbbf4cc233db91729U, 0x3cf5ee2d3c7875b3U,
  0xbc204aacbd935851U, 0x3d9efdf83cb7d0ceU, 0x3bfdb8853d768a61U, 0xbdbed4e7bd53abc7U,
  0xbd8a0a913d778e79U, 0xbd9bcb14bd98b3c4U, 0x3d228f963d248278U, 0xbd496b063d345503U,
  0x3cedfcf73d8a07adU, 0xbd08df72bdad90faU, 0xbb9526f73cef1c86U, 0xbda40d6cbdb46ae0U,
  0xbda3c6efbba6e7beU, 0xbda2e01e3d31878cU, 0xbd7dc274bdb75afbU, 0xbd9e2febbd9d99cfU,
  0x3ba88f0ebd59e3fdU, 0xbcb4e084bd21f15eU, 0xbd2c55043db6d2e2U, 0xbd83eeb03af3abd2U,
  0xbd033ad53d409141U, 0x3c6d8738bda57a33U, 0x3d989be3bd90c110U, 0x3c1faa5f3d98afd8U,
  0x3d61bc92bde21069U, 0x3d0cdc9bbd68287fU, 0x3d496021bdb89c8cU, 0x3d8d93ebbd2a7262U,
  0x3c716f80bd8dd048U, 0xbbb8601f3d8d8ae1U, 0xbd662a453d60f5dbU, 0x3ca4303bbcfc40d9U,
  0xbd0ce63bbcc9a9a3U, 0x3db8eea5bc8af3a7U, 0xbdb18c09bd944603U, 0x3d7aaf353d8a2af7U,
  0x3ce98f44bd72c45cU, 0xbd6dfa1c3c1d57c0U, 0x3a8af8a83d838eb5U, 0x3d291d62bd5ea29cU,
  0x3ca33523bd2f64caU, 0x3ae3e3dcbc7c365aU, 0xbca1e8bb3dc33737U, 0xbd9f6390bd8baed3U,
  0xbc0e361abd158b68U, 0xbd195489bc9f8476U, 0x3c28dc0e3dc4a417U, 0xbd02620dbb34e842U,
  0xbd1413883d9e2b10U, 0xbd505161bda634ecU, 0x3b984fffbd6c8dc9U, 0x3d58fea13dc005b7U,
  0x3b8f2316bd4474a4U, 0x3b44038abbce19b3U, 0xbda6f1073d0bb940U, 0xbb3a5368bd7de5dbU,
  0x3d93a338bd84d371U, 0x3c988944bc1dfc0eU, 0x3d1438cdbd6a34f4U, 0x3d06bff93cb17802U,
  0x3db022efbca5d4ddU, 0x3adc0d87bdaf4e93U, 0xbd90d5efbd759b12U, 0x3d9aa0a7bd818bf3U,
  0x3d285cbcbcb34516U, 0x3d87a3cebc6a269fU, 0x3d21146fbd8e511bU, 0xbc1fc20bbdba601bU,
  0xbbf7f9e03d8d8ff1U, 0xbca95b6a3bfe9f61U, 0x3c97e253bd7a40a3U, 0xbd2946e03d8392b9U,
  0xbd255309bca787a0U, 0xbcf6d0ad3d62b0d4U, 0xbd6b27353d11fb9cU, 0x3c31962a3d655d3dU,
  0xbc2b46d3bd8c0b65U, 0x3da27be1bdc8762cU, 0xbdb5281ebd736a22U, 0xbd91db70ba6f5e6cU,
  0x3d8f8eb93d51f6a8U, 0x3d1ceafebcae07b2U, 0x3d8f04a3bc7ace3aU, 0x3d87aa083cf45736U,
  0x3d95c766bccc1b45U, 0xbd0449093d9bcbcfU, 0xbd92a8f33d989308U, 0xbd913687bd8c69feU,
  0x3a0b033a3a3b48dcU, 0x3d6c01e5bd4339e0U, 0x3da45c1a3d299f56U, 0xbd057bd33d2f8bbeU,
  0xbd16b39c3d65d088U, 0xbdbe4122bc978611U, 0xba6ea748bdbdae2dU, 0x3d308fdebce6ce44U,
  0xbd45aa2dbdbf8522U, 0x3cca9ddcb96c45e0U, 0xbda9f301bd42770cU, 0x3d85de7cbca4aa43U,
  0x3d34d9803da442fdU, 0xbd391201bb8969a8U, 0x39cacac7bd59bafbU, 0x3cb1e8113d36a1feU,
  0x3c5229df3c3606a1U, 0xbc72ed7dbcb2a073U, 0xbd617ff4bca32987U, 0x3c50a42c3d542083U,
  0x3cdcbd19bd18076cU, 0x3c51abacbc9af89dU, 0xbd1e3f483d69f5abU, 0xbc38016f3d441b1bU,
  0x3d9a8bccbdaea2ffU, 0xbdc80f693d87f4dbU, 0x3d933d04bc934c35U, 0xbc8f52b23d89362cU,
  0xbd14957d3da3ee31U, 0x3d868fa9bd273d2aU, 0xbcdaf864bca1a1a5U, 0x3bf460103d0e8790U,
  0x3db935043d09518dU, 0x3d16cee83d980da1U, 0xbdc27a4f3d0b5a44U, 0x3d3a188c3d582209U,
  0xbc7b1e863db0724eU, 0x3d0f77b5bdc30fb1U, 0x3d6a59e7bccbb62fU, 0x3d7f28d03c28453dU,
  0xbc981cd13d7fbd23U, 0x3dac5a923d581679U, 0xbdcb6cc5bdcc8e12U, 0xbcb72a433dad43bfU,
  0xbd55b6a0bdc3d8beU, 0x3d0d06bcbbb85484U, 0xbdb98504bd953a9dU, 0x3d57a8553cabb77bU,
  0xbdb58f3fbda82b99U, 0x3bad80123daf190aU, 0x3d5062d8bd59f3adU, 0x3d6c69a23c058ce2U,
  0x3d93a8ac3cdb0a5cU, 0xbd5d3a7abd42d820U, 0xbdd29b47bbd3bdfbU, 0xbdbb5b4f3da8dfabU,
  0x3cc70ef2bd27f9ecU, 0x3cc116d0bdc37cb6U, 0x3d3d7c34bcec1103U, 0xbd034266bbc2216dU,
  0xbd9b59ca3dab6e89U, 0xbd6baef83a0ddf64U, 0xbc8273523c68ac8fU, 0x3db2eb083b803183U,
  0x3c44aa62bbc24e6aU, 0x3d910f3dbdbdd53dU, 0x3ba468bb3baa611dU, 0xbc940f3a3d93f1b9U,
  0x3c16d962bda946deU, 0x3cff79e0bd1ce167U, 0xbd326fbfbdcc081eU, 0x3d423725bdc277faU,
  0x3dbc09bcbb2ff3f0U, 0xbd8c20763d6c6d60U, 0xbd3e90f83c66f555U, 0xbd09e78cbd1b2b5dU,
  0xbdb8a27bbdac4a8aU, 0xbd800fb13bc38936U, 0x3cbeaecf3d885dc0U, 0xbd1813143d2ed5acU,
  0x3d0e25e93d8a7da4U, 0xbd11ce013daf81fdU, 0x3db955e83cb7fe3eU, 0x3c5d832bbda68eefU,
  0xbc8db16abbf91083U, 0xbc6ddecf3d978e14U, 0x3d29068abd9edc69U, 0x3d17784d3d83208cU,
  0x3d9126553d714ae8U, 0x3c76a680bbe6622bU, 0x3d0366283cbfe024U, 0x3d8b20063c138c97U,
  0x3cfa86a13b73272dU, 0x3d2c39acbb051f24U, 0xbc2ff7b1bcec69f7U, 0x3b778744bdd972b1U,
  0x3c752b773a111693U, 0x3d700a173d60355fU, 0x3da1d9743c70325cU, 0xbc73db26bd4198bbU,
  0x3d91155e3d04638eU, 0xbc272d97bcfacc63U, 0x3ca0c99b3d90cc5fU, 0xbc2658d0bbe05dc3U,
  0xbd8546c0be2271c1U, 0x3c0da128bc247cbeU, 0x3d2dbc753cd8ed21U, 0x3d9e42b13d7a8a52U,
  0x3da9cc613c85d9c8U, 0xbd67e25fbd7dcbb5U, 0x3c305d153d5be501U, 0x3c0122cebd88c1f3U,
  0x3d99349b3d4a9b17U, 0x3d605be2bd6e4f8cU, 0x3cbc6219bd8fe76dU, 0xbd9d71bb3d34269aU,
  0x3c941b683cc17927U, 0xbd5872b8bd333128U, 0xbcc8e892bd16c18bU, 0x3cb836a63d84fcbaU,
  0xbdbf29133d0e8c9eU, 0x3d816f09bdc76b1dU, 0xbdba1a5a3d44f42eU, 0xbdcb6f143b915c18U,
  0x3aa7053f3da363f7U, 0xbd3fa657be038994U, 0x3d46d556bd7b8930U, 0xbc2c1b13ba1bd11bU,
  0xbcd7a79ebc44de0cU, 0x3d4149b4bdac1ffcU, 0x3ce1b198bd85f43eU, 0x3b810b103c5069baU,
  0x3d7954a03d013d6eU, 0x3d9a23bb3d286dccU, 0x3da074dc3d83de5dU, 0xbcfdc8383d2ef1dbU,
  0xbd701ffeb9288c2dU, 0xbd3cb771bda29b7dU, 0xbcf6a3babd66d7e1U, 0x3db2be2ebb106a66U,
  0x3d1c464abdddaad0U, 0xbd7eb4ee3db7b357U, 0xbcaae49b3d6d6e51U, 0x3dac7f1cbcb9855aU,
  0xbb3f5861bba73900U, 0xbc3be0bbbcc62ea9U, 0xbc932ae0bc43a8b2U, 0xbd89f2573d9cf045U,
  0xbd8fdc4c3da32ca2U, 0xbd97d9853cc0a820U, 0x3ca99375bcaa2424U, 0x3d2acd4fbd831715U,
  0xbcef43d13c18177aU, 0xbcc8e9aa3d82cdedU, 0xbd75ac473c1b923cU, 0xbd80a28d3cd7da27U,
  0xbd8c79c5baa49efeU, 0xbc03bcd0bdbadf87U, 0xbdb511593ca015d4U, 0x3d85ddd03b279c15U,
  0x3d628316bd30b361U, 0x3b4cd775bb728e2cU, 0xbd740b74bd3bfb60U, 0x3cf931aabd76e8b3U,
  0x3d930dd5bd4db78cU, 0x3d0b4d3e3cd2ac16U, 0x3d8252203d27cfb7U, 0x3d91a44f3d7939f3U,
  0x3c9f3773bd1e9ae8U, 0x3c4f7288bab33919U, 0x3d0cbcb8bda1f1bfU, 0xbd9d585f3cf995a7U,
  0x3d8b5997bdb41a76U, 0xbd713661bdea6805U, 0x3d9dc3b73dafb24aU, 0x3d888370bcbd6af6U,
  0xbc9b4dc6be2a472eU, 0xbd74dbb53d25979cU, 0xbb83ddf93d4f35a7U, 0xbd76b3033d058b78U,
  0x39d0d7143c8e32a0U, 0xbda43c92bd0e67f1U, 0x3c822abfbcaa2267U, 0x3d130ea4bdba0a3cU,
  0x3d935d15bd53da79U, 0xbcb5cf3aba000b07U, 0xbcd31548bd46e880U, 0x3d7efda13cb85cdbU,
  0x3d0745823cadbd4aU, 0x3d0e15993b9e4f03U, 0x3dc55f7e3d252ac2U, 0xbd075c39bcd0ee86U,
  0xbd35cd393c7011f2U, 0xbcb47f473c86ae10U, 0xbd67ab8abc389163U, 0x3d9c74c03c33b543U,
  0x3d7884fbbc8a9a27U, 0x3cb1d2313c9383caU, 0x3da68b6b3db1f258U, 0xbccc376f3cf5697aU,
  0xbd9afa45bdc31b5eU, 0xbc41eeadbd7046dbU, 0xbdd482043d446300U, 0xbb64e76ebd0768adU,
  0x3d9059ff3b2fbad7U, 0x3c4030693da76c0fU, 0xbd5eb8763d217c6cU, 0x3daa8bf4bc6be94bU,
  0x3d147adabd51ce2bU, 0xbb3359873d8941b9U, 0xbdb945bc3d271031U, 0xbd9c090ebd71a6d1U,
  0x3d85e0d03d4e54aaU, 0xbdbb159f3d149ea9U, 0x3d8d1d1bbd3fedbaU, 0xbda56148bd69afe6U,
  0xbd2a09393bb6ca93U, 0x3c2f6dd13d286a22U, 0xbdae75ebbdbea4a2U, 0xbaea79ea3d54818cU,
  0xbd28d9e6ba63c186U, 0xbd9542f03d8151fbU, 0x3c3bc8f83c91c986U, 0x3cee8ecb3d85a539U,
  0xbd5bfb6d3d2f4a99U, 0xbdbece963bdd9030U, 0xbda55a0bbd9d0391U, 0xbd77a0cdbd978367U,
  0xbc7644c63d09c71eU, 0x3c08e4793db10b38U, 0x3dae72423d62e4eeU, 0xbbd91149bd026c8cU,
  0xba5bc674bd26532dU, 0xbda21ef5bd845f94U, 0x3d83500fbcf431faU, 0x3d100c31bc5061d1U,
  0xbd82ba56bdd45785U, 0xbd3417d43d0d3790U, 0xbc6484803d874858U, 0x3d25cc68bd806348U,
  0xbd2519333d85393dU, 0x3d8e98f5bdb193d9U, 0x3d32707b3d9c39dfU, 0xbd6b48b9bd099bddU,
  0xbd3c7f7d3c026de9U, 0xbd5f016cbdd21331U, 0xbc3e8589bd3aa01eU, 0x3da575fd3d7dd8fcU,
  0x3d05c204bdfa0a9fU, 0x3c750f003baa8078U, 0xbd414656bb4607b8U, 0x3dbdf09c3c113aa4U,
  0xbd082d25bb743d6cU, 0xbda4e589bdc3e289U, 0x3d0fbc48bd83b8ccU, 0x3dc024c73c241bb8U,
  0xbd06baf03d2fc398U, 0xbd172339bc40c212U, 0xbd8ee128bdbfcdd2U, 0x3d34a0cfbd4dbc77U,
  0x3ca14a74bc772a58U, 0xbdc681043c65f239U, 0x3b18e7d5bd4d4b11U, 0xbd0c776c3cc27ee8U,
  0xbdb4123ebd5c7e1dU, 0xbda9d82f3d89abd4U, 0x3ae571613d5503aaU, 0xbd80e0f73d0edb34U,
  0xbcbe69debb98704eU, 0x3cc77f923bb8590bU, 0xbcb44e763d743837U, 0xbdc2106e3b436589U,
  0xb9a5ae673d43aeb5U, 0xbc804ad23d578213U, 0xbda53826bc9726a1U, 0x3d958fdf3c6a4059U,
  0xbd89e47abd6e5e1dU, 0x3c9b53d1bc1bb6d6U, 0xbc5d9d033c6a598eU, 0xbcd61f40bdb92c68U,
  0xbd865bb1bdaf57c1U, 0x3d1f362ebde354a9U, 0x3d2e89563be581a9U, 0x3cc961363d9c0030U,
  0x3b2ba958bd8873c6U, 0x3d1fbddebd2f7b7eU, 0x3cbdb3873b0f71a8U, 0x3c89481a3c3838acU,
  0xbdb08fbb3da7e104U, 0x3c5ef0633c50da0cU, 0x3d3510f63c8d9ae2U, 0x3d61ab18bb37420fU,
  0xbcabcd823cd66545U, 0x3c9afb47bceb9d84U, 0xbcbe557abdb019dcU, 0x3caa1155bcbfe434U,
  0x3d419cafbd30d1c8U, 0xbdaf3fb53db50da4U, 0x3d853431bdb942c4U, 0xbdb46fb0bdc88747U,
  0xbda9d9ffbc58bba8U, 0x3c4f19a4bd9416c1U, 0xbcc1ddb5bcdecd11U, 0x3d22b4abbba3965cU,
  0xbdbdea633d66e574U, 0xbbedbdcebc9c6b38U, 0xbcc1bee7bdb87ec4U, 0x3db18b503d9a6d34U,
  0x3c7a050bbdb7ad98U, 0xbd928d233daf3eccU, 0x3ce8ac3a3c0851d0U, 0xbc70aabb3d603263U,
  0xbc873519bd0782b3U, 0x3c20bb883dab50e2U, 0x3cbecd843d8f713aU, 0xbbdd6a17bc855a52U,
  0x3b98d91b3dc64265U, 0x3d6b39e33cbf0cbcU, 0x3d98f7043c2d5d32U, 0x3d555e273da31bd1U,
  0x3c4e78aabd13357bU, 0xbdb7d946bd6a2223U, 0x3bdf4b593cf5b828U, 0xbd5240d23c71f07fU,
  0x3d191328bc8f0eaaU, 0x3ca6c969bc2338b9U, 0x3da785d8bd0716a5U, 0x3d248c02bd56612cU,
  0xb9b9ae3cbd0bf327U, 0xbd7a5495bd47f72fU, 0x3c38a1503d87fa9dU, 0xbcc1279a3da3b793U,
  0xbdb4a14ebd33c332U, 0x3dba03c5bdb101b8U, 0x3d8e5b18bdbf8736U, 0x3d4be1ad3cf49acaU,
  0x3d06a6c8bcd1ce05U, 0x3b9f2b91bdb84b97U, 0x3d6a13503c0be16cU, 0x3c418f24bd77b090U,
  0xbd2bdac2bcbd63c2U, 0xbd96e4ca3ce285d2U, 0x3bb58697bda282d3U, 0x398a325dbdbfa9f8U,
  0x3d413fdf3c456547U, 0xbc3f5180bd752e41U, 0xbd7129153d9a1c9aU, 0xbd8cc7c73d74bc05U,
  0x3c974c25bda70c9cU, 0xbda49c77bd8daf65U, 0x3d4195df3cbaaa57U, 0x3d86da10bcb77940U,
  0x389c32bb3daf9e26U, 0xbd036bc33d02b87cU, 0xbcfab32d3da9c611U, 0x3d9bd84f3d91a5a0U,
  0x3d98fd91bd8aec40U, 0xbda0bcbc3d7c600bU, 0xbda41f39bc9e9191U, 0xbd937ec8bd0348e9U,
  0x3d40d223bcc8d6c8U, 0xbd0fe45c3c1dca5eU, 0xbc7c2a36bd1fb6cdU, 0xbd9dd4b8bdc9662eU,
  0xbdbfd8133ceccba1U, 0x3cde49b13d4b594bU, 0xbd1fdfdbbd9a2680U, 0xbd7b9f9a3c62f186U,
  0x3da985debda74c3aU, 0xbc8f468a3d07bf76U, 0xbbc4047bbd8e01acU, 0xbd83a1f5baaed6c0U,
  0x3ca37cd0bb3fa99bU, 0xbca3ee803d8fbd61U, 0xbd31a56fbdb4deabU, 0x3d81cdda3dc55b1bU,
  0x3da9d88f3d791f7aU, 0x3d213540bd860f89U, 0xbd5f5ceb3dba4e5fU, 0x3dbc77a6bd5739c1U,
  0x3d326042bd870c38U, 0xbd8037d93d9edd90U, 0xbb3541883c883fc6U, 0xbc2b0db63d86a8baU,
  0x3d9158cb3d85896aU, 0x3d2020133db413fdU, 0x3d96a306bd88d819U, 0xbaf5c3ccbd879533U,
  0x3d0869d7bd1556b2U, 0x3d0f9222bdb23ea2U, 0xbd528b1d3d4417a3U, 0x3d6376533d5740c9U,
  0xbd8bb2c33c6dfc02U, 0xbd3e0b91bd45502cU, 0xbd317a173d92e81cU, 0x3bbadddfbdb2c0b2U,
  0xbd5befaa3b57ac5aU, 0xbd3935fe3b1fa319U, 0xbcba83aebd3f49d6U, 0x3ce008ebbd8311eeU,
  0x3daee957bd8ff5d6U, 0xbd527c523dd4b8aeU, 0xbd61f20c3d52343eU, 0xbdc52b47bdad0f47U,
  0xbd529df5bc5d2180U, 0x3d6db7d2bcecf5e2U, 0x3d4523dabd3033edU, 0xbd99785a3d63fd45U,
  0x3d98de50bc53906dU, 0x3cfe8b0abd824ce6U, 0x3da16089bd5e78a1U, 0x3c21cf503b1146d4U,
  0xbb4a3aa3bdbd5093U, 0x3d4b18a6bdb81668U, 0xbd77ab66bd9863c3U, 0x3c6c3da53d27be79U,
  0xbdb4b6b4bc5a7922U, 0x3d30b72c3d1c53a6U, 0x3cf530b13d2edee6U, 0xbd4674923ced1fb7U,
  0x3dbdb5233d8a5bf4U, 0xbd3c8fa7bd6064eaU, 0x3d2926f63cce1ee8U, 0xbc0d11d53da79c31U,
  0xbdbf48103d5b7ec8U, 0xbd1c4fa0bd9da94bU, 0xb9e3ed3dbdc8d325U, 0x39e87b853d2cce74U,
  0xbcbbb6f4bd430cc1U, 0x3d0505913d0ccbeeU, 0xbd99350fbdcc7febU, 0xbbe0cc14bda57b49U,
  0x3d6e98b23ce7704fU, 0x3c7c3efa3d0bee50U, 0xbd297cf73cb7920cU, 0x3d4a45683d1c3a7dU,
  0x3db20495bd10b7ceU, 0x3c728ea3bc332122U, 0xbb0c8b81bdc94b2dU, 0x3bb1dc87bd0fb011U,
  0xbc948dc73ccbab7bU, 0xbd5f27d8bc1487e5U, 0x3c8caa123c7e4b77U, 0xbd15c228bd86f611U,
  0x3d97aac3bc2ee787U, 0x3d9ceef63dad27c8U, 0xbd44f4783d774bb1U, 0xbc4cf74b3d621a95U,
  0xbdb2bdc93dab5919U, 0xbd98d9ea3d1988daU, 0xbd86dee1bd8ea5a3U, 0xbd0c7e283d36c65aU,
  0xbd55ceb2bdaeec76U, 0xbd39b6263d811edaU, 0xbdbf3079bdb570a3U, 0x3d43a44dbccbc7e8U,
