
/**
  ******************************************************************************
  * @file    cnn_data.c
  * @author  AST Embedded Analytics Research Platform
  * @date    Thu Apr  7 16:47:00 2022
  * @brief   AI Tool Automatic Code Generator for Embedded NN computing
  ******************************************************************************
  * @attention
  *
  * Copyright (c) 2021 STMicroelectronics.
  * All rights reserved.
  *
  * This software is licensed under terms that can be found in the LICENSE file
  * in the root directory of this software component.
  * If no LICENSE file comes with this software, it is provided AS-IS.
  ******************************************************************************
  */
#include "cnn_data.h"
#include "ai_platform_interface.h"

AI_API_DECLARE_BEGIN

AI_ALIGNED(32)
const ai_u64 s_cnn_cnn_weights_array_u64[ 31370 ] = {
  0x3d1a59873d0a78d0U, 0xbe1b7def3e0739c5U, 0x3e1457f6bde6ae44U, 0x3d7c1b1f3e19b0d2U,
  0xbd21cffebd8f6876U, 0x3d9914cb3da39167U, 0x3d6956ba3e1e274eU, 0x3d77b076be528e80U,
  0xbe4fe00b3db43c4eU, 0xbc0301bc3e0b0548U, 0xbe00d1b63dcd2e88U, 0xbd22deccbb8d3f2dU,
  0x3d49a5c63c64132bU, 0x3e06708e3c002da7U, 0xbdc4eaf73ce09b07U, 0xbe154d7e3d95452bU,
  0x3be393273e2b4646U, 0xbdf270553d7e84f6U, 0x3d86ce2cbe0b43b6U, 0xbcfa2c743dfb82dfU,
  0x3dcca3273d939ed5U, 0xbdd5b352bd89ca5fU, 0xbdeea1933d0f7eb2U, 0xbe19d8be3de922bcU,
  0xbd93024f3cc8ec18U, 0xbd0ecd94bd69b423U, 0x3cfc491c3dde4fccU, 0x3e240780bda49522U,
  0xbd2614e63db82db7U, 0x3db6e7e33e1f03d2U, 0xbc9674983dbbc2a4U, 0xbd1c648cbcc15348U,
  0x3db014a83e0e7576U, 0x3da2e7aa3daba61cU, 0x3e0126aabb654c40U, 0x3e02a9d6bcb7b620U,
  0xbc67c1aabb220640U, 0xbd2e7bcb3d8041ecU, 0x3dbb63b1bdeb8b7cU, 0x3ccbc27abdeae652U,
  0xbba66a8b3dbf7b7fU, 0xbe1acd2b3e0f234dU, 0xbbd348633e395e8aU, 0x3e24869dbde21416U,
  0xbc163ef9bdb062b0U, 0x3e1565603cf1fad9U, 0xbe27e3fe3cf6b0e5U, 0x3daa0830bd8d6ee7U,
  0xbd98a8033dcf5121U, 0xbdaab9cebd80c3bcU, 0xbdc8d8213d537032U, 0xbd98a150be3ff2efU,
  0x3d91e855bdfe5c9fU, 0x3e62da513e2c72acU, 0xbe1bcd70be049529U, 0xbe36ea9a3e4a62d2U,
  0x3b0d6c3c3d68ba24U, 0x3da45551bdf15215U, 0x3dbd8ab53d638438U, 0xbe0ed80d3d499008U,
  0x3ddcfe98bdd1ae69U, 0x3ddb1089be2f57a6U, 0x3c6fb09b3d8fff02U, 0xbd728c363dd0632cU,
  0x3aa9f7493cdc5b4fU, 0xbb2b288dbc93ce45U, 0xbe06c7ed3d88496eU, 0x3baddcebbe489863U,
  0x3de5e2723dc8b0d8U, 0x3d9a9925be20b2dfU, 0x3e09c050bdccd7a7U, 0xbd8eb721bda04f09U,
  0xbe15b7c33a96b0b8U, 0xbcfaea2a3dfa28d6U, 0xbc6272873db83c0aU, 0xbe19cd1f3e14a90aU,
  0xbaba80dd3d5829dfU, 0xbe2b0e8b3e3daf73U, 0x3cbc85b9bc3320dbU, 0x3e3a5f04be47f530U,
  0xbbe4302f3ccbb50fU, 0x3daf4697bdeb5b23U, 0xbe134af43ddfc545U, 0xbae3a4bcbe002ce7U,
  0x3dd7fb2dbd6c6013U, 0xbdc0630d3e0711aaU, 0xbcfc157e3e3df527U, 0xbd407dd6bc92a605U,
  0xbe36d6863e174730U, 0xbe0e78703dd727aaU, 0xbd098725bdb87f1aU, 0xbdb2f2d53e1fea98U,
  0x3d82610e3e079cdfU, 0x3d16c5983da6e75bU, 0xbe1a4d6abe157ad8U, 0x3dddb0d83d30ba02U,
  0x3e1b6508be0e6f0fU, 0x3d4928b13b59f220U, 0x3d533d1dbd9374e3U, 0x3e2b7f13be2325fcU,
  0xbd9a40d23d54e29fU, 0xbd82290fbcbcbb2aU, 0x3e0760ebbd367ca6U, 0xbdc5e2863e0ff768U,
  0xbc537846be2989b6U, 0xbd0a6760bae80406U, 0xbe0f0d083e27b55bU, 0x3b8059eebe0b4d9eU,
  0x3b2199f838c9d2cdU, 0xb8d26907ba219bd3U, 0x387ed4443aa54093U, 0xb78ba604U,
  0x3a3675c33b3beddaU, 0x3b6cba07399d6647U, 0x38d0ef97bb16290dU, 0x3a259c513ae379d6U,
  0x3b26f4d83af6b71aU, 0x3b6eb9cc3a0bceeeU, 0xbad1979439397b61U, 0xbbcc1da33a507bb6U,
  0xbd52e6933db89534U, 0x3cfef8ab3c956070U, 0x3d599cc6bd5323d8U, 0x3d4b7e123d99dd6fU,
  0xbdc356d4bc6c5fd7U, 0xbc9723d23a8e494eU, 0xbdbbdc72ba15106eU, 0x3d16bc76bdaecd80U,
  0x3d8cbed63d857dfcU, 0x3d5545a8bd3aa4aeU, 0xbcf2506a3d1b75f5U, 0x3d27d18a3cfab6f2U,
  0x3d3e7f963d009746U, 0xbdb7a3bdbd774e18U, 0x3d99c4bb3d687e7cU, 0xbd4e68223d595122U,
  0x3d8b4c72bd2d0098U, 0xbd5729853cecf16aU, 0xbdaf8102bc169e20U, 0x3cbc8b9f3d7b3843U,
  0x3d99c487bd3721b3U, 0x3da691efbcd40bdfU, 0x3d57f0ebbd09b691U, 0xbc621beebd11d538U,
  0x3b4f0471bd2adb01U, 0xbd5d13a33d930cdeU, 0x3bea265abb205341U, 0x3d1edb523d4a8df2U,
  0xbd6a11f03d025314U, 0x3d455b243da6f535U, 0x3dc37161bda501abU, 0x3d92a015bdc070aeU,
  0x3c4d60f2bd9e8351U, 0xbd8565e0bce845c2U, 0xbd61527b3d49defaU, 0x3d8a0cf1bd265976U,
  0x3cdc6d4b3cfbc98eU, 0x3cc125a6bd6fab35U, 0x3d8280fabd4ea479U, 0x3d1b45febc710db5U,
  0x3dc0e412bdc00cf4U, 0xbc84a6c7bd8e69d9U, 0xbd91d9763bffd357U, 0x3d934764bd4b3d8bU,
  0x3cf071843dac4b6cU, 0x3d29be7ebc7247acU, 0x3b859949bca5bfa7U, 0x3cbc53ac3ca0cb40U,
  0xbda9cff9bdbd33a7U, 0x3db8d6b2bd24cc9fU, 0xbd707260bd608473U, 0xbda8f078bdab504cU,
  0xbd838f913cfb9a08U, 0xbd7155413d82178cU, 0xbd8d50533ceb8583U, 0xbd52c0563d85a9afU,
  0xbd09c3c5bc097c13U, 0x3d236d25bc9475ebU, 0x3960284cbd680fddU, 0xbd297d9b384bc70bU,
  0x3d6d72923db2f717U, 0x3d895db6bda55a79U, 0x3dbc1bcc3d04aeb2U, 0x3d4aa9fe3d97c7e0U,
  0x3d9da67e3d12d344U, 0x3ca4e58e3d564af9U, 0xbcf46c4f3c9eb925U, 0x3da5eb3dbd02f804U,
  0x3d9cb5d6bd01e7a2U, 0x3da12dfa3da07f39U, 0xbdb2eb263d286586U, 0xbdcb74d4bd288228U,
  0x3d93d4f13d403e3aU, 0x3d30ec073c9aca18U, 0xbdba8bc9bc2d8c9eU, 0xbbc5d810bd2568e4U,
  0x3d7719bebda9937bU, 0x3c8d8e50bdaa4fa8U, 0xbd9e191abdb5eabfU, 0xbd9ddd4dbd992b5bU,
  0x3d630d003c93c03cU, 0xbd9bad0e3dbff2c1U, 0xbd85913f3d1d16c3U, 0xbd104d2ebd73a25fU,
  0xbced50f63cb35affU, 0xbcbbb1733d366f73U, 0x3d87a2f13ca90a79U, 0xbdc00c033d2fb4f2U,
  0x3c902983bd860238U, 0x3c9dd62ebd01ca56U, 0xbdbc2c04bdb4aea1U, 0xbcba0bbebc71e336U,
  0xbd0fa8d33cff29d1U, 0xbc88c53f3cd19bd2U, 0x3cc7f6fb3da6b263U, 0x3c4453db3bb61a96U,
  0xbc369e59bd2d0c54U, 0x3bb3feebbcadea14U, 0xbd9014d53d97bef5U, 0x3d539ee6bbc03c00U,
  0x3da2a2c7bd2a0e16U, 0x3d20c6583d8fc563U, 0x3c7a70c33c51d1e3U, 0xbc796d503d8720e2U,
  0x3cefb7c2bd4e4054U, 0xbd2e71e43ca42122U, 0xbc975379bd47e739U, 0xbd6efc31bd8b2a67U,
  0xbd9611333d917653U, 0xbdb8c47d3c78f38fU, 0x3cfcd218bdb9f83bU, 0x397cc800bd99e89cU,
  0x3da397b83cf9f342U, 0xbd0d4432bcd17687U, 0x3db154103be36cb7U, 0xbc958c6a3d659836U,
  0x3c052889bd8d8e54U, 0x3da494bf3d4b2f53U, 0xbcc999ddbc256a2bU, 0x3c0123273c3d4acbU,
  0x3d63dda6bd8781e6U, 0x3ce153a6bd37d9a1U, 0xbd186939bd0c418aU, 0x3cf7644c3d9a7a5dU,
  0xbd35b57bbd8e0d96U, 0x3d9d6ef33db030ebU, 0x3d55d0fa3d94a9deU, 0x3db068273c9e05b9U,
  0xbc3792b13d8dc148U, 0x3dbe5e33bd127a91U, 0xbd1bd430bd313c82U, 0x3da9b4c7bd19799dU,
  0xbc445c43bd668090U, 0xbc5b9bfb3d0d7697U, 0xbdab82d63d7ccebeU, 0xbdb75e793d6909deU,
  0x3cd2f604bdac4893U, 0x3a9ba8b93d284fefU, 0xbd5eb53eba9fbde6U, 0x3ca07c1cbd80e4cbU,
  0xbcb6da473d953b36U, 0xbcc59193bdb90208U, 0xbda136f2bd501a93U, 0xbdbd99cdbcb45ca3U,
  0xbd409945bdc1dfc0U, 0xbd663e7c3d9f2458U, 0xbd45d338bd621e69U, 0xbd94a2d03d55612eU,
  0x3d7d415cbcab067bU, 0xbd969e13bd9d26bdU, 0xbcaf0ed33d818bd0U, 0x3d9ea92abd3d71c5U,
  0x3d199a253d0e7582U, 0xbdaca63e3cbff222U, 0x3c80339cbdbf9d7cU, 0x3d0574653d2a5558U,
  0xbd2912973d6f1d54U, 0x3dc34fd6bd7be38eU, 0x3d9c7eedbd004a85U, 0xbd86a056ba46a3a5U,
  0x3d8059b73d2fedcdU, 0xbd14b31f3da7d7dfU, 0xbb889fb9bd649bccU, 0x3d9243673d781121U,
  0xbd7c4be3bd0a145cU, 0xbd80cdc0bb8d6729U, 0x3d0ec9d43dadead5U, 0x3d7b81c3bc88c726U,
  0x3cdc589abd993802U, 0x3ca5446e3d804250U, 0xbdc1aa03bc169a14U, 0x3da577213b1f51fcU,
  0xbd84293fbd3bc261U, 0xbd4360e7bd8bea42U, 0xbcde4f2dbda8000fU, 0x3d3919fcbd624becU,
  0xbaecd27abd70ea0fU, 0xbcfbbe663c06ade3U, 0x3d8d4f823c124ca1U, 0xbd8cf670bd3647d1U,
  0xbb4c02a7bd391447U, 0xbd9cc3083d64559eU, 0xbb8d46c93d52955fU, 0xbcb499f8bc19fce8U,
  0x3d925aa3bd8a7c86U, 0xbd7afeb03d7d6217U, 0x3c31b4f8bdccf10bU, 0xbda082ec3d08cd95U,
  0x3bb90c64bd887d41U, 0xbda23c433d16fa56U, 0xbcb59e8ebca6cba4U, 0xbd7686e8ba7d466fU,
  0xbd590477bdc188adU, 0xbd97e5cfbd3aecd2U, 0x3da01eb0bdb099f6U, 0xbd5009443d0e72c6U,
  0x3d9e41a83ba05616U, 0x3d73ea30bc850bf2U, 0x3d958fdd3d446035U, 0xbc7ee6ee3d592630U,
  0x3dc0d024bdae2820U, 0x3ce24218bda32dd3U, 0x3d9de5d2bda19ed4U, 0x3da05d893cc89713U,
  0x3d5c4adc3d3ab598U, 0x3cbfec853d82aee9U, 0xbcb442d43d06ba8fU, 0x3c99fd003d99755cU,
  0x3d15f5f03cb4d7f4U, 0xbdb16b5f3d8c576dU, 0xbcfdc9e8bdbc68e8U, 0x3cd0fec7bdab9bc3U,
  0xbd273623bda11977U, 0xbd2ab666bd6cac7eU, 0xbaac5a363d353541U, 0x3c507fc23c42af8bU,
  0xbd4aec43bd772be5U, 0xbc08e1783d6eefbfU, 0x3c3ca4b73d385cb8U, 0x3d12094ebd26fb16U,
  0x3ce1a35abd87da01U, 0x3ceae45a3db37ecbU, 0x3d6defd63c7b7670U, 0xbd83854c3db6e025U,
  0x3d611b853d4fa0c0U, 0x3d418678bd39d162U, 0xbd9216083d3a795cU, 0xbd4984333d0ca53dU,
  0x3d32c1823bccc5c0U, 0x3d97edfcbdbd9943U, 0x3dbf3bcf3d99db60U, 0x3d889d293daa39b3U,
  0xbdb67fb23cfd7aadU, 0x3d7704fbbdc2e5dfU, 0xbdc8f2adbd8bc48aU, 0x3c442b15bdc3210eU,
  0x3dbc6bcd3b89c389U, 0x3d1da908bd8e05c1U, 0xbdafc95cbb5c4d25U, 0x3cc467c73d3b9c5aU,
  0x3db8e06ebd90a8a6U, 0xbd43dc17bcc7e097U, 0xbcea44c2bbf5b472U, 0xbda9b93abd6d85c3U,
  0x3d9fa112bd70079eU, 0x3bb96c4f3d62242fU, 0x3dc2fa013c36ba20U, 0xbd324a41bd828a5dU,
  0xbda97dc23bd3bf86U, 0xbdaa2fbd3d4b765bU, 0x3c9bbacd3d18d09cU, 0xbd9c01793d255804U,
  0xbdba0d5bbb98073eU, 0xbdba950e3da60579U, 0xbd6489563d8acca4U, 0xbc6f9bd03d979065U,
  0xbdc7acddbd9e3c6eU, 0x3d98ae013d96b762U, 0x3cef6f333bc4aacbU, 0xbd8bd926bdbc2db0U,
  0xbcccc8eb3d8e820cU, 0x3d8ae609bd5e5a8eU, 0x3d992c58bd423bf2U, 0xbdc899833d19ce9dU,
  0xbd2f4e79bbe1b770U, 0xbda352353d183740U, 0xbd2b54b6bd598b52U, 0x3d9ecb27bc38e3f0U,
  0x3d972ed1397ce655U, 0x3d24ef483d36f71cU, 0x3cb64755bd962564U, 0x3da23a3e3db84f9eU,
  0x3da1e48a3d9b6098U, 0xbccedc2dbcfca102U, 0xbdab33d33c065b06U, 0xbac22d04bd272288U,
  0xbd245b5ebda36a0eU, 0x3d52920b3cd68200U, 0x3d6406f93c518716U, 0xbd982dacbc90653cU,
  0xbcbdb5bebcca0760U, 0xbd9ce76e3d4b8637U, 0x3da41c38bd9aabc3U, 0xbd3c8e4dbd03429fU,
  0x3cbc1c353dc54c54U, 0xbdb43b4c3d67a3bfU, 0x3bb98a703da68dd5U, 0x3d214345bcf90f9cU,
  0x3d27e163bd6f7594U, 0xbd8753f03ba6694fU, 0x3d06cdebbcc959c0U, 0x39be4c00bd0bee05U,
  0x3c3734983d5057deU, 0x3da2d7333da90614U, 0x3d56661bbd28fe7aU, 0xbd650f60bda3a983U,
  0x3d24da80bc1b918dU, 0xbcd78823bd2f8277U, 0xbc25d5073cb8214bU, 0x3d8a1a4d3d92f768U,
  0x3cfe41f23d0564b7U, 0x3be35a35bdbf4f0cU, 0x3dc81887bc05a2aeU, 0x3bc932f0bc92d5ccU,
  0xbd531624bb2b54d5U, 0x3ca19bff3c348c11U, 0x3d74a054bcf36e97U, 0x3dbdcb49bd62eafeU,
  0x3d80fdf23d94dbe2U, 0xb9fc00423c0225baU, 0x3d4273053d1b0727U, 0xbd9889cabd52b316U,
  0xbd9fd1f5bcd8ca4fU, 0x3d1bfb2bbd0c966bU, 0x3d48bff53b98dfeaU, 0x3dad44c3bd867a72U,
  0xbcac4c52bcdecb8dU, 0xbd7ca8463db0b037U, 0xbca200b93cac7b39U, 0xbdb9839bbdb5d667U,
  0x3da4c24bbc224280U, 0xbd9c8fe4bd33c758U, 0xbbb1279abb6a94b4U, 0x3dc307f53d801eccU,
  0xbda87ee23d8720f9U, 0xbb0e4340bda26652U, 0x3ccf1e74bdb09cd4U, 0xbdb996093d19f45aU,
  0xbb453b963d079cf5U, 0xbd4fd49cbdb6a471U, 0x3d622d5ebd10adfbU, 0xbc4026a23c0c0e29U,
  0x3cdce6b03d8fce56U, 0xbdb88c833cd66819U, 0x3d8095b6bd53530cU, 0xbbd966b13db4305fU,
  0xbdbc46843db8a5cdU, 0x3d0c297b3d53cf06U, 0x3d44bf513cbf6e42U, 0xbda92d5e3cac8c1cU,
  0x3d3d3522bb8c944fU, 0x3a9fe30ebdc405c3U, 0xbd53da84bdb9334fU, 0xbc8f0bf43c0790f4U,
  0xbdb4cce03da152d4U, 0xbd9529b93c0c0accU, 0xbd9e6a8f3d86400cU, 0xbdae261e3b960600U,
  0xbbcb4da03d09659eU, 0x3b41ac203d914533U, 0x3d51670a3d8e1229U, 0xbd421f67bd396919U,
  0x3acee180bcc9b2c0U, 0x3c84b5043d3c9682U, 0x3d07bc663c405cd0U, 0x3d75da42bcf54448U,
  0x3d81dea5bdb0828fU, 0x3c243d10bc442250U, 0x3d5fb4aebcc229e8U, 0xbd1c27f93d6376e6U,
  0xbd62b24d3b948200U, 0xbcb7e710bd4538afU, 0xbdc454553d8dd00cU, 0xbab52b003dad79ebU,
  0x3d0c984bbd9eda59U, 0x3d7848c13da2355dU, 0x3dac38c83d2f334aU, 0x3a9696f7bc90dd7eU,
  0x3d0654a9bc9b230dU, 0x3bed850d3d61a63fU, 0x3d8e46773d7fe318U, 0x3c6141b83d18f1a0U,
  0x3ca89195bc799a6eU, 0x3d653eeebd731871U, 0xbc00ffd33d327ed7U, 0x3d7718b6bd59be10U,
  0xbd2722c63c743029U, 0xbc4a98793d6729cfU, 0xbd86eda13c35b8bcU, 0xbd839f1a3cc11f3aU,
  0xbb4391233daa23aaU, 0x3bfc362c3d51b572U, 0x3d2d5d263c83a62eU, 0xbd9241073c25e93dU,
  0x3d487e26bd9d549eU, 0x3d410ed23c2fa030U, 0xbdc1280e3d4af9d6U, 0x3b4277003daf09efU,
  0xbdbdf69fbd977454U, 0xbd985be23d983e39U, 0xba876080bda09f48U, 0xbc1db7a8bcd01ac0U,
  0xbc7bd850bdba8297U, 0x3caad8ecbdab2b43U, 0xbd8ac19fbd125d3dU, 0xbd80656ebaaf8600U,
  0x3d6c3c123c4c9d40U, 0x3d1e3e76bda6ff30U, 0xbd954fc43c9e79ecU, 0x3c812b5cbd04b41cU,
  0xbd4c9f04bb4b3280U, 0xbce87b303aec7300U, 0xbd6c1da4bd904367U, 0x3cdb0984bd1212cfU,
  0x3b849b403d9d85f1U, 0xbbb305b03d38c94aU, 0xba7de200bc9776b4U, 0xbda213e4bd7c1996U,
  0xbbafd360bd9ccbaaU, 0xbceb0b103da872d3U, 0xbd81e3a63dac9051U, 0xbd4173ed3d55336eU,
  0x3dbe30b7bd0c1c77U, 0xbbd50e80bb6a4420U, 0x3d9c8aa7bd6310edU, 0x3caa2f00ba82b800U,
  0x3dbcf07bbdace098U, 0x3d94ee693d68bf82U, 0x3db850a93b9b9f10U, 0xbd1aa47a3d8aeae1U,
  0xbc8d695cbdb546f5U, 0x3d734722bd98dc6eU, 0x3dbbb5373d8fa7e3U, 0x3d06b1de3baa5680U,
  0x3ce768203bd98160U, 0x3cf8c0bcbc785518U, 0xbd9a19273dc46dbbU, 0x3cfccfccbd355c27U,
  0xbd805366bd064cf8U, 0xbccbda503bd931f0U, 0x3cba58c4bd09dbd6U, 0xbd72bcf5bd436890U,
  0xbc458a0bbd90f0e4U, 0xbdc317713d855b38U, 0x3c8aa909bddf938aU, 0xbdb1ac133d2fa2eeU,
  0xbddf827abdc98a28U, 0x3d0a17eabca3c411U, 0xbd91f15bbd0ef68bU, 0x3cd72910bd414029U,
  0xbd94a1803cf7232aU, 0x3d77d937bd370b39U, 0x3d15ab79bc42e42cU, 0x3db88c7ebd4bf82aU,
  0x3de10f453d643c01U, 0x3d351dcf3d3696f1U, 0x3d9b27323cff8344U, 0xbbed4920bc9d2560U,
  0x3d693aedbc9b5d03U, 0xbd949e47bc0382ddU, 0x3d23d1d5bc80fecbU, 0xbdb02b5e3d6843a3U,
  0x3a3cbd3fbdbdc2e9U, 0x3d0032a43d3ba18dU, 0xbd2d1cc7bd6d13e7U, 0xbdc3859f3bd10010U,
  0x3d4175213d9a6953U, 0xbd93e8593d7479bfU, 0xbda25c8abdaa3a7aU, 0xbd79c612bc44e4e8U,
  0xbd243db9bdb079daU, 0xbd89608c3d28a230U, 0xbd44c1b3bd952ac1U, 0xbaeb97ae3d995693U,
  0x3d90c21f3da2e650U, 0x3d51ce90bd8ddd47U, 0xbca1b0e3bdb0206cU, 0xbc00b8073c368e36U,
  0xbd2cd3f43b4d0649U, 0x3d3050e23cfc8ce9U, 0x3dbaa9f6bdacc9a2U, 0x3db9190d3dc16b47U,
  0x3ca3af4f3ce104fcU, 0x3dc52719bc73ed30U, 0xbca853f9bd1948aaU, 0xbda8ac17bd147ce1U,
  0xbc5af336bc405d60U, 0xbd5a9630bcd526b9U, 0xbda81df9bcb125e5U, 0xbd3837a9bddc1780U,
  0x3df68534bab93b0dU, 0xbdd3ae513da10911U, 0x3db0e75abd59e5e5U, 0x3d1eb9923d160b31U,
  0xbcd2ec51bdb2dc9eU, 0x3d997002bd909f4dU, 0xbd4d5aebbd944e92U, 0x3d9f55293dd4e99dU,
  0x3de18543bd27a908U, 0x3d882ba6bd7ed619U, 0x3d8d02433c35d916U, 0xbd8f0550bb8d189cU,
  0x3db611073c9ffb62U, 0xbd46ad97bd581e40U, 0x3d0aca773d02ed8fU, 0xbdbe6bab3d9661b4U,
  0xbd12c3d5bd2c6631U, 0x3cd397fbbc3be5e8U, 0x3d08b45c3da95b44U, 0x3da413d2bb118f44U,
  0x3d156cdbbc3855d6U, 0xbd428aecbdbd933bU, 0xba916182bd45bfcdU, 0x3dd37fc13cc06928U,
  0xbc4b7c46bcfddc47U, 0x3d8e673cbd19831dU, 0xbdae712b3d36156cU, 0xbdb19ccd3dc406edU,
  0x3c9d04c1bc975e6dU, 0xbd3bcf323d5d77ebU, 0x3d6ca1e7bd60c696U, 0x3d29a063bd52efdeU,
  0x3da03297bafd2087U, 0xbd888e123d479cf6U, 0xbca3b76bbd8eb85cU, 0xbc1d94b2bd96c463U,
  0x3dde3550bb15bee8U, 0xbdab93ee3cc2afb8U, 0xbce23cc1bdbc14dfU, 0xbd45d7803d87a07fU,
  0x39f63f563d4f6e7cU, 0x3cfb62973d544685U, 0x3d987d3dbcc693b7U, 0xbd44ed303ceca000U,
  0xbd119dc5bc91c682U, 0xbd0bd5653d1f254aU, 0x3c95c54d3d2bc60dU, 0xbb2cd2cfbd8e941dU,
  0x3a9e71e0bbba4fc7U, 0xbd2d6ce3bd7b7f19U, 0xbd945559bcf6019bU, 0xbda90d503d408bc2U,
  0xbba16d99bd78ab1dU, 0x3d85f14f3db4ad63U, 0x3d49e7c63d98b0f4U, 0x3da26fb73cc2f9eeU,
  0xbd91d5e6bdb895e9U, 0x3d85b728bda4358bU, 0x3b7f47ec3c80c007U, 0x3c321b683cf3c01dU,
  0x3c191eb93bab6c6bU, 0xbdc2cfab3d6faf73U, 0xbdba9d8bbceef90bU, 0x3d42f762bda95bcbU,
  0xbcc9e7253d3816eeU, 0x3c80f080bc8a3e8cU, 0xbd8196103d9be15dU, 0xbdac8e3d3d6b3fdeU,
  0xbda80b65bd9d598bU, 0xbdaf96bf3d7adf3dU, 0xbb1cb0fa3d944591U, 0xba1b1e683d35c059U,
  0xbdb9fc4abdaebeafU, 0x3dbbd1f4bd85433aU, 0x3d71d4033d293a98U, 0x3d0355723d0d6ccaU,
  0xbc800290bb2cf631U, 0x3d580a0bbd515487U, 0xbd899c803dacd687U, 0x3d908d683d69928bU,
  0x3d487510bdc6d049U, 0xbbb3b3febd7555b9U, 0xbc62492ebd9de3acU, 0xbd2b91a6bc962cd4U,
  0xbb585002bdb36121U, 0xbc8999333be4f1fcU, 0x3d5e4cfe3da3f3e3U, 0xbbc3f8403bd54fe0U,
  0x3c7db3f33d5c5977U, 0x3dc149fe3dc38093U, 0xbda3ed8c3d4224cfU, 0xbd136f903d0f239bU,
  0xbd9de84cbcc0c795U, 0xbd1d9f713c9e8fa4U, 0xbd1ce4a5bd98fa14U, 0x3b9e592c3c871dceU,
  0xbdad09ea3c94182cU, 0xbd956f6bbd064c6cU, 0x3d7984153cfdb7efU, 0x3da9f2b93ca33573U,
  0x3bc278393cd0ac5dU, 0x3daca098bab2dae6U, 0xbd5ac34cbd3194c1U, 0x3ba0e238bcbc9b40U,
  0xbc497dd2bce228dbU, 0xbd9ca9fcbd1c9819U, 0xbceb3ac2bc8e1b9bU, 0x3d517c653dc42927U,
  0x3d03b6573da8e0d8U, 0x3d915e2a3d540c26U, 0xbd07a8123d199c38U, 0x3d574c8e3c3cd555U,
  0x3d39c4fcbcffbaf2U, 0xbd040dd03c914532U, 0x3c9e9d093d0e6dd2U, 0xbca7785fbda818ebU,
  0x3d7002333d108256U, 0xbdae65ff3d379314U, 0x3ca41333bda08044U, 0x3d915e0f3dbfddd0U,
  0x3d268407bd56be77U, 0x3d770847bd3be14bU, 0xbd4004a93c94def5U, 0xbc80413cbd5d1aa7U,
  0x3d443ff3bdbe5dceU, 0xbda036a43d5bbf1eU, 0xbd79474dbcd65ab6U, 0xbd8eacb23db8dc4fU,
  0xbd8bdd863d0dc284U, 0xbd8f6be23d973045U, 0xbd9392c2bd031f82U, 0xbd65fd2c3da10e25U,
  0x3d18bb463cdf0feaU, 0xbc8a478c3d1a6af6U, 0xbdbd5673bd85bd4bU, 0xbd1cf3afbd693827U,
  0xbcbbb404bda12e62U, 0x3db9545ebcf55d23U, 0x3c90b1833d476282U, 0xbd508423bbd46841U,
  0xbd875704bd7f6253U, 0xbd5d6a1b3b8e9022U, 0x3ba612ddbd9bae84U, 0xbcdb9916bd602a1dU,
  0xbc50f1d33cbf2560U, 0x3d9fce163d7187dfU, 0x3c6f91043cfaeedeU, 0x3d8228753d8a5d49U,
  0x3d61ed5d3d201fa4U, 0x3d3de4f03cee80ddU, 0xbd447422bd8f59d2U, 0xbb1a7d46bd766137U,
  0x3db2cffe3beb2fbcU, 0x3d81a6cebbcceac7U, 0xbda470af3cb985fbU, 0xbd81f1d4bd943a31U,
  0xbd117fb93da8596fU, 0xbd881f623da78397U, 0xbd8e6fa6bd21eca5U, 0x3d9c464f3d02301eU,
  0xbd30bae13c375b12U, 0xbd63d4a73d030cc9U, 0x3b10044cbbdd30f6U, 0xbdacf3e3bd8f626dU,
  0x3da43b8a3bdd5294U, 0xbd794991bba6c96aU, 0xbd6f89ef3d71477fU, 0xbd9c2a4e3cd4a22cU,
  0x3b006be7bd0e3f8bU, 0x3d7d83e43d4d34d0U, 0x3d2125e6bc005a9aU, 0xbd039500bcd04f34U,
  0xbd30f1f33d9fc804U, 0x3d8dd283bd958556U, 0x3d90b118bb74b173U, 0x3d573a45bbb4e0a6U,
  0xbc9bb7e23d928c06U, 0x3da192d93c8047a5U, 0x3d25e2953db2a4b6U, 0xbd66859d3dbc3fbaU,
  0x3dc7b0083db926d1U, 0xbcffc9c63d7e136aU, 0x3d83aa50bdb7d41dU, 0xbc480d78bd973526U,
  0xbdb4e2f2bcae3677U, 0xbd9b96603db21c1aU, 0xbd51ab98bd491505U, 0x3d5dcfb03d9ad3c1U,
  0xbda9414bbc229345U, 0xbb1173e43d4d3198U, 0xbd487b70bb07d11aU, 0xbd8c8e9d3d9bc2b0U,
  0xbbb78fd8bc9db3baU, 0xbdbf5cd5bdc3ee5cU, 0xbd02fb98bd9dd28fU, 0x3ca1a39cbcf8ee30U,
  0x3cb64132bd354a51U, 0x3d3b1fca3d2501b3U, 0xbda9c5cebd4b81ccU, 0x3d501c753dc480ffU,
  0xbc73e39cbd89ae7aU, 0xbcdcc87b3c1bdbf9U, 0x3d5a2139bd91ed88U, 0x3dbf1d0c3da0a783U,
  0xbd734707bd46e081U, 0x3cc376ba3d942f8bU, 0x3d889491bc809f8fU, 0xbdbd8df1bd8f4ab5U,
  0xbdb49856bdc1a69aU, 0xbd08040dbca349f7U, 0xbc474700bd9ddf85U, 0xbd764e8cbd1b5ccdU,
  0xbdbe4b673d5a132bU, 0x3b416718ba14c81fU, 0x3dad35d23ccc30c7U, 0xbdb4a7553d0769e2U,
  0xbd7204603ca2ce02U, 0x3c8bbb603d7a7e77U, 0x3dbc72983d7435cfU, 0x3dc2b7bdbcd29f2cU,
  0x3db8f06abd2ed0a8U, 0xbd0dc8593db63915U, 0x3ccd64dd3d80b867U, 0x3d260a71bd5f8db5U,
  0xbd83cff43d8e4ffcU, 0xbd3aed043bf83844U, 0xbdb7ae39bd4fc0c0U, 0x3bff63d9bb95c569U,
  0xbd977e053d0efbc1U, 0xbd79c9c1ba905525U, 0xbd844142bd22112cU, 0xbd846f4e3d080b2aU,
  0xbd444a9e3b333e58U, 0x3d3db5413b0c0d71U, 0xbd71fbb33d06694dU, 0xbd9355fdbd710c4cU,
  0xbd1122b8bd7d970cU, 0x3d9e7a51bbc86ef0U, 0x3c9b66c5bd1b8899U, 0xbd8ceacabcc1c66eU,
  0x3d494b46bcd9da53U, 0x3d1e64d23d5342deU, 0x3d484a2ebd96c734U, 0x3babe3203d925e57U,
  0xbd851ea93d5bcecfU, 0xbdbb08ce3c635fadU, 0x3c648d52ba96430aU, 0x3dc043bebd0afa0eU,
  0x3d5f43c63db649f9U, 0x3c9383c53abcf122U, 0xbb9a8965bd900cfcU, 0x3c866b6b3dae8b6cU,
  0xbd95825a3d5e2ebaU, 0xbc8767de3d66c79aU, 0x3c4c65c4bd43c175U, 0x3db2e3b93ba03d50U,
  0xbd3d2ffdbd64e443U, 0x3c2b1b103d563503U, 0x3db993993c571f83U, 0x3d362da63dc2ebbeU,
  0xbd948f70bd3d21a6U, 0x3d50d47cbdac2165U, 0x3d6ee82d3d03283cU, 0xbd912f47bdac0c28U,
  0xbd88885d3d290376U, 0x3c9097073d107788U, 0xba69bc4a3c74d6eeU, 0x3b89f110bdb2d963U,
  0x3db149a7bcf40340U, 0x3cb38aedbd29771dU, 0x3db559ed3db956e6U, 0xbc50867cbd12ad71U,
  0x3d0a515ebd5c9b66U, 0x3ca33554bc90c922U, 0x3cbbd0d73c914b33U, 0x3d80f6e23cafe5b0U,
  0x3d5bbc48bd5fb308U, 0xbd342929bd759b9eU, 0x3d7ba7333d077419U, 0x3dadd0e7bdc12e5bU,
  0x3db942133dba1c43U, 0xbc3dd9b2bd8639e7U, 0x3d38d346bd70c313U, 0xbd9a694cbdd6e804U,
  0xbda183f23c82c872U, 0xbce320e63c5866b9U, 0x3add2545bc611969U, 0x3d08ee96bd543114U,
  0x3d368eadbc896d17U, 0xbd93b5e4bca8546cU, 0xbd8248583cacb897U, 0xbd16ee343cc45450U,
  0x3c13ce123c8012cdU, 0x3d9abc5d3cee9cafU, 0x3c556d97bd1e8de4U, 0xbca6fe2ebd0c41e6U,
  0xbcb138ae3d6fc586U, 0x3c2da3f2bd466f83U, 0xbc4637653da03c1aU, 0x3c125689bd1e592cU,
  0xbd9abc04bd895bbaU, 0xbd2f816c3d8c5755U, 0x3d6b45fe3dac6e77U, 0xbd21bd593d3ab80eU,
  0xbc951ddc3ce99b48U, 0x3d688b243cf7835dU, 0x3d4f14c4bd661290U, 0xbda78b23bddb1689U,
  0xbdafa28eb9e3f394U, 0xbd3b61c53d28041eU, 0x3d63cf56bc973dc8U, 0x3d823c303d72959bU,
  0x3d0fec133d898443U, 0x3cad0557bcc7404aU, 0xbdc2888c3d21d760U, 0x3cd24a343dc22293U,
  0xbd29e05fbd69a05fU, 0x3d76e1e23cf3a22eU, 0xbdae4285bcc38fbfU, 0x3db98af0bad6e323U,
  0x3c5fcdca3bed5d6dU, 0xbd8db811bd96368dU, 0xbdbae642bd43bbbbU, 0x3c43dd85bc88bd81U,
  0x3d89e88dbd914083U, 0x3b7b92b0bd3a1cc7U, 0xbccaa1dbbda1e179U, 0x3d84ffe93d72b282U,
  0xbcd3b45d3cebf18fU, 0xbda8b8bb3d8b1015U, 0x3d50854f3becf3daU, 0xbd9dcc9d3d66dd09U,
  0x3d53dadd3cb72b3dU, 0x3d36ca4c3a9ffd65U, 0xb9b827993d958292U, 0x3b6a9ca83d22e614U,
  0xbb7b2e15bda569ecU, 0xbd1b6b2e3db37560U, 0x3dabe154bd822c7cU, 0xbd13d2cfbd8207b8U,
  0x3d91d74cbd8ed2a4U, 0xbd570508bc9b376eU, 0xbbbdc061bd8593e7U, 0x3d8cdc8dbda5c5a5U,
  0xbd8eaaa9bd953cacU, 0xbc2209a13d4d4679U, 0xbd97b57fbd1e3530U, 0xbdbdb328bc61a5baU,
  0xbdb6a1f9bb8964ebU, 0x3d8bf2bdbd54b8f3U, 0x3d8732ae3d545f8aU, 0x3d49f92e3d8cfdf1U,
  0x3ab4354d3d606bb6U, 0x3bf2a9763d3738f7U, 0xbd975daabd96516cU, 0xbca76f86bdc7f202U,
  0xbd9a11a4bcd3c12fU, 0x3dacfe023ca3ba86U, 0x3cc2aabbbda7e944U, 0x3d930d603d8df4c8U,
  0xbbb81a003ce2c21aU, 0x3d03c72b3d611a76U, 0x3cbb6d0e3cd7e305U, 0xbd04b0303dbc6b70U,
  0x3d8e290bbd7c3dccU, 0xbd0c52adbd9510f3U, 0x3d453267bdc30c67U, 0x3dbef5c23d81dac8U,
  0x3d9c7eb03c15a28aU, 0x3c0cf497bd71b9aaU, 0x3d94f8883c852291U, 0xbd2d00413bb10f44U,
  0xbd805b2a3dbc3128U, 0x3da565e93d02c762U, 0x3d912bbf3cc5e69aU, 0xbd8945ccbd901613U,
  0x3d3790073b0e80c3U, 0xbdba8e65bdbebdf3U, 0xbd1eb9943b9458ccU, 0xbd1ac4453d7ecdc7U,
  0xbc61a230bcbc97c2U, 0xbb5ceda1bcd955b9U, 0xbd35a5663d735a64U, 0x3c199bebbd470c38U,
  0xbdc2d362bca4315cU, 0x3c9368bf3dc0eda5U, 0xbc42eb9cbdb9aedeU, 0x3d12452a3d2f091eU,
  0x3d57fceebc83c02cU, 0x3d98290bbd612276U, 0xbda86387bdc40037U, 0x3d8260bd3d212ea5U,
  0xbd778e5fbd87cb23U, 0x3daf0a413d72f6b3U, 0xbd01f59dbcc348a4U, 0xbd9944ce3db1b577U,
  0x3d015322bd582605U, 0x3d8c4787bbf414c4U, 0x3c86cc073d1f59d5U, 0xbd2636613d1e46eeU,
  0xbc804fadbb648d3bU, 0xbdafa8d23dbe2794U, 0xbd3efcb53d06b85bU, 0x3d8b2b33bd473d16U,
  0xbd5fd12b3d7ed37fU, 0xbbed58f73bcc0010U, 0x3db298003db82835U, 0xbae7d4aa3d3909faU,
  0xbdb95d3abd63c4eaU, 0x3d42a576bd82b798U, 0xbdacf5c93dc1a41dU, 0xbd5f8eb03b4e6b00U,
  0xbdc4ff923cad3974U, 0xbd54e1f8bd31fc69U, 0x3d6ec0a2bdc2663cU, 0xbdb5f153bda80e7fU,
  0xbda18bcbbd04efeaU, 0x3da18e57bd458d99U, 0x3d834eebbcbb03e8U, 0xbda9e07dbd70dca6U,
  0xbc9cd9d4bbb5dcfcU, 0x3d05e14b3d2eb0d0U, 0x3da40f66bdade8a7U, 0x3d79b096bdbef4aeU,
  0xbc7cab14bd872324U, 0xbc19861d3ce3a521U, 0x3ca8b196bd8223f7U, 0x3db4bf02bd66214fU,
  0x3dbf08bfbd89f4eeU, 0x3d2e42303c8b60f0U, 0x3d717a2e3c933585U, 0x3d8645a23ca86ba1U,
  0x3d184d2f3dbc00dcU, 0xbd1011bd3d00f863U, 0xbda5c7b33d573765U, 0xbd8fca853dbf8e01U,
  0x3d38a2083d022ad4U, 0xbdbca7f13d204032U, 0x3d17d367bd06cfecU, 0xbdbb9fd6bcb7f6c2U,
  0xbdc31e92bb6bc55cU, 0xbdb3a38a3db6df92U, 0x3cf32890ba80b231U, 0xbd75b1993da31802U,
  0x3b89e54a3d45642fU, 0xbc50671f3d256020U, 0x3d89af50bd6641a7U, 0x3d8346893d00f31aU,
  0x3d97e17a3c070185U, 0xbbdd92713b764861U, 0xbc4a7ea43da99ce1U, 0xbd8e49523c5518efU,
  0xbba5c5103d8687efU, 0xbc60d71c3d7f95b7U, 0x3d4cc6643d292e70U, 0xbdc02625bd2c1a49U,
  0x3cfec543bd100bf0U, 0xbd860e04bd1299efU, 0xbc4348fb3c5e237bU, 0xbdaaf193bd523ba8U,
  0xbdc2a57e3d99d764U, 0xbdab617d3cec14a8U, 0x3dc27ee63d3f124bU, 0x3db3a8cc3b8f4245U,
  0xbcb04f3abdbf8715U, 0xbdb19f563db90b41U, 0x3b9f91c63c64ad93U, 0xbc4e79533cb498f7U,
  0x3d8fb142bd44b1adU, 0xbd17d375bd4afbfaU, 0x3cbbe6903d610398U, 0x3d5790723d1cc03eU,
  0xbcf25f14bcf6266eU, 0x3dabc9abbd3db383U, 0x3d1a7d58bd35f3a4U, 0x3d13929bbd7c4e90U,
  0xbd49c082bbe4f95fU, 0x3c3c8f31bcdf6bebU, 0xbc3900bfbdb95a82U, 0x3c31adebbd3cd4b6U,
  0xbd6d6239bdc13057U, 0xbdb7cb65bd1ccc7fU, 0xbd120d91bd681b40U, 0xbc44ad30bab16640U,
  0xbcfa84483d97f28fU, 0xbdafd984bd9b14eeU, 0xba914aa2bd9bafd0U, 0x3d976cfbbc6ecb1bU,
  0xbcbe8804bd51749eU, 0xbd597f353d959b07U, 0xbd5ebfba3cebb193U, 0x3d078e423d203d52U,
  0x3bb804f3bd02968bU, 0xbd96cd51bd226ec6U, 0x3cbdaf9fbd8e4e5eU, 0x3d662d62bd8bfdc4U,
  0xbbb055793ce21048U, 0x3d912cf7bd99900dU, 0x3d8cd7a33d374603U, 0x3dc03a413cac7b21U,
  0xbd1a8fc83d92bebaU, 0x3d75b8893d56f14eU, 0x3da7aa6ebd2d392eU, 0xbd96505b3da85669U,
  0xbd923cf9bca929f0U, 0x3d7735213dabd21cU, 0x3d008eff3c23ec21U, 0x3d1cdb8e3a3a6500U,
  0x3d0c184e3d1d72faU, 0x3d41558cbc7ac245U, 0xbd219ab13d9b3615U, 0x3d009f803d8c163bU,
  0x3d8b5b473ce20646U, 0xbd9c9bfebd1a6751U, 0x3c5f9c8b3d5c0957U, 0x3ceaefb83cf4c79dU,
  0x3d1957523db95895U, 0xbd77c4d53c729c28U, 0x3dabefdabd5dd70dU, 0x3cc80954bcfa95a0U,
  0x3cbddc7e3d9369baU, 0x3b9992f83d529b5fU, 0xbd7c113bbc90c394U, 0x3d86eae8bcdf60e0U,
  0xbcf499143da35d05U, 0xbd5cb6253cf17d65U, 0x3cd4966d3da91a56U, 0x3d87adbbbc80e0f1U,
  0xbdc16bfe3d569ba6U, 0xbc78c110bdb44130U, 0x3c7a5f09bda1a00eU, 0xbd2f7e4cbae4ecebU,
  0xbcc190ad3aaaa9d5U, 0x3da6ab893da2dfccU, 0x3daff545bd4149cdU, 0x3b07cb92bc6d49dfU,
  0xbd3f15713c1cb087U, 0xbda21144bd04ee2bU, 0xbdb96e5bbc21ed58U, 0x3b663a383c49e0a1U,
  0x3c9f7c073cbd1373U, 0x3c88edc5bdb6656fU, 0xbc8cf0783ca30ba5U, 0x3d4731e23d0438afU,
  0xbc7f41e6bd7b9bfaU, 0x3c83f0103d7ba0b1U, 0xbda529b9ba262647U, 0x3dc1199fbdb30499U,
  0x3d13c3fc3c50f428U, 0xbd327eb8bc3c44b8U, 0x3c543664babdcad9U, 0xbdb3761ebd894ca0U,
  0x3ca14b1cbd1dc775U, 0xbd646ab33da15338U, 0xbd89570fbd9a39f5U, 0xbd6bc016bc62d209U,
  0xbd2fa635bd47a0bcU, 0x3d9957e13d33f11cU, 0x3d3bf9a7bbcd6ac4U, 0xbd5348b3bdae8f7aU,
  0xbd2761e7bc76a5d9U, 0xbcae0870bca283faU, 0xbceebaed3d6e0e0fU, 0xbd04810d3d91fcf4U,
  0x3b9032bebc57fe27U, 0x3b0cee0bbcd6f87fU, 0xbd76d6663c344e43U, 0x3d31a3aabc061ceeU,
  0x3d998438bc8dc4c4U, 0xbda931fd3d14644cU, 0x3d5a0d6dbd7b567aU, 0xbc155329bd9ebec0U,
  0xbcb098b43da2d093U, 0xbcbfa32d3c6d1137U, 0x3dabc98abd8eedb3U, 0x3db46ea4bce6318fU,
  0xbd4e9f93bda8aadaU, 0xbd357c983d3fe7a9U, 0x3d2ed67c3d6fb47eU, 0xbd0be027bd5ed608U,
  0xbd33cf843ccac75eU, 0x3b9f1a5a3c45e130U, 0x3dc250cbbd91b9e9U, 0xbd54a2883d42e2b6U,
  0x3cad444f3c6e56c7U, 0xbd4012bfbcb55622U, 0x3dae24343cfc757cU, 0xbcfa82a83d0c540cU,
  0xbcbc1e6dbbd19de2U, 0xbdc14423bd855915U, 0x3bb4e381bcbb6718U, 0xbda3951a3da95096U,
  0xbd1f8e75bd59b9b9U, 0x3db1c65a3db2875bU, 0x3d82d8bbbda2cb37U, 0x3d3ec316bd670c2cU,
  0xbdb9c40d3a7052aeU, 0x3dba502d3d112199U, 0xbd16ea9ebce0cb4cU, 0x3d8ebfeabd8f63b2U,
  0x3c599f4b3d8b9248U, 0xbd7a18b93d3821a1U, 0xbce029f63d6bdfd9U, 0xbd8648883db962f1U,
  0x3da6e5af3d818577U, 0x3d29b739bcf6512fU, 0x3d96208abd9c174dU, 0x3cb47626bdae80f4U,
  0xbd4f8073bdb884a2U, 0xbdb9e0c53b03692bU, 0xbd767ec13b7bc415U, 0x3d1a52b93c9e0808U,
  0x3d1b8797bc0783c7U, 0x3da17b63bd739f43U, 0x3db1b8833d971c4fU, 0xbd0eefa43ce8fa28U,
  0x3d88720c3d6a57d8U, 0xbd5acf8abd23948eU, 0x3bb8e1c43d4ebb70U, 0xbcccb049bbb156ceU,
  0x3d93c7703da3dbe8U, 0xbcbddcf5bdc911abU, 0xbda5eacf3d557415U, 0xbd753477bc9de6baU,
  0x3cbc5e2e3c6dff67U, 0xbcdd500ebdc16311U, 0xbd02e147bd7200e9U, 0x3d5d98d23cd1ed04U,
  0xbcb566b0bcdfa4e6U, 0xbcad58f9bd60d8bfU, 0x3d9388443da58abdU, 0xbd8c0d683a0629dbU,
  0x3dab9c853cfd476bU, 0x3d327d463d475f62U, 0xbdce9cd23d9d84eeU, 0x3cb303f43c20ca3aU,
  0xbdaa67da3db0165eU, 0x3d18a8663c8e4916U, 0x3cad14953d0cd01aU, 0x3c801d34bd8ca2b8U,
  0xbcc24344bcdcac95U, 0xbb852926bd1e8beeU, 0xbd5c2429bb6347c7U, 0x3d828f263c457a90U,
  0x3d1a7260bda96d55U, 0xbdc7a91cbdd825f4U, 0xbcf84bedbd1e1823U, 0x3c9f9179bcf7721eU,
  0x3d899f8d3d0b5f90U, 0x3da297aebd11dc82U, 0xbd5802c43c850e00U, 0x3b9e8870bdc2089fU,
  0x3d6866a03c1a1224U, 0xbd3936763daab394U, 0x3d95bf85bd3ee980U, 0xbd01b33d3cdc8b03U,
  0xbcf722c4bd2c5be0U, 0x3d09ccefbd542fecU, 0xbdb24d373dc22dfaU, 0xbdfd8f70bcad9437U,
  0x3c1ba408bd6e7a3bU, 0x3db85f2ebd958475U, 0xbd5f6d83bb69e40bU, 0x3daaa55bbd054e56U,
  0xbbe6d90a3d180bccU, 0xbda60a233cd4a827U, 0xbcb6bb5f3c4c8f76U, 0x3cf85dc8bd393d23U,
  0x3d93a4d4bd6da625U, 0x3dac81d03d6397e0U, 0xbdd2f0b8bbc8a043U, 0x3d4ce93e3dad7d9eU,
  0xbda6cc2e3dac3776U, 0x3d8371ed3d4a3e09U, 0x3d03d84a3be084cdU, 0x3d90cf5d3cc1de39U,
  0x3ba56d0f3d9e6cdbU, 0x3d3251d63d247647U, 0xbc98ba5abd57e46eU, 0xbd8ab673bcc9bf42U,
  0x3d999650bd4eb463U, 0x3d271d81bd39ceb7U, 0xbdbd078cbcb50cdfU, 0xbcada760bdc92965U,
  0x3d8abab03d19563dU, 0xbd9aaccbbdb9d8c7U, 0x3d626376bbeec34cU, 0x3cb6f40c3ca9e350U,
  0xbc8eb7dcbd8483f6U, 0xbd8cc2f33cf2c033U, 0x3d7c35c6bdc48c8aU, 0x3d18598fbd2f8aa0U,
  0x3d93fac2bcb1f2ecU, 0xbdb99e59bda1e742U, 0xbda3a870bd54fc22U, 0x3d0a6b103d5a810eU,
  0xbd976d823ccc7dabU, 0xbce78a4f3caebc4eU, 0x3b0bc9d43d9a5f3eU, 0x3d67fe02bdb97b63U,
  0xbd94faaf3b640476U, 0x3c4ebd503d873d22U, 0xbcbfd1d43d1d9779U, 0x3bed7b863b166cedU,
  0x3be6e24d3d46838cU, 0xbdc0643ebd31f8daU, 0x3ca788353d991487U, 0x3db5bb93bd12459dU,
  0x3d986c90bba246b0U, 0x3cfe89debdb46fd3U, 0xbdbf70febdb6426cU, 0x3d90acc5bd5d449bU,
  0xbdb497523d473217U, 0x3c94775a3d9d88e7U, 0x3d2701b4bd869f84U, 0xbd6ee70abd1da11cU,
  0xbd830f54bd376b7aU, 0xbdb48d11b9ce21a8U, 0xbd7f73c43dc3835bU, 0xbc82a8c43da2c120U,
  0x3d1e3aae3c561f10U, 0xbd01265e3cfa47b5U, 0xbd95a9853d9425adU, 0x3dbeaba5bd984e42U,
  0xbd1f69a13cac3d16U, 0xbdb7af2fbd0d4815U, 0x3c61c5063d5167e7U, 0xbbdde6823ba5bb75U,
  0xbb86cd94bcf41d7eU, 0x3dbaa645bd5954b8U, 0x3cc6a1183c667cd5U, 0xbdcb57273d45fcfaU,
  0xbdbc7f303bf259c5U, 0xbd1ce366bd800137U, 0xbd8f5aa4bd987f0dU, 0x3d31de563d9cd5e1U,
  0xbd8a015e3db96b8fU, 0xbd1633a3bd3edf96U, 0xbbc26b8cbd7ff48eU, 0xbc29c4d73db813e8U,
  0x3d17de7e3daf3adeU, 0xbd437ea2bdbce647U, 0xbd5da5d93bf398e0U, 0x3d7853e63b23a859U,
  0x3d0f02393b8abf08U, 0x3c20e7193d401b71U, 0x3d2d0c573d97d298U, 0xbc8e2630bcf0c1f8U,
  0xbd93de69bda2183aU, 0x3db0e2333d7ba3f5U, 0x3cc13231bdaad3edU, 0x3daa9f813d6902f9U,
  0x3bf9ad34bd8ec61aU, 0xbdb53a85ba2e2eaaU, 0xbcf7c4afbcbe1cd5U, 0x3cc56d1abbc8a563U,
  0xbdcc5784bd51439bU, 0x3c438ebc3d96bda2U, 0xbdb3341a3d8222eaU, 0xbc8e4480bd9c96c7U,
  0x3cfa46f73d8aee76U, 0xbd7d37de3d003b57U, 0xbd38e743bdc25959U, 0x3dad69273c60e41dU,
  0xbd615987bce66e2bU, 0xbc4e639f3d60148bU, 0xbd1b6e713af5a714U, 0xbc4df9dcbd863ea2U,
  0xbcb0658dbcf1c7caU, 0x3d904454bd988075U, 0x3d076bebbc8f3f5eU, 0xbc2245383c9aeb28U,
  0x3d4a3688bd1d05a2U, 0x3d90f0e93d07e54cU, 0xbdbbd3a63d3678a7U, 0xbc6fb1b6bdc101d8U,
  0x3d93cd79bda790c2U, 0x3c6e51dc3d5a1341U, 0x3d978038bcc7db28U, 0xbdb0a658bc075cf1U,
  0xbdb5e00cbd9a2911U, 0xbce7b54c3db74097U, 0xbc36cb31bdbd4c59U, 0x3d75ee1a3dc3336fU,
  0x3dc69c473ca55bbaU, 0xbd86f6e1bc8ab9bcU, 0x3d82bb463cc05343U, 0x3d898c76bccca082U,
  0x3d8e30ffbd276cdfU, 0x3cb6a9c03d9d1f9aU, 0x3d2b5f3ebc18f061U, 0x3d4a0a36bd7e453eU,
  0x3dbee1e9bd34a72dU, 0xbc8a96c43d4dee87U, 0x3c9475503d9858e3U, 0x3d578482bce31e98U,
  0xbbf97f0b3d5ba833U, 0x3d236debbd10b6abU, 0x3cca42893daf747dU, 0xbdadad783c52ff9eU,
  0xbda0f3b33d873cddU, 0xbd6ad1bdbccae0bdU, 0xbd5b8481bcda4fa3U, 0x3b0a0ab7bd9a88deU,
  0xbd40fc9d3d249a55U, 0xbd306491bdb095fcU, 0xbd2f926d3d62325eU, 0x3d5fa1eebd012739U,
  0xbd6933633d8e655aU, 0xbbd5555a3d9a549bU, 0x3d67483a3db0d96eU, 0xbc89ee643c2a17d1U,
  0xbdbc54b33d0715efU, 0x3d7b0d0f3daef472U, 0xbb5f5263bc9799aaU, 0x3ce08885bd93b448U,
  0xbd3e1b1cbd9ac333U, 0x3b37cef03da6a4abU, 0x3ab73c833d9d5c55U, 0xbc3966a0bd9b8542U,
  0xbce820b9bb792659U, 0xbd105e4f3dbe00b4U, 0xbc8334acbd9e93a6U, 0xbd7fa7893d775abdU,
  0xbc3efbff3daa5910U, 0xbd7500823bf8efa6U, 0xbda6fdec3c10bdefU, 0x3d1a3a403c3628e2U,
  0x3d0badc73d182106U, 0xbc508f6cbd56804cU, 0x3b65d6b3bd10ff2aU, 0x3d3a78bebcb9dc34U,
  0xbdb10086bd89cd0bU, 0xbc459a133d785881U, 0xbd7b7ac43cb0e0d9U, 0xbd94cb5e3d236853U,
  0x3d8403bd3db22cfaU, 0x3ca0a0a5bda86becU, 0x3d03b122bc03f04fU, 0xbdb219f4bd0688eeU,
  0xbd897a3f3d3f83ebU, 0xbdac3cd43a805978U, 0xbca8b77d3d0180abU, 0x3da49261bd4426d3U,
  0xbd346275bd292beeU, 0x3d14153b3ccd1f11U, 0x3d3146463d41e452U, 0x3d824f41bbc61df9U,
  0x3da355cb3d9fa4b0U, 0xbd55ae0d3ce454d5U, 0xbd8524bf3bda2b28U, 0xbdc7aa513d655d65U,
  0xbdbe38183d87e005U, 0x3d4c61f1bc45e809U, 0xbd042b6d3db7a731U, 0xbc26d4b8ba2f6b00U,
  0xbd4a6c31bd68c243U, 0xbcb8a768bdbca5c3U, 0xbda9087ebda2217bU, 0xbc5d9ddb3d014901U,
  0xbcd649ba3d35a71cU, 0xbd3dd1f4bd80d278U, 0x3d3a3e4bbd0bc33bU, 0x3cb094f2bd6f6ef2U,
  0x3d6a68e93cfc8f50U, 0x3c475322bb9cba82U, 0xbdaa01d43d79a851U, 0xbd9af62f3d0b1dd2U,
  0xbd26a60f3d05febfU, 0x3daebd2abcee7c9fU, 0xbda5216abdca52c7U, 0xbd1bb4773a92a0cbU,
  0x3d6dddbf3cd5a0c0U, 0xbcd653123d87fdb5U, 0x3d3840813d3520c2U, 0xbdca0d993d8d9856U,
  0xbd5bce6c3da5e25fU, 0xbd7d57773cc70a37U, 0xbd8a0aa8bba3524cU, 0x3d325bcabd4c2d31U,
  0x3d96c12abd8629ecU, 0xbd70f800bc4c861eU, 0x3da0438b3da509bbU, 0xbd0c02da3d3e082bU,
  0x3c2e00aa3daaea21U, 0xbd2307a83d93e204U, 0x3d44cbb7bd99d2e4U, 0x3d8e8cae3d787a4cU,
  0xbd30f136bc9b81f8U, 0x3b35cf17bd2fa1b5U, 0x3ce8c8e0bd1d0c58U, 0xbd556c2cbd888cc2U,
  0x3d1252e53d4b4e5fU, 0xbd5c3de2bd6f7406U, 0x3d892a9cbd1aeb89U, 0xbd03a6c93d4099eeU,
  0xbd923e68bd8dd444U, 0xbd901ed53da689d2U, 0x3d6374c73dc0c7f8U, 0x3d3573ff3daa85f8U,
  0xbd9bbec1bc50aa93U, 0xbd8560c43d1848dcU, 0xbda756823d9b90abU, 0x3cbdb5383d839346U,
  0x3c238aeebc46a573U, 0x3b8bfdf93d0079f1U, 0xbd14ff5db9abb632U, 0x3cf7b1c4bcd9d1caU,
  0x3d50180c3dc18818U, 0x3d07440abcee5148U, 0x3d9608dc3cf4af96U, 0x3d8cc724bdba4a18U,
  0xbd2e1824bd97e32fU, 0x3db58f303d7b1f83U, 0x3d79e56cbd87460eU, 0xbd963dd0bc2b0d97U,
  0xbd8e698a3dacd274U, 0x3d5ee2c73d1d8d8cU, 0xbce465a33d73c790U, 0x3a1c946fbc00f42fU,
  0xbac392d4bd836855U, 0xbd33a07f3a532fe6U, 0x3d46ddc5bd022df8U, 0xbdd12f58bd239a2dU,
  0x3d424d88bbab5390U, 0xbd106a54bc269cf8U, 0x3c1f5a7cbb235a68U, 0xbda9058a3d4c77faU,
  0xbd484a0cbdaf359fU, 0xbd2a838b3db0532aU, 0x3db1b94ebdaa181dU, 0xbdb4fba4bd720cafU,
  0xbdb202ec3d9e741fU, 0x3d25f9c43cccf06dU, 0xbd9aadb03d5f74e9U, 0xbdea80343d408c79U,
  0xbd7beffbbd61beaaU, 0xbda50d8abccbee4eU, 0xbd491412bdc60ef8U, 0x3d7e64eabcfd5648U,
  0xbd3e57c43dae3f2bU, 0x3b4079ba3d242e13U, 0x3989b0b93c9035a2U, 0xbd7e8fe33bc63587U,
  0x3ddae6d83d3c4b7fU, 0x3cc4f6363db221b1U, 0xbbbdf732bc4ba849U, 0xbbf05c583d24d96cU,
  0xbd6c8a54bdb1c151U, 0x3d279d73bb838080U, 0xbdc70b0abcb2081fU, 0xbc72bba039db4f00U,
  0xbcb5f0c33baca954U, 0xbbc8df063c483b34U, 0xbc88df0cbca0fdb7U, 0x3d5c14a8bd77dbeeU,
  0x3d1445a23da0b0e9U, 0xbcda09efbd0ac0d0U, 0x3d0092febd954a7fU, 0xbd4d020a3cb4e15eU,
  0xbd327b6b3d82dcb6U, 0xbcb32577bdc3074eU, 0xbcd1e4ca3d681e34U, 0xbc9002383b8a5e44U,
  0xbd8ff535bd5a5dbbU, 0xbd86d900bd3c1219U, 0x3d73af8cbd8df590U, 0xbdb07e52bcc27208U,
  0x3db011da3da009a1U, 0x3d99d0553d3658f3U, 0x3d08a0ebbd5eb507U, 0x3d3f491dbdcd9b28U,
  0x3da96b96bcb5c8bfU, 0x3d6e232b3db6fa7bU, 0xbda9574b3d99f7cbU, 0x3ce38bb43d9f123fU,
  0x3db05275bda782b2U, 0xbdab3693bcf9381fU, 0xbd318d77bd27f406U, 0x3d3551393da2d479U,
  0xbc3995423d89b536U, 0xbd80d43b3c66af8dU, 0xbd9852463cd80f34U, 0x3d92a47e3dc378d4U,
  0x3d01b1a03d84ba20U, 0xbdaba648bd13be59U, 0x3d027b6bbd3b1697U, 0xbc4fb8d83d9a9579U,
  0xbd22b8babd040038U, 0x3d187b99bd60200cU, 0x3c4bc3403d99e41fU, 0xbd8507123c8a8144U,
  0x3d2c20f73d8b4d8bU, 0x3c2341483d8f7858U, 0xbc9753c43d097449U, 0x3d4c52393dbd64e9U,
  0xbbedf888bce458b2U, 0x3d237c113d951f9bU, 0x3d9d78ee3da77238U, 0xbd74502abdc2998fU,
  0x3db840c2bc4345ecU, 0xbdcb0d1b3d88344dU, 0x3d5c51e33cfde4b2U, 0xbcd504a0bc9d5907U,
  0x3dc9c1693b19427aU, 0x3d7572f3bdafab0aU, 0x3d4ab6ea3d9b0e2cU, 0x3c22f9a83cb51e3cU,
  0xbc90b0d03d5e9a2eU, 0x3d39aee6bd480f3eU, 0xbdaa7f74bcad0b1cU, 0x3d0e17963b9d6e5dU,
  0x3dac16253d4137ddU, 0x3a997facbd9e59afU, 0x3d836a763d089189U, 0x3dbdc7ddbb3949aeU,
  0x3dc758623d6b7b97U, 0x3c28e6c9bd8c9fd1U, 0x3d2264e23d8672adU, 0x3ca541d73d79ed8bU,
  0xbc971a5f3d485ddfU, 0x3cd735b13b93c2b3U, 0xbc0c80143ccb356cU, 0x3da17023bd66f944U,
  0xbdab47cebdb5c00eU, 0xbd12c291bda2460fU, 0xbd4a64383c84a4a9U, 0x3d96bd68bbaa7514U,
  0x3d04d3943d86c885U, 0xbc5902e23cd20777U, 0xbd8166b9bc656276U, 0xbc837d793c218eb4U,
  0xbd8fb4793ca723c4U, 0x3d7e8745bcf1ff6bU, 0x3db3185fbd84fdb7U, 0xbd3b524e3c9b03fcU,
  0xbc8174b6bd054f2eU, 0xbd0efd2bbd0d63d6U, 0xbd58c9393d8cf583U, 0x3d6f9b713d8ff29aU,
  0x3d25a9203d765a80U, 0xbdb28f6dbc555660U, 0xbdac50c83d9a3a08U, 0x3dc5fa043d6f9a33U,
  0x3d1fe4e03d48e44eU, 0x3d427f483d7dfce7U, 0x3d9dfacb3c9cc1b7U, 0xbdc0418cbd520ae4U,
  0x3db3f5f53da99ff9U, 0xbd5583d3bdb81c51U, 0x3d9c1de33c1a5f30U, 0x3d6332563da848e2U,
  0xbc921fbbbd0979b0U, 0xbd7a30e2bd17d018U, 0xbd0b6996bba1676cU, 0xbd8588ebbd6fb5fdU,
  0xbdbdaff83d895a18U, 0x3d2e2166bc8f6bf2U, 0x3d8ba2763d71f9f5U, 0xbd4b00113c6267e8U,
  0x3ce41ff4bc1c4201U, 0xbd8d03c73d9a3921U, 0xbd2340a4bd17933fU, 0x3be6663ebdb01b22U,
  0xbca34dc33d485534U, 0xbd1c9e3d3d22b986U, 0xbd165499bd945e61U, 0x3a843c19bd8fa270U,
  0x3bd2985ebda6b731U, 0xbd9a5da13d228654U, 0xbd482ccc3d255652U, 0x3d32d21a3cc184d0U,
  0x3daf21b23da20493U, 0x3d058bb2bd65f65aU, 0xbd4b5058bd9e83e9U, 0x3cad0b0d3d8640ceU,
  0x3d9d1e4c3c9aafc0U, 0x3db40f4e3cac5ca0U, 0xbcd72c33bb2a03b8U, 0xbd943123bd59bd08U,
  0x3cbb6b32bd2eb4d2U, 0x3d1e088bbd47a8e0U, 0xbd228148bd6ffba9U, 0x3dbe2c8bbda19a24U,
  0x3c40115dba1ad7b9U, 0x3dc6c6b8bc66ce80U, 0x3ccf33edbdb51502U, 0x3d7956a43c5305a1U,
  0x3cfc1096bbbfe7bdU, 0x3d8df1003cdc5d9eU, 0x3d5f2bc7bce83e3eU, 0xbd821286bd32f622U,
  0xbd829c71bcb0ef54U, 0xbc4ff415bd929d35U, 0xbce1cd3e3bc18763U, 0xbd2bd87b3d3bcc80U,
  0xbbb4f5033daae808U, 0xbcc7c6953ba3fd60U, 0x3ca54b113d89aeb3U, 0x3cc48a75bd8c7635U,
  0xbdb9c5f5bcdc96cdU, 0xbc6eb975bd06f664U, 0xbca202d73d53ead2U, 0xbd4892c7bc8465cdU,
  0xbd6a4148bd6c656cU, 0x3d94d8b1bd3ef74eU, 0xbd3f40213d17aa74U, 0x3db45cd1bd85e96cU,
  0x3d70a478bd4539c2U, 0x3d53691b3d8f8fa3U, 0x3dc51218bdbc3ea8U, 0x3d41035dbc39a2a3U,
  0x3cc4c4bbbc712a5bU, 0xbd88c11fbd8f828dU, 0xbd37b62dbcd75636U, 0xbdaf900b3d80b580U,
  0x3cbea5febd9293edU, 0x3cb09fe4bd887663U, 0xbd333ef1bd95df27U, 0xbcacd948bd0a0394U,
  0xbd53a2dbbda6fcd6U, 0x3d7b42cebd6eac1fU, 0xbc8515e73d71787eU, 0xbd86e530bdc1e532U,
  0x3cda8817bd252808U, 0xbcfd98513d354dc4U, 0x3bf8ee2cbdb35a73U, 0x3d6fbfa23d45f9aaU,
  0x3d8cc68abd0b6b86U, 0x3cee6de43d9582abU, 0xbda9f877bdbacdebU, 0xbd206b4f3c4790f8U,
  0x3ccf950dbd2f009dU, 0x3d621911bd97549bU, 0x3c050fb93ca3ee0aU, 0xbd109449bdbfdd07U,
  0x3c527ffd3d0db418U, 0x3dbb6835bd88e22aU, 0xbce23596bd572331U, 0x3b390871bd9e9381U,
  0xbdc256bbbcaa4ebdU, 0x3d895cc2bcc447f6U, 0xbc0aea7d3d5a2a08U, 0xbcf37c9c3d15b7e2U,
  0x3ca0b34b3dacc4afU, 0xbd540da93d4bb318U, 0xbda1724ebd611af2U, 0xbdc2af7fbd349c03U,
  0xbd2e59d2bd696659U, 0x3d9899513d7d14e1U, 0xbc9f15b43d066d1eU, 0xbcfc10a5bc512a5fU,
  0xbc32717c3dc2c92aU, 0x3d2b928b3d48e787U, 0xbcc8c4b9bb053a34U, 0xbd81ed82bc5ae740U,
  0xbdbf73f4bd080f81U, 0x3c2b277f3d3fc012U, 0xbd394a283ce85d46U, 0x3d5de9593c6bcef5U,
  0x3d274f083d7b6aaaU, 0x3c5c7029bd31fbd7U, 0x3d6def083baddc5fU, 0xbd35a9cbbdc30ffeU,
  0x3c99db25bad969a1U, 0x3d86fb8c3d82e8e6U, 0x3da81f0f3d014154U, 0xbd924b513c607828U,
  0x3d2b2fc63ca76e2bU, 0x3d95756d3d2a510bU, 0x3dc12f1c3d40a33aU, 0x3db9e07bbd7c46b0U,
  0xbc2f49cd3db7f0a4U, 0x3d23f476bdad6f57U, 0x3cc85cf0bd3679a8U, 0xbd8858b13d636915U,
  0xbd9d768d3d47b2b4U, 0x3cb6943bbc8bb4dbU, 0x3a559fdebce48e65U, 0x3db323b13d7ea003U,
  0x3c1479aebd2ba90aU, 0x3d9753a1b7fb85a6U, 0xbd80b47d3ce54290U, 0xbdc7bc9dbd227afeU,
  0x3d039c5cbcf15c51U, 0x3d95050dbbd21555U, 0x3d8b2e81bdc5a4d2U, 0xbd0a5f06bdc51133U,
  0x3ce2a5b73b8210ceU, 0x3cce67cd3c77a638U, 0xbcb7f0993d906e47U, 0xbdbc7a863bda90ecU,
  0x3d14dbdfbd820829U, 0x3d99984e3d86a068U, 0x3dbf32d639f9794aU, 0x3d97508abd2e5d9bU,
  0xbcc013803d6241ffU, 0x3b268237bd864c77U, 0x3c8e68fabc6e11f1U, 0xbc4701a7bd4fae42U,
  0x3da7d793bd30e62dU, 0x3c6a70143d961ba4U, 0x3daf3a12bdb7d51aU, 0x3ca48568bd939815U,
  0x3d886e14bd839121U, 0xbb3634e0bd7e8226U, 0x3ba50ea6bd0faf0aU, 0xbc8de37a3d8fc183U,
  0x3d96e30e3d92fa0bU, 0x3cf7bee83d2d4de3U, 0xbd3df9ff3d0a009cU, 0x3dc8908e3cd49f27U,
  0xbdaacc143d035cc5U, 0x3d220252bc567c60U, 0x3cae2353bdd208b9U, 0x3d2af7eabd789631U,
  0x3c615ee93d0e9688U, 0x3db02a0ebd092cb2U, 0xbd07a1c5bd24607cU, 0x3d0db6bbbd964ac5U,
  0x3db1eb7d3d48d2c6U, 0x3cc378633cf64ea9U, 0x3cd468b3bcea13a8U, 0xbdd3a1c4bd6021c5U,
  0xbcd2d6da3d91740dU, 0x3d84192b3d8ef516U, 0xbc385604bd17c857U, 0xbd937155bd4a044cU,
  0xba676853bc681630U, 0xbd7de6e4bd2ceb2cU, 0x3d5989fbbdadbd01U, 0x3d983c6a3dc6acbaU,
  0x3bb14d14bd8c7374U, 0x3d55b41d3d55cb54U, 0xbc076d0d3d33f11fU, 0x3d70d0423d04efc8U,
  0xbd96cd363d16ba16U, 0xbda4f8c7bdbbbc85U, 0xbc4397af3c0bdd90U, 0x3d337cf23db523b1U,
  0xbd6c9626bd512ce7U, 0xbcf411e7bd058d7fU, 0xbd65fa60bb441fcdU, 0xbd84d6393cfedbb9U,
  0x3c2a81c0bd1c11f6U, 0x3daf49f5bd6bb822U, 0x3c5b99a93c8790bbU, 0x3dda673a3d872723U,
  0x3d8b1f7fbd603d19U, 0x3c32bef63c726980U, 0x3d305f9c3cc84665U, 0xbd331f0fbca37cb4U,
  0x3dadea55bd37ed82U, 0xbcb9fb7abd98b263U, 0xbc3772f5bd3bdc89U, 0x3c34d044bc0f20cbU,
  0x3c636a1bbd2c1191U, 0x3d8a0de0bd93a51eU, 0xbdbea3a8bd8b6d58U, 0xbcf7c329bda79fedU,
  0x3d9a4fcebcb0c288U, 0x3d81a0013cef2ae5U, 0x3cc18369bd740fc4U, 0x3d753772bd173d0aU,
  0x3cabdb4f3d821f4bU, 0x3d0853623c3c3ddbU, 0x3d7a9281bdab0b93U, 0x3c9bd36b3d72d8acU,
  0x3d93700d3da88700U, 0x3cdc95823d773c5fU, 0x3d7bcfd4bc361226U, 0xbd05f2763cd9cd3cU,
  0x3c1a41edbd35ab9eU, 0xbcbfc3da3db54f3eU, 0xbd1b8e15bce93850U, 0x3c94753cbd5deb9bU,
  0x3d93088bbdcc0614U, 0xbdbc9d69bd829b6fU, 0xbce0a125bd8e0b2bU, 0xbd303f26bd4e04a0U,
  0x3d7d28b83d924c49U, 0xbbeeb21c3d9b65f6U, 0x3cefb7933c7aa5e9U, 0x3c800f32bcaf60c2U,
  0xbc611bbfbdbee7a0U, 0xbd0781adbd09686fU, 0x3d74a1d93d4ac35aU, 0x3da72fa3bd807454U,
  0x3dae8be3bc2a3d88U, 0xbd1241e63d879568U, 0x3c109aac3da4a556U, 0xbd165c5abdc408b5U,
  0xbcd5a7b33cb44e39U, 0x3d77b305bd971eb1U, 0x3d04e37bbc418cabU, 0x3dae6acdbc666ba5U,
  0x3d9e747d3d7322d5U, 0x3db666a03da7459cU, 0x3d9409b6bc85af49U, 0x3d8112cb3dacab86U,
  0xbbd0d9833da7be81U, 0xbd8ef8c43d585814U, 0x3dcf0e8dbd4ae6aeU, 0x3d387ac13d2a9fb3U,
  0x3df9843f3d6b4fa5U, 0x3da7c58bbd01a20aU, 0x3c8c1bdbbc060764U, 0xbd4411123daec135U,
  0x3d1681a63c1b0983U, 0xbce420db3d9fe175U, 0xbd9412a4bdb9fff5U, 0xbdb59fdfbdb0123fU,
  0xbdac1ac33c6cfe77U, 0x3d6ae2133da5e030U, 0xbdbacaf8bc90495aU, 0x3d7e06443bc90f36U,
  0xbd56c3dbbd714443U, 0xbd9a12a63d848da9U, 0x3c846a66bd8d2db3U, 0x3b5918d1ba4213a1U,
  0x3d042297bdbf59b3U, 0x3d0f791ebdc1c31eU, 0xbd75fa773dc162e7U, 0xbcff82383d87d3d5U,
  0xbd18c7d63be7cff6U, 0xbc850947bd234b0bU, 0xbda7bf473cf3ebf0U, 0xbd39192c3d2d8ce1U,
  0x3d80ec89bd40c485U, 0x3bbfba35bd44d39eU, 0x3d85dbf73d419ad6U, 0x3da2ccd33ce6e0ddU,
  0x3d99d8743d32c3f3U, 0xbd8a7476bdb13bb6U, 0x3d8d55d53d928697U, 0x3d899129bd9ffce3U,
  0xbcfbdc02bd2d20dfU, 0xbd59df533cf01e2bU, 0xbd1bb5b73d510e85U, 0xbdb7a238bdad94c6U,
  0x3df51d333d37bdf7U, 0xbd9aefadbd72fb9eU, 0x3c461addbda1a137U, 0xbd9ebb01bc7458aeU,
  0xbbd3cf713d925542U, 0x3d171486bd96b494U, 0xbd4b8ba43d17daa9U, 0x3d8d3c87bdbd32a3U,
  0x3d7c3c65bd98c06fU, 0xbc455e933d36db82U, 0xbd82c0f1bd98a9dcU, 0x3d9fe4173db44a53U,
  0xbcb2d0793daafacaU, 0x3bf02395bda0b911U, 0x3daf5d31bc9935c3U, 0x3db4068f3db69198U,
  0xbd77e61bbdb675a9U, 0x3d21e3e7bcabd4ceU, 0xbceed691bbd4d75aU, 0x3c6ff8a83d0c8682U,
  0xbbd576493dad9e07U, 0x3ceb7971bd8e1a26U, 0x3dbb2cf8bc69ccfaU, 0xbd8d639abc14db28U,
  0x3da65ec53da5db5bU, 0xbcc9bf033bd15f55U, 0x3c169957bdc92f61U, 0xbbfda37abd4aa250U,
  0x3c1d3ba6bcd8c8c5U, 0x3d7803dfbda1e25dU, 0x3dc83abc3d55875fU, 0xbdb17fca3db1cccdU,
  0xbda5c5b8bd769afaU, 0x3a17a1873d2a488eU, 0xbd6f574b3d95481cU, 0x3c7f51e53c0cefe4U,
  0xbc3c4b5cbd8d9468U, 0x3d1fabfd3dac7347U, 0x3c490b75bd232c22U, 0xbd738cafbdaffa17U,
  0x3d06e1e83dc18fcdU, 0x3ca12ab03cf53f75U, 0x3d551a7cbdc7c4d4U, 0x3cdcc1343d9ccf3fU,
  0xbb8151cbbbb02dc3U, 0x3cb24cc4bd300f33U, 0x3b366834bc957215U, 0x3dc573ba3d8286eeU,
  0x3b7574733da35ffdU, 0x3c74f23e3d6b8698U, 0xbc2cdc883d7ba151U, 0x3bf9687dbc650ba4U,
  0xbc7d6ce6bb397297U, 0x3d32bbcf3a5f849fU, 0x3d847dd03ce4028bU, 0xbd69b75d3d98a4bbU,
  0xbd407e7bbc392a04U, 0x3d1cf6a5bd72cd82U, 0x3d7576373d5a2cfcU, 0x3d203481bda4c465U,
  0xbcbaf6e6bd641208U, 0xbd8211973d7b56deU, 0x3d5372c5bd9df1baU, 0x3d161940bcccb1deU,
  0xbda4af1b3c850419U, 0xbd8ec7b83daa0b7bU, 0xbd748c9e3d0e5e52U, 0x3dbbfb31bd8205e3U,
  0xbd2c1a26bd1cba9fU, 0x3d257ba2bce00abdU, 0x3d7c0da3bd8f1d74U, 0x3d886e6dbd867bf0U,
  0x3d9dc65ebdb9a9e0U, 0x3d5ccfac3cad2087U, 0x3c0eab3c3d9fd075U, 0xbd191ebb3c444183U,
  0xbd1abd213d8ed045U, 0x3d0f71ec3d81e30bU, 0x3d271b7fbd175317U, 0x3d68b26e3d0aead7U,
  0xbdc4b77f3d4a0c67U, 0xbd127e093d5b7727U, 0x3d04ba42bd6bbcffU, 0xbd0449a5bd4a8de5U,
  0x3d2a8a62bd8fc66dU, 0x3d2bff73bd259aa6U, 0x3d3e93d83d94cc6eU, 0xbce9a1663db841dcU,
  0xbdbc412dbd440cc8U, 0x3d856b68bd9e1180U, 0xbc36abc23d500ba3U, 0x3cc8caf0bd6234f8U,
  0xbda37185bdbe54a5U, 0xbbefa4043ca96c0fU, 0x3b8bab1c3a93d50aU, 0x3cbfd8db3c0891f1U,
  0x3d553298bda820b1U, 0x3c0153c13a8d5752U, 0x3b44b2dc3c5295abU, 0xbb0125e5bcb8240eU,
  0xbc3c72e93cc2bcc1U, 0xbb1b2936ba9c52f2U, 0xbd49bbed3d0f765aU, 0xbcb025503d2c380dU,
  0xbd4ee7d03d2dac6cU, 0xbd39721abcfd51c9U, 0x3d80230b3d8c0311U, 0x3d60ad8fbcdc52d8U,
  0x3d1001cfbc92e66dU, 0x3d7364fcbd6d7f6eU, 0xbd3b895e3da05a1cU, 0xbd55f6153c3d66b6U,
  0xbc2d926abdb42381U, 0xbcc98d16bca046c1U, 0x3a82b332bb9c04f4U, 0x3c7ba7d03d82dd5dU,
  0xbdc5485fbd460cc4U, 0xbbc9d984bd7490deU, 0x3d9f9b293d8eaaadU, 0xbc65ec5f3dc76609U,
  0x3d5aae29bcae6f50U, 0x3da40551bcf0b5a6U, 0xbd7b66d7bd6a9861U, 0x3cc93ff6bd5fed70U,
  0x3c1cc4363c4c7511U, 0xbd355f2e3d6eb9d2U, 0x3d6f172fbd578f4eU, 0xbd910629bb5a17c0U,
  0x3d80327b3d1e35a0U, 0x3c2bbbabbca4ae42U, 0x3db1b842bdb7e2c8U, 0xbcbced9dbdc31b47U,
  0x3d09b15e3d1f25afU, 0x3d23d186bb918b93U, 0xbcbebe613c833939U, 0x3d0e13513d2e9df1U,
  0x3d8e41913d4b9db3U, 0x3c91e6bebd9f0d2eU, 0x3d7c914dbd6ffa34U, 0x3d8dfb29bc846c14U,
  0xbdad39213b41a675U, 0x3d83b6753d00930fU, 0x3b7b602bbdbb8ba7U, 0x3dc327cebd5261d2U,
  0x3d57dd17bdc03186U, 0xbd568d03bd7bedceU, 0x3d88bdb93d7679dbU, 0x3cb787083cffec8aU,
  0x3d72b727bc3047e7U, 0xbcb8846c3b2c3e33U, 0xbd198f403d53d8eaU, 0x3d2aaa4e3c9fbf04U,
  0x3c820d0ebd620da8U, 0xbd608aecbd826c33U, 0xbd12d5aabc9a9009U, 0x3d0cfa4e3c32bfc0U,
  0x3d66123abdbcb8d3U, 0xbac9a92f3d9a1046U, 0xbc641fab3c9799e5U, 0x3d5310b1bd2e365eU,
  0x3d50fa503c29fbe6U, 0x3a09fdd33d9bb9e3U, 0xbd8eecad3da7733aU, 0xbd37c67ebd1df3d7U,
  0xbd902c4dbcecceb8U, 0x3d4353a23d0634baU, 0x3bf3f59bbdc307faU, 0xbd59d26fbd26a536U,
  0x3d89236b3d2de2bdU, 0x3d157125bd2a5648U, 0xbca82d563d8efa8cU, 0x3d5253303d643e3fU,
  0x3d1aacdd3db4d17aU, 0x3c7fcd4f3d299275U, 0xbdab889ebd40c679U, 0xbbf67a70bcb49f16U,
  0x3d5e8a10bda8ecc9U, 0x3abf419ebb0c633eU, 0xbdb746e33db44553U, 0xbdbfeac23cbc145eU,
  0xbcf64314bd818e2aU, 0xbcbf5e863db4c5b7U, 0x3d3036bdbcf599a8U, 0xbc457284bd1d4f6cU,
  0x3dc23e72bd844084U, 0xbbe3146d3dc47782U, 0xbdb0a30c3d2a5abdU, 0x3dc0211bbd98c890U,
  0x3d02fd02bcf3da7fU, 0x3aebc0bebdb47c04U, 0x3d69cebb3d189330U, 0xbc43f797bd9df094U,
  0xbb0bfcffbd972868U, 0xbda76e233dc404b2U, 0x3d3133e6bd775f81U, 0xbd22555b3cc73263U,
  0xbd015b16bd8e3b6cU, 0x3d0136893c684a2cU, 0x3d967194bd91cb2fU, 0x3d7f4026bdb8d07eU,
  0x3db1c0023dae482aU, 0x3cae51acbc58346eU, 0x3c6b55fe3db70509U, 0x3d0841453aab0a78U,
  0xbd9566d13da71e75U, 0x3d007f873cd6cdcdU, 0x3c0a7eca3c5331daU, 0x3d2f9e37bd33b67dU,
  0x3c936c97bb185625U, 0xbc3d135b3c95486cU, 0x3d083d2a3d8cd8d5U, 0x3d8a3245bda15c70U,
  0xbdacc2a7bdbe28daU, 0x3d114084bd079c5eU, 0xbdc155f0bdbb7e2eU, 0x3c83f2c83bfe7b59U,
  0x3d487815ba56fcf4U, 0x3d5dcecdbdc304c3U, 0xbc6e19b1bd561fa7U, 0x3bb51054bd1694feU,
  0xbd865ef83d9f1fbeU, 0x3cf0406cbc88d8deU, 0x3b9c3c673cb48f86U, 0x3db3ea1b3da1c39cU,
  0xbd8220443d90bad7U, 0x3bb411b0bd96ae9bU, 0xbc9e9efabd8c06e8U, 0xbd2053b23d271991U,
  0x3d2d4627bd9f06b9U, 0x3d891cd5bd8f4eaeU, 0xbc866e6bbd73f5bdU, 0xbd93d51fbdb350fbU,
  0x3da0e19c3bc42a6fU, 0x3db9b6f0bd8e512fU, 0xbccdb5cf3d6db8fbU, 0x3d732adebda12ee9U,
  0xbdb9fb0a3bbb9de5U, 0x3d9f5a05bd954d6eU, 0xbd47b13fbd7a6920U, 0xbbe66601bd59a3d3U,
  0xbd9fc18c3dbe6866U, 0x3d8751453c94f246U, 0x3d86bb173c1a65e1U, 0xbca4e855bd7305caU,
  0xbc57684c3dbc633aU, 0x3d7fccb8bc11fa12U, 0x3d3553f7bd0c5c8bU, 0xbbe89ff0bd3bf5a6U,
  0xbdac9308bd590377U, 0xbd6347553d430965U, 0x3cc475acbcfd1218U, 0xba258bb23da682ecU,
  0x3ccea15d3c6ca736U, 0xbdbf02173d5c8f08U, 0xbce9809fbcbba4acU, 0xbd6dbdf2bdb2a90bU,
  0xbd8ec29a3cbe9587U, 0xbcf25609bc783c0eU, 0xbc5dc1c6bdc35aecU, 0x3c4adfd83dc339f7U,
  0x3c7e368b3d5d0732U, 0x3db4148d3c9c6604U, 0xbb4d54e53dc538f3U, 0xbd899c383c7bd5adU,
  0x3d77049c3dbb364cU, 0xbcd40d38bd05e8b4U, 0x3d8019073cfd9b50U, 0x3dc751d83da05bceU,
  0x3db988553cfdf6bfU, 0xbd4a453c3d93ebe8U, 0xbd0b9e003bdb22bdU, 0xbdb611923cd9a240U,
  0x3d8d6fb9bd21b784U, 0x3daa4bf63d28a726U, 0x3d949078bd933df2U, 0xbd26274abda62aa4U,
  0xbdc58b1d3c315624U, 0xbda73806bd7e2ab7U, 0xbd530c5a3c476a41U, 0x3be13eebbd197df6U,
  0xbd9148db3cd8aac5U, 0x3d87bd023dbbc41dU, 0x3d80f3fbbd1b053aU, 0xbd2b444b3cfc6354U,
  0x3d19146a3d786baaU, 0xbdaf19983d863941U, 0xbc0580cc3ca37e54U, 0x3c8d1937bb75a669U,
  0x3d0e97833d208ff3U, 0x3d7dadcb3db1c794U, 0xbcf04101bd1bd706U, 0xbdc69c973cd73c82U,
  0xbc973e32bd12233cU, 0x3ab3d4cfbca1080cU, 0x3b5357b33db18a8eU, 0x3d0bfb26bd5b6b4cU,
  0xbd0abe5abca41bfcU, 0xbdbcfc74bdadb64eU, 0x3d431be7bc887395U, 0x3d98df9b3dcae2f2U,
  0x3d4b962e3d415c24U, 0xbdb871ffbc8d1be7U, 0x3c59dd63bdaa52adU, 0xbc156dfabd10340eU,
  0x3d9446993d78589fU, 0x3d5101683aad6c05U, 0x3c4f4ac9bd85b791U, 0xbda2e9ab3a2a34c7U,
  0x3cbff766b9143f30U, 0x3d861163bd8985e4U, 0xbd597c80bcaefbabU, 0xbdbd74d1bc8a93ccU,
  0xbd9cdfdd3cb78abaU, 0xbd9fa4723ccdaf79U, 0xbd7873d03da77d02U, 0xbabc28ee3d5d9155U,
  0x3d936fc13d3dc8d0U, 0x3ba97f8fbd151236U, 0x3ccf3ffe3d9e8bcdU, 0xbdaabdc53d9ef648U,
  0xbd58cf293d80f961U, 0xbd50365abc9fe8dcU, 0x3dc64785bdb634d6U, 0x3b95cbf83d5cc18fU,
  0x3cdaf2b7bce6b8aaU, 0xbbfe56a03cb27d9eU, 0xbd332278bd211112U, 0x3c0fa5fc3db8bfb3U,
  0xbd413fb83c80b2a4U, 0xbdbbbf083cb430a8U, 0x3d336cb8bd6f4ae6U, 0x3d819fc53d4716e3U,
  0xbd176edabcb40d3cU, 0x3daa9a74bc9b9cb6U, 0x3c408bb53d17f557U, 0xbdba0a10bd8d9cb0U,
  0xbc95c15bbdcd08caU, 0xbd872ef13d388a9bU, 0xbd6ae777bdb9dbeaU, 0x3daaa36ebc080760U,
  0xbda744b8bce1eae4U, 0x3ce80702bc4cfa8eU, 0xbd626b533dca1296U, 0x3cce6c703cf725a4U,
  0xbd0b7d10bda7b7a3U, 0x3d04e7fb3d3a298dU, 0x3d3af5cf3d3947a5U, 0x3d0e95ee3cb1d933U,
  0xbd56334ebcad6eb8U, 0x3d9aad94bb9f3a3fU, 0x3db9b7fcbda73085U, 0xbde842443dbecd3dU,
  0xbda062463d71273aU, 0xbd228ac1bd12379bU, 0x3da6225a3daa4938U, 0xbc806bd03d94cd61U,
  0x3cee8dccbd6a64eaU, 0x3d7b91fa3d4128f5U, 0x3c9b6e3ebd80bf1dU, 0x3d860184bda0678bU,
  0x3cfd8ffc3d561abaU, 0x3c48efe0bd941365U, 0xbd09cb0e3d6b146eU, 0x3cead262bd6bb3ffU,
  0x3daee584bdb225acU, 0xbcf5a4a83d94cb69U, 0x3db19e5a396857f0U, 0xbd4f2652bda9d146U,
  0xbc2146a03d33f53fU, 0x3cd4f0cdbdbff829U, 0xbdab9d413d0ea36dU, 0xbdb714343c339939U,
  0x3c04c5653d82d873U, 0xbdbfdcee3b067043U, 0xbcc85c5c3d835cc1U, 0x3d44dfcfbd3c2dbfU,
  0xbabd6c94bd3e68b2U, 0x3d90a5743da722d0U, 0xbdc21902bd9adf71U, 0x3d874db33d215b94U,
  0x3db2c6a53d8925beU, 0xbd310f303ccbcb47U, 0x3d5481ff3d0653faU, 0x3c907c6f3d499e98U,
  0x3d8a807abd1b2952U, 0xbc3362163d6c581cU, 0xbd9b33013cbd846bU, 0x3b87e3a0bd7d6993U,
  0x3c94db473d8a0bafU, 0xbcfa81623c96c04bU, 0xbd02c9c03d68ea3dU, 0x3d795bd6bd121a29U,
  0xbd1b166dbd82be02U, 0xbd999e293db178d8U, 0x3d85f8ccbd8c9331U, 0xbda1594abc0ab446U,
  0x3d106404bd8eb35cU, 0xbd3951453d9b83a8U, 0xbd04614f3d9ec8d0U, 0xbc68dfbc3dc331eaU,
  0xbd4cf0853d5c74bdU, 0xbd5a89363d8cad09U, 0x3db17753bb114a85U, 0x3d866acdbdae82aeU,
  0xbd4660e63c7d0940U, 0x3d99c973bd4e0ca7U, 0xbcb616b23d493355U, 0xbdaf732f3daba008U,
  0x3c285366bdb3719fU, 0x3d7d25833d47cd05U, 0x3bf5f1e23d7eefbeU, 0xbd3997493d5161e4U,
  0xbcd2c14dbcda763cU, 0xbc6e3d91bd695be6U, 0x3d3450b6bc9b3c73U, 0xbd66fd77bd2cbd40U,
  0x3da8c656bd12f6acU, 0xbd8ecb0f3d8c217aU, 0xbd863a37bd8d0d53U, 0xbdaba876bc06a496U,
  0xbca9e4a4bcd4637dU, 0xbda86627bdc4aec7U, 0xbce15e6dbdc480c3U, 0xbd28ae6e3d574b90U,
  0x3d380d60bd56020dU, 0x3c5b0af8bd91ebd2U, 0xbc832e87bcf37790U, 0x3ce82f903c8c9404U,
  0x3d9385673ccbdadaU, 0xbc632c203db631daU, 0x3d41e40c3d18a4deU, 0x3d0e55753cce53afU,
  0x3d48cff93d0720c8U, 0xbdaeaf913cf3f999U, 0x3d3bd1773d848aa2U, 0xbcf0635bbd91f2a5U,
  0xbd9463b53d39bcd6U, 0xbdbacd1cbdbf7a44U, 0xbd39ad613d3a7a94U, 0xbcffce88bd47736aU,
  0xbd45c29bbd6326a4U, 0x3d8e20913da72d73U, 0xbdc275ac3cbd007dU, 0x3d42dab13da0332dU,
  0xbd8691e23d8371e8U, 0x3d0c29dabbf4b6abU, 0x3b2589613d4836d0U, 0x3d6e5bd1bb1db5d6U,
  0x3d9f1de43d44881dU, 0x3cd53783bc58b1d1U, 0xbced8a42bd4098d3U, 0x3d3d7db23d71b88aU,
  0x3c3a84f23d39fdd4U, 0xbdc01e0abcfa340bU, 0xbc5255343d3afe82U, 0xbb809c0e3d3907b9U,
  0xbd8f4bbb3dc0f321U, 0x3bef69f43d09d191U, 0x3db6dfa8bdbe2bbbU, 0x3d82eaab3ca4c29fU,
  0x3ddc89cabc8b1eddU, 0xb97d89ac3d343e03U, 0x3c9e7b853d0dd52dU, 0x3d8e05c73d8bff33U,
  0xbda434ec3d88f808U, 0x3d19acd93d25ad92U, 0xbd423aac3d0cf920U, 0x3d390f9bbd878f07U,
  0x3dd56d843c4db354U, 0x3d8a80703d80d58bU, 0x3d2a14113d87b966U, 0x3d8ab80ebd88b83aU,
  0x3c811024bc9dd6feU, 0xbc29ba513d0583fdU, 0x3a385ff5bd917553U, 0x3ce48b603da01391U,
  0xbcfecb2dbd79b9e8U, 0xbdb260fbbd7b914bU, 0x3dadd71fbd9500e4U, 0x3d2ce35c3d691a57U,
  0x3dcdf79ebd82f302U, 0xbd78253ebd7f8ad7U, 0xbc898a7cbda15310U, 0xbd118c9e3d48e9e5U,
  0xbcf9c0643d4d4dc1U, 0xbd998487bc2fe4d0U, 0x3dad4c4c3d434bd3U, 0xbd95f32e3c2d815eU,
  0x3d65f0343da9799aU, 0x3db621ca3cab891aU, 0x3da1cb6f3d3c3b70U, 0xbcbb9f623c0bc0a3U,
  0x3da957973ccfc267U, 0xbda9e31d3d657ddaU, 0xbd90f0923c90ed99U, 0x3d0f2dfdbd3146d9U,
  0x3d476df2bd94812bU, 0xbc7458c0bd56ee90U, 0xbce4f0333d0aff46U, 0xbd5dc240bdbdd7e6U,
  0xbc8caf533c1b5f11U, 0x3d9f5874bd42c371U, 0xbd0c68333c298faaU, 0xbdbaf4b43d80ad98U,
  0x3d41cec8bda3728fU, 0x3d986ccc3ce55c62U, 0xbc72e8103d08d6e7U, 0x3d2c99d6bc9d7aa0U,
  0xbd92a72fbd487a76U, 0x3dadae9ebd879a9eU, 0x3d02e4193d391793U, 0x3d7e7aaa3b91f9d3U,
  0xbce3e6b8ba245a59U, 0xbdb73af5bdc0d234U, 0xbd4e9104bc80db9bU, 0xbdba8e53bc0bc6a2U,
  0x3caba5b2bdaae1b3U, 0xbd713f32bcbd9c73U, 0x3bcd8a893c5e4268U, 0x3c92dccfbd94e699U,
  0x3d891fbfbc8e33aaU, 0x3d59c2873db077a5U, 0x3c31b4a43c1669ddU, 0x3d25b2823cba83d0U,
  0x3d08cad6bbe1b7e3U, 0xbb34ad28bdb6ec54U, 0xbc358afe3d0b99a0U, 0xbd0c842c3d89e992U,
  0xbd6f4c6b3dbb8c81U, 0x3d8bb05e3c921995U, 0xbd94fd463beb56daU, 0xbcfb4bedbd6a1112U,
  0x3c198e1abd0f3d5eU, 0x3d897dfe3d41f4a4U, 0xbbf4b725bde30e76U, 0xbd1e82c0bd833d97U,
  0xbd03ab643d43c02fU, 0xbcc2e804bcdb630dU, 0x3dccd8de3c7cf6c7U, 0xbda15a92bd22b3d6U,
  0xbd0544b93d6247a2U, 0x3dd2be9c3d7d3f3fU, 0xbd7e336d3c5aa874U, 0xbbedc1413da84e92U,
  0x3c214f9e3da7c4efU, 0x3cfd866abd9dc0ceU, 0xbcd08d61bd2219d4U, 0x3d7845623d5567feU,
  0x3bcdb2ecbd85f952U, 0x3d6ebfed3cf01a6aU, 0xbc074228bb108a47U, 0xbcaeb10bbcffb105U,
  0xbd487a823c9c421fU, 0x3d6992e7bd89702fU, 0xbdac7640bd7d9448U, 0xbd0b4d413d130eb5U,
  0xbda53a573c14d31dU, 0xbba094233db8d269U, 0xbc7d69b2bd9efd8dU, 0x3be165f03aaaaf80U,
  0x3d4fdb3cbc7555e7U, 0xba76808cbc9bb2f1U, 0xbdb8ba8abdb241c8U, 0x3db5f58cbda48d23U,
  0x3d5541663d1b9b20U, 0xbc5dc4a73c6b31ebU, 0xbd9e1ec9bd6bec8fU, 0x3d47aa68bda62a66U,
  0xbbfc5f54bd92b49bU, 0x3d767ee43d0b385cU, 0xbd7f13e73bd4a48cU, 0x3d1030a2bc50ef78U,
  0xbd756a1d3d01bfafU, 0x3da8cf66bdadd8c1U, 0xbcd4c6f13b06d300U, 0xbcad40c63d95234bU,
  0x3d46f54b3d9eeb35U, 0x3c025539bd2ee2a6U, 0x3d7697953ce784d2U, 0x3d64f032bc9421cfU,
  0x3da79c0b3da7f59cU, 0xbdc037f63d207359U, 0x3c40d5133c493e39U, 0xbd0809d2bca1c094U,
  0x3d308fc7bcb5a2fbU, 0xbd1196b4bdb50ab2U, 0xbd3891023d1f1d00U, 0xbc2e487a3d4a2120U,
  0xbd35e07dbd306048U, 0xbd8ad563bc7cb27bU, 0xbd852e853c8361eaU, 0xbc465fd83cc9f030U,
  0xbdbf4b4f3d8f2cf4U, 0xbd2483bdbd2cdab2U, 0xbd70cde2bd2845c5U, 0x3cb52ab0bd36d651U,
  0x3d6300d1bc2a0fa4U, 0xbd33a44b3b34d3a6U, 0x3dbcfcd3bdaf0770U, 0xbbd6cb5f3cb0176bU,
  0x3d9d37a13d88fe03U, 0x3d225b253da0d33fU, 0x3d4cc96d3d32d923U, 0x3cba9a093d9b64c0U,
  0x3dae96d9bcb91220U, 0xbccb2d71bc154287U, 0xbd74c9e73ae899fdU, 0xbd16f30abcd4958fU,
  0xbd996e8b3d33133dU, 0xbdb80b47bc7f2e20U, 0xbccd4c4abd379dfbU, 0x3cd267cdbd355286U,
  0xbd19cd6fbd446fe0U, 0x3d093eb13c8a9ab0U, 0xbc6b24aabd471969U, 0xbc5620a2bd4067f7U,
  0xbd5b57b03d365649U, 0x3d41b727bd33c802U, 0xbcac23073c826b68U, 0x3d1a7b763db2ef61U,
  0xbdb934eb3da0ab29U, 0x3c7035123d93004aU, 0xbdb6e5223d75170fU, 0x3dabf0483d00462cU,
  0xbbe02eab3d2ffbf3U, 0x3c8d0f59bd4e4273U, 0x3d1573453d95931cU, 0xbce6db3bbd8dc2c2U,
  0x3d8a3ebb3d4fc432U, 0xbd158ae6bd999ddeU, 0xbc954824bd416ec0U, 0x3cec392cbcf7e6a0U,
  0x3ce5e79cbca4cfd3U, 0xbcf6bc85b9c108d7U, 0xbd63f0e73db3e33aU, 0xbd64b6983c0a8d49U,
  0xbd48218abab02c5dU, 0x3abbf964bc32e440U, 0x3c29b8523c7dd848U, 0xbd912423bd94bd1cU,
  0xbcd618aa3db16397U, 0x3d97c0d73db0c220U, 0x3c76739dbc52d60fU, 0x3d2f7ec6bd94d2e9U,
  0x3c428bb6bcd3aabaU, 0x3d38a05a3da0e2aeU, 0x3da520f3bc88936fU, 0x3da8fb633d7277a1U,
  0x3cdc57ff3bd85d63U, 0xbc95c566bd3ab6c0U, 0x3d5fa2883d01266fU, 0xbd9b035ebd987833U,
  0xbd19bc693d84beb2U, 0x3d720d03bcaaec5cU, 0x3d3c3944bdc47196U, 0xbda35629bd48e034U,
  0xbd506d743d9f3c6aU, 0xbda3c2303dc3e27fU, 0x3d05e6823d0b4d33U, 0x3bb146eabd85e52cU,
  0xbd8fe0bc3d957d07U, 0xbcefd2d2bda70243U, 0xbcece3c93c252b3fU, 0xbd61ccbc390e7af8U,
  0x3c863d81bc612f2cU, 0x3d822f003d7ba21aU, 0x3d7295b73d792b64U, 0xbd8ebeb33da9a643U,
  0xbcb244cebcf2ad6aU, 0x3d48cca93d25a12dU, 0x3d37784b3d284230U, 0xbd3cfc1ebd3009deU,
  0xbd80bfb2bc528badU, 0xbd09fe33bd09fedeU, 0x3d208b543d9a4006U, 0xbdd05a2c3d15142aU,
  0x3d67c915bd9b9782U, 0xbd944288bdbe72acU, 0x3d885530bcf0b5a7U, 0xbd49a2253d368062U,
  0x3d194a293bb1573bU, 0x3dd5fee4bbdc69adU, 0xbc2f787dbdaa11e0U, 0x3d3358debd7b7cabU,
  0x3d004ac43d9fcb5aU, 0x3db025d13d792bf4U, 0xbdac843b3d056a80U, 0xbbf667e0bd1bace4U,
  0xbcf9a7a83dbe6815U, 0x3d3f7bf03b7eac27U, 0xbda95d9c3c03b334U, 0xbdc38e74bdb828cdU,
  0xbd14399fbd882195U, 0x3d3281dbbd8685b3U, 0xba4fa9d33d9268a3U, 0xbd39f2013c95bd45U,
  0x3d9b115bbd314ba2U, 0x3bdc6dedbb16bd99U, 0x3d6242fd3cfa6885U, 0x3d8cc7e1bd7bc764U,
  0xbd8b7d82bdc0ef3cU, 0x3d9a5e33bdbe2c7cU, 0xbc92bf653bf3c73aU, 0xbd47cf8d3d8ebab1U,
  0x3d5076d43d3e83bdU, 0x3da23aa1bdaa44f0U, 0x3d8109073d367165U, 0x3cfab9a8bd1fd4caU,
  0xbd0a08703caa6e88U, 0x3dc334cbbd37c85cU, 0x3dcbb841bd62fda0U, 0x3c2d2b603db3551eU,
  0xbd2d56cdbcc26698U, 0xbd5b58e83c952bb8U, 0x3d7f9eb43d3e888dU, 0x3dad7979bd5f9fa9U,
  0xbdb7164aba4f3231U, 0xbc1a7a25bd4d448fU, 0xbd10f3a1bd1a024dU, 0x3c1d43b13be8498aU,
  0x3d26a72e3c98b7b1U, 0xbc63f6ab3be83b20U, 0xbd3081103d449149U, 0xbd1977a13c9a1956U,
  0x3bdcf85c3db613bcU, 0xbcd6b6e23d32f9a7U, 0xbccf36b1bdc53d3cU, 0xbd7601023cede7bcU,
  0xbd8f64f2bcc4d62aU, 0xbc6e6aa9bb7b48d4U, 0xbda19da0bd9691daU, 0xbd14f871bd09e50dU,
  0x3d26f2933d628493U, 0x3dbd7edfbd8372c3U, 0x3ceb1e6cbd6982caU, 0xbd37ef9a3da1d0beU,
  0x3d6a58093bf0e981U, 0x3d86a7d7bcfb42d1U, 0x3d30bfcfbabef540U, 0x3c2d5ae8bda794d3U,
  0xbdb14262bd35444eU, 0xbc9fade83d9669a8U, 0x3d1cb7ef3c120bd3U, 0xbd8bdcb3bda606f2U,
  0x3d4c67a9bd8b13baU, 0x3ba902043d9d0d59U, 0x3dc854bc3d9f4bf4U, 0x3d7bc28a3d2c1c08U,
  0x3d8c9814bd03e2c6U, 0x3c9fe2d1bbf2838dU, 0x3dba95b6bc06690aU, 0x3da1955b3c25a33aU,
  0xbd8a4283bd8d1768U, 0xbd03a438bda7455fU, 0x3d81ccfebd955e07U, 0xbb080d87bc670904U,
  0x3da74e583d5cc9ceU, 0xbcc0d036bd755d14U, 0xbda919a9bd8b55b5U, 0xbaae7425bcf5634bU,
  0x3d37ca02bdc029e0U, 0x3bcae588bb8e7b31U, 0x3c1ee3f0bd0f9f1dU, 0xbdb6fb28bd67ee39U,
  0x3d8f5d4ebd119f8dU, 0xbd171581bca8a4e7U, 0xbce8b5a4bcddcabcU, 0x3dc6d7353ce2f63fU,
  0x3dc277e5bc3aa520U, 0x3c8ef349bb3046cfU, 0x3d523c0bbaae87cdU, 0x3d984b1dbd562c91U,
  0xbdbebcbdbdc1d2c2U, 0x3c40b86ebdba3aefU, 0x3d48cb7abdb89c4bU, 0x3d2cad3a3c5461f0U,
  0x3da8e6843c1242c4U, 0x3d05d7f2bcf74825U, 0x3dba078abd9b60d0U, 0x3b531ec3bd03b645U,
  0x3cd690d63c90fc7bU, 0xbc7c44193c3d95dbU, 0x3da393153ce8525eU, 0x3d0297d13d0c2d0eU,
  0xbda7b39dbd6f62eaU, 0x3d1b2e7c3d8fcaecU, 0x3d996b413da77582U, 0x3c8de4a0bd52e764U,
  0x3a1fb873bd1e9433U, 0xbda966fa3d3fb565U, 0xbcabf21c3d8b7937U, 0xbd8c73e2baa4fb73U,
  0x3d47a1a73cb56762U, 0xbdc28823bd8b568aU, 0x3d631549bda8536eU, 0x3d61734dbd426be1U,
  0x3d94dff73b798826U, 0xbd6f3856bd9f53e2U, 0x3d6be2583c8637f6U, 0xbdbe3fe6bd882d15U,
  0xbd5b30b83c9c5156U, 0x3d928ef53da2863bU, 0x3d4eb763bd32fa0cU, 0x3ca95e353b88f488U,
  0xbdb45feabcf246c0U, 0xbd82a72fbd5a2a65U, 0xbc01d64bbd14bdeaU, 0xbdbf3d783d3b4b32U,
  0x3c98a067bd6afbb9U, 0x3d889554bd23f592U, 0xbc9f3e303d5b74a7U, 0x3d21f4ea3db27633U,
  0x3db3034f3d117a74U, 0x3d667524bd327d87U, 0x3d3de69abd0e332dU, 0xbdaf2d153cbc0e20U,
  0xbcde13fbbdbccbb7U, 0x3dad95153c74597fU, 0xbcda30dbbc4b3cceU, 0x3d22a5afbd5200eeU,
  0xbd3a85a4bcf78f74U, 0xbda40d143da7fe58U, 0x3da72b4abd70d4a0U, 0x3d35f99a3c8b95f0U,
  0x3d8995ffbcf88f0dU, 0xbd38d6debdb36ceaU, 0x3c08eb03bd9565e7U, 0xbc216aed3d725250U,
  0xbdcef1303d7a1297U, 0xbc452c77bd7564cfU, 0xbd4af269bd5c0e3fU, 0x3d069ec23d7e3ddaU,
  0xbd9818ee3d980662U, 0xbcfa97893d77f77bU, 0xbca1a5dabd081d48U, 0x3d08ee463d112612U,
  0x3d66483e3c93ada3U, 0x3c99672c3db1c59bU, 0x3d9477ebbcdef416U, 0x3d878f583d84c40aU,
  0x3d5da741bcd6f377U, 0xbcf24ee6bcc7464cU, 0x3c727b17bcdfce40U, 0x3bb765aa3d69e67aU,
  0x3d9db25c3d8b7c03U, 0xbdb9f2563da09dd4U, 0x3ba81400bda1a2ecU, 0xbd0bfce13cf4d557U,
  0xbd137ff33d850f75U, 0xbc8315593d9a113fU, 0x3d93bc693d861f0dU, 0xbd8e378e3d41ed59U,
  0xbd85b516bd9a4997U, 0x3de65b133dbae157U, 0x3d7e54343c1d0f09U, 0xbb7664d9bd600bceU,
  0xbb2ab33cbd8a38abU, 0x3d66cd803da26bd5U, 0x3c2db87a3da93ea5U, 0x3d6f25423ccccd85U,
  0x3c2a0d8dbcdeb61aU, 0x3da225f7bca997c1U, 0x3d9240ea3d404b74U, 0x3d890840bdcc222aU,
  0x3d905d8cbd3451aaU, 0x3d393bb5bd6ce979U, 0x3d04b7dbbd9ba1caU, 0xbd6647c83dba4406U,
  0xbd8069103c863965U, 0x3d8c197c3da843dbU, 0x3d716f653daaef4aU, 0x3d8f2d77bc1e7164U,
  0xbd897cfa3cb9fd7eU, 0xbd5e3b773dabf93eU, 0x3d2a1524bc334cf9U, 0x3d8a2cdabcc0b5bfU,
  0xbdacb1b93c55129fU, 0xba66adc43d9cad30U, 0xbabdaf843c8c1eb6U, 0x3d87d1f93cd01907U,
  0xbd59f91cbd63a61dU, 0x3d2f6e443a94b443U, 0x3cef75653d3e73dcU, 0x3daf5f253dc3f62bU,
  0x3cf16ef5bda1b76eU, 0xbd0de17cbd34e183U, 0x3d47a1c7bda00ed8U, 0xbdc4745cbd93b685U,
  0xbd5b5d96bc47d41cU, 0xbc8b0d8dbd81d75fU, 0xbdb0d99cbc9d3fabU, 0xbd7934b3bd01a786U,
  0x3db398803c8f9b69U, 0x3d864b0b3d7e5e2dU, 0x3db61d2c3da2d1d0U, 0xbd8a5be33d881c85U,
  0xbdae7f293d8d6db4U, 0x3dbe3cff3dc5f7b1U, 0x3c8db98c3d7050ddU, 0xbdaa752b3d551ce7U,
  0xbc99f82bbc4bb878U, 0xbdbccd08bc83c250U, 0xbca96465bd8c7704U, 0xbd9688713c720f7cU,
  0x3db6adccbc0e1ed5U, 0x3dbd47ba3d846dbeU, 0xbca21cbb3d93aa8fU, 0x3bbafa90bcaf8a7cU,
  0xbd442ee03d9d1e14U, 0x3db1f92ebcf9c916U, 0x3d99012abcd054ebU, 0x3ccdc3cbbda2fc6bU,
  0xbc9a9fdfbdc739cdU, 0xbd9aa698bd470f07U, 0xbd57237abd3c75cbU, 0x3d4a57bfbd2533e2U,
  0xbbaa43c2bced4737U, 0x3cefd428bdb5048bU, 0xbd61bfd3bd9aa1baU, 0xbd24a2b13d139c0eU,
  0x3b5bfb92bd04c0a4U, 0xbdac74923b9f99a4U, 0xbdb5cad23d8db460U, 0x3d9dcf593cd51221U,
  0xbdb6d2e23da4ab50U, 0xbcdf77a1bd0ec86eU, 0x3d392590bd925aa1U, 0xbc38270bbd8ae535U,
  0x3db5ce01bc9e146eU, 0x3d2253f43dba8d00U, 0x3c88e1073d6fadc7U, 0x3d640806bd13dac5U,
  0xbcb7b82f3c62193eU, 0x3db11551bcada8ceU, 0x3c304483bdb675baU, 0xbcffc7643dbb8b65U,
  0xbd438d42bd434243U, 0xbd7f4330bdb80b60U, 0x3db759113d5d16e8U, 0x3c8902853c80b362U,
  0x3d7376c43d4beb0dU, 0xbdaaebdabd7029f3U, 0x3c910af53dc37512U, 0xbaf519c03ccfe860U,
  0x3d9dcb33bd8cbd70U, 0xbda10332bd8e7065U, 0x3bf5e4fa3db2c6ccU, 0x3d98c1ab3d0224e9U,
  0x3d970353bc1489a8U, 0x3b2c293ebd3cdec2U, 0xbcaee2c03d55ba9bU, 0x3d4ad759bd8cc921U,
  0xbd94df11bcae7500U, 0x3d9d53233d317bcaU, 0xbd817574bd822670U, 0x3c15c7d8bd8fe325U,
  0x3d81f0753d7feb96U, 0x3d992416bd3bf24fU, 0x3d444b9ebd5735d1U, 0xbd1416a53b02d165U,
  0xbcb14917bd2719a6U, 0xbbf7ac55bd0443aaU, 0xbd7edc64bd908e9fU, 0xbd95c216bc4e4cb9U,
  0x3d528a7c3d7736c5U, 0xbcb2c92f3d839066U, 0xbbaebde8bdb3edadU, 0x3cf381f4bdbc4587U,
  0xbd92fd783d9eacbbU, 0x3db4ff233c1b48a3U, 0x3d4027ab3d79aa17U, 0xbd9696603d65bd19U,
  0xbc201092bcaabfb9U, 0x3c236a203d60369cU, 0xbbd42fcbbcfebd53U, 0x3d8677973d962c9dU,
  0x3d37eef1bdaada3dU, 0xbd5a18c23da0ccc9U, 0x3dc109f5bd4d72d9U, 0x3d5f4faabcfc2ec2U,
  0xbd8902753ce46db6U, 0xbda0cc2a3d966b1aU, 0x3d85f5103d8ec4a5U, 0xbc5d498dbd2ee070U,
  0x3cff9e2fbd8df36cU, 0x3d86ab25bc024c32U, 0xbcc9ebc2bb2331caU, 0x3dbd74cb3daedebbU,
  0x3d99285cbdb19834U, 0x3dc31fe63d529092U, 0x3d0e5e113d9b78e5U, 0xbd82150fbd452485U,
  0x3ce96ba23d540e53U, 0xbdb0e8b5bd860fefU, 0xbd10508b3d0ccfe0U, 0x3d89e3e2bdb75a67U,
  0xbc3c3c7e3cfa93efU, 0x3d70c4f3bdae16d3U, 0xbcb42f283d83ce01U, 0xbd3bfd543db6c7ecU,
  0xbd5482ca3d430f6dU, 0x3d0597da3d87e462U, 0x3c7865003d3ec6a5U, 0xbd3cbc98bdb550cfU,
  0x3d4bb5d3bce6dbf9U, 0xbd5670583d8b786fU, 0xbd7125e5bdc56a41U, 0xbdaa5b2f3d732914U,
  0x3bbfeba2bda9d994U, 0xbd7e512ebd8d7f3bU, 0x3db99e40bcaa2450U, 0xbd4cf5bfbc0cbd46U,
  0x3c4248fe3c329213U, 0x3d8124e9bce1c971U, 0x3d0cd4df3d571e83U, 0xbd9d395c3c316b00U,
  0xbd9778d6bd5d652cU, 0xbda17c0ebd2dddd3U, 0xbda6711fbd5bfd56U, 0x3bc975983c87c2abU,
  0xbdaafef9bdbf6115U, 0x3c1b1814bd7e3254U, 0xbd5c02503da62963U, 0xbd8851493cd84290U,
  0xbdb54eb33d663ef9U, 0xbcd9989a3ce7bb78U, 0xbd958f713c5428a5U, 0xb84f7800bd538ef8U,
  0x3d5466553d73f357U, 0x3d8b6306bcc244a5U, 0x3dab1bf53da1ca1eU, 0xbd571d243d2b310eU,
  0xbdafdf52bd273a1fU, 0x3da015743d65115fU, 0xbc431e8fbd900528U, 0x3d91d0653d93ad77U,
  0x3d07870c3d827415U, 0x3cc36a903cb71149U, 0xbccbb5873d3062aeU, 0xbd582cf9bdb24242U,
  0x3d8092e73cdf9d62U, 0x3a4f09c1bd408703U, 0x3c3cb484bd15d97eU, 0x3c815465bcee96a2U,
  0xbdb22efab9acd54bU, 0x3cddfbee3b159f9fU, 0x3ba6b439bd84fcacU, 0xbc8f8d913dbdb185U,
  0x3cbf2a9ebcaf9212U, 0xbcb1cefebda3586bU, 0xbd8f11a6bd8cefdfU, 0xbce5f5f4bc9089f7U,
  0xbc4586563c85cf10U, 0xbd8d798fbd5be31dU, 0x3d8a6a763d698454U, 0x3db3cd0b3d6dab96U,
  0x3dc862e8bca5aefaU, 0xbdc6fd8c3d76ce03U, 0x3d11c9713d184faeU, 0xbdd2bdc33d868679U,
  0xbd9c272f3ca3009fU, 0xbd2e0b7b3c744940U, 0xbd6c0a303d783898U, 0x3ce94cf83cf183d4U,
  0xbdb6276c3d216c58U, 0xbd98e8efbcea40aeU, 0x3bfb490e3c8c520bU, 0xbd9595cb3d021075U,
  0xbd8b26513db9d8c6U, 0xbbe285ee3d7c47c4U, 0x3d879f6b3ce2ad30U, 0xbd1cecd23c106186U,
  0xbc03a1f0bc737490U, 0x3db2c1ca3dc14b45U, 0x3d27af5abd668505U, 0xbd1c22083c39bb50U,
  0xbc24c2553be4f990U, 0xbd9ca95abc9c5e19U, 0xbd9254a43cc61014U, 0xbdb32f683daead59U,
  0xbd481017bdbea89fU, 0xbc5b99ca3d714761U, 0x3d46d1a4bc07994fU, 0xbc414b4d3db793f9U,
  0xbd4778d4bd80a631U, 0x3d808ab9bd8a17d2U, 0xbdb2a2cdbce4076cU, 0xbd437f14bcd12f1cU,
  0xbd18e74c3dbd0223U, 0xbd7a9a183d1e5bcaU, 0x3d6de6053cc6ff48U, 0x3b60eb3e3d7811ceU,
  0x3d9af99fbdbe1a95U, 0xbd1e84d23d73dabbU, 0x3c8c384e3d9136b2U, 0xbd3d4926bd977789U,
  0xbd8db452bd3bda5bU, 0x3d28e033bd2ee134U, 0xbdbd1b923d5fac3aU, 0xbd88fc98bd46a61eU,
  0xbdc6a8a4bd88d3b1U, 0x3d053ee0bd1e287bU, 0x3d306d81bb8d2971U, 0x3db3ba453cca4089U,
  0xbb634ff43cfb861bU, 0xbc339bd43c3d8d91U, 0xbbd9d5703d1c5a34U, 0xbca551123c376c12U,
  0x3d99749abdba4b73U, 0x3b6b99c6bd4d6cc6U, 0xbd26722b3db5b38eU, 0x3d895a6f3d50acd2U,
  0x3d375436bafa0373U, 0xbc4b67a0bda494baU, 0x3dc5fa6bbd636a7eU, 0x3d86e045bd0ba521U,
  0xbd6d6636bdb1ee2cU, 0x3d9214213c5d185aU, 0x3d638ddbbd860121U, 0x3cd664bd3d4a27baU,
  0x3c2697053d5f773eU, 0x3d0f791c3c475b70U, 0xbda343623d2bb850U, 0x3d94cee13d8515c9U,
  0xbc8d6af03da1dfe0U, 0xbcf0fe49bc289448U, 0x3d44b8a0bde78bdbU, 0x3ba180773d9c12beU,
  0x3d8ed1b8bdb87caeU, 0x3da3a8ef3bdbc69fU, 0xbcc5c1093cc27d2bU, 0x3d72d5943d2da656U,
  0xbac22cac3d745b50U, 0x3d83ce303da83b00U, 0x3cb206d2bdb1fb1dU, 0xbd15e225bd6288b1U,
  0xbd1c012ebd6cfb61U, 0x3d05e5d039428989U, 0x3d8ec6d23d5a2d25U, 0x3c0a1845bd34e5c5U,
  0x3d1b14513dc1bbc6U, 0xbb615e753db2feaeU, 0xbca48f65bd8b8348U, 0x3b8c18b43cee2b89U,
  0xbd01e631bd20c199U, 0x3dc60dd6bdb190d8U, 0x3d4548b63cc34791U, 0x3d8da4293d05bdceU,
  0xbcb2f99e3d9daac1U, 0x3d04bb88bc1fb60dU, 0x3d66f0383cf5deb3U, 0x3d5c52443d996c8cU,
  0x3d452a44bca8bfdaU, 0x3dd690febca5a6f1U, 0xbd94368cbd0c071eU, 0xbd8052b4bd25086eU,
  0x3d56158fbbe0b69aU, 0x3b976b76bd9fdda6U, 0xbc447cd2bd704965U, 0x3c2884903c29386dU,
  0x3d52ab7abdc922a2U, 0xb9c1943a3dc3a149U, 0x3b5bbbf1bcbba014U, 0x3d3fde213db42a0aU,
  0xbd420216bcb97f41U, 0xbd1363943c1b9a45U, 0xbcbad14ebc9587a9U, 0x3dba41b0bda17ad7U,
  0xbd825d07bd9539edU, 0xbd59abb2bcf90de9U, 0xbd9c474f3cd9d24eU, 0xbda99fe33c322fb3U,
  0x3d157d07bd4ae1acU, 0x3d71ee313d9c163eU, 0x3da4a5583bbaadf0U, 0x3d16b4383d2dcc47U,
  0x3d9a19c7bcc5872cU, 0xbd3f2e8abda0214fU, 0x3d497ae23d3a0b81U, 0x3cf85328bc7349b4U,
  0xbdc90219bdb72a64U, 0xbd9369893d1fceadU, 0x3d5aa4df38eb48d9U, 0xbc8f94883d130229U,
  0x3d93b17e3d859969U, 0x3ca482423c62e5efU, 0xbd9740703d6dc9c5U, 0x3ce84e9bb814f69cU,
  0xbd3af2f3bcc24dd4U, 0x3c6541c53dddb103U, 0xbd22d14c3db45465U, 0xbdb1d498bd6f5ddcU,
  0xbda941503dbaaab5U, 0x3a9bca08bd18c45fU, 0x3d94b6183d397361U, 0xbd82fac0bc9dfd90U,
  0xbd97ca1cbcab78ebU, 0x3df17ac63d2928b6U, 0x3d9822bf3ccb258aU, 0xbca83b25bd227fd9U,
  0xbd4aa273bdb58053U, 0xbcb3670e3dbcf811U, 0xbd3af0ddbdc2348bU, 0xbd855c073d586b39U,
  0xbdb364963d886f8eU, 0x3d82dc0f3d39d30eU, 0xbd4790c2bc9ef59eU, 0x3c613cc03d8c142dU,
  0xbd5ee40cbd597ba2U, 0xbb84cd293c6c59d8U, 0x3da28c613c8d9ba0U, 0xbc2413da3da912c1U,
  0xbd273d013d5f0c10U, 0x3bbd87aabcba770eU, 0xbd89f31fbd594dc6U, 0xbdbdbc67bc71896aU,
  0xbcdb9dfdbdbd2eedU, 0x3c9ee1f33b635312U, 0xbdce06fe3da6d7c1U, 0xbd96d25cbd02dbb8U,
  0xbd817e58bd03c319U, 0xbd4497013d06ffedU, 0xbca1c2a53affdd4bU, 0xbcfdec8b3c8196b8U,
  0xbd7290e13a73dac4U, 0xbdca07c53dab62c2U, 0xbb7c73853da5be06U, 0xbd750b893d2cf169U,
  0x3c53a9afbc95919eU, 0xbda956ba3dc339e3U, 0xbd6d98ef3ddaf0a1U, 0xbd269b76bd53d511U,
  0xbd9cd03a3d3114a7U, 0xbcdfb049bda9a18cU, 0x3d97c564bd2ee1e0U, 0xbda43ee2ba553a08U,
  0x3dc6d0c5bd956cc3U, 0xbd8c77ca3ddad524U, 0x3daaddf13d9293ebU, 0x3d99e054bd17b89fU,
  0xbba21f373d9d893aU, 0x3d6f2a50bd919a23U, 0x3dc382e6bd8de448U, 0x3d5bcb0abd2fa561U,
  0xbca4d9113c483014U, 0xbb460cedbda838beU, 0x3db4faf33c57fe7fU, 0xbd39045a3d87dd26U,
  0xbda72cc9bd87d4a8U, 0xbca60382bdcdba96U, 0x3c95cddbbc6601f8U, 0xbd39afa1bce9c66cU,
  0xbbd001063c09992aU, 0x3da3de75bd0560f7U, 0x3d4839b63cbe8b14U, 0x3d4968debcc11fb4U,
  0x3c1fe7f2bd36e712U, 0xbb9308073d07ebb4U, 0xbd17f56a3c1094d0U, 0x3d8cc7583d819bacU,
  0xbd96b2c63d729eafU, 0xbd4be7d9bd0cd44eU, 0x3d933808bd77389fU, 0x3db31ee83dc02dd0U,
  0xbda542d8bd58aad6U, 0xbc55b21d3daa0767U, 0xbc594183bc766959U, 0x3b051d203d416fa6U,
  0x3cd091843d210e4cU, 0x3dd5db653dbf9b1cU, 0xbcf4f522bd8b70c2U, 0x3caafd163a819060U,
  0xbdae8c55bda21356U, 0x3d365977bd07de70U, 0x3d9ae0a03d325fb4U, 0x3ddc94873d2c351fU,
  0xbd1bfabbbd4746e4U, 0xbd889b7e3d6aa84aU, 0x3d49b5e0bdadafe1U, 0xbd704241bdbfa88dU,
  0x3d7e8ccdbb3a93c5U, 0xbd70e10d3d0985a6U, 0x3d07cf2f3db4f459U, 0x3c491c96bda24b39U,
  0x3ba461cfbd411668U, 0xbd0ce8b3bbaba62aU, 0x3d6152bebd8972c5U, 0x3d015b963d62e599U,
  0x3d782cdcbd900ce8U, 0xbdc592603ce2bf21U, 0x3d87172a3cc79799U, 0xb9e63e00bd880b14U,
  0xbdd72c4b3cdc8d8bU, 0xbcbf76783d92f37aU, 0x3da4eece3ac1be41U, 0x3d00ec11bd95112bU,
  0xbd8dc2563c84a8d8U, 0x3da576f73d1e7d5cU, 0x3dc74e56bcd9f055U, 0xbd60b4fd3dc4083eU,
  0x3d661281bda649caU, 0x3db5b3ea3d935a5aU, 0xbcd4cc2a3dc96f9bU, 0xbc1bc2683d750946U,
  0x3dccff2f3d8e39d5U, 0x3ce076913c23d302U, 0xbd944f8f3da228cdU, 0xbbd0c4c8bdcba828U,
  0x3daf90bd3cf918a4U, 0x3cf8448cbcfc82f2U, 0x3d26e1b6bd6aca8aU, 0x3d0dc9a4bca5c9ecU,
  0x3d80f09fbd2358edU, 0xbd4871283d8bfd8eU, 0xbd989a473da9ec36U, 0x3d84c705bcdc6788U,
  0x3db38dafbd3de8e2U, 0xbd6c23bbbd201ff7U, 0x3b382934bb883e9fU, 0xbd0563d6bd415430U,
  0x3d110a5b3cc48de9U, 0xbda55a91bda8764aU, 0x3da80a043d8b153eU, 0xbddaef553d93774aU,
  0xbcc77b7abaed1d1fU, 0xbd1f7e6f3d96e673U, 0x3d43dd7e3d1449caU, 0xbd3ebe7bbd02713eU,
  0xbd41783d3dc53f3aU, 0x3d44fef83cc10cc4U, 0xbd843f353c5e3dbbU, 0xbd1c1400bc076c69U,
  0x3d198309bda3f0cbU, 0x3dc9807f3dd042f1U, 0x3dd2370dbbbb6b62U, 0xbdae5635bd8c67a9U,
  0x3cfd6b96bc112abaU, 0xbc839561bd32f423U, 0xbda30328bd8c823eU, 0x3d1939fabdb63850U,
  0xbb8c34c93cb9c094U, 0xba12c8453d77b565U, 0xbd83d9693d88f3d6U, 0x3d4299e73d1f492dU,
  0x3c98bda3bd8afe1aU, 0x3d06b307bc0072c5U, 0x3ce984083c074527U, 0x3de14dc63d8782beU,
  0x3da97715bd96e4b6U, 0xbd57bd0cbd51ab06U, 0x3d8a0d69bd2bc5b3U, 0xbdae99663d531866U,
  0xbdb2b46ebafb5b4fU, 0xbda555673cb561feU, 0x3bc37e9b3d832427U, 0x3d44fd073d6360b5U,
  0xbd90f8373dba1e4dU, 0xbd73677ebcdc0192U, 0x3d5a4ae73d2e7b9eU, 0x3c20d867bcbcaa40U,
  0xbcc8e319bdbe4fc5U, 0xbd9307ac3b46bf9aU, 0xbd7751823d897465U, 0xbd06dcb4bd11d9dbU,
  0x3d65ff593d34b172U, 0xbd8602f63d2bae98U, 0xbcaefba13d877b2eU, 0x3d8cb416bd165f67U,
  0xbd92b9423d0d4a34U, 0xbc8f077f3da7c23fU, 0x3dc1060a3d943b19U, 0x3cbaf8333d131c62U,
  0xbd0db2abbdc2529dU, 0xbda4ef00bd099108U, 0x3d639f063da3df6fU, 0xbd28dd2d3da7104bU,
  0x3db374e23d6a67bfU, 0x3b8e2a3dbd8bff6fU, 0x3d78b1b7bc7ebb05U, 0xbc8e81e73dbe6970U,
  0xbd9f81db3ce1488eU, 0xbda10b4dbd03f578U, 0xbd838240bcaf0936U, 0x3cb17f95bb8d23f1U,
  0xbd907c98bbf0d05cU, 0x3c3dc575bd79354bU, 0x3cb626e1bc12caedU, 0xbd603945bd85f0e8U,
  0xbd2be0b93ccd46a6U, 0xbdd4435ebda067abU, 0x3a6b4c30bd1c0e7aU, 0x3bcd0e71bd204a6aU,
  0x3de8feeabcd59495U, 0x3d789b193d420376U, 0xbd7d7f193ca62f18U, 0xba84b548bd94333fU,
  0x3da127a73dbb9570U, 0x3d57df4e3d5a41d4U, 0xbd26913d3dae428cU, 0xbd13ef9b3d8f8c79U,
  0x3c376af4bd19065dU, 0x3d04caeabd18da89U, 0x3d0c06183c1bb3e9U, 0x3d75d8c83d98ed69U,
  0xbce364fabda452baU, 0x3cb9fe08bd9696b6U, 0x3da79d5eba6751d0U, 0xbdab97f2bd7fa6c9U,
  0x3d3fdfed3cfcaf58U, 0xbd704be03a5778ebU, 0x3c09b5ce3c1602ccU, 0x3c8e29dcbd8ee606U,
  0x3dc11c2e3bce5d9fU, 0xbc4403543d0e9b32U, 0xbd8ed912bd95dbf7U, 0xbd26a0c83d554236U,
  0x3bd2968e3b41158bU, 0xbd5b35d13dba11deU, 0xbd19d3adbd99e6feU, 0x3da5e1563d13386dU,
  0xbdc43786bd1496bbU, 0xbd209113bc2b2632U, 0xbd6d2cac3cd8ecd1U, 0x3c1cd118b9e99f00U,
  0xbcfe90aebd9f8569U, 0x3d6acfc1badd8947U, 0xbd215516bd444c08U, 0x3d1d538abc8d1de1U,
  0xbdaa7aebbd1344a7U, 0x3d8f76abbd2c8877U, 0xbd9ccff33da01580U, 0x3dbd7e1e3d28e026U,
  0x3d10507c3d339036U, 0xbd931ddb3daf866aU, 0xbd2bb69b3cbec5e8U, 0xbc6bbd603d914dbdU,
  0x3ccde00fbd0c43c2U, 0xbd16d5a13db8a72eU, 0x3c6d2c883c686b5aU, 0x3d82e6fa3d784619U,
  0x3d9c7f5abd1788e2U, 0xbc19b0a13d56134aU, 0x3d159b273d0576b7U, 0x3a5a50ea3d034724U,
  0x3d94b7ecbda2344fU, 0x3cd6ebae3ae36df1U, 0x3cd04ed6bd5d77b2U, 0x3c02c188bc495df8U,
  0x3d13126ebdb48e88U, 0x3c903c2c3d9a8e03U, 0x3d40a4a2bd40c3f2U, 0xbd943ff9bd9971ebU,
  0xbdc58b6f3d560116U, 0x3dc3893abcc9d26fU, 0x3b5667b5bd086a95U, 0xbda28c8d3d611015U,
  0x3d7954d8bc4ab5d9U, 0x3c6ec34dbb1ff1f7U, 0xbca3efa5bd9efc23U, 0x3dbdc6efbd4428a7U,
  0x3c70fd633b9f5402U, 0x3d442e8d3c2ef698U, 0x3cc8e508bd5637e9U, 0xbd179136bd327c55U,
  0xbda2b476bca06020U, 0xbd4a094d3d82780aU, 0x3d8fb03dbd43e47bU, 0xbdb349723d842672U,
  0x3cc03abf3ccc8ad8U, 0xbd393238bc1b28b6U, 0x3cd0c8a8bd4b5e47U, 0x3ce207f8bda1b2d7U,
  0xbc6e9beabd480b0dU, 0x3d92ac5abcafde82U, 0xbab117433d9040abU, 0x3b72affcbd89821aU,
  0x3d2be435bcb47118U, 0x3c3d3cdd3dbe5061U, 0xbc6624dcbd7644e0U, 0xbcd95cb83d23f3b1U,
  0xbd7d8f753c2375acU, 0xbd98e66cbc8fdbe9U, 0x3c040812bc9843d2U, 0xbda58e18bdb41dc4U,
  0xbb8c11bebc5749e6U, 0x3ce1f356bd0839aeU, 0xbda9e2dfbd9238d6U, 0x3c4576dcbd9b47c1U,
  0xbdc1debc3d30ff97U, 0xbdb097f0bd87ea2aU, 0xbda85282bd6c3e4fU, 0x3d92ca7b3d8bda21U,
  0xbbee7f5cbd242091U, 0x3d846f4ebd845b22U, 0x3dae9e823da84c69U, 0xbda617f63dc2b75bU,
  0xbd0eb9ce3d19a29bU, 0xbd5463d73d4bba76U, 0xbc8b6863bdbb8deeU, 0x3d6eaae8b9c02353U,
  0xbd55b0dd3d525d4aU, 0xbb125def3d1b9ad0U, 0x3cf0701dbc4133a2U, 0x3d50d24e3d8219a7U,
  0x3d14b3b03c9acd7cU, 0xbd8ec409bc952101U, 0xbd47b57a3d2dbd3bU, 0xbd2cfcd0bd2caa96U,
  0x3db6edd5bc6ce720U, 0xbdb8e0dc3d4a374bU, 0x3cbfbc77bd8c0ad5U, 0xbdbea3783db21e97U,
  0xbdc2f089bda0b3f0U, 0xbdad6efd3d93b95dU, 0xbd43acf3bc2d2361U, 0x3d6ad0ca3d96827fU,
  0xbcd20334bd552ad5U, 0xbd1f0cc73d1b803aU, 0xbdb77d1cbd9aa8caU, 0xbced5bb43d478afeU,
  0xbd990a5bbd8b2c34U, 0x3c28a2e73d496d2dU, 0x3d8e76e9bda51894U, 0x3d45a3613d562569U,
  0x3dac55b9bdbba914U, 0xbc456a083d65a0f7U, 0x3dbb152cbbcce077U, 0xbc1f41d4bc64b43fU,
  0xbdbbae2e3daf979dU, 0xbdb7716dbd8e5795U, 0xbc9e688c3dc5c8d3U, 0xbd292c1a3d42e986U,
  0x3c7ab5fdbdb83fd4U, 0x3cfe61913dbad2ffU, 0xbd2e2084bdc5c811U, 0x3d7c12c6bda570c3U,
  0x3d6285a6bd373941U, 0xbd824a1a3cde4afaU, 0xbd97c7503d1e3f85U, 0x3d41dfdb3ac7afe2U,
  0x3d3923c73d580d9fU, 0x3da121ad3d726859U, 0x3d0ae1363d3584a9U, 0xbd5efae93db739afU,
  0xbd3fec08bda93661U, 0xbdb88eaabc537cf7U, 0x3dacdd84bba9ecb4U, 0x3c69e6873d46640fU,
  0xbc36ecddbda723aaU, 0x3c35a9aa3d909a18U, 0xbda59db23d775cc7U, 0xbd3b88c33da1d250U,
  0x3d663ba83d9b12d4U, 0xbc251a20bd89f2f6U, 0xbc0d32f83d0cf84bU, 0xbd602b8fbd4e20d4U,
  0xbc73ac0dbba38308U, 0xbb34723e3bbc51d6U, 0x3db8a3753cb8ba0eU, 0xbd29719d3d3d7178U,
  0x3ca49cc8bdb6814aU, 0xbd53f24ebd8f25a9U, 0x3c2cbe783d3e40b9U, 0xbd6036713ad6839bU,
  0xba969cdf3d9d1470U, 0x3c3545b53db13af0U, 0x3cb9ab403c0bba9fU, 0x3d12b0163d0c0130U,
  0xbda387e23d23fd1cU, 0xbbeed6123d8337cbU, 0x3d7e6961bd86a602U, 0x3d0a65ddbd898d9cU,
  0x3cd546b13d243362U, 0xbceb61b8bc1cebbeU, 0xbbe47ad33ce7ad5aU, 0x3da9180c3d41d247U,
  0xbd2c3b0e3d9110b9U, 0xbda4d023bca6fd1dU, 0x3d743b443db3666aU, 0x3dbd41053db4424fU,
  0x3d5ddfadbdb61ca1U, 0x3d11bb0f3c41c331U, 0x3ce3af253d2c1108U, 0xbd1872f83d12bc85U,
  0x3c5621893d93f129U, 0x3d392430bd0044bdU, 0xbcd315f03d137f8fU, 0x3a40ccacbd3041ecU,
  0xbd2a69bdbb362a86U, 0x3d27d2a13cb5876bU, 0x3c9753e5bdb5b585U, 0xbd970bc5bc3d5167U,
  0x3da858b0bd03f71aU, 0xbd060edc3da3d01bU, 0xbd0ab033bda48d75U, 0x3d3cf54d3d38525bU,
  0xba8ed982bd483ea6U, 0x3dbd9eccbcc8933bU, 0xbd05068fbcd44a9aU, 0xbc4799273ce819d3U,
  0x3db502cd3d223faeU, 0xbc2164f33d6a8234U, 0x3d38f059bc383420U, 0x3d51feaa3cac6f73U,
  0xbd88b8a93c17fe3aU, 0xbd6f507e3c12940dU, 0xbb58c40ab9460568U, 0x3cbbf23f3dd4dc56U,
  0xbdc5a1adbc97fbd4U, 0xbd0b73e2bceca77fU, 0x3d24dba83d30b835U, 0xbd6dca063cee6a31U,
  0xbd2492343c8bbf03U, 0xbb8397e43d825bffU, 0x3d995458bc975124U, 0xbda1f037bdaf922eU,
  0x3d8ceefcbcf19597U, 0x3d1fa24b3d9ea209U, 0xbb97a156bc753a5dU, 0xbd2ce5ce3dcbcfbbU,
  0xbdacc32fbd2cafe7U, 0x3c933925bd9835dbU, 0xbd19e6003d049548U, 0xbd75c480bd33c68eU,
  0xbd69e70bbd4c5540U, 0x3ce330a6bdbf2f9bU, 0x3dcf183c3d5e75b2U, 0xbb9908b0bd9545e6U,
  0xbd8c76323d972924U, 0x3d0b41dfbdb99903U, 0xbdab9248bd6ce156U, 0xbd2f8065bccd33afU,
  0x3d6b1b99bdb935b4U, 0xbd539d393d966d39U, 0xbcdb9bfd3cd89752U, 0x3d3d0a03bc714df4U,
  0x3d3539e73da7fa9fU, 0xbcf005b83ca008ecU, 0x3db518fd3d2432c8U, 0xbd4b97743d813985U,
  0xbdbbaed4bc6f8e38U, 0xbc6b84e7bd952c00U, 0xbd04cd143d61f476U, 0x3da2693abbed1bf1U,
  0xbcf21744bdad0e11U, 0x3d9b5c023d0913d0U, 0xbd869907bdb301c5U, 0xbcdb77663c522f7aU,
  0xbd21e8c0bd139bf7U, 0xbcd08f15ba68fdadU, 0xbc031ed43d9a8578U, 0x3dac0b4d3d3405aeU,
  0x3d3d2324bd74774cU, 0xbd9d267cbda5d365U, 0xbd6e9e74bcd41577U, 0x3c9178c43d4c4424U,
  0xbacbebf5bd3c913bU, 0x3d529249bc4c595aU, 0xbd0a9cb8bd9b10caU, 0x3d1a49ae3d01bf64U,
  0x3d0ebb203d5cce00U, 0x3c8a5dfebbdd0530U, 0xbc2b1964bd5e773eU, 0x3d29376e3d92ea0dU,
  0xbd8de06cbdb4b01aU, 0xbdbb2f15bd42d59bU, 0x3a4a541dbd602e30U, 0x3d3c2362bd1168b4U,
  0xbd36b5053d049a5dU, 0x3d8384dc3b282f26U, 0xbd8138d53dae6bcdU, 0xbcb9c22e3c4dd0dfU,
  0xbd86fc9bbc6c2c32U, 0xbd4e0dbdbc010e1cU, 0xbd72a0aa3c0e3334U, 0xbd8d18463d8e5d82U,
  0xbdb3601bbcf9ed3fU, 0xbc6c7011bd1bd43dU, 0x3c80b8c03d834d19U, 0x3a57a99fbd57b048U,
  0x3d1ce0413d24973bU, 0xbbe3c4ec3cd77ba4U, 0x3da95a603cdf0ff3U, 0x3d197a25bd8b4437U,
  0x3af5c59ebc088068U, 0x3d3f3324bcc7b5d9U, 0xbd226bde3d850197U, 0xbd48a4fa3cb81595U,
  0x3c343e39bd876268U, 0xbda392cf3ca55ef0U, 0x3d64fe9cbd825775U, 0x3dc554373d341d57U,
  0x3dbddc653be13644U, 0x3d3dc6ee3d94d75bU, 0x3dc727ff3c7f323dU, 0xbdb94305bd0bb01cU,
  0xbd8f3f493d492098U, 0x3db29f59bb2d1e9cU, 0x3d2ff5483d02e4eeU, 0xbae896803d84627dU,
  0x3cf1d640bd5fa21aU, 0x3d989e423bbd476bU, 0x3cc47483bd5ea7baU, 0xbd26c18cbc7c4f22U,
  0xbc87c0ba3dba49d0U, 0x3cb40d41bc10b16fU, 0xbdc12ea6bd8d8b74U, 0x3d7a7e4fbdb3e426U,
  0x3d1b3d103c00b167U, 0x3d7a24debd312ca9U, 0x3c83c6bf3dace963U, 0x3db426ab3cb4505cU,
  0xbd12523fbd0545dfU, 0xba84d35fbc8946b0U, 0x3c9789c3bd398f8fU, 0xbda52bdabd9112caU,
  0xbced4d6dbd798b11U, 0xbd90ade8bd8fbc57U, 0x3b8eaaf8bc9369e0U, 0xbdb6c13fbcd8a654U,
  0xbdc4c6fcbd9e297fU, 0xbd0e5e14bd39e481U, 0xbdbb5f333d16d1afU, 0x3d64c15ebdbf5656U,
  0xbd328f663d6bee55U, 0x3b83221c3da0b0a5U, 0xbd77079d3d597857U, 0xbd886cc7bdb29fdaU,
  0xbd74830e3d28b768U, 0xbd964bbd3d54a7d0U, 0xbce282b9bcea03a1U, 0xbd20ed253bc2fdfaU,
  0xbdb19231bdbb00d7U, 0x3d6d4aef3d9dba67U, 0x3da202ecbd710121U, 0x3d75c30a3d6a4ea2U,
  0xbd3ef8e33c03b57aU, 0x3d9df29a3db9606dU, 0x3d8f311abc68fca0U, 0xbd18ae2f3ce177a7U,
  0x3cff80c0bd9b2a54U, 0x3ce5fb3a3d9dafd5U, 0x3c7387423db10f4fU, 0xbdad20613cd0d450U,
  0x3d0788cdbc7d78e2U, 0x3ca9c1143b39080fU, 0x3dcbb88a3cac976aU, 0xbd860f1c3d9415f3U,
  0xbd93e2cbbd62322fU, 0xbd371df53dc1a357U, 0x3d4fb7803d08af32U, 0x3d85f5f63d81d28cU,
  0xbd85aa6e3d84b105U, 0xbd48b75ebd96cfb6U, 0x3dbcfca83b883fe6U, 0xbd159c54bce25acaU,
  0x3c7f69183d61ddf6U, 0xbcab69b2bb8e3f7fU, 0xbd554dbf3d204c30U, 0x3d675dd6bd598018U,
  0xbdbf23ccbdac7609U, 0xbc9ed4443dc5d18fU, 0xbd2185a5bd4b90ccU, 0x3c8220e6bd276084U,
  0xbdcd5d103cde4f76U, 0x3d0dde37bca29db7U, 0x3d2d7a863d6f1578U, 0x3d9633b8bd865170U,
  0x3cd65cd8bda6e0d6U, 0xbcd9ca09bd988194U, 0xbd0098ecbd6c8016U, 0xbcb42cc0bcf4e928U,
  0x3d950528bd758a92U, 0xbb5f96d43dbe77acU, 0x3c1f2912bc81c618U, 0xbd9b00a6bbea65ebU,
  0x3d22f6acbdbe86dcU, 0x3db938413db140c8U, 0x3d4af5953c947a11U, 0xbd14215d3acf1f13U,
  0xbd33ac6ebc102673U, 0x3d9ec0c0bcda4afbU, 0x3db9c6a73d806116U, 0xbd5600a0bdba6d10U,
  0xbd3677b83b142e32U, 0xbd7315ea3dc48f88U, 0xbcd183ffbcd00508U, 0xbba86c773db6020cU,
  0xbcaf48963c59cc00U, 0x3c75e580bc762295U, 0x3db2a471bd3e6092U, 0x3dbda57dbbc40669U,
  0xbd92a8b8bd26486aU, 0x3c8086473d96cb5cU, 0x3d02d0fcbc345530U, 0xbb3b56a0bc352540U,
  0xbd6663b4bd2ab744U, 0xbda01763bd22002bU, 0x3c51c6253d92d649U, 0xbd1fa44cbda8db01U,
  0xbd0d8603bd9fa348U, 0x3da68a0e3b5f7e7eU, 0xbcd7fc65bc27eba1U, 0xbc9f8daebdbe4ae9U,
  0xbd94058e3beeb47bU, 0x3dbcec1dbdb6d261U, 0xbda6fa8e3c601de1U, 0x3d83c1453d258fcaU,
  0xbda000c73db28f20U, 0x3d823938bd705fecU, 0x3d29cdad3da705e1U, 0xbc07cababdb23a5dU,
  0xbd86bc2f3c9c5776U, 0x3d8ec9a63cdbcf86U, 0x3d17d06c3c663286U, 0x3d836f9d3da7aebaU,
  0x3d5e1b0fbc89f026U, 0xbd6697983d5c67b5U, 0x3d3999ec3c1d4678U, 0x3da8b879bd392a41U,
  0xbc8045303d8e26e5U, 0x3d44a2eabb8a5b12U, 0x3d6bb3e1bdaa624aU, 0xbd513c33bd897fc8U,
  0x3da388adbd19bc49U, 0xbb45e7d23aa5055dU, 0x3cff70bfbca2bf26U, 0x3de38c16bcdd091dU,
  0xbd8f8d2e3c071aacU, 0x3d36246b3c175509U, 0xbda4e3d13da94ac6U, 0x3daa3721b86e5013U,
  0x3c06437cbd0c6552U, 0x3d931a763d8a7a71U, 0xbdcaaa6c3d53af57U, 0xbdbe9f54bcfb903dU,
  0xbb864629bd1b0affU, 0x3da5aad9bcf94600U, 0xba6a10b5bcca74c0U, 0xbd34ecba3d403001U,
  0x3d4fbdb6bc4fd393U, 0x3bcb444b3d327ab9U, 0xbca727f9ba109c6cU, 0x3d38efa23d0c7119U,
  0x3daf8fafbcd818c5U, 0xbd58a29ebbcb8f54U, 0xbd810a6f3dd47fb6U, 0xbdb28e513d63ed2dU,
  0xbdc98b323d6bfca5U, 0x3dac10303cfe4bf3U, 0xbd021ecbbdbf4522U, 0x3baceb623ce25871U,
  0xbdc4242e3d9baf1aU, 0xbd4bc50a3cd20543U, 0x3dac03c73db50f71U, 0xbd9fc57ebda1e3e3U,
  0xbc767be3bd81c479U, 0xbd0bc5163d8a58d4U, 0x3dc1bb583c88bf51U, 0xbbe9b748bd77d0d2U,
  0x3dba482d3d5de1bdU, 0xbdb14f3abc5db443U, 0x3cb9e60cbd0f4f9fU, 0xbda8aa0c3caabe4aU,
  0x3db6d47fbc082ba2U, 0x3c7f420bbd60d164U, 0x3d62a92bbd624a7dU, 0xbcf5c340bd8665b9U,
  0xbd45775ebccf4831U, 0xbd5428173db8db72U, 0xbd9cddc33d887fc3U, 0xbb9dac663c132d87U,
  0xbb25cc7e3c2daadaU, 0x3c07296a3dc3e0f9U, 0x3d4b7b313d8afaa2U, 0x3c29ce44bdb7d05bU,
  0x3d6b6b733ccc0617U, 0x3dae85493d779dccU, 0x3aa53f9e3d591517U, 0x3bc85ba03db6ed6dU,
  0xbd4f02ffbc81019fU, 0x3db80a27bbb5d3d6U, 0x3d146282bd3db9ccU, 0xbd3d773bbd4b5c93U,
  0x3dbec18a3c83343fU, 0x3d7657a23bc44aadU, 0x3d953de0bbb362c5U, 0xbd81d18b3afd3cf9U,
  0x3c5cda6dbd3da69fU, 0xbda58144bd63bf6dU, 0xbd5489bb3dafbee9U, 0x3cc02a88bdadb77aU,
  0xbbcb68c9bcff0d23U, 0xbd08854f3d552f7bU, 0x3d004667bdb913ecU, 0xbd74269ebd6f8f29U,
  0x3c852516bd16ee56U, 0xbd8912683db44e67U, 0xbcd4b4d8bd918835U, 0x3dbeb2a7bd55738fU,
  0x3cae20b0bc89d1a4U, 0xbd1f68a13db724adU, 0x38f7cc7abd637f25U, 0x3cc5e640bdbd86adU,
  0xbcb07b4e3d0579c2U, 0x3d263b36bd51591dU, 0xbc20e5ccbc9187cfU, 0x3cc178bbbd16df4cU,
  0x3d70728f3c705fa7U, 0x3da73a4b3ce39c19U, 0x3a9c04ec3d8dc155U, 0xbc440b7c3b1281b4U,
  0x3bfe9fd9bcd1db32U, 0x3d08e888bdc27e77U, 0x3d271e15bd5a3efbU, 0x3d46fa6ebd833d09U,
  0xbbf1bbc6bd4c4df5U, 0xbbcdb2a1bc9d363fU, 0xbcd68de8bd8d37bfU, 0x3daaa8053c3af5beU,
  0xbd9bf3b63c9d7fc1U, 0xbd1ad38f3a4cfc29U, 0xbdad2220bcafbbfaU, 0xbd0dd215bd263164U,
  0x3d733dbb3d5899d7U, 0xbbbe45023cd8a7d8U, 0xbdbc81a9bc005d1cU, 0xbd87152d3d61993eU,
  0xbd90dd0cbc368c9cU, 0x3d1d4bbb3d2bd54cU, 0x3db93b6abd2e25f6U, 0x3d6488ad3d564d16U,
  0xbd4e63ef3dac4a87U, 0xbd21dd46bc5925efU, 0x3db60e16ba94a546U, 0x3aa01282bb7a227cU,
  0x3d57ef7ebdc1bf6fU, 0x3c0fd6a83d7208feU, 0xbd3fdf54bd807794U, 0xbd9caefdbce45b19U,
  0xbd15aa16bb85c895U, 0x3d9951fdbd9ff973U, 0x3ccc5690bbea144eU, 0x3cb8f77abca9f086U,
  0xbd9147f5bd6b4256U, 0x3cf799b9bd784df0U, 0x3db120d3bdc23f33U, 0x3cdedd703d09b843U,
  0x3d91da633da10c42U, 0xbc9db2663d273fcaU, 0xbca69c86bdac3d8bU, 0xbccb6f283d94229dU,
  0x3d8f15163d2690a5U, 0xbcbdd6203d54124eU, 0x3d9f53963da92b7dU, 0xbbb1ae85bbfea888U,
  0x3cb88468bdaaaa2fU, 0xbb13c8a33c19ce64U, 0x3c5e6b9e3d7e37ecU, 0xbdaccb05bad05f5eU,
  0xbc1e78323d27e215U, 0xbc64fdf83d97dee2U, 0x3d8af49a3c59b449U, 0xbd909df63cf24e14U,
  0x3d8a7e71bdb2c665U, 0xbdb8f9a13c836e37U, 0xbcb2d5aabda4f6d0U, 0xbd4364313d588852U,
  0xbd939926bd591220U, 0x3cb2023e3d7d2d30U, 0xbd4059903cdcb11eU, 0x3c27cd12bb8d08deU,
  0xbca34730bd583094U, 0x3ccfc70fbda811d6U, 0x3b8bb4193d076ed1U, 0x3d3eb8ae3d0e61f2U,
  0x3c7191c8bd7a8060U, 0xbd23f4febdb87dd3U, 0xbceb4a01bd3b7d27U, 0xbd4538573c61ff91U,
  0x3c45520fbd7c43d1U, 0x3d73c9fe3d670504U, 0xbd91d9c43dabfc5bU, 0x3d74ec693d6c05fdU,
  0x3db7bc1bbd103a03U, 0xbc696c5b3d971cd4U, 0xbda4befc3daea3c7U, 0xbda9a1c0bd12cbd9U,
  0x3d8657e4bacc72cfU, 0x3d29932fbc00916dU, 0xbba39aaabd539b6aU, 0x3dae7ad9bd9d51b0U,
  0xbcc4b8a33b00553aU, 0xbd1584673daacb94U, 0x3d49faefbdbab21bU, 0x3d6d204e3c812370U,
  0xbdc623533cdfede0U, 0x3d9f2ffbbd356c26U, 0xbd7872b5bd879577U, 0xbdbc46743db6fa9dU,
  0xbdbec4ddbb0e4bdcU, 0x3d26e8403da46596U, 0x3d4d1b9e3d3a80ebU, 0x3cdad4a33d44733bU,
  0xbd875c79bd590400U, 0x3c8c6cc13c640917U, 0xbc9662bfbd2d02fcU, 0xbd35a939bda61a19U,
  0x3c8bdacbbc04ae59U, 0x3c0b8c9abd8b7579U, 0x3c1a1c5dbd346808U, 0xbb264060bd8d0376U,
  0xbdab51123d72ae51U, 0xbdbaccf5bd969147U, 0x3cc9b2ddba8f8670U, 0x3d85ee2abc14261cU,
  0xbcabfe44bdae62c9U, 0xbbe2ce11bd187e56U, 0xbce7c812bcb81d98U, 0xbdb87c07bd82a2a3U,
  0xbd4d79c0bd4aa7d6U, 0xbd0f8874bd10c2d4U, 0x3d8f53b93c877ddeU, 0x3d71bc6a3dbac4dbU,
  0x3d129c253da25ebeU, 0xbca08d0c3d90bedfU, 0x3dcba29cbd457706U, 0xbdc0a492bd2d7bbcU,
  0x3d51b5afbd9e4000U, 0xbd65186abda2aa39U, 0xbdacf81cbd93ef01U, 0x3dcce7623d9cb091U,
  0x3d8f99c13c15b640U, 0xbcab26773d258782U, 0xbd8cac04bdb12f65U, 0xbd9906a93d5d45a2U,
  0xbcd4c1eb3b4e21b3U, 0x3bd40ef2bd17285fU, 0xbd55f8febd4c5c77U, 0x3dba54d4bcb93834U,
  0xbd9e991e3d6aa8d9U, 0xbd833150bdaf6d76U, 0xbd489a10bd88ea40U, 0x3c3e46a6bdb443a9U,
  0xbd080ed63d94cffaU, 0xbd2410cdbc73ff1fU, 0xbdc13528bd48501bU, 0x3db53a7d3d22cb0aU,
  0x3d964b183c8bf7b7U, 0x3d4161cabc74786eU, 0xbd01afb1bdb3c195U, 0x3b894c3f3d72e2ecU,
  0x3da5111c3d357524U, 0xbdc02d80bc7e07dcU, 0xbcba0b7bbdc2307eU, 0x3da2dc03bd27e270U,
  0x3da487603bb96a24U, 0xbd88210fbd8ecfe8U, 0xbdc5d8483ca044c7U, 0xbce6ca483d5474daU,
  0x3dc333343c1930bfU, 0xbc7ef6913d1d6bfdU, 0xbd40b72bbd48e3b6U, 0x3d36702d3ca23e78U,
  0x3d6523253d7f3f5aU, 0x3bf48cf0bd00c2dfU, 0xbc8b8ce83d04dcb5U, 0x3c87e27abdb317ebU,
  0xbbbe5ab73d9788ddU, 0x3cb2c354bbd6fad8U, 0xbd6f0cd33dc9621aU, 0xbdb8d766bd3f0cd5U,
  0x3c44a7f2bcc723d9U, 0xbd57a316bd70cfa0U, 0x3d90b3e83d8e7216U, 0x3d479d863b39d432U,
  0x3d824389bdb5e107U, 0xbd7b02c73cf32e6dU, 0x3c4d52393cd321a8U, 0x3d4c8ac0bdbf2f88U,
  0xbd2d00d53d877be1U, 0xbd903f5abd77e0ddU, 0x3d8c6d02bd1e416dU, 0xbd735330bd995288U,
  0x39c5009cbd9521a4U, 0x3d992f433d636b15U, 0x3da1dd683d5a308dU, 0x3d2625a33da9d5deU,
  0x3d08b1ef3d1baab4U, 0x3d82830bbcb0f232U, 0x3ca609d03bf36879U, 0xbd8276a13daa4d16U,
  0x3c6d54fb3dc2ef5bU, 0x3d906cf33d88b734U, 0xbc262850bd4b3ca5U, 0xbd9a719cbd9be040U,
  0xbd69e95bbc80911cU, 0xbd9ab88f3b09b2a5U, 0x3d60548b3db3d108U, 0x3d2b80b7bde346bdU,
  0x3d5d171cbbb7fd31U, 0x3d9caa52bcc7e198U, 0x3dadad5fbd541e71U, 0xbda340623ce9d9b7U,
  0xbd5c4357bd88c620U, 0xbac9c1583d989fc7U, 0x3d51c535bd9192a4U, 0xbc94437c3cf300a3U,
  0x3cdba0d0bd8457c9U, 0xbda12c113db93fe8U, 0xbd286040bd96082bU, 0x3d05d85ebd16f702U,
  0xbb9b6b323da89db0U, 0xbd01990e3dae452bU, 0xbcd0f8bcbd6f5defU, 0x3da58c553d994cfbU,
  0xbc54c9933da809e3U, 0xbdab4f7b3c9e4a0aU, 0x3c8fb59a3d88d3c7U, 0x3c85dac0bd3d4335U,
  0xbc9df6223d305d36U, 0xbd4540febd9c19fbU, 0x3c6ec17fbcbb79e1U, 0x3acf2ef0bd183e3bU,
  0x3d940a633c56caabU, 0xbd486e993d9c1ba6U, 0x3c4a2fd63b73449dU, 0xbd004f8abda1e1e4U,
  0x3d50fade3bcddec3U, 0xbce2d621bc2ea9e8U, 0xbd6e8fe23db535a0U, 0xbd4c85ff3d4a7909U,
  0x3c25993f3dbe7908U, 0xbc57ffef3ca2b17aU, 0x3daceb01bcdc93d6U, 0xbd9d8dbc3cdf96b7U,
  0xbdb860543b7645a9U, 0x3d929ab83c78fd73U, 0x3cdf3d6b3cc76a38U, 0xbd6429c33d8dbdf1U,
  0xbda75466bdb1ed5bU, 0x3d2387ab3d852b9fU, 0xbd7c1eb63c8060d4U, 0x3c1697c8bd98a07bU,
  0x3db86b4d3d13225bU, 0x3ca40f343c81dc3bU, 0xbd685c793c444fdeU, 0x3dc1db3d3c717324U,
  0x3dc0eb15bda94c98U, 0x3dba96b8bce2ef2eU, 0x3add35eb3dc4f4eeU, 0x3d7bc033bd1e5326U,
  0xbdcef27ebc9f5f53U, 0x3db0d268bc1700cfU, 0x3c46f8243d4d7c6fU, 0x3b7bef003d9603cbU,
  0xbdab1213bd12bc47U, 0x3dd897283d595983U, 0xbdaae996bdb73d1bU, 0xbd960b863dac6758U,
  0xbdce41fabd83c671U, 0x3c49d82e3bdd7769U, 0x3d4287853dc7fc45U, 0x3c053f77bd8d0caeU,
  0xbd6221b4bd20ceccU, 0x3bc35bb2bc4f2551U, 0xbb93fd753d30eb80U, 0x3bf251d03cd342edU,
  0x3d2a47343d56dfc6U, 0xbda18b963dbb4416U, 0xbcc384a5bdc51331U, 0xbd677f48bd08b3e1U,
  0x3d3396d6bcf2c209U, 0xbcc63bf73bd20f6dU, 0x3d56e4f9bd9ef818U, 0x3ce2b6b5bd25474aU,
  0xbd2eb97b3cf7a54bU, 0x3d64d2cd3dbe527aU, 0xbcc9cf62bda0fbdeU, 0x3b0e4600bda54cc5U,
  0xbd5969b4bdbf7f6aU, 0xbcf6041f3d7cd64dU, 0xbd89208c3d858f69U, 0xbdbf8e93bcfa6d53U,
  0x3d169075bd1347afU, 0xbcfa5d003d58db96U, 0xbd3de4263d85d738U, 0xbd2bfbe3bd917862U,
  0xbda9c9783dbf6ff1U, 0x3cf5642dbd4df5c3U, 0xbd64f0153da7408aU, 0xbcbadee83bad8d70U,
  0x3b1f4d02bd8c1ba7U, 0x3d1693803d9688cdU, 0xbcd85844bda52fe7U, 0x3d2e0d32bb51daceU,
  0xbdc229b6bd954e17U, 0x3d38a05d3d00d281U, 0xbd9162103d13ff69U, 0x3d8e5a183db2c390U,
  0xbd6fbbf73dbcb14dU, 0x3d8a0e463d00739fU, 0xbdb4fb19bc49727bU, 0x3d80380fbd0b583cU,
  0xbda73727bcebd938U, 0xbb693b6e3d9d6908U, 0x3be206a13d69d944U, 0x3d2e4793bd973701U,
  0xbd3b4d0ebdb74f25U, 0x3dbf1c603d8edd8aU, 0x3d644a423d979385U, 0x3db2a7873d93802bU,
  0x3d8b3fbdbda77f9bU, 0x3d3b8bb6bc661d90U, 0xbd4c9724bd87a803U, 0xbcd6d060bd8819edU,
  0x3cc8db513db479ccU, 0x3d9f4888bd5b9e19U, 0x3dbbe7533da4c74eU, 0x3b3a9bf03b676dcdU,
  0xbd067c34bd75de65U, 0x3c364a00bd95c23bU, 0xbd60bc25bd9b9312U, 0xbbc68b323d791f2aU,
  0xbcb95fac3d2950b4U, 0x3d3a9562bd99fc88U, 0x3c0114773d9ccfb8U, 0xbd3207be3d93f612U,
  0x3c4041dfbd5d3218U, 0x3d9c2da8bc1de868U, 0xbda45f71bd1bb4f8U, 0xbd9398e73d68f074U,
  0xbca6ac40bdb31dc9U, 0xbd4389b63d6e4c05U, 0x3d8accc2bdc27849U, 0xbce98d52bbfa4dd5U,
  0x3db3a5383d8e6944U, 0xbd3be89bbda89043U, 0xbda3dd9a3d9a79caU, 0x3d917b53bd09e2ffU,
  0xbd866bbc3d4eba18U, 0x3d16449abd8dde2eU, 0x3d445dcc3d2d6f83U, 0x3bcec101bb967f33U,
  0x3d68c36b3c66c8b1U, 0xbb6457df38aa892cU, 0xbaa5c38c3d13b5a3U, 0x3d457e663d89cecdU,
  0xbc29d4633d81de04U, 0x3d1bff88bbf39899U, 0xbd1e6220bd4b5120U, 0x3c591ef83cb84b5fU,
  0xbdc2c1cc3ca83b6bU, 0x3c94f7b5bd95217eU, 0x3be954323db81896U, 0xbce6b30abdab991aU,
  0x3a469550bdb51db8U, 0xbd817792bc2ac418U, 0xbcc11e713d57210aU, 0xbd48cc8a3b52b433U,
  0xbd99e7753db39791U, 0x3d599a10bd33719fU, 0xbd0766213da9fe2aU, 0x3d5219febd97ae26U,
  0x3dc0d15f3d84d2c6U, 0x3cbf7ba13d90bacdU, 0x3d6961adbd3b33fdU, 0x3db2e15b3d98900bU,
  0x3dbac06f3d482b80U, 0x3da152f8bca33ddbU, 0xbdb655bebd1d955aU, 0xbd2902cabc2f2e8eU,
  0x3d47f7253c9a9a04U, 0x3d6fca673d84aaf6U, 0xbd83f4943d9fa679U, 0xbcb86c243c9920fcU,
  0xbc0fb3873db5d430U, 0x3d3bc55bba054cd0U, 0xbd9ad0e1bcc6714fU, 0xbc080d8d3c493771U,
  0xbccd7a30bd9879a6U, 0xbd94b6563c2e5186U, 0x3d8c90943db3c14dU, 0xbdb836a5bc5c1f9aU,
  0xbc76192bbd13ffddU, 0x3dc4bc6bbd9f849cU, 0xbd844437bcc85e6cU, 0x3da1c52dbc10a618U,
  0x3dca00bbbdc08929U, 0xbc59a83bbc49d6f2U, 0x3dafc4973d813fb0U, 0xbd81b9753d407f07U,
  0xbca43cec3daf35c2U, 0xbd7141343d92ab4aU, 0x3ca5c2943d89bebaU, 0x3cacb17fbd0cbd2eU,
  0xbd11cd01bc1ad384U, 0xbd8b7f4bbd57546cU, 0x3c5efa41bd1e43b6U, 0xbd0104423da396c1U,
  0xbd68e377bdb197c7U, 0xbd2cc6b8bd5dfed1U, 0xbd9a0fa3bd078925U, 0xbdae697b3cdbe6dbU,
  0xbdab944bbd4856d2U, 0xbd77ea6cbd96b39aU, 0x3cbccbe03d2cf15fU, 0x3d99ca3a3c5cafc9U,
  0xbc5ba75a3d774604U, 0x3c8c34243d9e0a59U, 0xbc5e17ff3d0317c7U, 0xbd4401143da47fc5U,
  0x3c60a4d4bd8c3cc1U, 0x3d82b9e13d307bf8U, 0xbc26f57ebad9c947U, 0x3d4a66803d4489d3U,
  0xbdacd3e2bc3c0490U, 0xbda970adbcd653caU, 0xbdbf46bdbdb8ad12U, 0x3da824d1bd506c2cU,
  0x3d6d0aed3cd87c18U, 0x3dad0ad13d838e8bU, 0xbd95229abcf11e6dU, 0xbd70fc363d155202U,
  0x3a49d8bcbda6b654U, 0xbc2529043cdbce84U, 0xbc2aacae3cd38fe2U, 0xbd1cfcb6bdab903bU,
  0xbdc3767ebb46dc40U, 0x3a28a554bd9a3adeU, 0xbd3734dabc573120U, 0xbcccc41cbd69c055U,
  0x3cd2f7b0bd0a3d96U, 0x3d6691d23d57c83dU, 0xbce8cb4c3d4bb91fU, 0x3c8f12543da93647U,
  0xbd15e0bbbd5accf8U, 0xbde4a2d83d987c0dU, 0x3c1c27c83b976ea0U, 0xbd64202c3c1e1e8fU,
  0xbcb16b72bda57e92U, 0xbd8d6b1d3d0b5a7aU, 0x3db15702bd1f0cbdU, 0x3cb2ccf53c9c9b05U,
  0x3d2aa045b988cec6U, 0x3d31d7aa3da54e45U, 0x3c07ec7b3d92835eU, 0x3d0ab90abd24f5ceU,
  0x3cf09188bc6dac26U, 0x3d579abd3d8ea8f9U, 0x3d86259fbd339fe3U, 0x3dbea3503d4763efU,
  0xbc9387fb3d2119a9U, 0x3ce9e9653a7a7bc2U, 0x3d44b2fb3d00489bU, 0x3d6eae97bdb839dcU,
  0x3d05b0a73c2fa5deU, 0x3dae69d6bdb62513U, 0x3db2cce53db9a8fdU, 0x3dbb8b3b3da1a039U,
  0x3d8848593d8347aaU, 0x3c8c355dbc59a49eU, 0x3ca266dbbd4cba70U, 0xbdc42699bd1d5deaU,
  0x3cc583f33c0ea410U, 0x3d975d12bcaea9f0U, 0xbdc1d95abd03ea40U, 0x3c5ccdd83d5757bbU,
  0x3c7edcaf3dbc2747U, 0xbdb2323cbba8af68U, 0x3dbbb39f3ca22c27U, 0xbd3cb4babc7e11cdU,
  0xbd01ec06bc90f469U, 0xbd65ec7c3daf1a9cU, 0xbcfed2b2bbcc6184U, 0x3cf97c933d015137U,
  0xbd9fa49abdb3d979U, 0xbd635fe13ca866cfU, 0xbdb5434bbb62c8f3U, 0x3cf801f43da6afbdU,
  0x3cb30b54bc65d943U, 0xbd04a19a3d717fc1U, 0xbd4f5a213ce1be0aU, 0xbd3f187abdc0a0b1U,
  0x3d2f79a43cc1230cU, 0xbd7172b3bdc6d369U, 0x3dacf0d43db02754U, 0x3d69dbfabda953f5U,
  0x3d6d51f23d1bad40U, 0xbd755efcbd8d45d4U, 0xbd57166b3dc9d897U, 0x3d5ef1243d11eea4U,
  0x3d72c9f2bcfbff00U, 0xbd9b7bbe3d34fac6U, 0x3d3dc9fe3ce315e0U, 0xbd8292a53d536dfeU,
  0xbc0e4a183d468b96U, 0xbba635f03d9a749dU, 0xbd9cd761bd5863adU, 0xbda75e67bd876182U,
  0x3c3385d8bdc2f5ecU, 0x3b8869d0bc544468U, 0xbc5f37103c8a3c28U, 0xbc01bf283c8f5400U,
  0xbd276f66bd3cce84U, 0x3cdf7cb8bdaf2033U, 0xbd26f0123d3f42aaU, 0x3db67403bc172fb8U,
  0xbd3bf6c1bda413eaU, 0xbd9ab01e3db2721bU, 0x3daad9adbd513726U, 0x3d4bb4b6bdbd15ddU,
  0xbdc231dabd31b64aU, 0x3d1c7d16bd8953b6U, 0x3dc22aa3bdc284dcU, 0x3d20bf2a3ced30f4U,
  0xbdb360723c6f5120U, 0xbdb82270bba91080U, 0xbda257273da239bfU, 0xbdc113d03d680c7aU,
  0xbd32249c3d112142U, 0x3d6345da3d98b84fU, 0xbc342640bdc01fcfU, 0xbd934e923d3b527aU,
  0xbdaf3aa63cc36448U, 0x3c5cbf08bb4ffc00U, 0x3d95c5753db7f269U, 0xbd8566673db76f4dU,
  0xbc8923903d9a9047U, 0x3d689642bdc3c84eU, 0xbd2d803bbb7ed0e0U, 0xbd217f05bd59e425U,
  0xbd3e9341bd4c050eU, 0x3d65a1b6bd4bb633U, 0x3db38e153b83a6d0U, 0xbd9151003d5b0342U,
  0xbc9ea5b4bcd74868U, 0xbd04abb63d19d4ceU, 0xbdb02d4bbd646558U, 0xbdafdc92bdc37273U,
  0xbd5599b6bd2238c2U, 0xbcc15b44bd69979cU, 0x3c850c7c3c08ac60U, 0x3db5749bbbeb27c0U,
  0xbdb1348abd475732U, 0xbd26a239bc7d67f0U, 0x3d8ae85f3c56ecb8U, 0xbd31e315bd0b8698U,
  0xbd6dc828bd0a0d20U, 0x3c7c7ff03d800a13U, 0xbbfc9050bbb7cea0U, 0xbc9abc94bdae5546U,
  0xbcc76d983d8220adU, 0x3d22201e3cc61ea4U, 0xbc22f4d8bd824084U, 0x3ca05130bd06ad68U,
  0xbc2a6bc03d79ef46U, 0xbd9e0f483d84423fU, 0xbd49b032bdbd160fU, 0xbdc4155c3cb6acfcU,
  0x3dbd959d3c22ac60U, 0xbc2ccc783db580d7U, 0x3cc435003d68af52U, 0xbd76f2c0bd676281U,
  0x3d9b076f3cbc14fcU, 0xbd99dc073d63ecdaU, 0x3d36ee5a3d0f1be6U, 0xbb6ca3003cc382ecU,
  0xbd6ca01f3ce397d4U, 0xbdaf72a1bd7f51aeU, 0xbd28d48a3d201446U, 0x3ce06c9c3bf40df0U,
  0xbce0cce03ce764acU, 0xbd0e47bbbdbb795cU, 0x3d1949babd983b6cU, 0xbd85abacbd7aa5b9U,
  0xbd962f173d79202eU, 0x3c0f2220bd73e5c9U, 0x3d4c991abd72bcb1U, 0x3ada69c0bd7fb5bbU,
  0x3d8ec9273d9077f1U, 0xbccd6e10bce04140U, 0x3d421ef638cae400U, 0x3dbaba1fbdc28420U,
  0xbdba256fbcb19c1cU, 0xbd0fff5cbdb1af7bU, 0x3d7534fe3c05e6d0U, 0x3c5c0bb03cb6e920U,
  0x3cc59a483d6fa416U, 0x3d0ab086bd7de6ddU, 0xbb1363c0bd97c6e1U, 0x3a8a56c03d8994a1U,
  0xbd630bdf3d9f9791U, 0x3d2d9726bd71ceaeU, 0xbc97c20cbc08c898U, 0x3d50c7b2bdb640f3U,
  0xbd71009d3d1fda2eU, 0xbcaaac18bdad3d39U, 0xbcf31fa83db2446fU, 0x3d38b172bd22f730U,
  0xbba178793c5614a8U, 0x3db26760bdc14baaU, 0x3c8db0af3d8a4a43U, 0xbca09fd83d2ed69aU,
  0x3d144916bd349836U, 0x3d23ea7abdafc99eU, 0x3cc4e30cbd8ef6e8U, 0x3d0e7122bd6d5ddfU,
  0xbcef94cabd263a35U, 0xbbe40d973daab7aeU, 0x3cb5d865bda2baccU, 0xbd97249dbdb66a13U,
  0x3db5ffff3d4dab98U, 0xbc05a2e6bdc1daecU, 0xbd26efdb3da447b5U, 0xbd2ac1b7bc151540U,
  0x3d60e0cfbd81eaa6U, 0xbd6ffc64bdaf89faU, 0x3d95ee08bdc331d4U, 0xbd54ef7f3d2dd9ecU,
  0x3dbb909a3dcf4722U, 0xbd9f190cbdac181fU, 0x3a955060bda85d7bU, 0x3d112066bc994377U,
  0x3d0eac17bd6481daU, 0xbbb9ba823d9fe2a5U, 0xbc550f803da133aaU, 0xbd8ab0b2bdc0e83cU,
  0x3d1fd671bda8596dU, 0xbd650a15bda0d24bU, 0x3c5063dcbd37dbf9U, 0xbd9270073cd94440U,
  0xbc9c6d36bd987373U, 0x3d95d0cebc3f2ec8U, 0x3c2b2496bd0e426bU, 0xbd4638833ce87fb3U,
  0xbc0ba2633dc354dbU, 0xbd95a1bcbc2260b4U, 0x3b9820d5bdba4960U, 0xbdb71ad43c8e1550U,
  0xbd6b20dc3d2cfdd8U, 0xbc43803c3d8f88f7U, 0xbd4e06413d27ced1U, 0xbcd8859fbbeb8ed3U,
  0x3cbadeedbc0015b8U, 0x3d85e7693da7b94bU, 0x3d104e153d6bab40U, 0xbd348fa23c26ab1bU,
  0x3cfd7dbd3cba10d0U, 0xbd86c8afbd4fd3d3U, 0xbceb6de83d02efc0U, 0x3d22e552bc65dc20U,
  0xbdb50dd53d869c45U, 0xbd205d573c979083U, 0x3ca1f0a63d5acb79U, 0x3dc4aed63dac603eU,
  0xbd58f9df3d1d6689U, 0xbd882acfbd993c9eU, 0xbd87c89c3d312dd7U, 0x3d0c783abdc62076U,
  0x3d8090fe3d3ef0ecU, 0xbca3077c3c31c081U, 0x3bbd4e52bdc19c01U, 0xbdb8648b3cb59f90U,
  0x3d241ba83d960bacU, 0xbc2d57203d2cdaf4U, 0xbd339a773bb445aeU, 0xbcc13f86bdc5f6aaU,
  0xbdae51e5bd8a807fU, 0x3d3fc8b8bd63cc85U, 0x3cb7b27ebd0ac0b8U, 0x3cabcdf0bdb39351U,
  0x3d812fe33d94e145U, 0xbd7ae58ebd96f94aU, 0x3d98be4abd5d4d44U, 0x3dc3298f3d06ae01U,
  0x3daa1dfcbdab6aeeU, 0x3dbbfeda3d9f39fdU, 0x3cca782fbcdefe4aU, 0x3d1922a63d9c0fe8U,
  0x3cda31c2bd714356U, 0xbc27651f3d9941a7U, 0x3dc0253ebbeaf373U, 0xbc344f5ebbdc05a8U,
  0x3d04238e3c86a73eU, 0xbd6b6eacbc02f337U, 0x3d6577a23c9d5a4bU, 0xbd9c0ad13c41a778U,
  0x3d77ba573d9e9c2dU, 0x3ccb9eeebc0b197bU, 0x3d8b6049bdcaedc8U, 0x3d25267e39e91885U,
  0xbb828b5e3d8fd8aeU, 0x3cc0f007bc9674bdU, 0xbcccab433d93ecdeU, 0x3b8f2eebbdb91916U,
  0x3d0c3eae3d21e796U, 0x3d942906bdc47880U, 0x3cb6fd693cb4c3aeU, 0xbcd7ec0c3d8d2d3bU,
  0x3cd81c6f3d297dbfU, 0x3d4b1d763d40d574U, 0x3cd8443fbd5a65f2U, 0xbdb864afbd0bfd9cU,
  0xbc9d50a5bda1b2d4U, 0xbce8a73439d3846bU, 0xbce33e9f3c663cb5U, 0x3d0999e13c7f7cebU,
  0x3cb8d499bd3a1ec6U, 0x3d2ed8adbd69a623U, 0x3d87f946ba23e63aU, 0xbcf281503cabcfb4U,
  0x3d85a7d9bdc01d53U, 0x3c5f98053ca4d222U, 0x3caeea06bdb56a0cU, 0xbc59034fbd595a23U,
  0x3a6ee21cbd7ab100U, 0xbd69e1a53d635c9eU, 0xbcd39640baf850ccU, 0x3cc207f2bd7ce42fU,
  0x3d1215cc3d9ef185U, 0x3d8c798b3dc2f71dU, 0x3cc015b7bc14869fU, 0xbd06aec8bd8bdcf1U,
  0x3d9a0279bd737199U, 0xbd12c6a73d909975U, 0xbd2d3b1b3dae0220U, 0x3d3dfa64bd897afeU,
  0x3a9a5bbebda287b2U, 0x3cdd2a85bd9cefedU, 0x3cdd5932bc241b23U, 0x3cadac58bd0b49ffU,
  0x3c437603bd8db5cdU, 0x3da7a996bd999895U, 0xbc9d4d9e3b6cff1eU, 0x3cccc9c4bda5eaf9U,
  0xbbb96e813c866597U, 0xbcbaa47a3d32f798U, 0xbd199a02bd646c1aU, 0xbc19c6383b60e3abU,
  0x3dc982133da843e2U, 0x3ca60bc03c93d9b8U, 0xbd3e76423dbd8263U, 0xbd4b93f5bc8196aaU,
  0xbd9b817c3d19e1b4U, 0x3daa46083da6829eU, 0xbdb9bc3bbdc0e119U, 0x3d92e88fbd6ffe89U,
  0x3ca163ba3d4089afU, 0xbd23221f3d7f67ceU, 0xbb9a909cbc72b0acU, 0xbdc67b6f3d7b65c2U,
  0xbd9fc8f23d3c822bU, 0xbd23ec63bb38e393U, 0x3d9dabaa3d28475eU, 0xbd223df23d601205U,
  0x3c9d256a3da79dd7U, 0xbd3199d7bd7ced68U, 0xbd27ed8d3c7a0bc9U, 0xbdb10ce2bc0a3998U,
  0x3d83bbfa3c519a06U, 0x3ce04eeb3d24cdbfU, 0x3dbf65033c5debacU, 0x3db55223bc8744e3U,
  0x3d0e70ff3c1ec6a0U, 0x3da5f447bd81a09bU, 0xbd8f427bbb5192cdU, 0xbd864c58bd1b5da6U,
